<unk>	0
<s>	0
</s>	0
..	-0
영화	-1
▁영화	-2
▁이	-3
▁아	-4
...	-5
▁그	-6
▁보	-7
▁재	-8
ᄏᄏ	-9
니다	-10
▁정	-11
▁나	-12
는데	-13
너무	-14
▁다	-15
▁하	-16
▁좋	-17
▁없	-18
▁너무	-19
▁어	-20
▁사	-21
▁진	-22
▁내	-23
▁감	-24
▁연	-25
▁있	-26
▁재미	-27
▁지	-28
!!	-29
으로	-30
지만	-31
하고	-32
▁한	-33
▁시	-34
네요	-35
▁안	-36
▁최	-37
▁정말	-38
▁1	-39
▁스	-40
▁만	-41
▁가	-42
에서	-43
....	-44
▁재밌	-45
▁기	-46
▁봤	-47
▁평	-48
▁대	-49
▁전	-50
▁진짜	-51
▁연기	-52
▁마	-53
하는	-54
▁무	-55
▁모	-56
▁수	-57
▁여	-58
▁생	-59
▁잘	-60
▁주	-61
어요	-62
▁않	-63
▁더	-64
▁최고	-65
▁평점	-66
드라	-67
토리	-68
▁오	-69
▁개	-70
이다	-71
습니다	-72
▁제	-73
▁인	-74
▁이런	-75
하다	-76
▁배	-77
▁말	-78
드라마	-79
▁생각	-80
▁왜	-81
▁자	-82
▁ᄏᄏ	-83
들이	-84
▁같	-85
▁못	-86
▁스토리	-87
▁소	-88
▁남	-89
까지	-90
▁느	-91
▁본	-92
▁알	-93
▁미	-94
▁유	-95
▁볼	-96
하게	-97
▁보고	-98
▁감동	-99
▁일	-100
이라	-101
▁비	-102
▁것	-103
보다	-104
▁장	-105
었다	-106
▁별	-107
▁우	-108
▁드라마	-109
▁쓰	-110
▁많	-111
▁지루	-112
▁작	-113
▁중	-114
▁공	-115
▁그냥	-116
▁부	-117
▁아니	-118
▁배우	-119
▁사람	-120
▁2	-121
해서	-122
~~	-123
▁조	-124
면서	-125
▁내용	-126
▁재미있	-127
▁뭐	-128
레기	-129
ᅲᅲ	-130
▁역	-131
▁만들	-132
▁감독	-133
▁10	-134
▁완	-135
▁끝	-136
▁저	-137
▁애	-138
적인	-139
▁좀	-140
렇게	-141
다는	-142
▁고	-143
리고	-144
▁해	-145
▁사랑	-146
▁되	-147
▁재미없	-148
▁참	-149
▁명	-150
▁영화를	-151
▁반	-152
▁보는	-153
▁쓰레기	-154
;;	-155
▁영	-156
▁웃	-157
▁결	-158
▁예	-159
보고	-160
^^	-161
▁다시	-162
▁봐	-163
액션	-164
지막	-165
▁상	-166
▁거	-167
??	-168
라고	-169
▁좋아	-170
▁싶	-171
▁시간	-172
으면	-173
▁실	-174
▁매	-175
▁신	-176
▁눈	-177
▁좋은	-178
▁처	-179
▁바	-180
입니다	-181
▁이거	-182
들의	-183
▁영화는	-184
▁영화가	-185
▁작품	-186
▁노	-187
▁봤는데	-188
▁불	-189
하지	-190
▁없는	-191
▁살	-192
▁이건	-193
▁원	-194
▁기대	-195
인공	-196
▁내가	-197
지는	-198
▁마지막	-199
▁난	-200
▁좋았	-201
다가	-202
ᄏᄏᄏᄏ	-203
▁최고의	-204
▁액션	-205
▁완전	-206
▁있는	-207
▁3	-208
▁하나	-209
다고	-210
▁코	-211
!!!	-212
▁할	-213
▁넘	-214
야기	-215
▁의	-216
▁성	-217
ᄒᄒ	-218
▁처음	-219
▁도	-220
▁때	-221
어서	-222
없는	-223
▁죽	-224
적이	-225
▁한국	-226
같은	-227
▁후	-228
▁지금	-229
▁추	-230
▁없다	-231
세요	-232
▁몰	-233
했다	-234
▁나오	-235
▁하는	-236
들은	-237
▁현	-238
인데	-239
▁괜	-240
,,	-241
▁이렇게	-242
▁이게	-243
에게	-244
▁김	-245
▁극	-246
▁모르	-247
▁최악	-248
합니다	-249
▁세	-250
라는	-251
▁또	-252
ᅳᅳ	-253
적으로	-254
부터	-255
대로	-256
▁이해	-257
▁강	-258
▁허	-259
▁멋	-260
겠다	-261
이나	-262
▁연출	-263
▁관	-264
▁초	-265
연기	-266
▁분	-267
▁아깝	-268
▁짜	-269
있는	-270
▁위	-271
▁돈	-272
▁두	-273
▁느낌	-274
▁별로	-275
▁동	-276
▁심	-277
▁화	-278
한다	-279
▁이야기	-280
▁구	-281
▁따	-282
▁역시	-283
▁명작	-284
▁우리	-285
▁평점이	-286
▁로	-287
▁기억	-288
▁했	-289
▁뭔	-290
▁재밌게	-291
▁잼	-292
▁음	-293
▁캐	-294
되는	-295
▁많이	-296
OO	-297
▁당	-298
정도	-299
▁괜찮	-300
▁들	-301
▁아이	-302
▁그래	-303
▁장면	-304
지도	-305
배우	-306
주는	-307
▁이영화	-308
▁여자	-309
문에	-310
▁엄	-311
▁아름	-312
▁만든	-313
▁요	-314
▁그리고	-315
▁잔	-316
▁에	-317
리는	-318
▁발	-319
▁그런	-320
▁아까	-321
▁차	-322
ᄏᄏᄏ	-323
▁와	-324
▁보여	-325
▁막	-326
▁꼭	-327
재미	-328
▁주인공	-329
사람	-330
았다	-331
드는	-332
▁아닌	-333
▁슬	-334
▁공포	-335
▁단	-336
▁포	-337
것도	-338
▁특	-339
▁같은	-340
▁귀	-341
필요	-342
▁마음	-343
만에	-344
▁울	-345
▁일본	-346
진짜	-347
▁박	-348
!!!!	-349
▁설	-350
▁졸	-351
▁유치	-352
을까	-353
하나	-354
가는	-355
아서	-356
▁표	-357
▁무슨	-358
▁없고	-359
▁줄	-360
▁아무	-361
▁힘	-362
▁존	-363
▁현실	-364
▁ᅲᅲ	-365
▁볼만	-366
없이	-367
""	-368
▁점	-369
▁망	-370
▁결말	-371
었는데	-372
였다	-373
인가	-374
▁이상	-375
하기	-376
▁ᄏᄏᄏ	-377
▁서	-378
▁소재	-379
시간	-380
▁몰입	-381
▁흥	-382
▁보면	-383
▁다른	-384
하면	-385
▁가장	-386
▁보기	-387
나는	-388
없다	-389
▁누	-390
니까	-391
▁과	-392
▁매력	-393
▁반전	-394
▁속	-395
▁남자	-396
구나	-397
▁절	-398
▁리	-399
▁뻔	-400
▁짜증	-401
▁가슴	-402
하지만	-403
보는	-404
▁걸	-405
▁선	-406
▁짱	-407
▁눈물	-408
▁얼	-409
▁영화다	-410
▁낮	-411
▁애니	-412
▁아깝다	-413
▁..	-414
▁솔	-415
▁스릴	-416
▁맞	-417
▁말이	-418
▁OO	-419
미디	-420
▁.	-421
인지	-422
이고	-423
▁빠	-424
▁대한	-425
스럽	-426
▁계	-427
▁높	-428
는다	-429
▁긴	-430
▁충	-431
▁20	-432
▁인생	-433
▁원작	-434
▁정도	-435
▁인간	-436
▁억	-437
릭터	-438
재밌	-439
봐도	-440
▁방	-441
▁있다	-442
는지	-443
▁드	-444
▁ᄒᄒ	-445
▁만들어	-446
▁영상	-447
아요	-448
었던	-449
더라	-450
▁전개	-451
에는	-452
▁몇	-453
ᅮᅮ	-454
리즈	-455
▁ᄏ	-456
려고	-457
▁솔직	-458
▁극장	-459
▁많은	-460
▁음악	-461
스러	-462
지마	-463
지않	-464
▁집	-465
지고	-466
나서	-467
▁게	-468
▁돌	-469
▁적	-470
▁건	-471
▁'	-472
▁머	-473
▁모든	-474
▁필요	-475
▁한번	-476
▁4	-477
처럼	-478
▁간	-479
▁듯	-480
▁아름다	-481
▁9	-482
▁아직	-483
▁끝까지	-484
▁ᄏᄏᄏᄏ	-485
▁피	-486
정말	-487
▁새	-488
▁순	-489
메이	-490
▁수준	-491
▁ᅳᅳ	-492
▁문	-493
점이	-494
▁8	-495
다니	-496
▁억지	-497
▁근	-498
었음	-499
나오	-500
밖에	-501
▁욕	-502
▁찾	-503
들을	-504
▁이제	-505
▁하지만	-506
된다	-507
▁하고	-508
▁외	-509
▁올	-510
▁봐도	-511
▁행	-512
▁프	-513
▁솔직히	-514
▁받	-515
▁편	-516
▁파	-517
떨어	-518
중에	-519
▁모두	-520
▁언	-521
스터	-522
▁실망	-523
▁엄청	-524
떻게	-525
▁뭔가	-526
▁열	-527
▁전혀	-528
▁추천	-529
나라	-530
▁7	-531
▁경	-532
▁찍	-533
▁재밋	-534
▁...	-535
▁캐릭터	-536
▁5	-537
기도	-538
했던	-539
▁연기력	-540
▁코미디	-541
▁딱	-542
▁아주	-543
▁여운	-544
이는	-545
타임	-546
▁긴장	-547
주고	-548
▁호	-549
▁봤다	-550
을때	-551
준다	-552
장면	-553
▁같다	-554
▁갈	-555
▁공감	-556
.....	-557
▁좋다	-558
▁독	-559
리가	-560
▁출	-561
▁치	-562
주인공	-563
는거	-564
에도	-565
▁약	-566
▁개봉	-567
▁먹	-568
스트	-569
▁놀	-570
감독	-571
건지	-572
▁버	-573
▁답	-574
때문에	-575
이랑	-576
▁대단	-577
▁배우들	-578
▁계속	-579
▁영화의	-580
이지	-581
만들	-582
수록	-583
친구	-584
▁달	-585
▁가족	-586
▁나온	-587
........	-588
▁이걸	-589
했는데	-590
▁엉	-591
생각	-592
▁대박	-593
▁어떻게	-594
▁모습	-595
▁영화에	-596
▁최악의	-597
▁굿	-598
이가	-599
▁0	-600
▁믿	-601
▁크	-602
▁내내	-603
▁교	-604
▁표현	-605
영화는	-606
▁재미있게	-607
라도	-608
이라는	-609
▁손	-610
▁흥미	-611
▁등	-612
▁함	-613
없고	-614
▁대사	-615
▁아니라	-616
기는	-617
▁야	-618
점도	-619
▁않고	-620
수가	-621
▁잔잔	-622
▁즐	-623
어야	-624
▁레	-625
▁질	-626
10	-627
▁그래도	-628
▁내용이	-629
엔딩	-630
하네요	-631
▁제목	-632
었어요	-633
아니	-634
던데	-635
▁악	-636
▁싸	-637
스토리	-638
있다	-639
하네	-640
▁어디	-641
▁나오는	-642
내내	-643
내용	-644
봤는데	-645
▁연기가	-646
▁삶	-647
라리	-648
▁기분	-649
▁그렇	-650
▁베	-651
▁카	-652
▁아쉽	-653
▁조금	-654
▁떨어	-655
▁아니다	-656
▁느껴	-657
▁진심	-658
▁재밌다	-659
▁담	-660
어도	-661
최고	-662
한테	-663
▁않은	-664
전에	-665
~~~	-666
▁보다	-667
기에	-668
▁-	-669
▁물	-670
영화가	-671
리오	-672
▁잠	-673
▁시리즈	-674
▁긴장감	-675
보면	-676
▁연기도	-677
성이	-678
하면서	-679
해요	-680
▁만드는	-681
▁잊	-682
▁아쉬	-683
들도	-684
이라고	-685
▁요즘	-686
▁자체	-687
▁스릴러	-688
▁메	-689
리스	-690
▁막장	-691
▁떠	-692
만큼	-693
▁봐야	-694
▁개인	-695
▁아름다운	-696
▁오랜	-697
대체	-698
▁근데	-699
같다	-700
으나	-701
▁천	-702
▁제일	-703
▁제대로	-704
▁네	-705
훌륭	-706
이란	-707
인듯	-708
▁앞	-709
▁나름	-710
▁목	-711
▁부족	-712
▁나왔	-713
▁홍	-714
▁중간	-715
▁재미도	-716
▁제작	-717
▁내용도	-718
▁보다가	-719
이상	-720
▁알바	-721
기가	-722
▁노래	-723
만한	-724
▁않는	-725
▁정신	-726
▁날	-727
난다	-728
▁나는	-729
년대	-730
▁아까운	-731
▁아니고	-732
▁데	-733
치는	-734
▁웃기	-735
▁어설	-736
▁형	-737
▁감독이	-738
▁미국	-739
▁이유	-740
▁디	-741
▁스토리가	-742
▁잼있	-743
▁시작	-744
▁각	-745
▁타	-746
▁때문에	-747
싶다	-748
▁왜이	-749
▁된	-750
거리	-751
▁복	-752
▁훌륭	-753
ᄏᄏᄏᄏᄏᄏᄏᄏ	-754
▁싶다	-755
▁영화라고	-756
▁재미없다	-757
▁시간이	-758
▁삼	-759
할수	-760
해도	-761
▁국	-762
▁뒤	-763
▁킬	-764
라이	-765
점은	-766
진다	-767
▁그러	-768
▁따뜻	-769
▁의미	-770
▁될	-771
나고	-772
▁통	-773
에요	-774
▁나와	-775
▁남는	-776
▁살아	-777
▁너무나	-778
▁영화로	-779
▁보게	-780
▁싶은	-781
▁출연	-782
▁로맨	-783
영화를	-784
감동	-785
군요	-786
▁뻔한	-787
더니	-788
마다	-789
나리오	-790
▁케	-791
▁느끼	-792
았는데	-793
▁차라리	-794
적이고	-795
▁감정	-796
이네	-797
▁모르겠	-798
기를	-799
▁절대	-800
하는데	-801
▁티	-802
▁아직도	-803
스팅	-804
▁세상	-805
▁스토리도	-806
▁6	-807
▁뭘	-808
나요	-809
▁어린	-810
▁작가	-811
▁특히	-812
▁무서	-813
▁산	-814
▁무엇	-815
▁신선	-816
▁싫	-817
스러운	-818
소리	-819
▁영화입니다	-820
▁보면서	-821
로운	-822
▁주는	-823
▁여운이	-824
▁""	-825
▁그저	-826
▁수작	-827
학교	-828
으로도	-829
▁나도	-830
▁무섭	-831
▁영화였	-832
▁글	-833
▁안되	-834
었습니다	-835
▁감독의	-836
사랑	-837
▁^^	-838
▁되는	-839
▁친구	-840
▁좋고	-841
이런	-842
▁얼마	-843
▁판	-844
▁도대체	-845
▁괜찮은	-846
▁사실	-847
▁C	-848
▁행복	-849
▁황	-850
▁장난	-851
▁ᅲ	-852
▁어이	-853
▁옛	-854
▁훨	-855
없음	-856
▁부분	-857
▁변	-858
해야	-859
▁희	-860
이야	-861
▁멋진	-862
점을	-863
▁만화	-864
메이션	-865
▁걍	-866
▁깊	-867
▁관객	-868
▁점수	-869
▁갑	-870
▁용	-871
지가	-872
▁시청	-873
▁언제	-874
▁자신	-875
▁좋아하는	-876
▁이해가	-877
▁우리나라	-878
싶은	-879
▁답답	-880
나게	-881
▁좋았다	-882
이네요	-883
▁빼	-884
▁첨	-885
▁확	-886
???	-887
▁오랜만에	-888
▁B	-889
▁빨	-890
▁봤던	-891
▁없음	-892
▁전쟁	-893
한데	-894
▁재밌어요	-895
▁토	-896
▁인상	-897
▁니	-898
;;;	-899
▁시나리오	-900
▁초반	-901
_-	-902
▁어색	-903
▁깨	-904
▁입	-905
인이	-906
▁허접	-907
성도	-908
▁봤습니다	-909
것이	-910
▁양	-911
▁마지막에	-912
치고	-913
▁소름	-914
▁재미가	-915
ᄃᄃ	-916
▁생각이	-917
▁청	-918
▁배우들의	-919
한거	-920
▁분위	-921
▁힘들	-922
▁준	-923
▁슬프	-924
▁완벽	-925
▁추억	-926
▁킬링	-927
▁길	-928
▁결국	-929
부분	-930
▁둘	-931
▁시대	-932
ᄍᄍ	-933
디오	-934
▁총	-935
동안	-936
▁궁	-937
▁낚	-938
▁영화관	-939
▁지루하고	-940
아깝	-941
▁배경	-942
이지만	-943
▁다큐	-944
▁안타	-945
▁엔딩	-946
▁오늘	-947
▁뛰	-948
▁잡	-949
구만	-950
,,,	-951
▁어떤	-952
▁귀여	-953
▁종	-954
놓고	-955
▁없이	-956
▁들어	-957
▁흐	-958
▁함께	-959
들에게	-960
▁헐	-961
점대	-962
아까	-963
▁어릴	-964
▁이딴	-965
▁환	-966
▁지루한	-967
▁큰	-968
리지	-969
▁못한	-970
▁문제	-971
다면	-972
▁최고다	-973
▁스타	-974
▁역사	-975
▁아름답	-976
▁t	-977
▁범	-978
▁임	-979
▁당시	-980
▁보는내내	-981
을듯	-982
▁태	-983
▁개인적으로	-984
▁유쾌	-985
▁식	-986
▁졸작	-987
▁왠	-988
▁OOO	-989
▁클	-990
▁팬	-991
▁지루함	-992
▁만들었	-993
▁있었	-994
▁진부	-995
좋아	-996
▁혼	-997
▁찾아	-998
▁"	-999
▁러	-1000
▁뿐	-1001
럽게	-1002
▁암	-1003
~!	-1004
▁강추	-1005
▁아무리	-1006
나마	-1007
▁예술	-1008
는게	-1009
▁영화도	-1010
건가	-1011
그냥	-1012
보니	-1013
▁코믹	-1014
보단	-1015
▁연기는	-1016
평점	-1017
▁애니메이션	-1018
그래	-1019
▁진정	-1020
▁그렇게	-1021
▁개연	-1022
▁주연	-1023
▁보세요	-1024
텐데	-1025
하시	-1026
▁공포영화	-1027
▁맘	-1028
▁돌아	-1029
▁얼마나	-1030
▁책	-1031
구요	-1032
▁오래	-1033
▁포스터	-1034
▁민	-1035
주의	-1036
▁웃음	-1037
▁킬링타임	-1038
▁꿈	-1039
▁재밌는	-1040
낭비	-1041
▁몸	-1042
레이	-1043
▁설정	-1044
▁기억에	-1045
▁캐스팅	-1046
▁영화라	-1047
▁후회	-1048
▁사람이	-1049
쓰레기	-1050
있고	-1051
▁폭	-1052
지루	-1053
작품	-1054
▁몰입도	-1055
▁제발	-1056
▁백	-1057
▁더빙	-1058
하며	-1059
▁얘	-1060
들과	-1061
▁보지	-1062
▁충격	-1063
▁안되는	-1064
▁주제	-1065
▁지루하다	-1066
▁ᄒ	-1067
▁옛날	-1068
▁충분	-1069
▁브	-1070
▁여러	-1071
▁지나	-1072
▁낫	-1073
한영화	-1074
마디	-1075
▁알고	-1076
▁패	-1077
길래	-1078
▁한국영화	-1079
당히	-1080
▁엄마	-1081
00	-1082
만든	-1083
▁T	-1084
이버	-1085
▁않았	-1086
가지	-1087
▁궁금	-1088
▁극장에서	-1089
같이	-1090
~~~~	-1091
st	-1092
했음	-1093
려는	-1094
▁주고	-1095
▁꽤	-1096
▁것이	-1097
학생	-1098
▁같이	-1099
▁어느	-1100
▁하나도	-1101
▁병	-1102
인줄	-1103
▁집중	-1104
▁있고	-1105
▁매우	-1106
▁모르겠다	-1107
▁채	-1108
▁보지마	-1109
▁터	-1110
자기	-1111
▁미친	-1112
▁군	-1113
▁먼	-1114
렸다	-1115
▁색	-1116
말이	-1117
▁잔인	-1118
▁괴	-1119
시길	-1120
▁커	-1121
▁뛰어	-1122
▁중국	-1123
▁느낌이	-1124
▁빠져	-1125
버린	-1126
르는	-1127
▁여기	-1128
▁한다	-1129
▁봤어요	-1130
▁흘	-1131
웠다	-1132
것같	-1133
▁ᅮᅮ	-1134
▁상상	-1135
▁순수	-1136
▁은	-1137
▁불쌍	-1138
▁영화중	-1139
▁따라	-1140
▁말도	-1141
▁좋아요	-1142
▁투	-1143
력이	-1144
▁감동적이	-1145
▁탄	-1146
거지	-1147
▁이름	-1148
▁풀	-1149
야지	-1150
▁광	-1151
▁후반	-1152
▁나올	-1153
▁하지	-1154
좋은	-1155
성을	-1156
▁비슷	-1157
편이	-1158
이야기	-1159
했지만	-1160
▁영화네요	-1161
▁엉성	-1162
▁끌	-1163
꿀잼	-1164
함을	-1165
▁블	-1166
▁첫	-1167
전개	-1168
▁이쁘	-1169
......	-1170
▁돋	-1171
▁눈물이	-1172
수있	-1173
▁걸작	-1174
▁위해	-1175
▁마음이	-1176
▁않는다	-1177
▁너	-1178
자체	-1179
▁약간	-1180
▁재밌음	-1181
▁그만	-1182
▁대체	-1183
기만	-1184
굉장	-1185
봤다	-1186
▁여주인공	-1187
▁숨	-1188
▁얼굴	-1189
▁위한	-1190
▁사람들	-1191
▁영상미	-1192
▁번	-1193
자가	-1194
워서	-1195
▁프로	-1196
▁감동도	-1197
▁훨씬	-1198
▁없었다	-1199
해지는	-1200
▁,	-1201
이라도	-1202
가서	-1203
듯한	-1204
▁갈수록	-1205
▁똥	-1206
▁읽	-1207
▁똑	-1208
이었다	-1209
▁o	-1210
것을	-1211
▁감사	-1212
▁이정도	-1213
이거	-1214
▁비교	-1215
▁실화	-1216
▁히	-1217
라서	-1218
리를	-1219
으니	-1220
▁그나마	-1221
▁내용은	-1222
▁키	-1223
▁왕	-1224
그리고	-1225
▁로맨스	-1226
▁누가	-1227
▁가슴이	-1228
▁철	-1229
▁굉장	-1230
느낌	-1231
시절	-1232
▁전체	-1233
▁연기를	-1234
대한	-1235
겠지만	-1236
▁벌	-1237
▁취	-1238
멜로	-1239
함이	-1240
재밋	-1241
▁19	-1242
▁단순	-1243
▁S	-1244
▁CG	-1245
▁!	-1246
▁그래서	-1247
♥♥	-1248
▁죄	-1249
라면	-1250
인생	-1251
▁기억이	-1252
노잼	-1253
보게	-1254
▁것을	-1255
▁굳	-1256
시키	-1257
▁알았	-1258
▁존나	-1259
▁보여주는	-1260
▁있을	-1261
▁장르	-1262
▁맛	-1263
▁감동이	-1264
▁흔	-1265
겠지	-1266
년도	-1267
타지	-1268
▁비디오	-1269
▁갖	-1270
▁어렸	-1271
▁초딩	-1272
▁네이버	-1273
보기	-1274
지지	-1275
▁오글	-1276
▁밖에	-1277
▁상황	-1278
▁발연기	-1279
▁어설픈	-1280
아이	-1281
린다	-1282
수준	-1283
이건	-1284
한번	-1285
재미있	-1286
년이	-1287
▁없어	-1288
▁200	-1289
▁것도	-1290
▁느낄	-1291
▁티비	-1292
▁재밌고	-1293
▁화려	-1294
스럽다	-1295
▁인물	-1296
▁c	-1297
▁사람들이	-1298
▁한마디	-1299
든다	-1300
나온	-1301
▁다음	-1302
이라면	-1303
려서	-1304
머니	-1305
▁100	-1306
▁s	-1307
말고	-1308
▁대해	-1309
▁바로	-1310
연히	-1311
▁딸	-1312
▁시즌	-1313
▁이미	-1314
그런	-1315
버지	-1316
▁노잼	-1317
론가	-1318
▁이것	-1319
▁풍	-1320
개도	-1321
다시	-1322
▁알게	-1323
▁영화였다	-1324
▁다들	-1325
▁b	-1326
▁귀엽	-1327
편은	-1328
▁않다	-1329
으면서	-1330
▁영화관에서	-1331
었고	-1332
적이다	-1333
▁결말이	-1334
인의	-1335
짜리	-1336
▁등장	-1337
마지막	-1338
▁늘	-1339
▁트	-1340
주세요	-1341
▁같아요	-1342
▁섹	-1343
▁송	-1344
거같	-1345
완전	-1346
잖아	-1347
▁좋겠	-1348
▁테	-1349
되고	-1350
▁스토리는	-1351
감이	-1352
다른	-1353
▁독특	-1354
▁성룡	-1355
▁생각보다	-1356
▁재미없음	-1357
▁30	-1358
▁보니	-1359
▁애들	-1360
▁....	-1361
▁꼬	-1362
▁멍	-1363
정이	-1364
건데	-1365
스가	-1366
▁이후	-1367
▁평가	-1368
▁온	-1369
▁쓰레기영화	-1370
▁잘못	-1371
▁간만에	-1372
▁~	-1373
땜에	-1374
해라	-1375
▁상당히	-1376
거야	-1377
▁교훈	-1378
▁두번	-1379
▁맘에	-1380
▁사회	-1381
▁항	-1382
▁훈	-1383
▁감동적인	-1384
▁전부	-1385
영화의	-1386
▁생각을	-1387
어가	-1388
여자	-1389
정도로	-1390
▁잔잔한	-1391
▁다운	-1392
▁보았	-1393
▁아님	-1394
▁영화임	-1395
▁해서	-1396
▁으	-1397
▁틀	-1398
이팅	-1399
▁그리	-1400
▁잘봤	-1401
아깝다	-1402
▁직	-1403
▁ᄍᄍ	-1404
▁높은	-1405
▁존재	-1406
▁여배우	-1407
▁킬링타임용	-1408
분들	-1409
아닌	-1410
졌다	-1411
▁별점	-1412
스타	-1413
▁했는데	-1414
▁삼류	-1415
▁아쉽다	-1416
▁라	-1417
▁쓸	-1418
▁당신	-1419
중간	-1420
할때	-1421
▁거의	-1422
▁마이	-1423
▁그대로	-1424
▁좋은데	-1425
수를	-1426
여서	-1427
▁중간에	-1428
거나	-1429
모르	-1430
▁뭐야	-1431
▁혼자	-1432
나오는	-1433
▁휴	-1434
▁혹	-1435
워요	-1436
▁세계	-1437
▁있을까	-1438
▁어울	-1439
▁감동을	-1440
▁정도로	-1441
▁진정한	-1442
,.	-1443
▁윤	-1444
▁다르	-1445
▁배우들이	-1446
▁기다	-1447
보다는	-1448
▁재미는	-1449
oo	-1450
▁?	-1451
▁소설	-1452
간다	-1453
하자	-1454
▁봐서	-1455
▁같은데	-1456
▁있지만	-1457
er	-1458
본다	-1459
▁하다	-1460
▁굉장히	-1461
▁이영화를	-1462
어나	-1463
▁평점을	-1464
▁슬픈	-1465
에서도	-1466
▁빵	-1467
였음	-1468
▁어른	-1469
▁자기	-1470
▁저런	-1471
▁제가	-1472
▁영화인데	-1473
▁뭐지	-1474
▁허무	-1475
▁보고싶	-1476
▁구성	-1477
▁실제	-1478
▁나와서	-1479
▁재미있는	-1480
시대	-1481
▁몇번	-1482
▁자연	-1483
이게	-1484
▁각본	-1485
▁멜로	-1486
▁볼만한	-1487
댓글	-1488
▁준다	-1489
▁봤지만	-1490
들어	-1491
아야	-1492
▁예상	-1493
▁착	-1494
을텐데	-1495
▁잃	-1496
라니	-1497
▁개그	-1498
▁했다	-1499
었지만	-1500
영화다	-1501
▁권	-1502
을수	-1503
▁밑	-1504
▁압	-1505
가고	-1506
▁볼수	-1507
▁좀비	-1508
지를	-1509
▁더욱	-1510
▁낮은	-1511
에선	-1512
▁에로	-1513
▁질질	-1514
▁O	-1515
▁어쩌	-1516
▁봣	-1517
▁쳐	-1518
하냐	-1519
에서는	-1520
▁흑	-1521
▁멋있	-1522
▁방송	-1523
▁감독님	-1524
▁ᅳ	-1525
▁90	-1526
▁이번	-1527
음악	-1528
이트	-1529
▁극장판	-1530
년전	-1531
랑스	-1532
▁믿고	-1533
▁빨리	-1534
▁생각하게	-1535
▁재밌네요	-1536
▁(	-1537
▁듣	-1538
던가	-1539
다는게	-1540
▁마음에	-1541
▁빛	-1542
▁가치	-1543
▁까	-1544
▁뭐냐	-1545
▁맨	-1546
▁불편	-1547
예요	-1548
와서	-1549
▁있어서	-1550
▁장면이	-1551
저히	-1552
▁예쁘	-1553
????	-1554
▁묘	-1555
▁운	-1556
일이	-1557
▁끝나	-1558
▁재미없는	-1559
시다	-1560
▁상영	-1561
때마다	-1562
▁밀	-1563
▁봄	-1564
▁갑자기	-1565
▁시청률	-1566
▁슈	-1567
▁머리	-1568
▁멋지	-1569
▁항상	-1570
▁재미있다	-1571
▁겁	-1572
고는	-1573
기대	-1574
▁확실	-1575
!!!!!!!!	-1576
▁TV	-1577
▁뭐가	-1578
▁여주	-1579
▁있어	-1580
▁중요	-1581
▁평범	-1582
▁써	-1583
-_-	-1584
~!!	-1585
이라니	-1586
▁어디서	-1587
▁원작을	-1588
▁판타지	-1589
▁재미있어요	-1590
에겐	-1591
▁그녀	-1592
리의	-1593
인다	-1594
▁흥행	-1595
▁새로운	-1596
▁예고	-1597
▁즐거	-1598
▁해도	-1599
현실	-1600
▁탄탄	-1601
▁화면	-1602
▁자체가	-1603
▁평론가	-1604
내가	-1605
▁역대	-1606
▁있었다	-1607
▁벗	-1608
도록	-1609
▁생각해	-1610
▁훌륭한	-1611
리티	-1612
사가	-1613
▁누구	-1614
▁못하는	-1615
▁크리스	-1616
메디	-1617
▁만드	-1618
▁의도	-1619
보면서	-1620
▁너무너무	-1621
▁빈	-1622
▁나의	-1623
▁봐라	-1624
▁저는	-1625
▁필	-1626
▁봤음	-1627
▁처음부터	-1628
▁빌	-1629
러운	-1630
았음	-1631
하니	-1632
했어요	-1633
▁사람은	-1634
▁충분히	-1635
▁회	-1636
남자	-1637
속에	-1638
하지않	-1639
▁있는데	-1640
▁놓	-1641
▁향	-1642
들아	-1643
▁리얼	-1644
스럽고	-1645
▁그런지	-1646
▁영화보다	-1647
▁M	-1648
봐서	-1649
유의	-1650
▁아닐	-1651
▁가지고	-1652
▁이런영화	-1653
▁꺼	-1654
우드	-1655
▁성우	-1656
▁그러나	-1657
▁보여주	-1658
스의	-1659
▁꿀잼	-1660
▁돋보	-1661
▁전형	-1662
근데	-1663
없어	-1664
코미디	-1665
▁왔	-1666
▁흠	-1667
▁감성	-1668
▁된다	-1669
▁살인	-1670
▁대단한	-1671
▁안타깝	-1672
▁없어서	-1673
무리	-1674
이코	-1675
▁프랑스	-1676
▁능	-1677
▁비해	-1678
ᅲᅲᅲᅲ	-1679
▁주인공이	-1680
거다	-1681
진진	-1682
▁그때	-1683
▁분위기	-1684
았던	-1685
효과	-1686
▁점점	-1687
▁개연성	-1688
▁잘만들	-1689
당한	-1690
민국	-1691
했고	-1692
▁한심	-1693
영화중	-1694
▁아닌가	-1695
▁합니다	-1696
조건	-1697
▁헤	-1698
으며	-1699
▁짝	-1700
ᄋᄋ	-1701
▁맥	-1702
▁일단	-1703
▁ᄉ	-1704
▁금	-1705
▁됐	-1706
들만	-1707
시리즈	-1708
하지도	-1709
in	-1710
▁순간	-1711
지금	-1712
▁것은	-1713
▁댓글	-1714
기고	-1715
별로	-1716
웃음	-1717
일까	-1718
▁좋네요	-1719
▁검	-1720
▁급	-1721
신이	-1722
짜증	-1723
한게	-1724
립니다	-1725
▁관람	-1726
▁시절	-1727
▁쉽	-1728
▁몰랐	-1729
▁선택	-1730
▁소리	-1731
었으면	-1732
▁201	-1733
▁씨	-1734
처음	-1735
▁수가	-1736
▁식상	-1737
▁어려	-1738
▁헐리	-1739
아도	-1740
▁엉망	-1741
▁자극	-1742
만으로도	-1743
▁사람들은	-1744
되어	-1745
최악	-1746
히려	-1747
▁나이	-1748
▁없네	-1749
▁아까움	-1750
▁젊	-1751
조차	-1752
▁카메	-1753
▁이영화는	-1754
내는	-1755
봐야	-1756
사회	-1757
▁훈훈	-1758
▁엄청난	-1759
▁루	-1760
▁섬	-1761
편의	-1762
▁어쩔	-1763
▁놈	-1764
▁그림	-1765
▁하게	-1766
▁홍콩	-1767
것같다	-1768
▁어릴때	-1769
▁한마디로	-1770
애니	-1771
▁만족	-1772
▁참고	-1773
▁보는데	-1774
저씨	-1775
하긴	-1776
▁케이	-1777
촬영	-1778
;;;;	-1779
▁여전	-1780
어지는	-1781
▁다시봐도	-1782
인물	-1783
▁참신	-1784
▁사랑을	-1785
▁안타까	-1786
▁찌	-1787
그러	-1788
▁가는	-1789
▁그닥	-1790
▁얘기	-1791
▁원래	-1792
▁감독은	-1793
▁아쉬운	-1794
▁묻	-1795
▁짧	-1796
▁80	-1797
▁진행	-1798
▁-_-	-1799
▁전개가	-1800
이냐	-1801
추천	-1802
▁범죄	-1803
▁흥미진진	-1804
▁뮤	-1805
났다	-1806
▁더럽게	-1807
▁줄거리	-1808
했습니다	-1809
▁겨	-1810
▁승	-1811
▁페	-1812
대박	-1813
파이	-1814
▁영웅	-1815
▁힘든	-1816
▁좋겠다	-1817
▁먹먹	-1818
▁깔	-1819
리게	-1820
▁망작	-1821
▁진지	-1822
▁편집	-1823
▁지금까지	-1824
▁m	-1825
▁북	-1826
▁안나	-1827
▁안보	-1828
▁영화인	-1829
▁뜬	-1830
▁쓴	-1831
막장	-1832
많은	-1833
이면	-1834
▁감상	-1835
▁그게	-1836
▁멍청	-1837
▁자꾸	-1838
▁해야	-1839
▁이것도	-1840
방송	-1841
▁미안	-1842
하다고	-1843
▁모르고	-1844
.......	-1845
▁아빠	-1846
▁돈주고	-1847
▁따뜻한	-1848
▁인간의	-1849
▁나쁜	-1850
▁대한민국	-1851
▁좋은영화	-1852
▁갔	-1853
▁창	-1854
년에	-1855
없네	-1856
▁끝내	-1857
▁재밌었다	-1858
연출	-1859
▁결혼	-1860
하는거	-1861
만이	-1862
▁만점	-1863
보세요	-1864
지마라	-1865
▁도저히	-1866
▁로맨틱	-1867
▁무조건	-1868
오는	-1869
▁액션도	-1870
▁오글거	-1871
▁후반부	-1872
▁재밌는데	-1873
▁법	-1874
겠네	-1875
당시	-1876
▁ᄃᄃ	-1877
▁물론	-1878
▁병맛	-1879
▁있음	-1880
스런	-1881
시고	-1882
▁진실	-1883
였는데	-1884
영화로	-1885
▁그래픽	-1886
▁우연히	-1887
▁a	-1888
▁g	-1889
그램	-1890
하여	-1891
▁과거	-1892
▁소중	-1893
▁죽음	-1894
메이크	-1895
시는	-1896
▁불륜	-1897
▁학교	-1898
▁것이다	-1899
▁완벽한	-1900
▁평점은	-1901
▁그럴	-1902
▁웃긴	-1903
▁골	-1904
어로	-1905
▁평점에	-1906
▁아버지	-1907
▁억지로	-1908
영상	-1909
▁이리	-1910
▁초등	-1911
▁있다는	-1912
님의	-1913
이하	-1914
▁알려	-1915
▁기대하고	-1916
▁친	-1917
▁괜히	-1918
▁대작	-1919
▁최근	-1920
▁무서운	-1921
▁좋았어요	-1922
우는	-1923
▁가볍	-1924
▁바보	-1925
▁전설	-1926
▁안된다	-1927
명작	-1928
자의	-1929
▁없을	-1930
▁저질	-1931
▁배우가	-1932
▁봤네요	-1933
▁오히려	-1934
▁넣	-1935
▁핵	-1936
랄까	-1937
스를	-1938
▁스타일	-1939
▁없네요	-1940
▁견	-1941
움이	-1942
▁미화	-1943
▁깜	-1944
따위	-1945
▁느꼈	-1946
▁천재	-1947
▁환상	-1948
것이다	-1949
▁느끼게	-1950
것은	-1951
내고	-1952
실망	-1953
함과	-1954
▁되어	-1955
▁좋음	-1956
▁이야기를	-1957
님이	-1958
▁바람	-1959
▁사라	-1960
▁요소	-1961
였습니다	-1962
▁하면	-1963
▁흘러	-1964
▁목소리	-1965
▁전형적인	-1966
▁d	-1967
▁줘	-1968
있게	-1969
▁분명	-1970
▁완성도	-1971
ST	-1972
공포	-1973
봐라	-1974
▁SF	-1975
▁가능	-1976
▁메세	-1977
▁유명	-1978
안되는	-1979
▁모르는	-1980
▁어설프	-1981
.5	-1982
▁덕	-1983
▁독립	-1984
▁바라	-1985
▁신기	-1986
▁죽는	-1987
그래도	-1988
▁예전에	-1989
▁듯한	-1990
▁설명	-1991
대의	-1992
작가	-1993
▁나쁘	-1994
▁낫다	-1995
▁싫어	-1996
▁유치한	-1997
▁만들었다	-1998
▁아무것도	-1999
심을	-2000
지게	-2001
프로	-2002
▁동화	-2003
▁복수	-2004
▁잊혀	-2005
하는게	-2006
▁내인생	-2007
▁나라	-2008
▁유머	-2009
▁희망	-2010
보다가	-2011
리다	-2012
예산	-2013
인간	-2014
▁다행	-2015
같은데	-2016
▁이런거	-2017
▁입니다	-2018
▁웃겨	-2019
▁저도	-2020
▁전달	-2021
보는데	-2022
,,,,	-2023
▁알았다	-2024
▁영화에서	-2025
심이	-2026
▁노출	-2027
▁코메디	-2028
네여	-2029
▁노력	-2030
▁연출이	-2031
웠던	-2032
▁!!	-2033
▁인정	-2034
안하고	-2035
▁연출력	-2036
▁전문	-2037
▁리메이크	-2038
▁처음으로	-2039
평가	-2040
▁tv	-2041
▁서로	-2042
식이	-2043
ᅲᅲᅲ	-2044
▁성장	-2045
▁전작	-2046
▁즐겁	-2047
▁아이들이	-2048
▁어렸을때	-2049
▁재미있고	-2050
나면	-2051
편을	-2052
▁돈이	-2053
▁이러	-2054
▁화이팅	-2055
▁놀라	-2056
▁영원	-2057
▁중반	-2058
▁풀어	-2059
▁비슷한	-2060
▁이상한	-2061
▁알았는데	-2062
▁끼	-2063
▁멀	-2064
자들	-2065
▁뜬금	-2066
▁우울	-2067
▁허술	-2068
▁ost	-2069
▁모습이	-2070
▁지금도	-2071
기엔	-2072
어울	-2073
▁장면은	-2074
▁재미없고	-2075
▁촌	-2076
▁탈	-2077
▁팔	-2078
역시	-2079
▁관계	-2080
▁말고	-2081
▁아오	-2082
▁촬영	-2083
▁지루해	-2084
많이	-2085
아먹	-2086
화가	-2087
▁경찰	-2088
▁아프	-2089
▁청춘	-2090
▁합	-2091
▁현재	-2092
최고의	-2093
▁다운받	-2094
▁앞으로	-2095
▁찬	-2096
분이	-2097
ood	-2098
▁게임	-2099
▁중에	-2100
▁행동	-2101
더군요	-2102
리아	-2103
반전	-2104
점준	-2105
▁깊은	-2106
▁부모	-2107
봅니다	-2108
▁말하고	-2109
▁작품이	-2110
▁좋았습니다	-2111
줄알	-2112
▁거지	-2113
만하면	-2114
▁부족한	-2115
▁특유의	-2116
ᄏᄏᄏᄏᄏ	-2117
▁워	-2118
▁보여준	-2119
▁화려한	-2120
▁유치하고	-2121
▁영화였습니다	-2122
................	-2123
he	-2124
▁D	-2125
고싶	-2126
대사	-2127
스로	-2128
▁그의	-2129
재밌게	-2130
▁이런걸	-2131
▁스토리에	-2132
?)	-2133
▁면	-2134
르고	-2135
소한	-2136
하겠	-2137
▁아마	-2138
▁왜이리	-2139
드가	-2140
였던	-2141
▁하는데	-2142
▁보고나서	-2143
강추	-2144
만의	-2145
▁라는	-2146
▁못보	-2147
영화에	-2148
▁같네요	-2149
무슨	-2150
인거	-2151
됩니다	-2152
▁좋았고	-2153
▁재미없어	-2154
자는	-2155
치게	-2156
▁가득	-2157
▁그려	-2158
▁만큼	-2159
▁이어	-2160
▁류	-2161
▁학	-2162
▁별루	-2163
▁피해	-2164
하면서도	-2165
▁너무나도	-2166
▁무엇보다	-2167
▁증	-2168
그라	-2169
▁사건	-2170
▁어렵	-2171
▁이야기가	-2172
▁ᄒᄒᄒ	-2173
▁그렇고	-2174
▁잘만든	-2175
▁아니지만	-2176
▁전체적으로	-2177
던지	-2178
분에	-2179
▁먼저	-2180
▁해피	-2181
▁명작이다	-2182
물이	-2183
자를	-2184
▁누군	-2185
▁또한	-2186
▁뭔지	-2187
▁스케	-2188
아니고	-2189
▁재밌어	-2190
▁진부한	-2191
▁최악이다	-2192
감을	-2193
려면	-2194
인은	-2195
▁그랬	-2196
▁여성	-2197
▁지난	-2198
배우들	-2199
점준다	-2200
▁만들지	-2201
▁모습을	-2202
▁플	-2203
걸까	-2204
극장	-2205
인을	-2206
해주	-2207
▁돌려	-2208
▁않을	-2209
▁잘생	-2210
▁아닐까	-2211
//	-2212
▁ᅮ	-2213
가요	-2214
개봉	-2215
놓은	-2216
져서	-2217
~^^	-2218
▁드라마가	-2219
▁생각한다	-2220
▁힐	-2221
마저	-2222
상을	-2223
정을	-2224
지못	-2225
▁본다	-2226
▁애들이	-2227
▁뒷	-2228
▁응	-2229
▁접	-2230
리에	-2231
▁귀신	-2232
▁왠지	-2233
었네요	-2234
▁반전이	-2235
▁않았다	-2236
▁드라마를	-2237
기다	-2238
기억	-2239
다운	-2240
세계	-2241
▁어찌	-2242
▁귀여운	-2243
▁부분이	-2244
▁여자가	-2245
▁영화중에	-2246
▁짐	-2247
번째	-2248
보이	-2249
▁삶을	-2250
▁성공	-2251
▁자유	-2252
사람이	-2253
시간이	-2254
하는지	-2255
▁재밌었어요	-2256
▁월	-2257
었나	-2258
좋다	-2259
▁안맞	-2260
▁이래	-2261
▁정치	-2262
한다는	-2263
▁그런데	-2264
▁못하고	-2265
▁인상깊	-2266
▁자신의	-2267
로는	-2268
좋고	-2269
▁나만	-2270
▁마치	-2271
▁비추	-2272
▁않음	-2273
▁이런게	-2274
▁졸라	-2275
이에요	-2276
▁안나오	-2277
▁대단하다	-2278
▁영화이다	-2279
▁왜이렇게	-2280
▁이영화가	-2281
▁춤	-2282
로서	-2283
한듯	-2284
▁cg	-2285
봤어요	-2286
▁시간낭비	-2287
or	-2288
▁12	-2289
▁다소	-2290
수있는	-2291
였어요	-2292
해주는	-2293
▁나에게	-2294
▁좋았음	-2295
모습	-2296
▁15	-2297
▁이연	-2298
▁조연	-2299
있는데	-2300
했으면	-2301
▁마음을	-2302
▁해주는	-2303
▁같습니다	-2304
▁매력적인	-2305
▁샤	-2306
▁얻	-2307
▁퍼	-2308
마음	-2309
이제	-2310
▁가끔	-2311
▁밑에	-2312
▁사이	-2313
▁알겠	-2314
▁이젠	-2315
▁소재는	-2316
▁제작비	-2317
▁보고싶은	-2318
일뿐	-2319
장이	-2320
절한	-2321
▁남아	-2322
▁눈을	-2323
▁메시	-2324
▁미래	-2325
▁실패	-2326
▁나온다	-2327
▁케이블	-2328
▁뜨	-2329
알바	-2330
이해	-2331
할듯	-2332
▁러브	-2333
▁심리	-2334
▁아는	-2335
▁취향	-2336
면서도	-2337
▁사랑이	-2338
▁허접한	-2339
성애	-2340
..?	-2341
▁나를	-2342
▁나머	-2343
▁황당	-2344
▁느껴지는	-2345
▁논	-2346
▁늙	-2347
새끼	-2348
스릴	-2349
심히	-2350
▁눈이	-2351
▁드는	-2352
▁있었던	-2353
▁확실히	-2354
수도	-2355
특히	-2356
▁미소	-2357
나온다	-2358
지도않	-2359
▁지금봐도	-2360
가족	-2361
▁다가	-2362
▁외국	-2363
▁카메라	-2364
▁좋았는데	-2365
▁낭비	-2366
▁알아	-2367
▁철학	-2368
만으로	-2369
사람들	-2370
점짜리	-2371
▁잘봤습니다	-2372
▁웬	-2373
발이	-2374
한건	-2375
▁;;	-2376
▁와닿	-2377
▁감동적	-2378
▁ᄏᄏᄏᄏᄏᄏᄏᄏᄏᄏᄏᄏ	-2379
.2	-2380
내요	-2381
하하	-2382
닝타임	-2383
스럽게	-2384
▁감사합니다	-2385
시켜	-2386
▁감탄	-2387
▁심심	-2388
▁아놔	-2389
▁한계	-2390
▁내용을	-2391
▁사람을	-2392
▁어린이	-2393
▁짓	-2394
소재	-2395
스는	-2396
움을	-2397
▁고민	-2398
▁나서	-2399
▁했지만	-2400
▁프로그램	-2401
어라	-2402
었을	-2403
▁아닌데	-2404
▁저예산	-2405
▁스토리와	-2406
▁보지마세요	-2407
보여	-2408
▁느낀	-2409
▁든다	-2410
▁맞는	-2411
▁예전	-2412
▁짱짱	-2413
없어서	-2414
▁아니면	-2415
▁스토리를	-2416
▁아름답고	-2417
▁:	-2418
▁끊	-2419
사는	-2420
지컬	-2421
터리	-2422
▁넘어	-2423
▁의외	-2424
하세요	-2425
▁OST	-2426
▁나오고	-2427
▁어이없는	-2428
▁처음이다	-2429
▁곳	-2430
▁젤	-2431
더만	-2432
순간	-2433
▁시도	-2434
▁여전히	-2435
▁예고편	-2436
▁짜증나	-2437
▁감동적이고	-2438
쩐다	-2439
▁같음	-2440
▁대충	-2441
▁이하	-2442
▁젊은	-2443
지않는	-2444
▁영화보고	-2445
▁영화지만	-2446
려다	-2447
▁예쁜	-2448
▁유일	-2449
▁화가	-2450
▁감정이	-2451
니아	-2452
대가	-2453
명이	-2454
도없고	-2455
▁소재를	-2456
▁연기에	-2457
▁밤	-2458
되지	-2459
소년	-2460
▁했던	-2461
퀄리티	-2462
▁씁	-2463
▁엑	-2464
거냐	-2465
말로	-2466
(?)	-2467
▁ᄉᄇ	-2468
▁오락	-2469
▁해준	-2470
▁그들의	-2471
▁보이는	-2472
▁A	-2473
▁난다	-2474
이렇게	-2475
하기만	-2476
▁끝나고	-2477
▁아저씨	-2478
▁액션이	-2479
▁어색한	-2480
▁중간중간	-2481
▁딴	-2482
해보	-2483
▁해주	-2484
식으로	-2485
▁독특한	-2486
▁세상에	-2487
▁꼴	-2488
▁붙	-2489
저럭	-2490
▁사극	-2491
▁종교	-2492
더라도	-2493
▁유쾌한	-2494
▁제작진	-2495
과는	-2496
럽다	-2497
있네	-2498
▁겁나	-2499
▁남주	-2500
▁리뷰	-2501
▁일어	-2502
▁찍은	-2503
영화도	-2504
▁슬프다	-2505
▁어이가	-2506
▁이유가	-2507
▁드라마는	-2508
▁떨어지는	-2509
▁꾸	-2510
▁가서	-2511
▁굳이	-2512
▁호러	-2513
만드는	-2514
▁기대를	-2515
▁보는게	-2516
▁역시나	-2517
▁흥미롭	-2518
▁ᄏᄏᄏᄏᄏ	-2519
▁까지	-2520
▁용서	-2521
▁하루	-2522
하다는	-2523
▁매력이	-2524
▁재미를	-2525
겟다	-2526
무서	-2527
▁그럼	-2528
하지마	-2529
▁아까워	-2530
▁짜증나는	-2531
있음	-2532
티비	-2533
했을	-2534
ᄒᄒᄒ	-2535
▁과연	-2536
▁글쎄	-2537
▁이기	-2538
▁적당	-2539
▁남는다	-2540
▁하나하나	-2541
구려	-2542
나올	-2543
서야	-2544
▁조폭	-2545
▁한편	-2546
있어요	-2547
▁+	-2548
▁녹	-2549
▁쩔	-2550
대는	-2551
사를	-2552
하던	-2553
▁기본	-2554
▁마라	-2555
▁슬픔	-2556
▁시선	-2557
▁연애	-2558
▁통해	-2559
▁그런가	-2560
▁싸이코	-2561
▁있다면	-2562
▁연기력이	-2563
▁<	-2564
끼리	-2565
들고	-2566
유치	-2567
으론	-2568
▁내생	-2569
▁라이	-2570
▁연예	-2571
▁특별	-2572
럭저럭	-2573
았어요	-2574
▁액션은	-2575
▁주인공의	-2576
▁겉	-2577
▁폐	-2578
▁보러	-2579
▁살짝	-2580
▁시원	-2581
▁역할	-2582
▁평생	-2583
지네요	-2584
▁기분이	-2585
▁나왔으면	-2586
▁헛	-2587
리도	-2588
먹고	-2589
시아	-2590
펑펑	-2591
▁사는	-2592
▁전에	-2593
▁별로다	-2594
▁봤다가	-2595
--	-2596
▁돼	-2597
▁씬	-2598
▁풋	-2599
다지	-2600
디어	-2601
와르	-2602
위해	-2603
▁가진	-2604
▁모자	-2605
▁블랙	-2606
버렸다	-2607
보고싶	-2608
▁순수한	-2609
▁안되고	-2610
▁평범한	-2611
▁w	-2612
할까	-2613
화를	-2614
▁미스	-2615
▁전편	-2616
▁어릴적	-2617
았습니다	-2618
▁아름답다	-2619
결말	-2620
레스	-2621
른다	-2622
상이	-2623
즈니	-2624
트가	-2625
▁분노	-2626
▁섹시	-2627
▁채널	-2628
에서의	-2629
이라서	-2630
한다면	-2631
▁볼때마다	-2632
▁사랑하는	-2633
▁생각합니다	-2634
▁밥	-2635
기로	-2636
나이	-2637
었어	-2638
주얼	-2639
▁슈퍼	-2640
지않은	-2641
▁보기엔	-2642
▁안하고	-2643
▁재밋게	-2644
▁저렇게	-2645
▁보고싶다	-2646
▁봤었는데	-2647
▁I	-2648
었네	-2649
▁결론	-2650
▁고전	-2651
▁깔끔	-2652
▁다만	-2653
▁산만	-2654
▁상처	-2655
▁소녀	-2656
▁귀엽고	-2657
▁연기와	-2658
▁짠	-2659
▁칼	-2660
씨가	-2661
아라	-2662
▁안됨	-2663
▁올라	-2664
▁후속	-2665
▁소름돋	-2666
▁티비에서	-2667
▁뭉	-2668
▁십	-2669
듯이	-2670
원이	-2671
▁레이	-2672
▁영환	-2673
▁포장	-2674
으로서	-2675
▁되었다	-2676
▁작품성	-2677
▁밝	-2678
▁톰	-2679
는가	-2680
안되	-2681
▁개판	-2682
▁스트	-2683
▁사랑에	-2684
▁없지만	-2685
▁그럭저럭	-2686
▁재밌었는데	-2687
an	-2688
▁쇼	-2689
기의	-2690
까진	-2691
▁자막	-2692
구하고	-2693
하려는	-2694
▁공감이	-2695
▁몰입이	-2696
▁수준이	-2697
▁지루하지	-2698
▁침	-2699
돌아	-2700
▁고생	-2701
▁무지	-2702
▁무협	-2703
▁부끄	-2704
▁비극	-2705
▁압권	-2706
▁사랑과	-2707
▁음악이	-2708
▁잼있게	-2709
▁진심으로	-2710
▁추천합니다	-2711
▁격	-2712
▁덜	-2713
걸로	-2714
나가	-2715
오빠	-2716
이유	-2717
▁흐름	-2718
평점이	-2719
▁다큐멘	-2720
ou	-2721
▁축	-2722
아주	-2723
▁깊이	-2724
▁나타	-2725
▁보시길	-2726
▁신선한	-2727
▁영화냐	-2728
무비	-2729
었지	-2730
이터	-2731
줌마	-2732
▁그지	-2733
▁놀랍	-2734
▁아침	-2735
▁힐링	-2736
▁볼수록	-2737
▁소름끼	-2738
▁오그라	-2739
더라구요	-2740
▁만들어진	-2741
▁재밌습니다	-2742
어진	-2743
이의	-2744
▁되게	-2745
연기도	-2746
▁마무리	-2747
▁이건뭐	-2748
!!!!!	-2749
▁썩	-2750
나와	-2751
제목	-2752
한국	-2753
▁거짓	-2754
▁난해	-2755
▁몸매	-2756
▁수도	-2757
▁스포	-2758
버리고	-2759
▁가볍게	-2760
▁뮤지컬	-2761
▁어렸을	-2762
▁현실을	-2763
▁재밌었음	-2764
▁G	-2765
▁엘	-2766
같음	-2767
명의	-2768
▁미치	-2769
▁오버	-2770
▁전기	-2771
▁전투	-2772
▁그렇다	-2773
▁더이상	-2774
▁상상력	-2775
20	-2776
▁꼽	-2777
들에	-2778
따라	-2779
봤음	-2780
▁눈빛	-2781
▁사기	-2782
▁재난	-2783
했다는	-2784
▁감동과	-2785
▁열심히	-2786
▁등장인물	-2787
▁재미있음	-2788
▁징	-2789
래기	-2790
무섭	-2791
물을	-2792
버렸	-2793
이크	-2794
진심	-2795
▁포기	-2796
▁표절	-2797
▁형편	-2798
연기가	-2799
▁소재로	-2800
▁시간을	-2801
▁이유는	-2802
▁정말로	-2803
▁추억의	-2804
▁필요없는	-2805
?!	-2806
▁잇	-2807
▁챙	-2808
가능	-2809
▁굿굿	-2810
▁동생	-2811
▁막판	-2812
▁보시	-2813
▁불쾌	-2814
▁아련	-2815
▁일상	-2816
▁있나	-2817
▁크게	-2818
▁표정	-2819
▁희생	-2820
년전에	-2821
▁배우의	-2822
▁소재가	-2823
▁처음엔	-2824
▁말이필요	-2825
▁활	-2826
시킨	-2827
웠음	-2828
▁남녀	-2829
▁되고	-2830
▁정서	-2831
▁좋을	-2832
▁폭력	-2833
▁슬프고	-2834
▁아닌듯	-2835
▁이정도면	-2836
▁해피엔딩	-2837
▁쉬	-2838
라스	-2839
▁군대	-2840
▁부터	-2841
▁설레	-2842
▁어제	-2843
점주는	-2844
▁스케일	-2845
▁우리가	-2846
▁하네요	-2847
▁농	-2848
그렇	-2849
이니	-2850
표현	-2851
▁감명	-2852
▁같아	-2853
▁북한	-2854
▁이때	-2855
▁태어	-2856
▁현대	-2857
▁홍보	-2858
▁봤으면	-2859
▁있습니다	-2860
▁던	-2861
겹다	-2862
느라	-2863
리기	-2864
만화	-2865
전쟁	-2866
정신	-2867
지말	-2868
한것	-2869
▁그립	-2870
▁심각	-2871
▁이루	-2872
▁조잡	-2873
속에서	-2874
재미없	-2875
▁제목이	-2876
▁맡	-2877
▁윌	-2878
류의	-2879
의미	-2880
▁드러	-2881
▁쉽게	-2882
▁쓸데	-2883
▁끝나는	-2884
▁디즈니	-2885
▁이연걸	-2886
▁퀄리티	-2887
▁필요한	-2888
영화라고	-2889
▁생각나는	-2890
▁i	-2891
▁몽	-2892
아님	-2893
해준	-2894
▁그린	-2895
▁말을	-2896
▁악역	-2897
까지는	-2898
지않고	-2899
하시는	-2900
▁뛰어난	-2901
▁연출도	-2902
재밌어요	-2903
▁지루해서	-2904
수는	-2905
줘서	-2906
지의	-2907
▁강렬	-2908
▁김기	-2909
▁말로	-2910
▁반성	-2911
▁싫다	-2912
▁없나	-2913
▁혹시	-2914
좋아요	-2915
캐릭터	-2916
▁반전도	-2917
▁아이들	-2918
▁음악도	-2919
▁재미없네	-2920
나왔	-2921
르노	-2922
우리	-2923
▁건지	-2924
▁두고	-2925
▁떠나	-2926
▁삶의	-2927
▁아나	-2928
▁만들고	-2929
▁좋았던	-2930
재미없다	-2931
▁줬	-2932
가가	-2933
거운	-2934
도가	-2935
와는	-2936
▁선생	-2937
▁악당	-2938
▁이쁜	-2939
▁인터	-2940
거리는	-2941
아까운	-2942
하다가	-2943
▁봐야할	-2944
▁여기서	-2945
▁늦	-2946
▁뜻	-2947
▁쩌	-2948
세가	-2949
안에	-2950
엄마	-2951
이자	-2952
히는	-2953
▁40	-2954
▁새벽	-2955
▁싶어	-2956
▁의문	-2957
▁의심	-2958
▁있지	-2959
사람은	-2960
장면이	-2961
▁볼만함	-2962
▁ᄌ	-2963
겼다	-2964
구니	-2965
자단	-2966
▁나은	-2967
▁스티	-2968
▁역겨	-2969
▁오랫	-2970
▁있게	-2971
▁풋풋	-2972
보는게	-2973
▁몇번을	-2974
▁비주얼	-2975
▁익	-2976
▁잤	-2977
있어	-2978
▁그것	-2979
▁말할	-2980
▁무시	-2981
▁보이	-2982
▁지구	-2983
▁평이	-2984
봣는데	-2985
▁그다지	-2986
▁액션영화	-2987
▁좋습니다	-2988
,2	-2989
▁뇌	-2990
쵝오	-2991
▁라고	-2992
수없는	-2993
영화라	-2994
▁사람의	-2995
감도	-2996
두고	-2997
자고	-2998
친다	-2999
트콤	-3000
해진	-3001
▁가까	-3002
▁받아	-3003
▁벌써	-3004
▁소장	-3005
▁지금은	-3006
▁초반에	-3007
독교	-3008
중의	-3009
▁않게	-3010
▁외계	-3011
▁죄다	-3012
▁통쾌	-3013
▁펑펑	-3014
인가요	-3015
▁결말도	-3016
▁언제나	-3017
▁닥	-3018
▁컨	-3019
란다	-3020
시에	-3021
이를	-3022
이며	-3023
하려	-3024
▁니콜	-3025
▁동물	-3026
▁스크	-3027
▁씁쓸	-3028
하기도	-3029
▁멋지다	-3030
▁인생을	-3031
▁뉴	-3032
▁체	-3033
관계	-3034
밋밋	-3035
을거	-3036
한지	-3037
▁국민	-3038
▁능력	-3039
▁둘다	-3040
▁나중에	-3041
▁몰라도	-3042
▁하면서	-3043
▁필요없다	-3044
▁재미있네요	-3045
re	-3046
▁끄	-3047
▁찡	-3048
▁퇴	-3049
수의	-3050
식을	-3051
이후	-3052
피소	-3053
▁그걸	-3054
▁나가	-3055
감독이	-3056
영화임	-3057
자체가	-3058
▁이해할	-3059
▁좋아서	-3060
on	-3061
그인	-3062
불가	-3063
점주	-3064
▁광고	-3065
▁깨닫	-3066
▁성인	-3067
▁올해	-3068
▁일반	-3069
▁"""	-3070
▁싸구려	-3071
▁연기자	-3072
▁재밌네	-3073
▁다시한번	-3074
▁불구하고	-3075
.1	-3076
▁끔	-3077
▁좌	-3078
가락	-3079
오글	-3080
일본	-3081
찝찝	-3082
하신	-3083
▁뒤로	-3084
▁분들	-3085
▁속편	-3086
▁일부	-3087
▁어려운	-3088
▁웃기고	-3089
▁인생의	-3090
▁나옴	-3091
▁남을	-3092
▁무언	-3093
▁발전	-3094
▁방금	-3095
▁죽여	-3096
▁누구나	-3097
▁이제야	-3098
▁영화라는	-3099
▁영화보는	-3100
▁헐리우드	-3101
▁쪽	-3102
▁흡	-3103
괜찮	-3104
나도	-3105
버리	-3106
작이	-3107
줘야	-3108
하셨	-3109
▁섬세	-3110
▁시각	-3111
▁이뻐	-3112
▁결말은	-3113
▁낮아서	-3114
▁단순한	-3115
▁떠나서	-3116
▁마이너	-3117
▁시사회	-3118
▁어머니	-3119
봤습니다	-3120
▁일본영화	-3121
▁현실적인	-3122
▁재미있었다	-3123
▁폴	-3124
▁푹	-3125
로도	-3126
마스	-3127
봐요	-3128
이션	-3129
학년	-3130
▁괴물	-3131
▁단연	-3132
▁시걸	-3133
▁신경	-3134
▁않아	-3135
▁에이	-3136
▁연결	-3137
▁좀더	-3138
더라면	-3139
랍니다	-3140
아니다	-3141
▁느낌을	-3142
▁엉성한	-3143
▁납	-3144
사의	-3145
우고	-3146
져요	-3147
하구	-3148
▁살다	-3149
▁생애	-3150
▁아픔	-3151
▁모든게	-3152
▁못했다	-3153
▁냉	-3154
▁쌍	-3155
드의	-3156
성에	-3157
함에	-3158
▁70	-3159
▁고등	-3160
▁본방	-3161
▁존경	-3162
겠네요	-3163
아까워	-3164
한다고	-3165
▁베스트	-3166
▁산으로	-3167
▁점수를	-3168
▁청소년	-3169
▁그렇다고	-3170
▁영화에요	-3171
▁사랑스러운	-3172
▁^	-3173
겠음	-3174
눈물	-3175
아가	-3176
▁00	-3177
▁고통	-3178
▁되지	-3179
▁우주	-3180
▁하이	-3181
내용도	-3182
아니라	-3183
었는지	-3184
▁드럽게	-3185
▁무엇을	-3186
▁뻔하고	-3187
▁지루할	-3188
▁생각없이	-3189
▁잭	-3190
계속	-3191
남는	-3192
여운	-3193
▁때문	-3194
▁밋밋	-3195
▁왜케	-3196
▁특수	-3197
하려고	-3198
했는지	-3199
▁시대를	-3200
▁좋아할	-3201
▁아직까지	-3202
▁줌	-3203
만점	-3204
봤던	-3205
하라	-3206
▁18	-3207
▁대표	-3208
▁생생	-3209
▁시시	-3210
▁외모	-3211
▁전반	-3212
▁한데	-3213
처구니	-3214
...?	-3215
▁마세요	-3216
▁옛날에	-3217
▁이따위	-3218
▁있어야	-3219
▁있어요	-3220
."	-3221
▁f	-3222
▁쥐	-3223
불어	-3224
았고	-3225
▁많다	-3226
▁에휴	-3227
▁잊을	-3228
재밌다	-3229
하다니	-3230
▁견자단	-3231
▁눈물을	-3232
▁있네요	-3233
▁작가가	-3234
▁정신병	-3235
배우들의	-3236
▁생각하고	-3237
계의	-3238
시작	-3239
인들	-3240
으로써	-3241
▁느와르	-3242
▁싶네요	-3243
▁없는데	-3244
▁없다는	-3245
▁출연진	-3246
▁기대안하고	-3247
at	-3248
도안	-3249
애들	-3250
▁끝난	-3251
▁다니	-3252
▁발로	-3253
▁울고	-3254
▁할말	-3255
캐스팅	-3256
▁이거보고	-3257
▁싱	-3258
답답	-3259
따구	-3260
만드	-3261
했네	-3262
▁놀랐	-3263
▁다양	-3264
▁바뀌	-3265
▁복잡	-3266
▁아들	-3267
스릴러	-3268
아까움	-3269
▁느끼는	-3270
▁로그인	-3271
▁스스로	-3272
▁하는지	-3273
▁잔잔하고	-3274
▁빡	-3275
거임	-3276
에만	-3277
온다	-3278
▁내려	-3279
▁볼게	-3280
▁슬퍼	-3281
겠어요	-3282
봤지만	-3283
▁대부분	-3284
▁만든다	-3285
▁보니까	-3286
▁보았다	-3287
▁에피소	-3288
▁이쁘고	-3289
▁러닝타임	-3290
▁앤	-3291
▁흉	-3292
과의	-3293
럽고	-3294
▁맨날	-3295
▁명품	-3296
▁못할	-3297
▁살고	-3298
▁섹스	-3299
▁타임	-3300
가지고	-3301
아버지	-3302
였지만	-3303
▁봣는데	-3304
▁사랑의	-3305
▁의미를	-3306
▁즐겁게	-3307
▁탄탄한	-3308
▁배우들도	-3309
▁시간가는	-3310
▁푸	-3311
간의	-3312
거면	-3313
노래	-3314
되서	-3315
부족	-3316
셔서	-3317
이로	-3318
장난	-3319
▁거기	-3320
▁무비	-3321
▁빼고	-3322
▁상업	-3323
▁ᅲᅲᅲ	-3324
▁않지만	-3325
▁있으면	-3326
BS	-3327
▁꽝	-3328
▁닮	-3329
소설	-3330
씬은	-3331
지어	-3332
▁문화	-3333
▁민망	-3334
▁반복	-3335
▁발견	-3336
▁인도	-3337
▁찝찝	-3338
리스마	-3339
집니다	-3340
▁남자가	-3341
▁집에서	-3342
▁할말이	-3343
▁볼만하다	-3344
.4	-3345
▁뽑	-3346
▁쫌	-3347
로우	-3348
석이	-3349
성은	-3350
아프	-3351
▁50	-3352
▁검색	-3353
▁딱히	-3354
▁떠오	-3355
▁뭉클	-3356
▁안돼	-3357
▁연속	-3358
▁은근	-3359
줍니다	-3360
▁시트콤	-3361
▁아쉬움	-3362
▁작품을	-3363
▁헐리웃	-3364
▁good	-3365
▁다시보고	-3366
▁신선하고	-3367
▁떡	-3368
나옴	-3369
어주	-3370
▁극치	-3371
▁남겨	-3372
▁동안	-3373
▁먹고	-3374
▁묘사	-3375
▁코난	-3376
▁편견	-3377
갈수록	-3378
시키는	-3379
았지만	-3380
으니까	-3381
▁김기덕	-3382
▁더러운	-3383
▁말하는	-3384
▁비현실	-3385
▁사랑은	-3386
▁쓰래기	-3387
▁아이돌	-3388
▁안보고	-3389
▁울었다	-3390
▁전문가	-3391
날때	-3392
저도	-3393
제작	-3394
트맨	-3395
호가	-3396
"""	-3397
▁ᄋᄋ	-3398
▁가져	-3399
▁공부	-3400
▁눈에	-3401
▁단지	-3402
▁아류	-3403
▁영국	-3404
▁작은	-3405
▁주변	-3406
▁쵝오	-3407
▁하하	-3408
▁한참	-3409
차라리	-3410
▁대사가	-3411
▁덕분에	-3412
▁본영화	-3413
▁빠져들	-3414
▁어처구니	-3415
▁영화인듯	-3416
▁이런영화가	-3417
▁ᄏᄏᄏᄏᄏᄏᄏᄏ	-3418
ar	-3419
려요	-3420
씨의	-3421
쳐서	-3422
편도	-3423
▁거슬	-3424
▁경험	-3425
▁국내	-3426
▁무척	-3427
▁믿을	-3428
▁속에	-3429
▁지켜	-3430
▁흔한	-3431
급영화	-3432
▁같아서	-3433
▁멍청한	-3434
▁본다면	-3435
▁아깝지	-3436
▁작품이다	-3437
▁E	-3438
▁꽃	-3439
▁멘	-3440
▁섞	-3441
받고	-3442
양이	-3443
인트	-3444
▁갈등	-3445
▁과장	-3446
▁노답	-3447
▁우와	-3448
거같다	-3449
스러움	-3450
에대한	-3451
재밌음	-3452
▁생각나	-3453
▁의외로	-3454
▁표현한	-3455
▁긴장감도	-3456
▁쓰레기다	-3457
▁아쉽네요	-3458
▁지루하게	-3459
▁기대했는데	-3460
▁영화였어요	-3461
▁ᄋ	-3462
가를	-3463
아직	-3464
영이	-3465
▁다룬	-3466
▁신파	-3467
▁최강	-3468
▁허세	-3469
내용이	-3470
▁남자의	-3471
▁영화들	-3472
▁몰입해서	-3473
▁장면에서	-3474
관이	-3475
100	-3476
ing	-3477
▁높다	-3478
▁새롭	-3479
▁찌질	-3480
▁007	-3481
▁기독교	-3482
bs	-3483
ll	-3484
▁움	-3485
리언	-3486
우기	-3487
이스	-3488
쳤다	-3489
하진	-3490
▁끌어	-3491
▁바꿔	-3492
▁불러	-3493
▁어우	-3494
▁조합	-3495
▁직접	-3496
▁쩐다	-3497
비디오	-3498
용으로	-3499
▁더불어	-3500
▁마이클	-3501
▁위대한	-3502
▁독립영화	-3503
▁모르겠고	-3504
▁안타깝다	-3505
만을	-3506
설정	-3507
키는	-3508
▁11	-3509
▁높아	-3510
▁미모	-3511
▁세월	-3512
▁제이	-3513
▁죽은	-3514
▁199	-3515
▁게다가	-3516
▁음악과	-3517
▁이후로	-3518
▁히어로	-3519
▁사랑이야기	-3520
ie	-3521
▁업	-3522
▁쿠	-3523
냐고	-3524
아아	-3525
제가	-3526
제발	-3527
▁망쳐	-3528
▁보길	-3529
▁아역	-3530
▁어휴	-3531
▁우정	-3532
▁짝퉁	-3533
▁처럼	-3534
▁빼고는	-3535
▁쓰레기같은	-3536
▁됨	-3537
거라	-3538
기분	-3539
긴다	-3540
미가	-3541
이래	-3542
▁똑같	-3543
▁레전	-3544
▁못해	-3545
▁미드	-3546
▁조용	-3547
▁치밀	-3548
시간에	-3549
었을까	-3550
하겠다	-3551
▁the	-3552
▁무섭다	-3553
▁이해하기	-3554
어이	-3555
▁관심	-3556
▁기가	-3557
▁만나	-3558
▁보긴	-3559
▁여행	-3560
▁제로	-3561
▁특이	-3562
▁학생	-3563
▁할까	-3564
했네요	-3565
▁박수를	-3566
▁봤더니	-3567
▁아줌마	-3568
▁좋았을	-3569
▁힘들다	-3570
▁최고입니다	-3571
ᄏᄏᄏᄏᄏᄏᄏᄏᄏᄏᄏᄏᄏᄏᄏᄏ	-3572
▁낳	-3573
▁센	-3574
▁척	-3575
것만	-3576
버트	-3577
성치	-3578
▁13	-3579
▁방법	-3580
▁않나	-3581
▁자살	-3582
▁해리	-3583
버리는	-3584
▁웃음이	-3585
▁인간이	-3586
▁좋지만	-3587
▁흥미로운	-3588
▁[	-3589
가슴	-3590
식의	-3591
영환	-3592
인도	-3593
해지	-3594
▁고마	-3595
▁달달	-3596
▁많아	-3597
▁슬펐	-3598
▁암튼	-3599
▁웃김	-3600
끝까지	-3601
장에서	-3602
▁!!!	-3603
▁몰입감	-3604
▁볼거리	-3605
겠습니다	-3606
▁생각하는	-3607
▁유쾌하고	-3608
▁잊혀지지	-3609
▁재밌다고	-3610
▁초등학생	-3611
▁좋아하는데	-3612
느니	-3613
라가	-3614
사이	-3615
살다	-3616
ver	-3617
▁결과	-3618
▁기술	-3619
▁깜짝	-3620
▁늘어	-3621
▁비판	-3622
▁오바	-3623
▁죽을	-3624
이영화	-3625
▁감정을	-3626
▁나오면	-3627
▁들었다	-3628
▁완전히	-3629
▁우리의	-3630
▁원작의	-3631
▁즐거운	-3632
드립니다	-3633
▁카리스마	-3634
▁재미있었어요	-3635
▁갠	-3636
그리	-3637
려나	-3638
로만	-3639
시즌	-3640
젠장	-3641
▁겨울	-3642
▁로봇	-3643
▁박진	-3644
▁인내	-3645
▁조선	-3646
긴한데	-3647
▁아이가	-3648
▁개연성이	-3649
▁연기력도	-3650
▁왠만하면	-3651
▁학교에서	-3652
▁따뜻해지는	-3653
▁런	-3654
▁팀	-3655
갔다	-3656
먹는	-3657
버그	-3658
자나	-3659
함은	-3660
▁타이	-3661
소리가	-3662
편보다	-3663
▁넘치는	-3664
▁없었던	-3665
▁한번쯤	-3666
▁좋았지만	-3667
▁모르겠지만	-3668
▁재미없어요	-3669
▁ᄀ	-3670
냄새	-3671
대를	-3672
배경	-3673
세상	-3674
원작	-3675
임을	-3676
테일	-3677
했나	-3678
▁가면	-3679
▁가벼	-3680
▁많고	-3681
▁모를	-3682
▁안본	-3683
▁정의	-3684
▁좋게	-3685
▁챙겨	-3686
▁않을까	-3687
▁좋았으나	-3688
▁뱀	-3689
▁썼	-3690
머리	-3691
몰입	-3692
엇다	-3693
했어	-3694
▁보며	-3695
▁이용	-3696
▁커플	-3697
▁투자	-3698
년만에	-3699
버스터	-3700
▁못한다	-3701
▁반개도	-3702
▁보인다	-3703
▁작품은	-3704
사람들이	-3705
지마세요	-3706
▁보고나면	-3707
ov	-3708
▁봉	-3709
▁탁	-3710
▁탐	-3711
요일	-3712
이걸	-3713
▁관한	-3714
▁교육	-3715
▁못생	-3716
▁아닙	-3717
▁와우	-3718
▁이정	-3719
감독의	-3720
그대로	-3721
야말로	-3722
▁손발이	-3723
▁이유를	-3724
▁행복한	-3725
▁느껴진다	-3726
▁보여주고	-3727
VD	-3728
▁옆	-3729
받은	-3730
사수	-3731
성의	-3732
이들	-3733
적은	-3734
▁깨달	-3735
▁끝이	-3736
▁야동	-3737
▁영혼	-3738
▁필름	-3739
그래서	-3740
인들이	-3741
▁대해서	-3742
▁봤을때	-3743
▁역대급	-3744
▁우리는	-3745
▁재밋다	-3746
▁포르노	-3747
▁좋아해서	-3748
▁엽	-3749
러디	-3750
루스	-3751
명을	-3752
슬프	-3753
아쉽	-3754
언니	-3755
였고	-3756
이러	-3757
편에	-3758
▁개뿔	-3759
▁따로	-3760
▁레알	-3761
▁올려	-3762
▁이도	-3763
▁일품	-3764
▁잠깐	-3765
배우가	-3766
없네요	-3767
점이다	-3768
▁스크린	-3769
▁재미와	-3770
▁할머니	-3771
▁사람들의	-3772
▁유치하다	-3773
▁좋겠어요	-3774
▁다큐멘터리	-3775
▁p	-3776
것들	-3777
니깐	-3778
상황	-3779
얘기	-3780
와의	-3781
요즘	-3782
있나	-3783
되었다	-3784
▁그렇지	-3785
▁멋있다	-3786
▁보여줬	-3787
▁알바들	-3788
▁잔인한	-3789
▁재미잇	-3790
▁이제서야	-3791
▁평점보고	-3792
▁멈	-3793
▁옷	-3794
놈들	-3795
무지	-3796
비가	-3797
함의	-3798
▁내면	-3799
▁빌려	-3800
▁악마	-3801
▁예뻐	-3802
▁이럴	-3803
▁착한	-3804
▁풍경	-3805
기에는	-3806
본영화	-3807
▁주성치	-3808
▁참으로	-3809
▁하나의	-3810
▁개연성도	-3811
▁어린시절	-3812
▁지나치게	-3813
▁l	-3814
▁쏘	-3815
다음	-3816
소녀	-3817
시청	-3818
억지	-3819
요소	-3820
주가	-3821
▁꿈을	-3822
▁담아	-3823
▁설마	-3824
▁아동	-3825
▁어지	-3826
▁모르게	-3827
▁죽이고	-3828
▁있었지만	-3829
▁짜증난다	-3830
▁엠	-3831
▁컴	-3832
▁콜	-3833
▁픽	-3834
모든	-3835
분은	-3836
아무	-3837
역사	-3838
정은	-3839
후반	-3840
▁김민	-3841
▁당연	-3842
▁무리	-3843
▁신비	-3844
▁없지	-3845
▁자주	-3846
▁주말	-3847
▁지겨	-3848
점정도	-3849
학교때	-3850
해진다	-3851
했다고	-3852
..^^	-3853
▁똑같은	-3854
좋아하는	-3855
.........	-3856
**	-3857
▁육	-3858
동생	-3859
버림	-3860
보네	-3861
운드	-3862
▁겨우	-3863
▁기발	-3864
▁드림	-3865
▁떠올	-3866
▁뭐라	-3867
▁힘이	-3868
보다도	-3869
지말고	-3870
▁1,2	-3871
▁레전드	-3872
▁명작이	-3873
▁없어요	-3874
▁잘하고	-3875
▁부족하다	-3876
▁지루했다	-3877
om	-3878
▁술	-3879
▁콩	-3880
년의	-3881
뻔한	-3882
솔직	-3883
토록	-3884
▁달라	-3885
▁대중	-3886
▁올리	-3887
▁응원	-3888
▁인해	-3889
되네요	-3890
들이랑	-3891
▁가슴에	-3892
▁감동의	-3893
▁개막장	-3894
▁볼수있	-3895
▁왜이래	-3896
▁이쁘다	-3897
▁중요한	-3898
▁무섭지도	-3899
▁캐릭터가	-3900
▁이런영화를	-3901
도는	-3902
속의	-3903
임스	-3904
000	-3905
▁간다	-3906
▁감히	-3907
▁그거	-3908
▁김수	-3909
▁몇몇	-3910
▁바꾸	-3911
▁세련	-3912
▁싶을	-3913
▁아기	-3914
▁아픈	-3915
▁여태	-3916
▁이민	-3917
장면은	-3918
하던데	-3919
▁가치가	-3920
▁다시는	-3921
▁스파이	-3922
▁영화네	-3923
▁점수가	-3924
사람들은	-3925
▁긴장감이	-3926
▁보여준다	-3927
▁인상적이	-3928
bb	-3929
나다	-3930
사건	-3931
생활	-3932
이기	-3933
인과	-3934
▁데이	-3935
▁둘이	-3936
▁보자	-3937
▁보통	-3938
▁삶에	-3939
▁새끼	-3940
▁설득	-3941
▁욕망	-3942
▁우려	-3943
있어서	-3944
▁뿐이다	-3945
▁싶은데	-3946
▁이해안	-3947
▁장르가	-3948
▁재미없게	-3949
▁탑	-3950
는건	-3951
레딧	-3952
신은	-3953
아나	-3954
얼굴	-3955
자연	-3956
점줌	-3957
▁강력	-3958
▁높게	-3959
▁대본	-3960
▁도전	-3961
▁못함	-3962
▁봤을	-3963
▁숨겨	-3964
▁아예	-3965
▁양심	-3966
▁인기	-3967
▁정체	-3968
▁그녀의	-3969
▁문제가	-3970
▁색다른	-3971
▁소름이	-3972
▁현실성	-3973
지도않고	-3974
▁앞으로도	-3975
▁웃기지도	-3976
▁진부하고	-3977
능력	-3978
님들	-3979
다큐	-3980
대단	-3981
만은	-3982
임새	-3983
▁영어	-3984
▁이끌	-3985
▁짝이	-3986
▁할리	-3987
어떻게	-3988
▁뛰어넘	-3989
▁속에서	-3990
▁위해서	-3991
▁있는지	-3992
▁자신이	-3993
▁정도의	-3994
▁하는거	-3995
▁답답하고	-3996
▁알겠는데	-3997
▁없습니다	-3998
▁맹	-3999
▁쏟	-4000
더빙	-4001
문제	-4002
우가	-4003
원의	-4004
▁빈약	-4005
▁상관	-4006
▁성격	-4007
▁제시	-4008
▁치고	-4009
▁하늘	-4010
겁니다	-4011
려다가	-4012
연기력	-4013
▁모두가	-4014
▁생각함	-4015
▁아까울	-4016
▁연출과	-4017
것같아요	-4018
▁스토리의	-4019
▁아름다움	-4020
▁시간가는줄	-4021
▁한국영화는	-4022
▁빅	-4023
러워	-4024
로써	-4025
삭제	-4026
씬이	-4027
초반	-4028
▁감흥	-4029
▁방영	-4030
▁변태	-4031
▁수고	-4032
▁해라	-4033
▁화끈	-4034
▁효과	-4035
♥♥♥	-4036
분들은	-4037
▁DVD	-4038
▁노래도	-4039
▁동성애	-4040
▁심하게	-4041
▁있구나	-4042
▁전개도	-4043
▁전설의	-4044
▁괜찮은데	-4045
▁모르겠음	-4046
▁안타까운	-4047
▁말도안되는	-4048
▁e	-4049
▁엿	-4050
▁옥	-4051
▁쩝	-4052
▁찰	-4053
니당	-4054
모두	-4055
세기	-4056
▁그건	-4057
▁돈을	-4058
▁볼때	-4059
▁알수	-4060
▁이소	-4061
▁클레	-4062
년도에	-4063
는영화	-4064
보니까	-4065
하고자	-4066
▁나오지	-4067
▁말아먹	-4068
▁보려고	-4069
▁비하면	-4070
▁수준의	-4071
▁오랜만	-4072
▁낙	-4073
▁웨	-4074
기지	-4075
았을	-4076
연이	-4077
이리	-4078
출연	-4079
포터	-4080
▁21	-4081
▁받을	-4082
▁안봤	-4083
▁조니	-4084
▁해결	-4085
들이나	-4086
▁감명깊	-4087
▁깨닫게	-4088
▁배우를	-4089
▁예쁘고	-4090
▁유명한	-4091
▁자신을	-4092
마지막에	-4093
▁분위기가	-4094
.,	-4095
▁끈	-4096
감은	-4097
부작	-4098
인것	-4099
추기	-4100
티브	-4101
▁공짜	-4102
▁기회	-4103
▁블록	-4104
▁사진	-4105
▁심오	-4106
▁안쓰	-4107
▁야구	-4108
▁어두	-4109
▁여름	-4110
▁움직	-4111
▁충실	-4112
▁테러	-4113
스타일	-4114
▁세상을	-4115
▁막장드라마	-4116
▁h	-4117
겨서	-4118
음이	-4119
.^^	-4120
▁낮게	-4121
▁대화	-4122
▁비밀	-4123
▁안볼	-4124
▁인디	-4125
▁잊지	-4126
하는건	-4127
했으나	-4128
▁않네요	-4129
▁연예인	-4130
▁영원히	-4131
▁있었는데	-4132
▁남자주인공	-4133
라기	-4134
멘타	-4135
바로	-4136
보자	-4137
애가	-4138
어디	-4139
▁둘째	-4140
▁류승	-4141
▁만한	-4142
▁빠진	-4143
▁최초	-4144
..;;	-4145
▁관객을	-4146
▁그당시	-4147
▁분들은	-4148
▁살면서	-4149
▁연기잘	-4150
▁죽는줄	-4151
▁한심한	-4152
스토리도	-4153
▁떨어진다	-4154
▁여러가지	-4155
▁주인공은	-4156
▁하나같이	-4157
▁감동적이다	-4158
▁명작입니다	-4159
▁씹	-4160
▁헬	-4161
관람	-4162
절대	-4163
치가	-4164
▁볼거	-4165
▁살려	-4166
▁울컥	-4167
▁작위	-4168
인데도	-4169
▁기다려	-4170
▁내가본	-4171
▁답답한	-4172
▁미스터	-4173
▁만들어도	-4174
▁보지마라	-4175
▁생각나서	-4176
▁전기세가	-4177
영화입니다	-4178
▁보았습니다	-4179
▁/	-4180
▁k	-4181
▁깎	-4182
▁떨	-4183
리카	-4184
뭔가	-4185
미네	-4186
빨리	-4187
어린	-4188
좋음	-4189
통령	-4190
..1	-4191
▁갖고	-4192
▁결정	-4193
▁무술	-4194
▁베드	-4195
▁어쩜	-4196
▁잔뜩	-4197
▁전율	-4198
▁조작	-4199
▁집에	-4200
다는거	-4201
다는걸	-4202
▁가슴을	-4203
▁결말을	-4204
▁노래가	-4205
▁반전은	-4206
▁보다는	-4207
▁여운을	-4208
▁오래된	-4209
▁원작이	-4210
▁잘어울	-4211
▁하는게	-4212
보는내내	-4213
▁ᅲᅲᅲᅲ	-4214
▁생각하면	-4215
▁이상하게	-4216
▁재밌던데	-4217
드시	-4218
받는	-4219
세포	-4220
왔다	-4221
▁sf	-4222
▁남은	-4223
▁선동	-4224
▁유지	-4225
▁잔혹	-4226
나와서	-4227
~!!!	-4228
▁구성이	-4229
▁느낄수	-4230
▁다양한	-4231
▁애들은	-4232
▁여자의	-4233
▁죽이는	-4234
▁패러디	-4235
▁핵노잼	-4236
해주세요	-4237
▁무엇인지	-4238
▁시리즈중	-4239
▁아닙니다	-4240
▁에피소드	-4241
▁영화보면서	-4242
▁K	-4243
▁y	-4244
개인	-4245
게요	-4246
그만	-4247
상은	-4248
신을	-4249
였어	-4250
제로	-4251
종일	-4252
OOO	-4253
▁~~	-4254
▁기준	-4255
▁배역	-4256
▁지났	-4257
▁찍어	-4258
▁그것도	-4259
▁무서워	-4260
▁봅니다	-4261
▁생각할	-4262
▁소소한	-4263
▁어쩔수	-4264
▁유치함	-4265
▁이것이	-4266
▁자체는	-4267
▁첫사랑	-4268
▁훈훈한	-4269
▁2014	-4270
▁드립니다	-4271
▁만들다니	-4272
▁L	-4273
▁묵	-4274
▁왤	-4275
▁칭	-4276
▁캬	-4277
▁홀	-4278
때문	-4279
르게	-4280
뭐야	-4281
분의	-4282
잡고	-4283
장을	-4284
▁게이	-4285
▁결코	-4286
▁낚시	-4287
▁듣고	-4288
▁봐줄	-4289
▁부실	-4290
▁사고	-4291
▁오빠	-4292
▁제외	-4293
▁집착	-4294
▁하네	-4295
▁할수	-4296
으로는	-4297
▁나쁘지	-4298
▁만들면	-4299
▁비디오로	-4300
▁시청률이	-4301
▁연기력은	-4302
▁훌륭하다	-4303
▁마지막까지	-4304
▁ᄏᄏᄏᄏᄏᄏ	-4305
12	-4306
▁넌	-4307
▁휘	-4308
라인	-4309
력을	-4310
로드	-4311
만다	-4312
볼만	-4313
서는	-4314
씨는	-4315
아쉬	-4316
오늘	-4317
이쁘	-4318
이어	-4319
지다	-4320
▁다루	-4321
▁다를	-4322
▁스페	-4323
▁안에	-4324
▁연극	-4325
▁위로	-4326
▁장애	-4327
▁젠장	-4328
▁한명	-4329
▁해석	-4330
겠다는	-4331
레이션	-4332
점대는	-4333
▁느꼈다	-4334
▁느낌의	-4335
▁두번째	-4336
▁식상한	-4337
▁어이없	-4338
▁최근에	-4339
▁흥미로	-4340
배우들이	-4341
없는영화	-4342
▁극장가서	-4343
▁바랍니다	-4344
▁특수효과	-4345
▁억지스러운	-4346
▁N	-4347
▁P	-4348
▁n	-4349
▁났	-4350
▁낭	-4351
▁됬	-4352
▁펼	-4353
건만	-4354
냈다	-4355
누나	-4356
는대	-4357
박한	-4358
번은	-4359
주연	-4360
지면	-4361
지요	-4362
허접	-4363
▁놓고	-4364
▁뭘까	-4365
▁빼면	-4366
▁웃고	-4367
▁일이	-4368
▁자식	-4369
▁탄생	-4370
것같은	-4371
▁실제로	-4372
▁잼나게	-4373
▁질리지	-4374
▁짜임새	-4375
▁처음에	-4376
▁감정이입	-4377
▁겪	-4378
▁택	-4379
같고	-4380
나네	-4381
든지	-4382
아는	-4383
형님	-4384
형래	-4385
▁모험	-4386
▁무한	-4387
▁오로	-4388
이었음	-4389
파이어	-4390
▁명작을	-4391
▁소재도	-4392
▁영화와	-4393
▁재밌을	-4394
▁잼있다	-4395
▁지나도	-4396
▁했으면	-4397
▁기대이상	-4398
▁정말이지	-4399
▁재미도없고	-4400
▁크리스마스	-4401
▁웰	-4402
▁튀	-4403
레인	-4404
묘한	-4405
부를	-4406
빼고	-4407
아름	-4408
어여	-4409
정의	-4410
▁끝났	-4411
▁달리	-4412
▁도망	-4413
▁범인	-4414
▁손에	-4415
▁아래	-4416
▁안습	-4417
▁의리	-4418
▁있던	-4419
▁파워	-4420
▁헤어	-4421
나오고	-4422
솔직히	-4423
연기는	-4424
으로만	-4425
이였다	-4426
해주고	-4427
▁디테일	-4428
▁매력을	-4429
▁추억이	-4430
▁한번도	-4431
미네이터	-4432
생각없이	-4433
▁어설프고	-4434
▁이야기는	-4435
▁생각했는데	-4436
▁재미없었다	-4437
▁W	-4438
과서	-4439
구성	-4440
년작	-4441
루즈	-4442
뭥미	-4443
장한	-4444
팩트	-4445
후회	-4446
▁기자	-4447
▁길게	-4448
▁넘게	-4449
▁다섯	-4450
▁담배	-4451
▁등등	-4452
▁정작	-4453
▁짧은	-4454
▁최민	-4455
감독님	-4456
기전에	-4457
만큼은	-4458
점에서	-4459
▁많아서	-4460
▁영화화	-4461
▁이래서	-4462
▁제임스	-4463
▁주기도	-4464
▁몰입도가	-4465
▁스트레스	-4466
▁블록버스터	-4467
30	-4468
▁F	-4469
▁몬	-4470
▁뿌	-4471
▁앉	-4472
되면	-4473
스포	-4474
취향	-4475
커플	-4476
▁거부	-4477
▁들고	-4478
▁만남	-4479
▁본지	-4480
▁살린	-4481
▁어째	-4482
▁열정	-4483
▁웃겼	-4484
웠지만	-4485
인줄알	-4486
있었다	-4487
적이지	-4488
전개가	-4489
줄이야	-4490
▁거짓말	-4491
▁나머지	-4492
▁대놓고	-4493
▁데리고	-4494
▁소중한	-4495
▁수많은	-4496
▁아무런	-4497
▁의미가	-4498
▁이런건	-4499
▁주제를	-4500
▁따뜻하고	-4501
▁살다살다	-4502
▁엉성하고	-4503
▁짜증나서	-4504
나의	-4505
버려	-4506
어리	-4507
음을	-4508
트의	-4509
티즌	-4510
혼자	-4511
▁매일	-4512
▁비행	-4513
▁쓰고	-4514
▁안된	-4515
▁팬이	-4516
▁감동은	-4517
▁막판에	-4518
▁반전을	-4519
▁별로임	-4520
▁보다니	-4521
▁부분도	-4522
▁새벽에	-4523
▁스티븐	-4524
▁심지어	-4525
▁살아가는	-4526
▁시리즈는	-4527
▁어울리는	-4528
▁최고였다	-4529
▁=	-4530
▁혐	-4531
♡♡	-4532
공감	-4533
긴장	-4534
대해	-4535
리면	-4536
매력	-4537
선생	-4538
하군	-4539
하길	-4540
▁시끄	-4541
▁일깨	-4542
▁정확	-4543
▁주기	-4544
▁틀어	-4545
면에서	-4546
웠어요	-4547
▁거기에	-4548
▁로버트	-4549
▁소설을	-4550
▁아니야	-4551
▁떨어지고	-4552
▁보기에는	-4553
▁만들었는지	-4554
en	-4555
vd	-4556
▁;	-4557
▁샘	-4558
가의	-4559
국영	-4560
니퍼	-4561
덕화	-4562
라의	-4563
마이	-4564
바이	-4565
부가	-4566
아빠	-4567
▁60	-4568
▁강한	-4569
▁고맙	-4570
▁내게	-4571
▁본게	-4572
▁사투	-4573
▁생활	-4574
▁열받	-4575
▁조카	-4576
부분이	-4577
어버린	-4578
자들의	-4579
자들이	-4580
점만점	-4581
해지고	-4582
▁교훈을	-4583
▁그만큼	-4584
▁그자체	-4585
▁낚였다	-4586
▁많은데	-4587
▁보지말	-4588
▁봤을까	-4589
▁역사를	-4590
▁영상과	-4591
재미없음	-4592
▁그저그런	-4593
▁아름답게	-4594
▁영화인가	-4595
▁영화자체	-4596
▁유일하게	-4597
▁좋겠네요	-4598
~~~~~~~~	-4599
..........	-4600
ad	-4601
▁를	-4602
개는	-4603
거든	-4604
데이	-4605
드를	-4606
문화	-4607
이도	-4608
조금	-4609
짱짱	-4610
피스	-4611
▁가르	-4612
▁가지	-4613
▁감각	-4614
▁끔찍	-4615
▁단편	-4616
▁답이	-4617
▁때려	-4618
▁못봐	-4619
▁보던	-4620
▁서부	-4621
▁안가	-4622
▁예능	-4623
▁잼잇	-4624
▁형사	-4625
보이는	-4626
엇는데	-4627
▁가벼운	-4628
▁당신은	-4629
▁동시에	-4630
▁이상의	-4631
▁집중이	-4632
▁최고임	-4633
▁한국인	-4634
보고싶다	-4635
웠습니다	-4636
▁돋보이는	-4637
▁봤는데도	-4638
▁생각으로	-4639
▁재미있습니다	-4640
99	-4641
it	-4642
▁X	-4643
▁껐	-4644
강호	-4645
개그	-4646
드로	-4647
뢰매	-4648
리네	-4649
보지	-4650
시면	-4651
신의	-4652
쓰고	-4653
야할	-4654
오브	-4655
으신	-4656
정한	-4657
치노	-4658
했지	-4659
▁개념	-4660
▁다이	-4661
▁다크	-4662
▁독일	-4663
▁명화	-4664
▁무료	-4665
▁본거	-4666
▁시키	-4667
▁야한	-4668
▁언니	-4669
▁재능	-4670
▁짜집	-4671
갑니다	-4672
메이드	-4673
어가는	-4674
였으면	-4675
점으로	-4676
점주고	-4677
▁돌아가	-4678
▁러시아	-4679
▁뭐하나	-4680
▁배트맨	-4681
▁브루스	-4682
▁웃기다	-4683
▁이보다	-4684
▁작가님	-4685
▁최고로	-4686
거같아요	-4687
▁다운받아	-4688
▁어느정도	-4689
▁집중해서	-4690
80	-4691
ut	-4692
▁첩	-4693
관객	-4694
나니	-4695
는듯	-4696
또한	-4697
래곤	-4698
시오	-4699
어용	-4700
이에	-4701
▁가고	-4702
▁꼬마	-4703
▁낮네	-4704
▁동양	-4705
▁로코	-4706
▁빵빵	-4707
▁아내	-4708
▁애기	-4709
▁유아	-4710
▁이병	-4711
▁익숙	-4712
▁조절	-4713
▁한숨	-4714
관에서	-4715
해야지	-4716
▁교과서	-4717
▁놀라운	-4718
▁당연히	-4719
▁연출은	-4720
▁영화만	-4721
▁원작에	-4722
▁장면도	-4723
▁제이슨	-4724
▁중에서	-4725
▁하길래	-4726
▁하나로	-4727
있습니다	-4728
▁말하고자	-4729
▁본방사수	-4730
▁어색하고	-4731
▁재밌다는	-4732
▁잼있어요	-4733
▁처음에는	-4734
▁클레멘타	-4735
▁한국에서	-4736
가에	-4737
겠죠	-4738
낸다	-4739
동차	-4740
리며	-4741
버스	-4742
분을	-4743
빠진	-4744
성과	-4745
싸움	-4746
햇다	-4747
▁14	-4748
▁감안	-4749
▁목숨	-4750
▁뭐니	-4751
▁받은	-4752
▁수입	-4753
▁쓰는	-4754
▁영향	-4755
▁위험	-4756
▁이야	-4757
▁있네	-4758
▁적절	-4759
▁폭풍	-4760
심으로	-4761
잖아요	-4762
최악의	-4763
하는것	-4764
▁나에겐	-4765
▁내용과	-4766
▁또다른	-4767
▁머리가	-4768
▁별로고	-4769
▁액션을	-4770
▁여주가	-4771
▁이따구	-4772
▁있다니	-4773
▁참신한	-4774
영화인데	-4775
▁볼수있는	-4776
▁아쉽지만	-4777
!!!!!!	-4778
▁케이블에서	-4779
▁쥬	-4780
▁팝	-4781
게임	-4782
여행	-4783
▁정우	-4784
▁즐겨	-4785
▁플롯	-4786
▁혹은	-4787
건가요	-4788
기까지	-4789
나네요	-4790
는데도	-4791
만들어	-4792
봤네요	-4793
에게는	-4794
▁감독을	-4795
▁그립다	-4796
▁기대했	-4797
▁많은걸	-4798
▁모든걸	-4799
▁못하다	-4800
▁약간의	-4801
▁엄마가	-4802
▁영상이	-4803
▁이해를	-4804
▁적당히	-4805
▁조니뎁	-4806
▁피해자	-4807
긴하지만	-4808
스토리가	-4809
영화보다	-4810
▁이상하고	-4811
▁여자주인공	-4812
▁재미없어서	-4813
11	-4814
걱정	-4815
성우	-4816
악한	-4817
였네	-4818
정화	-4819
프닝	-4820
▁두려	-4821
▁먼가	-4822
▁아버	-4823
▁유발	-4824
▁읽어	-4825
▁형님	-4826
있네요	-4827
하고싶	-4828
하자는	-4829
했을때	-4830
▁남네요	-4831
▁너무도	-4832
▁배우도	-4833
▁찾아볼	-4834
▁초딩때	-4835
▁친구가	-4836
하는영화	-4837
▁궁금하다	-4838
▁나름대로	-4839
▁배경음악	-4840
▁재밌어서	-4841
▁태어나서	-4842
ᄏᄏᄏᄏᄏᄏ	-4843
낮은	-4844
도를	-4845
드리	-4846
분한	-4847
오래	-4848
위에	-4849
자와	-4850
체가	-4851
하러	-4852
후의	-4853
▁같고	-4854
▁낮아	-4855
▁낮지	-4856
▁봤네	-4857
▁착각	-4858
▁하여	-4859
▁확인	-4860
포스터	-4861
▁갑니다	-4862
▁숨겨진	-4863
▁싶어요	-4864
▁싸우는	-4865
▁영화같	-4866
▁이딴걸	-4867
▁일부러	-4868
▁진짜로	-4869
▁출연한	-4870
▁케릭터	-4871
▁평점조	-4872
▁한편의	-4873
▁괜찮았다	-4874
▁만든영화	-4875
▁매력적이	-4876
▁배우들은	-4877
▁아니라고	-4878
▁잘봤어요	-4879
▁포스터가	-4880
▁킬링타임용으로	-4881
!!!!!!!!!!!!!!!!	-4882
-^	-4883
▁낯	-4884
▁댄	-4885
▁덤	-4886
복을	-4887
스키	-4888
아치	-4889
장르	-4890
쟁이	-4891
중훈	-4892
▁거북	-4893
▁꽤나	-4894
▁새로	-4895
▁손색	-4896
▁신의	-4897
▁자세	-4898
▁잠시	-4899
▁책을	-4900
▁추격	-4901
▁프레	-4902
도대체	-4903
듭니다	-4904
스럽지	-4905
어야지	-4906
었다는	-4907
한마디	-4908
▁내생에	-4909
▁높아서	-4910
▁보기에	-4911
▁아니지	-4912
▁아류작	-4913
▁여러번	-4914
▁영환데	-4915
▁유일한	-4916
▁인생에	-4917
▁특별한	-4918
▁하다가	-4919
도아니고	-4920
▁영화인지	-4921
▁해리포터	-4922
▁여주인공이	-4923
as	-4924
es	-4925
ᅲᅮ	-4926
▁굴	-4927
▁늑	-4928
▁옹	-4929
느껴	-4930
로의	-4931
만도	-4932
미는	-4933
상의	-4934
스에	-4935
은데	-4936
이름	-4937
일듯	-4938
졸작	-4939
초에	-4940
퓨터	-4941
함도	-4942
▁be	-4943
▁과학	-4944
▁근래	-4945
▁끼워	-4946
▁난잡	-4947
▁디워	-4948
▁말았	-4949
▁부르	-4950
▁애매	-4951
▁주윤	-4952
▁호기	-4953
아저씨	-4954
?...	-4955
▁가족의	-4956
▁공포물	-4957
▁괜찮음	-4958
▁귀여워	-4959
▁놀랍다	-4960
▁반드시	-4961
▁소재와	-4962
▁심형래	-4963
▁않아서	-4964
▁여자는	-4965
▁이소룡	-4966
▁재미로	-4967
▁짜증만	-4968
▁한국의	-4969
▁마이너스	-4970
▁마지막이	-4971
▁이드라마	-4972
▁이런영화는	-4973
▁깡	-4974
▁벤	-4975
개가	-4976
상수	-4977
스크	-4978
싫어	-4979
웃기	-4980
적임	-4981
정우	-4982
직한	-4983
진이	-4984
치곤	-4985
▁개성	-4986
▁밀려	-4987
▁안될	-4988
▁앞뒤	-4989
▁이은	-4990
▁중독	-4991
▁추리	-4992
들한테	-4993
부터가	-4994
하더라	-4995
▁괜찮다	-4996
▁나오네	-4997
▁분들이	-4998
▁불편한	-4999
▁사람도	-5000
▁아깝고	-5001
▁엔딩이	-5002
▁예쁘다	-5003
▁인터넷	-5004
▁일깨워	-5005
▁있다고	-5006
▁한다는	-5007
▁다시보니	-5008
▁마음으로	-5009
▁보았는데	-5010
▁불쌍하다	-5011
▁아까웠다	-5012
▁아쉬움이	-5013
is	-5014
▁>	-5015
▁틈	-5016
▁헌	-5017
▁혁	-5018
따뜻	-5019
성기	-5020
아내	-5021
중이	-5022
지현	-5023
테러	-5024
▁관련	-5025
▁남기	-5026
▁낮다	-5027
▁달콤	-5028
▁망한	-5029
▁실력	-5030
▁애국	-5031
▁위대	-5032
▁첨엔	-5033
▁판단	-5034
속으로	-5035
애들이	-5036
었구나	-5037
하나도	-5038
▁dvd	-5039
▁나왔다	-5040
▁매니아	-5041
▁멋있는	-5042
▁몰랐다	-5043
▁배우는	-5044
▁어우러	-5045
▁장면을	-5046
▁적어도	-5047
▁전쟁의	-5048
▁제목만	-5049
▁짜증남	-5050
♥♥♥♥	-5051
▁봐도봐도	-5052
▁쓸데없이	-5053
▁여자친구	-5054
.0	-5055
.3	-5056
▁염	-5057
▁컬	-5058
같아	-5059
웃김	-5060
인건	-5061
있던	-5062
주일	-5063
죽는	-5064
팔이	-5065
▁빵터	-5066
▁서양	-5067
▁압도	-5068
▁유럽	-5069
▁자랑	-5070
▁주지	-5071
▁지겹	-5072
▁탈출	-5073
▁편안	-5074
▁했음	-5075
▁화장	-5076
왔는데	-5077
▁네티즌	-5078
▁단순히	-5079
▁부모님	-5080
▁생각도	-5081
▁잘하는	-5082
▁현실이	-5083
하지마라	-5084
▁그야말로	-5085
▁리얼리티	-5086
▁수작이다	-5087
▁오랫만에	-5088
▁시나리오가	-5089
▁터미네이터	-5090
▁R	-5091
▁객	-5092
드만	-5093
라노	-5094
민이	-5095
부로	-5096
선을	-5097
줄은	-5098
지나	-5099
▁공간	-5100
▁남편	-5101
▁다신	-5102
▁땜에	-5103
▁맞춰	-5104
▁싶지	-5105
▁언젠	-5106
▁없게	-5107
▁책임	-5108
▁타고	-5109
▁흑인	-5110
으려고	-5111
중에서	-5112
하거나	-5113
▁ᄍᄍᄍ	-5114
▁감동받	-5115
▁강렬한	-5116
▁다르게	-5117
▁되네요	-5118
▁떨어짐	-5119
▁봤다면	-5120
▁사실을	-5121
▁시간에	-5122
▁없었음	-5123
▁제니퍼	-5124
▁지금의	-5125
시나리오	-5126
▁웃으면서	-5127
▁잔잔하게	-5128
▁든	-5129
▁링	-5130
▁벨	-5131
림이	-5132
보영	-5133
부는	-5134
어색	-5135
언제	-5136
있을	-5137
패스	-5138
▁극복	-5139
▁꿈꾸	-5140
▁로빈	-5141
▁못미	-5142
▁바다	-5143
▁배신	-5144
▁부탁	-5145
▁아냐	-5146
▁아우	-5147
▁읽고	-5148
▁케빈	-5149
▁하품	-5150
는거야	-5151
생각이	-5152
▁대통령	-5153
▁본건데	-5154
▁아들이	-5155
▁아무도	-5156
▁알겠다	-5157
▁액션과	-5158
▁여자들	-5159
▁희망을	-5160
▁아이들과	-5161
▁영상미가	-5162
▁아까운영화	-5163
▁곧	-5164
▁곽	-5165
▁님	-5166
때는	-5167
때매	-5168
래도	-5169
부의	-5170
분위	-5171
스케	-5172
안됨	-5173
여주	-5174
유리	-5175
으리	-5176
전을	-5177
전이	-5178
점수	-5179
졌음	-5180
▁것에	-5181
▁나랑	-5182
▁만약	-5183
▁묻어	-5184
▁받는	-5185
▁실험	-5186
▁외로	-5187
▁인형	-5188
▁잊고	-5189
재미도	-5190
▁그동안	-5191
▁사운드	-5192
▁얼굴이	-5193
▁잊혀지	-5194
▁후속작	-5195
▁희대의	-5196
같은영화	-5197
극장에서	-5198
재미있게	-5199
하지않고	-5200
...^^	-5201
▁궁금해서	-5202
▁영화라니	-5203
▁이해할수	-5204
▁재밋어요	-5205
▁전체적인	-5206
▁주인공들	-5207
▁사람들에게	-5208
▁재미없다고	-5209
▁ᄇ	-5210
▁떼	-5211
▁밖	-5212
▁숙	-5213
보내	-5214
세여	-5215
식은	-5216
엄청	-5217
엇음	-5218
이여	-5219
이프	-5220
중반	-5221
지네	-5222
차별	-5223
▁극단	-5224
▁당황	-5225
▁루즈	-5226
▁마무	-5227
▁맛이	-5228
▁무게	-5229
▁미쳤	-5230
▁반담	-5231
▁별반	-5232
▁보내	-5233
▁삶이	-5234
▁서울	-5235
▁스텝	-5236
▁안들	-5237
▁열연	-5238
▁줘야	-5239
▁하아	-5240
▁호구	-5241
정적인	-5242
화이팅	-5243
▁도무지	-5244
▁멋지고	-5245
▁안간다	-5246
▁울리는	-5247
▁이토록	-5248
▁일본은	-5249
▁잼있음	-5250
▁기억나는	-5251
▁내용인지	-5252
▁영화였음	-5253
▁짜증나고	-5254
▁하나하나가	-5255
▁한국영화의	-5256
▁엔	-5257
노답	-5258
들로	-5259
로맨	-5260
리나	-5261
말도	-5262
먹은	-5263
못해	-5264
버릴	-5265
범죄	-5266
불쌍	-5267
신고	-5268
잡을	-5269
추억	-5270
해선	-5271
희가	-5272
▁김혜	-5273
▁끌고	-5274
▁담겨	-5275
▁무너	-5276
▁빠른	-5277
▁왤케	-5278
▁자본	-5279
▁집어	-5280
▁클래	-5281
▁힘내	-5282
만하다	-5283
배우의	-5284
습니까	-5285
인들의	-5286
인지도	-5287
좋았다	-5288
▁you	-5289
▁귀엽다	-5290
▁다보고	-5291
▁됩니다	-5292
▁박중훈	-5293
▁사랑해	-5294
▁없나요	-5295
▁이름을	-5296
▁이뻐서	-5297
▁주제가	-5298
▁줍니다	-5299
▁혹시나	-5300
▁흐르는	-5301
▁뱀파이어	-5302
▁할리우드	-5303
▁모르겠네요	-5304
▁ᄏᄏᄏᄏᄏᄏᄏ	-5305
▁깍	-5306
▁띄	-5307
▁품	-5308
▁효	-5309
딩때	-5310
므로	-5311
사와	-5312
아픈	-5313
장의	-5314
▁냄새	-5315
▁리즈	-5316
▁무난	-5317
▁받고	-5318
▁배급	-5319
▁빨갱	-5320
▁사상	-5321
▁생긴	-5322
▁선물	-5323
▁아놀	-5324
▁아파	-5325
▁오브	-5326
▁진리	-5327
내용은	-5328
라는게	-5329
싶은데	-5330
아직도	-5331
했다면	-5332
▁4.4	-5333
▁개노잼	-5334
▁나이가	-5335
▁때마다	-5336
▁만화책	-5337
▁사이코	-5338
▁시간때	-5339
▁시간만	-5340
▁실화를	-5341
▁안봐도	-5342
▁어른이	-5343
▁왜이러	-5344
▁전개와	-5345
▁정도면	-5346
▁짜증이	-5347
▁ᄒᄒᄒᄒ	-5348
▁사랑해요	-5349
▁쭉	-5350
▁햇	-5351
드림	-5352
들여	-5353
미국	-5354
사에	-5355
살인	-5356
상영	-5357
판이	-5358
▁of	-5359
▁담은	-5360
▁따위	-5361
▁맞지	-5362
▁싸움	-5363
▁평균	-5364
▁프리	-5365
게하는	-5366
분들이	-5367
뿐이다	-5368
아닌가	-5369
었다고	-5370
할만한	-5371
▁가득한	-5372
▁괜찮고	-5373
▁나네요	-5374
▁다르다	-5375
▁들어가	-5376
▁스포츠	-5377
▁울면서	-5378
▁잘못된	-5379
▁장국영	-5380
▁저평가	-5381
▁한개도	-5382
▁허술한	-5383
기도하고	-5384
▁2000	-5385
▁나레이션	-5386
▁생각난다	-5387
▁괜찮았는데	-5388
▁작품입니다	-5389
▁최고의영화	-5390
갈때	-5391
높은	-5392
느끼	-5393
둥이	-5394
루토	-5395
마자	-5396
비슷	-5397
살아	-5398
싫다	-5399
쓰는	-5400
어의	-5401
저리	-5402
..!	-5403
▁고뇌	-5404
▁김치	-5405
▁내돈	-5406
▁달려	-5407
▁담담	-5408
▁대신	-5409
▁두근	-5410
▁마약	-5411
▁망치	-5412
▁맞아	-5413
▁뭥미	-5414
▁벗어	-5415
▁본듯	-5416
▁부담	-5417
▁사무	-5418
▁엑스	-5419
▁으리	-5420
▁즐길	-5421
▁찍고	-5422
▁파괴	-5423
▁폐지	-5424
▁폭발	-5425
▁하시	-5426
들끼리	-5427
있지만	-5428
▁내용의	-5429
▁반전에	-5430
▁설정이	-5431
▁아진짜	-5432
▁없으면	-5433
▁우뢰매	-5434
▁이름이	-5435
▁정도가	-5436
▁좋다고	-5437
▁최고봉	-5438
▁뜬금없는	-5439
▁아깝네요	-5440
▁자극적인	-5441
▁재밌었던	-5442
▁재미있는데	-5443
▁갓	-5444
▁는	-5445
▁뗄	-5446
▁쿵	-5447
경이	-5448
시가	-5449
시원	-5450
오랜	-5451
준호	-5452
질이	-5453
하균	-5454
히고	-5455
▁각색	-5456
▁기존	-5457
▁꼭보	-5458
▁몰라	-5459
▁바탕	-5460
▁빛을	-5461
▁소피	-5462
▁어떨	-5463
▁이성	-5464
▁저급	-5465
▁참나	-5466
▁혐오	-5467
▁흑백	-5468
▁흡입	-5469
납니다	-5470
리네요	-5471
모르고	-5472
분동안	-5473
분만에	-5474
▁개그맨	-5475
▁내용에	-5476
▁드디어	-5477
▁봐야지	-5478
▁불쌍한	-5479
▁스릴도	-5480
▁시대에	-5481
▁않았던	-5482
▁어렵다	-5483
▁없다고	-5484
▁영원한	-5485
▁인생은	-5486
▁인생이	-5487
▁일본의	-5488
▁점수는	-5489
▁최소한	-5490
▁황당한	-5491
▁기대없이	-5492
▁믿고보는	-5493
▁볼만했다	-5494
▁쓸데없는	-5495
▁사랑합니다	-5496
90	-5497
▁땡	-5498
▁뚝	-5499
▁뽀	-5500
▁킹	-5501
가리	-5502
고생	-5503
그럼	-5504
까요	-5505
데체	-5506
든가	-5507
리와	-5508
서도	-5509
소름	-5510
의를	-5511
좋게	-5512
코믹	-5513
▁깊게	-5514
▁망친	-5515
▁몽환	-5516
▁박수	-5517
▁사용	-5518
▁생에	-5519
▁손발	-5520
▁어둡	-5521
▁왜곡	-5522
▁우연	-5523
▁이준	-5524
▁잠이	-5525
▁정상	-5526
▁탁월	-5527
▁한방	-5528
거같음	-5529
그러나	-5530
아무리	-5531
임에도	-5532
했을까	-5533
▁결론은	-5534
▁당시에	-5535
▁매력에	-5536
▁뭐하는	-5537
▁미국의	-5538
▁불가능	-5539
▁영화나	-5540
▁영화야	-5541
▁이병헌	-5542
▁현실과	-5543
▁갠적으로	-5544
▁언제봐도	-5545
▁탄탄하고	-5546
▁시간아깝다	-5547
ᄏᄏᄏᄏᄏᄏᄏ	-5548
al	-5549
ic	-5550
ow	-5551
▁곱	-5552
▁꿀	-5553
구가	-5554
귀여	-5555
께요	-5556
남기	-5557
도의	-5558
되게	-5559
리엄	-5560
모로	-5561
무시	-5562
번을	-5563
없지	-5564
웠고	-5565
이죠	-5566
진않	-5567
▁기타	-5568
▁끝에	-5569
▁말자	-5570
▁뭐고	-5571
▁반대	-5572
▁암걸	-5573
▁유행	-5574
▁이수	-5575
▁일베	-5576
▁잤다	-5577
▁짐캐	-5578
▁컨셉	-5579
▁평소	-5580
는거지	-5581
답니다	-5582
스러워	-5583
제대로	-5584
▁ᄃᄃᄃ	-5585
▁공짜로	-5586
▁그것을	-5587
▁느낌은	-5588
▁다세포	-5589
▁빛나는	-5590
▁어쩌면	-5591
▁오프닝	-5592
▁이제는	-5593
▁재개봉	-5594
▁적절한	-5595
▁헛웃음	-5596
▁마지막회	-5597
▁무엇인가	-5598
▁웰메이드	-5599
▁이도저도	-5600
▁포스터만	-5601
쓰레기영화	-5602
▁전반적으로	-5603
▁H	-5604
▁뭣	-5605
▁웅	-5606
감과	-5607
났음	-5608
되나	-5609
롭고	-5610
발견	-5611
불허	-5612
슨이	-5613
없나	-5614
였나	-5615
원은	-5616
이든	-5617
자리	-5618
조연	-5619
할지	-5620
형제	-5621
▁강간	-5622
▁걱정	-5623
▁겉멋	-5624
▁과대	-5625
▁나무	-5626
▁녹아	-5627
▁담백	-5628
▁동네	-5629
▁망가	-5630
▁민폐	-5631
▁밤에	-5632
▁원조	-5633
▁장동	-5634
▁조화	-5635
까지도	-5636
라이언	-5637
여운이	-5638
연기를	-5639
ᄒᄒᄒᄒ	-5640
▁감독과	-5641
▁고양이	-5642
▁공감할	-5643
▁그것이	-5644
▁시대의	-5645
▁역겨운	-5646
▁인간은	-5647
▁지겹다	-5648
▁짜집기	-5649
▁첨부터	-5650
▁컴퓨터	-5651
했었는데	-5652
▁나오는데	-5653
▁진지하게	-5654
▁초등학교	-5655
▁추천하고	-5656
▁만들었을까	-5657
od	-5658
▁땅	-5659
▁컸	-5660
간에	-5661
그랬	-5662
대고	-5663
라라	-5664
란티	-5665
먹을	-5666
박죽	-5667
슨의	-5668
아노	-5669
우스	-5670
있지	-5671
졌던	-5672
존나	-5673
질않	-5674
▁갖다	-5675
▁개콘	-5676
▁담긴	-5677
▁무겁	-5678
▁임창	-5679
▁절망	-5680
▁힘을	-5681
았으면	-5682
주기도	-5683
죽박죽	-5684
지루함	-5685
▁감독도	-5686
▁공감도	-5687
▁끝날때	-5688
▁배경이	-5689
▁살인마	-5690
▁아깝네	-5691
▁안어울	-5692
▁은근히	-5693
▁자동차	-5694
▁적당한	-5695
▁좋을듯	-5696
▁주윤발	-5697
▁친구랑	-5698
▁풋풋한	-5699
▁느낌이다	-5700
▁못보겠다	-5701
▁봐야하는	-5702
▁시작부터	-5703
▁억지감동	-5704
▁엄청나게	-5705
,3	-5706
▁땐	-5707
▁붕	-5708
▁쫓	-5709
▁탓	-5710
▁핸	-5711
굿굿	-5712
랜드	-5713
법한	-5714
선이	-5715
아지	-5716
앗다	-5717
여진	-5718
웨이	-5719
위한	-5720
이딴	-5721
일을	-5722
자로	-5723
주면	-5724
카프	-5725
하디	-5726
▁국가	-5727
▁김태	-5728
▁늦게	-5729
▁데뷔	-5730
▁뒤에	-5731
▁먹는	-5732
▁수면	-5733
▁앞에	-5734
▁없냐	-5735
▁예수	-5736
▁요새	-5737
▁일으	-5738
▁줄리	-5739
▁즐기	-5740
▁키스	-5741
▁파격	-5742
같아서	-5743
겠는데	-5744
그렇게	-5745
었다면	-5746
적으론	-5747
코메디	-5748
평론가	-5749
하니까	-5750
~~^^	-5751
▁내생애	-5752
▁누군가	-5753
▁돈내고	-5754
▁못봐주	-5755
▁무섭고	-5756
▁뭐라고	-5757
▁세상이	-5758
▁않은데	-5759
▁어디로	-5760
▁왠만한	-5761
▁제목을	-5762
내용인지	-5763
드라마가	-5764
▁다행이다	-5765
▁둘째치고	-5766
▁드라마의	-5767
▁만들어서	-5768
▁소중함을	-5769
▁시작해서	-5770
▁유치해서	-5771
▁이런류의	-5772
▁할아버지	-5773
▁재미있었습니다	-5774
ot	-5775
▁쪼	-5776
▁쫄	-5777
나름	-5778
나쁜	-5779
늦게	-5780
답게	-5781
리한	-5782
물로	-5783
전혀	-5784
져야	-5785
즈의	-5786
호감	-5787
▁가정	-5788
▁개똥	-5789
▁김희	-5790
▁깡패	-5791
▁말투	-5792
▁매끄	-5793
▁불안	-5794
▁여친	-5795
▁역량	-5796
▁오우	-5797
▁이다	-5798
▁절로	-5799
▁점이	-5800
▁죽고	-5801
▁최소	-5802
▁축구	-5803
▁피터	-5804
▁흔들	-5805
되는데	-5806
레이드	-5807
있으면	-5808
점부터	-5809
졌어요	-5810
▁가까운	-5811
▁괜찮게	-5812
▁무거운	-5813
▁보라고	-5814
▁안무서	-5815
▁양아치	-5816
▁없는게	-5817
▁외계인	-5818
▁의도가	-5819
▁진지한	-5820
지않는다	-5821
▁목소리가	-5822
▁아이들의	-5823
▁인상적인	-5824
▁재미있어	-5825
▁전쟁영화	-5826
▁사람이라면	-5827
ᅲᅲᅲᅲᅲᅲᅲᅲ	-5828
CG	-5829
▁곰	-5830
▁앨	-5831
▁콘	-5832
▁협	-5833
놨네	-5834
더맨	-5835
라에	-5836
모를	-5837
받을	-5838
보긴	-5839
았네	-5840
일의	-5841
잖은	-5842
지에	-5843
짬뽕	-5844
탈출	-5845
하실	-5846
함께	-5847
▁거품	-5848
▁고어	-5849
▁로드	-5850
▁만난	-5851
▁박신	-5852
▁이렇	-5853
▁자고	-5854
▁정보	-5855
▁짜릿	-5856
간만에	-5857
시대에	-5858
애들은	-5859
적이라	-5860
,.,.	-5861
▁가족이	-5862
▁그들이	-5863
▁기대가	-5864
▁느끼고	-5865
▁드래곤	-5866
▁무언가	-5867
▁버리고	-5868
▁스타뎀	-5869
▁어두운	-5870
▁요소가	-5871
▁자기가	-5872
▁재밋음	-5873
▁정도는	-5874
▁제시카	-5875
▁질질끌	-5876
▁찾아서	-5877
으면서도	-5878
있는영화	-5879
카프리오	-5880
▁100%	-5881
▁마지막엔	-5882
▁포스터에	-5883
재미있어요	-5884
...........	-5885
19	-5886
TV	-5887
▁ᄡ	-5888
▁널	-5889
가네	-5890
국의	-5891
끝나	-5892
다르	-5893
더더	-5894
들러	-5895
뚱맞	-5896
랐다	-5897
말을	-5898
얼마	-5899
없을	-5900
역할	-5901
우의	-5902
인게	-5903
장애	-5904
정쩡	-5905
질질	-5906
프레	-5907
?..	-5908
▁--	-5909
▁가수	-5910
▁개나	-5911
▁매미	-5912
▁분량	-5913
▁세번	-5914
▁실감	-5915
▁잃은	-5916
▁잠들	-5917
▁줄수	-5918
같아요	-5919
까지만	-5920
란티노	-5921
맙시다	-5922
▁귀여움	-5923
▁말고는	-5924
▁말아야	-5925
▁명불허	-5926
▁명장면	-5927
▁수준을	-5928
▁안본다	-5929
▁어거지	-5930
▁이만한	-5931
거같은데	-5932
시간동안	-5933
▁괜찮았음	-5934
▁꼭보세요	-5935
▁영화예요	-5936
▁유쾌하게	-5937
▁장난하냐	-5938
▁짜증나게	-5939
▁흘러가는	-5940
▁땀	-5941
▁맴	-5942
▁빙	-5943
▁앵	-5944
▁칠	-5945
기법	-5946
기와	-5947
대에	-5948
도로	-5949
됐다	-5950
란한	-5951
뭐냐	-5952
뭐지	-5953
민의	-5954
바라	-5955
사실	-5956
셔야	-5957
아누	-5958
워즈	-5959
잇는	-5960
전의	-5961
점에	-5962
쯧쯧	-5963
트를	-5964
▁:)	-5965
▁가히	-5966
▁건가	-5967
▁기획	-5968
▁길이	-5969
▁깨알	-5970
▁나중	-5971
▁단어	-5972
▁버려	-5973
▁보신	-5974
▁아담	-5975
▁어리	-5976
▁장진	-5977
▁좋네	-5978
▁첩보	-5979
▁치유	-5980
▁하도	-5981
▁환경	-5982
감독은	-5983
보지마	-5984
봐야지	-5985
생각을	-5986
파치노	-5987
▁가능한	-5988
▁동영상	-5989
▁떨어지	-5990
▁보기가	-5991
▁보시면	-5992
▁보았던	-5993
▁설득력	-5994
▁시청자	-5995
▁애초에	-5996
▁영상도	-5997
▁요즘은	-5998
▁잊을수	-5999
▁작가의	-6000
▁잘한다	-6001
▁조금은	-6002
▁한국판	-6003
▁한번더	-6004
▁화장실	-6005
우리나라	-6006
▁만들어낸	-6007
▁만들어라	-6008
▁말그대로	-6009
▁배경으로	-6010
▁사랑하고	-6011
▁산만하고	-6012
▁순수하고	-6013
▁않았지만	-6014
▁이것보단	-6015
개인적으로	-6016
▁볼만합니다	-6017
▁생각해보게	-6018
▁재미있었음	-6019
▁캐릭터들이	-6020
▁드라마입니다	-6021
▁아무생각없이	-6022
▁벅	-6023
▁쌩	-6024
▁죠	-6025
▁팍	-6026
것에	-6027
동원	-6028
만족	-6029
미스	-6030
보구	-6031
신도	-6032
체적	-6033
치지	-6034
타고	-6035
▁갔다	-6036
▁객관	-6037
▁난리	-6038
▁단체	-6039
▁빼곤	-6040
▁삶과	-6041
▁암울	-6042
▁예측	-6043
▁조차	-6044
▁졸업	-6045
▁죄송	-6046
▁판타	-6047
기억이	-6048
못하는	-6049
시간을	-6050
아니면	-6051
점이상	-6052
종일관	-6053
줬으면	-6054
필버그	-6055
하시고	-6056
▁교훈도	-6057
▁나을듯	-6058
▁놀랐다	-6059
▁라스트	-6060
▁명작은	-6061
▁모습은	-6062
▁보게된	-6063
▁볼려고	-6064
▁선생님	-6065
▁싶었다	-6066
▁싶었던	-6067
▁알았음	-6068
▁영화이	-6069
▁점수준	-6070
▁흥미를	-6071
좋은영화	-6072
▁뜬금없이	-6073
▁연출력이	-6074
▁영화인줄	-6075
▁이해불가	-6076
▁제작비가	-6077
▁충격적인	-6078
▁좋아하지만	-6079
▁좋았을텐데	-6080
nd	-6081
▁x	-6082
▁ᄆ	-6083
▁및	-6084
▁옳	-6085
▁털	-6086
로로	-6087
못한	-6088
바람	-6089
볼수	-6090
부지	-6091
살이	-6092
스와	-6093
승전	-6094
시기	-6095
안타	-6096
예술	-6097
일러	-6098
주기	-6099
증이	-6100
치의	-6101
케이	-6102
킬링	-6103
^^*	-6104
▁,,	-6105
▁메이	-6106
▁모욕	-6107
▁묘한	-6108
▁뮤직	-6109
▁베리	-6110
▁변화	-6111
▁보단	-6112
▁보라	-6113
▁브래	-6114
▁소화	-6115
▁이동	-6116
▁인종	-6117
▁절제	-6118
▁진한	-6119
▁찾는	-6120
▁트랜	-6121
▁향연	-6122
▁형제	-6123
▁황정	-6124
▁후에	-6125
겠다고	-6126
류영화	-6127
하기엔	-6128
ovie	-6129
▁공포를	-6130
▁당신이	-6131
▁라이언	-6132
▁명대사	-6133
▁모른다	-6134
▁속았다	-6135
▁싶어서	-6136
▁아프다	-6137
▁안좋아	-6138
▁웃기는	-6139
▁홍상수	-6140
▁감명깊게	-6141
▁괜찮네요	-6142
▁그렇지만	-6143
▁만들었나	-6144
▁모르지만	-6145
▁사람들을	-6146
▁영화라서	-6147
▁홍콩영화	-6148
15	-6149
ay	-6150
▁&	-6151
▁록	-6152
▁린	-6153
▁섭	-6154
▁엮	-6155
가운	-6156
개를	-6157
겠어	-6158
귀엽	-6159
나간	-6160
때도	-6161
무엇	-6162
석규	-6163
소가	-6164
스틱	-6165
시나	-6166
영의	-6167
자면	-6168
참고	-6169
채널	-6170
편집	-6171
할뿐	-6172
ᅮᅮᅮ	-6173
▁??	-6174
▁격투	-6175
▁과정	-6176
▁김지	-6177
▁따름	-6178
▁말씀	-6179
▁맡은	-6180
▁몇년	-6181
▁무식	-6182
▁반영	-6183
▁배꼽	-6184
▁소통	-6185
▁심장	-6186
▁애틋	-6187
듯하다	-6188
라이즈	-6189
목소리	-6190
보네요	-6191
았네요	-6192
지못할	-6193
지않다	-6194
최고다	-6195
하고는	-6196
햇는데	-6197
▁나루토	-6198
▁미소가	-6199
▁소재의	-6200
▁여러분	-6201
▁하이틴	-6202
▁하정우	-6203
▁2012	-6204
▁기대이하	-6205
▁느껴졌다	-6206
▁뒤죽박죽	-6207
▁왔습니다	-6208
▁다운받아서	-6209
▁오글거리는	-6210
▁좋겠습니다	-6211
▁삽	-6212
▁액	-6213
가면	-6214
경찰	-6215
고도	-6216
곳에	-6217
구라	-6218
다만	-6219
물론	-6220
물의	-6221
바타	-6222
번에	-6223
빠져	-6224
상에	-6225
없게	-6226
예진	-6227
웃겨	-6228
의식	-6229
쥬얼	-6230
추는	-6231
치도	-6232
치를	-6233
하루	-6234
^-^	-6235
▁16	-6236
▁고독	-6237
▁기괴	-6238
▁나음	-6239
▁난무	-6240
▁늑대	-6241
▁도둑	-6242
▁망할	-6243
▁무간	-6244
▁방해	-6245
▁별거	-6246
▁부부	-6247
▁부산	-6248
▁선사	-6249
▁왔다	-6250
▁이별	-6251
▁잠을	-6252
▁하기	-6253
▁하며	-6254
끝나고	-6255
나이트	-6256
년대에	-6257
다니는	-6258
을수가	-6259
~~!!	-6260
▁EBS	-6261
▁더빙이	-6262
▁류승범	-6263
▁만점에	-6264
▁멋지게	-6265
▁무섭게	-6266
▁부자연	-6267
▁비호감	-6268
▁아마추	-6269
▁아이언	-6270
▁알았네	-6271
▁애니는	-6272
▁영화속	-6273
▁임팩트	-6274
▁절대로	-6275
▁조금만	-6276
▁중학생	-6277
공포영화	-6278
지루하고	-6279
▁4.44	-6280
▁개봉당시	-6281
▁거지같은	-6282
▁기대하지	-6283
▁명불허전	-6284
▁시종일관	-6285
▁연기력에	-6286
▁있었으면	-6287
▁장면들이	-6288
▁최고네요	-6289
▁형편없는	-6290
▁감동적이네요	-6291
~♥	-6292
▁습	-6293
▁을	-6294
▁찢	-6295
▁쿨	-6296
▁폰	-6297
감정	-6298
광고	-6299
꺼면	-6300
님은	-6301
선택	-6302
시의	-6303
아오	-6304
왕국	-6305
은거	-6306
줬다	-6307
집어	-6308
집에	-6309
트로	-6310
후에	-6311
▁끝도	-6312
▁넘넘	-6313
▁놀란	-6314
▁따분	-6315
▁뭐임	-6316
▁미녀	-6317
▁바닥	-6318
▁볼까	-6319
▁삭제	-6320
▁상징	-6321
▁생겼	-6322
▁수록	-6323
▁스피	-6324
▁애잔	-6325
▁어떠	-6326
▁어쨌	-6327
▁없었	-6328
▁엑소	-6329
▁영구	-6330
▁음식	-6331
▁정당	-6332
▁차이	-6333
▁칭찬	-6334
▁평을	-6335
▁평화	-6336
▁풍자	-6337
▁허허	-6338
▁호불	-6339
거리가	-6340
그런지	-6341
없어요	-6342
였다면	-6343
을까요	-6344
▁개봉한	-6345
▁대사도	-6346
▁마시길	-6347
▁보이지	-6348
▁살리지	-6349
▁어정쩡	-6350
▁유덕화	-6351
▁잼있는	-6352
▁전개는	-6353
▁허무한	-6354
졌습니다	-6355
~~~~~	-6356
▁내용전개	-6357
▁아이디어	-6358
▁안보는게	-6359
▁에로영화	-6360
▁재미있을	-6361
▁현실적이	-6362
▁마지막장면	-6363
▁블랙코미디	-6364
le	-6365
▁갱	-6366
▁듬	-6367
▁멜	-6368
▁썰	-6369
간히	-6370
결국	-6371
느냐	-6372
상한	-6373
심에	-6374
에다	-6375
였지	-6376
울뿐	-6377
위가	-6378
유발	-6379
이요	-6380
진창	-6381
행복	-6382
힘들	-6383
▁고문	-6384
▁공중	-6385
▁남의	-6386
▁났다	-6387
▁다녀	-6388
▁들이	-6389
▁버린	-6390
▁빵점	-6391
▁승리	-6392
▁쓸쓸	-6393
▁에효	-6394
▁우선	-6395
▁워낙	-6396
▁절정	-6397
더라고	-6398
뻔했다	-6399
재밌어	-6400
점이나	-6401
좋네요	-6402
편에서	-6403
▁낫겠다	-6404
▁닥치고	-6405
▁똑같이	-6406
▁말인가	-6407
▁메세지	-6408
▁별점이	-6409
▁보게되	-6410
▁부분은	-6411
▁빠져서	-6412
▁상황을	-6413
▁손가락	-6414
▁이상은	-6415
▁키아누	-6416
▁필요가	-6417
▁가족영화	-6418
▁다시보기	-6419
▁드라마다	-6420
▁소장하고	-6421
▁시리즈의	-6422
▁오글오글	-6423
▁행복하게	-6424
▁디카프리오	-6425
▁잘만들었다	-6426
▁코미디영화	-6427
▁삐	-6428
거의	-6429
니가	-6430
더군	-6431
때가	-6432
맘에	-6433
바닥	-6434
비해	-6435
스톤	-6436
실히	-6437
여기	-6438
인에	-6439
있냐	-6440
주제	-6441
태현	-6442
허무	-6443
회가	-6444
▁to	-6445
▁끝날	-6446
▁능가	-6447
▁담고	-6448
▁대결	-6449
▁대학	-6450
▁던져	-6451
▁드라	-6452
▁로망	-6453
▁밝혀	-6454
▁부정	-6455
▁불과	-6456
▁소년	-6457
▁엽기	-6458
▁왠만	-6459
▁요리	-6460
▁우디	-6461
▁운명	-6462
▁이지	-6463
▁전화	-6464
▁좋지	-6465
▁지옥	-6466
▁질리	-6467
▁콜린	-6468
▁펼쳐	-6469
▁한가	-6470
옵니다	-6471
은영화	-6472
크레딧	-6473
할수가	-6474
▁같았다	-6475
▁구성도	-6476
▁끝나서	-6477
▁누군지	-6478
▁데이빗	-6479
▁도데체	-6480
▁드네요	-6481
▁보는거	-6482
▁보는것	-6483
▁빠지는	-6484
▁아무튼	-6485
▁액션씬	-6486
▁있었고	-6487
▁한순간	-6488
▁했더니	-6489
것같네요	-6490
여주인공	-6491
점만점에	-6492
하나하나	-6493
▁긴장감을	-6494
▁독특하고	-6495
▁돌아보게	-6496
▁바탕으로	-6497
▁세상에서	-6498
▁스타워즈	-6499
▁실망이다	-6500
▁싶습니다	-6501
▁아니잖아	-6502
▁어설프다	-6503
▁연기하는	-6504
▁캐릭터들	-6505
▁한심하다	-6506
▁영화보다가	-6507
▁최악의영화	-6508
▁재밌게봤어요	-6509
ck	-6510
▁J	-6511
▁곤	-6512
▁젖	-6513
가장	-6514
감사	-6515
놈이	-6516
본게	-6517
성한	-6518
수선	-6519
어스	-6520
에로	-6521
잔인	-6522
잡는	-6523
조현	-6524
트는	-6525
▁is	-6526
▁공유	-6527
▁끝을	-6528
▁마찬	-6529
▁먹칠	-6530
▁밑도	-6531
▁본격	-6532
▁부활	-6533
▁쉬운	-6534
▁오는	-6535
▁이승	-6536
▁재방	-6537
▁창피	-6538
갔는데	-6539
리스트	-6540
못하고	-6541
발연기	-6542
재밋게	-6543
졌으면	-6544
포인트	-6545
하기에	-6546
한테는	-6547
▁ᄒᄃᄃ	-6548
▁결국은	-6549
▁그림체	-6550
▁되돌아	-6551
▁멋있고	-6552
▁세월이	-6553
▁송강호	-6554
▁신하균	-6555
▁영화일	-6556
▁영화적	-6557
▁영화지	-6558
▁이상해	-6559
▁잘보고	-6560
▁잘생겼	-6561
▁현실은	-6562
▁귀여워요	-6563
▁답답하다	-6564
▁드라마로	-6565
▁드라마에	-6566
▁별로였다	-6567
▁삼류영화	-6568
▁아까워서	-6569
▁언제까지	-6570
▁오래전에	-6571
▁이거보단	-6572
▁이야기의	-6573
▁지루함을	-6574
▁캐릭터도	-6575
▁캐릭터를	-6576
▁파워레인	-6577
애니메이션	-6578
ed	-6579
▁V	-6580
▁큐	-6581
관을	-6582
꺼야	-6583
롭게	-6584
분도	-6585
브리	-6586
상태	-6587
씨도	-6588
알고	-6589
위원	-6590
으러	-6591
으셨	-6592
이큰	-6593
잔잔	-6594
종영	-6595
치면	-6596
표정	-6597
희의	-6598
▁ᄌᄂ	-6599
▁공룡	-6600
▁드니	-6601
▁말은	-6602
▁머릿	-6603
▁모아	-6604
▁바이	-6605
▁베이	-6606
▁보려	-6607
▁비록	-6608
▁섬뜩	-6609
▁싸우	-6610
▁오지	-6611
▁원숭	-6612
▁지극	-6613
▁직업	-6614
▁한지	-6615
부터는	-6616
정도의	-6617
좋은데	-6618
치고는	-6619
하지말	-6620
▁2.2	-6621
▁것인가	-6622
▁관심이	-6623
▁깔끔한	-6624
▁낮네요	-6625
▁만든거	-6626
▁만들수	-6627
▁명복을	-6628
▁못만들	-6629
▁보여줄	-6630
▁시도는	-6631
▁역사상	-6632
▁이미지	-6633
▁첨이다	-6634
▁포인트	-6635
▁피아노	-6636
▁하다니	-6637
것같은데	-6638
▁드라마중	-6639
▁모든것이	-6640
▁알파치노	-6641
▁이영화의	-6642
▁최고라고	-6643
▁감동적이에요	-6644
????????	-6645
.-	-6646
am	-6647
▁람	-6648
▁잉	-6649
광구	-6650
그저	-6651
녀석	-6652
덕에	-6653
렸던	-6654
마르	-6655
미를	-6656
비에	-6657
스텔	-6658
승우	-6659
안돼	-6660
어지	-6661
역을	-6662
오오	-6663
자인	-6664
제일	-6665
주행	-6666
중국	-6667
충격	-6668
켓몬	-6669
홧팅	-6670
▁17	-6671
▁th	-6672
▁국어	-6673
▁권상	-6674
▁그가	-6675
▁글고	-6676
▁긴박	-6677
▁길을	-6678
▁때는	-6679
▁리암	-6680
▁마냥	-6681
▁새삼	-6682
▁쏟아	-6683
▁엘리	-6684
▁연상	-6685
▁조낸	-6686
▁킬러	-6687
기위해	-6688
나오네	-6689
덩어리	-6690
리는데	-6691
시청률	-6692
영화제	-6693
재밌고	-6694
▁;;;	-6695
▁가장한	-6696
▁것들이	-6697
▁공포는	-6698
▁다시금	-6699
▁당신의	-6700
▁되는데	-6701
▁성룡의	-6702
▁실망이	-6703
▁여자를	-6704
▁의도는	-6705
▁있으나	-6706
▁재밌었	-6707
▁제목에	-6708
▁페이크	-6709
▁한시간	-6710
▁했으나	-6711
드라마는	-6712
프로그램	-6713
▁나머지는	-6714
▁뭐하자는	-6715
▁살아있는	-6716
▁안나온다	-6717
▁울었어요	-6718
▁캐스팅이	-6719
▁미스캐스팅	-6720
▁영화라지만	-6721
▁재미있었는데	-6722
ig	-6723
tv	-6724
▁r	-6725
▁걷	-6726
▁숀	-6727
▁쾌	-6728
달라	-6729
도한	-6730
돌려	-6731
랑은	-6732
럽지	-6733
르네	-6734
마리	-6735
미의	-6736
미화	-6737
보러	-6738
사도	-6739
아들	-6740
일은	-6741
장에	-6742
타쿠	-6743
하늘	-6744
▁건질	-6745
▁것만	-6746
▁괜찬	-6747
▁뭐여	-6748
▁민족	-6749
▁본질	-6750
▁불법	-6751
▁브라	-6752
▁시켜	-6753
▁신은	-6754
▁억울	-6755
▁에드	-6756
▁이종	-6757
그나마	-6758
드네요	-6759
때부터	-6760
라지만	-6761
매이션	-6762
빕니다	-6763
사람의	-6764
야한다	-6765
이었던	-6766
점대가	-6767
▁공포가	-6768
▁모습에	-6769
▁생각만	-6770
▁설정은	-6771
▁섬세한	-6772
▁싶다면	-6773
▁아만다	-6774
▁아무나	-6775
▁역사에	-6776
▁오로지	-6777
▁우려먹	-6778
▁인간들	-6779
▁좋으나	-6780
▁풀어낸	-6781
▁고등학교	-6782
▁드라마도	-6783
▁스필버그	-6784
▁아버지의	-6785
▁장난하나	-6786
▁지루하기	-6787
▁최고최고	-6788
▁했습니다	-6789
▁환상적인	-6790
▁감동입니다	-6791
▁사랑스럽고	-6792
▁사랑스럽다	-6793
▁스토리전개	-6794
▁아이들에게	-6795
▁ᄅ	-6796
▁년	-6797
▁덮	-6798
▁덴	-6799
▁폼	-6800
▁핑	-6801
▁획	-6802
가위	-6803
구의	-6804
데미	-6805
동근	-6806
사고	-6807
새록	-6808
스레	-6809
시네	-6810
어쩌	-6811
었냐	-6812
원에	-6813
은듯	-6814
조아	-6815
차피	-6816
천원	-6817
크로	-6818
티가	-6819
해져	-6820
▁가짜	-6821
▁걸까	-6822
▁글을	-6823
▁당장	-6824
▁등록	-6825
▁마블	-6826
▁보구	-6827
▁숨막	-6828
▁시험	-6829
▁신고	-6830
▁신인	-6831
▁우는	-6832
▁위트	-6833
▁이쁨	-6834
▁인류	-6835
▁주온	-6836
▁지키	-6837
▁틀림	-6838
▁혼란	-6839
가면서	-6840
느낌이	-6841
돈주고	-6842
리면서	-6843
없는데	-6844
재미가	-6845
판타지	-6846
하자면	-6847
학년때	-6848
...!	-6849
▁관객이	-6850
▁그리워	-6851
▁기발한	-6852
▁남는게	-6853
▁낮은지	-6854
▁만드네	-6855
▁멋져요	-6856
▁메시지	-6857
▁미국식	-6858
▁박보영	-6859
▁보아도	-6860
▁성인이	-6861
▁안맞는	-6862
▁역겹다	-6863
▁유치찬	-6864
▁음악은	-6865
▁제목은	-6866
▁충분한	-6867
▁해야지	-6868
▁했을까	-6869
▁후하게	-6870
오랜만에	-6871
이런영화	-6872
▁모르겠네	-6873
▁배우들을	-6874
▁시리즈를	-6875
▁않습니다	-6876
▁어이없다	-6877
▁어이없음	-6878
▁여러모로	-6879
▁충격적이	-6880
▁타란티노	-6881
▁강추합니다	-6882
▁오그라드는	-6883
.8	-6884
70	-6885
cg	-6886
tt	-6887
▁u	-6888
각본	-6889
개념	-6890
러스	-6891
로그	-6892
맞는	-6893
모양	-6894
부에	-6895
빼곤	-6896
시스	-6897
았나	-6898
진실	-6899
찬욱	-6900
펙트	-6901
▁납득	-6902
▁데스	-6903
▁듣기	-6904
▁들게	-6905
▁때가	-6906
▁마다	-6907
▁마법	-6908
▁맞나	-6909
▁매번	-6910
▁민주	-6911
▁상대	-6912
▁상태	-6913
▁에서	-6914
▁연관	-6915
▁음향	-6916
▁자아	-6917
▁진수	-6918
▁짜리	-6919
▁커버	-6920
▁흉내	-6921
던데요	-6922
아이가	-6923
없었다	-6924
웠는데	-6925
인영화	-6926
하나요	-6927
0000	-6928
▁가족애	-6929
▁가족을	-6930
▁그럴듯	-6931
▁그려낸	-6932
▁기대한	-6933
▁다이하	-6934
▁무의미	-6935
▁박진감	-6936
▁빨갱이	-6937
▁생각은	-6938
▁슈퍼맨	-6939
▁심하다	-6940
▁아이디	-6941
▁안나옴	-6942
▁어디에	-6943
▁에라이	-6944
▁오리지	-6945
▁왕조현	-6946
▁웃겨서	-6947
▁웃었다	-6948
▁유치해	-6949
▁이라는	-6950
▁이하도	-6951
▁정신이	-6952
▁조잡한	-6953
▁표현이	-6954
이라는게	-6955
▁뛰어넘는	-6956
▁쓰레기를	-6957
▁아니라면	-6958
▁제대로된	-6959
▁좀비영화	-6960
▁캐릭터는	-6961
▁소름끼치는	-6962
.!	-6963
50	-6964
bc	-6965
zz	-6966
▁락	-6967
▁옮	-6968
▁옴	-6969
★☆	-6970
가며	-6971
공주	-6972
극을	-6973
릴때	-6974
만듬	-6975
믿고	-6976
방식	-6977
살때	-6978
시지	-6979
아리	-6980
워드	-6981
이미	-6982
자도	-6983
코드	-6984
트릭	-6985
▁간지	-6986
▁감이	-6987
▁극혐	-6988
▁나고	-6989
▁마녀	-6990
▁만났	-6991
▁말해	-6992
▁멋짐	-6993
▁별한	-6994
▁보석	-6995
▁봤나	-6996
▁소소	-6997
▁소유	-6998
▁숨은	-6999
▁어딘	-7000
▁어땠	-7001
▁올레	-7002
▁웃을	-7003
▁원주	-7004
▁일을	-7005
▁작화	-7006
▁잡아	-7007
▁준비	-7008
▁찬양	-7009
▁캐릭	-7010
▁태국	-7011
▁핸드	-7012
그런데	-7013
들만의	-7014
시키고	-7015
시키지	-7016
얼마나	-7017
편까지	-7018
하하하	-7019
...(	-7020
▁감성을	-7021
▁거기서	-7022
▁난해한	-7023
▁남자는	-7024
▁넘어서	-7025
▁떨어뜨	-7026
▁바라는	-7027
▁시간도	-7028
▁영상은	-7029
▁원하는	-7030
▁인상적	-7031
▁일주일	-7032
▁전개에	-7033
▁줄이야	-7034
▁지극히	-7035
▁표현할	-7036
▁하지마	-7037
▁한다고	-7038
스러웠다	-7039
있었는데	-7040
▁2015	-7041
▁Good	-7042
▁마찬가지	-7043
▁미안하다	-7044
▁분위기는	-7045
▁아쉬워요	-7046
▁엉망진창	-7047
▁재미없을	-7048
▁억지스럽고	-7049
▁자연스럽게	-7050
▁재미없네요	-7051
▁주인공들이	-7052
.6	-7053
▁뻥	-7054
▁앙	-7055
▁얄	-7056
▁힙	-7057
내지	-7058
동이	-7059
드먼	-7060
물에	-7061
배는	-7062
수로	-7063
스란	-7064
스카	-7065
스턴	-7066
승헌	-7067
어떤	-7068
어를	-7069
옛날	-7070
장은	-7071
저것	-7072
저런	-7073
주지	-7074
팬이	-7075
형이	-7076
..2	-7077
ost	-7078
▁거듭	-7079
▁고양	-7080
▁극중	-7081
▁낭만	-7082
▁놀래	-7083
▁레옹	-7084
▁마니	-7085
▁마리	-7086
▁모니	-7087
▁미션	-7088
▁미학	-7089
▁본것	-7090
▁빠순	-7091
▁수는	-7092
▁실사	-7093
▁안좋	-7094
▁앞서	-7095
▁열라	-7096
▁오직	-7097
▁오해	-7098
▁온갖	-7099
▁월드	-7100
▁있긴	-7101
▁재앙	-7102
▁짬뽕	-7103
▁쩔어	-7104
모르게	-7105
셨으면	-7106
크루즈	-7107
평점은	-7108
하기가	-7109
하시길	-7110
..!!	-7111
▁괜찮았	-7112
▁뒤늦게	-7113
▁명성에	-7114
▁뭐랄까	-7115
▁벗어나	-7116
▁빕니다	-7117
▁세련된	-7118
▁안보는	-7119
▁안봐서	-7120
▁액션만	-7121
▁여기에	-7122
▁웃음을	-7123
▁의미도	-7124
▁하기엔	-7125
▁한석규	-7126
너무너무	-7127
재미없어	-7128
▁개인적인	-7129
▁고등학생	-7130
▁대박이다	-7131
▁못하겠다	-7132
▁보지마셈	-7133
▁스토리로	-7134
▁아기자기	-7135
▁알려주는	-7136
▁이거보다	-7137
▁있겠지만	-7138
▁잼있네요	-7139
▁필요한가	-7140
▁보고싶은데	-7141
▁보고있는데	-7142
▁스파이더맨	-7143
▁이런식으로	-7144
▁♥	-7145
▁닿	-7146
▁둔	-7147
▁뚜	-7148
▁찐	-7149
가야	-7150
개의	-7151
급도	-7152
내서	-7153
력에	-7154
망작	-7155
멤버	-7156
병맛	-7157
본색	-7158
비추	-7159
아의	-7160
약한	-7161
오고	-7162
요한	-7163
저나	-7164
찾아	-7165
▁남성	-7166
▁높지	-7167
▁늙은	-7168
▁니가	-7169
▁도와	-7170
▁떡밥	-7171
▁말아	-7172
▁맞추	-7173
▁멋져	-7174
▁모방	-7175
▁비정	-7176
▁선정	-7177
▁설경	-7178
▁성의	-7179
▁없던	-7180
▁완젼	-7181
▁의상	-7182
▁의해	-7183
▁이탈	-7184
▁있냐	-7185
▁전도	-7186
▁찍는	-7187
▁코스	-7188
▁클리	-7189
▁허나	-7190
▁호흡	-7191
것같음	-7192
고싶다	-7193
나라는	-7194
달라고	-7195
마저도	-7196
보려고	-7197
분짜리	-7198
엇어요	-7199
에다가	-7200
정도는	-7201
주는데	-7202
회부터	-7203
▁거기다	-7204
▁극장에	-7205
▁나왔던	-7206
▁느껴지	-7207
▁들어서	-7208
▁비쥬얼	-7209
▁상처를	-7210
▁아바타	-7211
▁아이를	-7212
▁아이유	-7213
▁안보면	-7214
▁연기만	-7215
▁진실을	-7216
▁해준다	-7217
▁했는지	-7218
▁했어요	-7219
더라고요	-7220
만큼이나	-7221
하는것도	-7222
할수있는	-7223
▁감동이다	-7224
▁니콜라스	-7225
▁두고두고	-7226
▁메세지를	-7227
▁몰입도도	-7228
▁슬픈영화	-7229
▁어울리지	-7230
▁연기자들	-7231
▁이것보다	-7232
▁정신병자	-7233
아까운영화	-7234
▁엔딩크레딧	-7235
BC	-7236
▁닭	-7237
▁석	-7238
▁측	-7239
계를	-7240
고한	-7241
께서	-7242
니스	-7243
렸음	-7244
명한	-7245
베이	-7246
예쁘	-7247
으려	-7248
자꾸	-7249
저냥	-7250
진행	-7251
플린	-7252
!!♥	-7253
ᄃᄃᄃ	-7254
▁공연	-7255
▁나열	-7256
▁되면	-7257
▁모양	-7258
▁반응	-7259
▁불가	-7260
▁새록	-7261
▁소개	-7262
▁스토	-7263
▁이나	-7264
▁재수	-7265
▁적은	-7266
▁적이	-7267
▁정사	-7268
▁조지	-7269
▁죽이	-7270
▁차승	-7271
▁한거	-7272
나가는	-7273
다는건	-7274
라는걸	-7275
스포머	-7276
인지는	-7277
입니까	-7278
장면도	-7279
하길래	-7280
▁개꿀잼	-7281
▁게스트	-7282
▁그런거	-7283
▁김수현	-7284
▁나와야	-7285
▁대사와	-7286
▁못해서	-7287
▁무서움	-7288
▁문제를	-7289
▁브래드	-7290
▁안무섭	-7291
▁않아요	-7292
▁영화란	-7293
▁이딴게	-7294
▁이해도	-7295
▁적나라	-7296
▁한동안	-7297
▁!!!!	-7298
▁가슴아프	-7299
▁마지막은	-7300
▁보게되는	-7301
▁아니었다	-7302
▁어설프게	-7303
▁이상하다	-7304
▁재난영화	-7305
▁최고에요	-7306
▁.....	-7307
▁여주인공의	-7308
▁주인공들의	-7309
!~	-7310
▁똘	-7311
▁쉴	-7312
▁족	-7313
▁컷	-7314
결혼	-7315
경을	-7316
구를	-7317
궁금	-7318
극의	-7319
낫다	-7320
녀의	-7321
누가	-7322
두번	-7323
론의	-7324
미도	-7325
미친	-7326
신기	-7327
어른	-7328
였을	-7329
인걸	-7330
잘못	-7331
잘생	-7332
즈가	-7333
지섭	-7334
치다	-7335
통수	-7336
판을	-7337
혜선	-7338
▁가만	-7339
▁굳굳	-7340
▁나면	-7341
▁니네	-7342
▁도시	-7343
▁돼지	-7344
▁매주	-7345
▁모른	-7346
▁문득	-7347
▁미쳐	-7348
▁박평	-7349
▁봤고	-7350
▁블루	-7351
▁사과	-7352
▁삶은	-7353
▁성형	-7354
▁시골	-7355
▁시체	-7356
▁아카	-7357
▁엉뚱	-7358
▁여신	-7359
▁올드	-7360
▁와서	-7361
▁우린	-7362
▁음모	-7363
▁저지	-7364
▁쩌는	-7365
▁참여	-7366
▁한효	-7367
라에몽	-7368
에대해	-7369
으면좋	-7370
이후로	-7371
재밋다	-7372
중간에	-7373
하고도	-7374
하기는	-7375
▁군더더	-7376
▁그럴싸	-7377
▁더욱더	-7378
▁명연기	-7379
▁보이고	-7380
▁시대가	-7381
▁심리묘	-7382
▁얘기를	-7383
▁연기의	-7384
▁이것은	-7385
▁이끌어	-7386
▁있었음	-7387
▁전라도	-7388
▁좋더라	-7389
▁짱이다	-7390
▁추억을	-7391
▁하나가	-7392
▁하나는	-7393
▁하세요	-7394
줄알았다	-7395
한마디로	-7396
▁기대했던	-7397
▁나오네요	-7398
▁너무하네	-7399
▁런닝타임	-7400
▁시리즈가	-7401
▁심각하게	-7402
▁영화같다	-7403
▁인물들의	-7404
▁입장에서	-7405
▁처음본다	-7406
▁처음이네	-7407
▁흥미롭게	-7408
▁movie	-7409
▁점수준것들	-7410
............	-7411
vs	-7412
▁셋	-7413
▁웹	-7414
▁짙	-7415
남을	-7416
다들	-7417
대기	-7418
더욱	-7419
되요	-7420
땜시	-7421
렸네	-7422
맞고	-7423
보던	-7424
스틴	-7425
알아	-7426
좀비	-7427
증을	-7428
쾌한	-7429
편과	-7430
~10	-7431
▁각각	-7432
▁강요	-7433
▁공허	-7434
▁구조	-7435
▁그로	-7436
▁깜놀	-7437
▁날아	-7438
▁농담	-7439
▁되서	-7440
▁레오	-7441
▁머야	-7442
▁미술	-7443
▁상큼	-7444
▁생명	-7445
▁소품	-7446
▁손꼽	-7447
▁아팠	-7448
▁역작	-7449
▁열광	-7450
▁옆에	-7451
▁외면	-7452
▁욕이	-7453
▁입장	-7454
▁좋앗	-7455
▁죽어	-7456
▁지경	-7457
▁지독	-7458
▁천국	-7459
▁커서	-7460
▁했나	-7461
사람을	-7462
아깝고	-7463
원에서	-7464
있을까	-7465
지라도	-7466
창시절	-7467
해가는	-7468
▁같지만	-7469
▁그이상	-7470
▁남기는	-7471
▁느껴질	-7472
▁들어간	-7473
▁듭니다	-7474
▁밋밋한	-7475
▁박찬욱	-7476
▁보겠다	-7477
▁사람과	-7478
▁사회적	-7479
▁송승헌	-7480
▁알바가	-7481
▁액션의	-7482
▁없어도	-7483
▁음악을	-7484
▁죽음을	-7485
▁첨으로	-7486
▁초반엔	-7487
보지마라	-7488
▁OOOO	-7489
▁괜찮았던	-7490
▁기억난다	-7491
▁긴장감과	-7492
▁긴장감은	-7493
▁돈아까워	-7494
▁보고나니	-7495
▁스토리나	-7496
▁싫어하는	-7497
▁싶었는데	-7498
▁쓰레기는	-7499
▁영상미와	-7500
▁완벽하게	-7501
▁완벽하다	-7502
▁인생에서	-7503
▁호불호가	-7504
줄알았는데	-7505
▁영화였는데	-7506
▁재밌었습니다	-7507
_^	-7508
id	-7509
▁뺏	-7510
▁쌓	-7511
깊은	-7512
놈의	-7513
돈이	-7514
래요	-7515
랬다	-7516
리즘	-7517
물은	-7518
버튼	-7519
센스	-7520
심한	-7521
여러	-7522
연의	-7523
외로	-7524
일에	-7525
전은	-7526
▁것들	-7527
▁국산	-7528
▁그는	-7529
▁넘쳐	-7530
▁누나	-7531
▁러셀	-7532
▁멘탈	-7533
▁몰아	-7534
▁미야	-7535
▁방향	-7536
▁상어	-7537
▁스펙	-7538
▁심사	-7539
▁아아	-7540
▁오유	-7541
▁욕을	-7542
▁재탕	-7543
▁저러	-7544
▁지가	-7545
▁패션	-7546
▁피식	-7547
▁한줄	-7548
부분은	-7549
안에서	-7550
여배우	-7551
점준것	-7552
▁감성이	-7553
▁귀신이	-7554
▁기가막	-7555
▁나올까	-7556
▁눈으로	-7557
▁니들이	-7558
▁못하네	-7559
▁미스테	-7560
▁뻔하다	-7561
▁소리만	-7562
▁시간은	-7563
▁아놀드	-7564
▁안좋은	-7565
▁어수선	-7566
▁역사적	-7567
▁장난치	-7568
▁장르를	-7569
▁책으로	-7570
▁처음이	-7571
▁티비로	-7572
▁편하게	-7573
▁포켓몬	-7574
드라마를	-7575
생각으로	-7576
▁그냥저냥	-7577
▁느껴지지	-7578
▁만들어주	-7579
▁아버지가	-7580
▁억지스런	-7581
▁여배우가	-7582
▁영화들이	-7583
▁영화인것	-7584
▁오랫동안	-7585
▁주고싶다	-7586
▁최고인듯	-7587
▁충분하다	-7588
▁캐스팅은	-7589
▁크리스찬	-7590
▁후반부로	-7591
▁힘들었다	-7592
▁뻔한스토리	-7593
▁애니매이션	-7594
▁있었습니다	-7595
▁로맨틱코미디	-7596
▁말이필요없다	-7597
!?	-7598
il	-7599
im	-7600
▁ᄂ	-7601
▁꽉	-7602
▁쏠	-7603
▁짤	-7604
▁찜	-7605
감한	-7606
거에	-7607
다리	-7608
답다	-7609
데렐	-7610
돌이	-7611
등장	-7612
리쉬	-7613
버츠	-7614
봤지	-7615
순수	-7616
않고	-7617
암튼	-7618
여도	-7619
영은	-7620
치만	-7621
트라	-7622
프리	-7623
하의	-7624
혜교	-7625
희는	-7626
▁25	-7627
▁극본	-7628
▁껐다	-7629
▁끝남	-7630
▁나을	-7631
▁다름	-7632
▁로멘	-7633
▁막상	-7634
▁머냐	-7635
▁비참	-7636
▁생존	-7637
▁속이	-7638
▁쉽지	-7639
▁신이	-7640
▁쓰러	-7641
▁역겹	-7642
▁우왕	-7643
▁자리	-7644
▁잼나	-7645
▁절반	-7646
▁줘도	-7647
▁채워	-7648
▁처절	-7649
▁초월	-7650
▁치료	-7651
▁파고	-7652
▁팝콘	-7653
▁편의	-7654
것보다	-7655
것인가	-7656
넘치는	-7657
덕분에	-7658
였구나	-7659
였네요	-7660
있다면	-7661
죽이고	-7662
줘야지	-7663
지부지	-7664
할수도	-7665
했다가	-7666
▁과정이	-7667
▁꼭봐야	-7668
▁노래는	-7669
▁높은지	-7670
▁느낀다	-7671
▁느낌도	-7672
▁대학생	-7673
▁문제는	-7674
▁비해서	-7675
▁살아야	-7676
▁상황이	-7677
▁심장이	-7678
▁아련한	-7679
▁안가는	-7680
▁알바생	-7681
▁웃겼다	-7682
▁있는가	-7683
▁장면만	-7684
▁정주행	-7685
▁주세요	-7686
▁찬사를	-7687
▁통해서	-7688
▁편인데	-7689
▁평점왜	-7690
보고싶은	-7691
아름다운	-7692
주인공이	-7693
하지말고	-7694
...;;	-7695
▁감독에게	-7696
▁걸작이다	-7697
▁만들었냐	-7698
▁몰입하게	-7699
▁빠져들게	-7700
▁영상미도	-7701
▁의미있는	-7702
▁이영화에	-7703
▁정말정말	-7704
▁평점조절	-7705
▁아직까지도	-7706
▁이렇게까지	-7707
▁킬링타임용으로도	-7708
40	-7709
ᅮᅲ	-7710
▁롤	-7711
▁찔	-7712
▁훔	-7713
개연	-7714
겟네	-7715
군이	-7716
니의	-7717
닝맨	-7718
동화	-7719
뒤에	-7720
듣고	-7721
디가	-7722
러움	-7723
롭다	-7724
면을	-7725
미안	-7726
보소	-7727
상과	-7728
수작	-7729
시켰	-7730
시킬	-7731
실패	-7732
원도	-7733
위를	-7734
이었	-7735
저기	-7736
절로	-7737
평을	-7738
한편	-7739
혀서	-7740
호러	-7741
▁갖게	-7742
▁갖춘	-7743
▁기법	-7744
▁김명	-7745
▁깨끗	-7746
▁된장	-7747
▁면이	-7748
▁모독	-7749
▁박시	-7750
▁본능	-7751
▁색채	-7752
▁싶음	-7753
▁아메	-7754
▁안겨	-7755
▁안다	-7756
▁예뻤	-7757
▁웃는	-7758
▁적극	-7759
▁조아	-7760
▁중의	-7761
▁커녕	-7762
▁클로	-7763
▁피곤	-7764
▁하니	-7765
▁할때	-7766
▁해요	-7767
▁황금	-7768
것같아	-7769
결말이	-7770
그래픽	-7771
기영화	-7772
깁니다	-7773
마음이	-7774
소리는	-7775
신분들	-7776
없지만	-7777
여자가	-7778
이들의	-7779
지루해	-7780
▁가족과	-7781
▁다니엘	-7782
▁도움이	-7783
▁반지의	-7784
▁보고난	-7785
▁비행기	-7786
▁사랑도	-7787
▁사회의	-7788
▁시대적	-7789
▁아이고	-7790
▁어차피	-7791
▁연기로	-7792
▁웃다가	-7793
▁작품에	-7794
▁총체적	-7795
▁크레딧	-7796
▁현실에	-7797
스토리는	-7798
▁가슴아픈	-7799
▁기대된다	-7800
▁만든건지	-7801
▁볼만한데	-7802
▁쓰레기네	-7803
▁안나오는	-7804
▁여자들이	-7805
▁완성도가	-7806
▁웬만하면	-7807
▁이기적인	-7808
▁이따위로	-7809
▁진부하다	-7810
▁하고싶은	-7811
▁후반부에	-7812
▁아깝습니다	-7813
▁좋아하시는	-7814
▁클레멘타인	-7815
▁감동적이었다	-7816
ᄏᄏᄏᄏᄏᄏᄏᄏᄏ	-7817
cn	-7818
▁U	-7819
▁벽	-7820
▁숲	-7821
▁퀴	-7822
거워	-7823
겠고	-7824
기술	-7825
누구	-7826
드립	-7827
멋진	-7828
면이	-7829
받아	-7830
비아	-7831
운데	-7832
원을	-7833
이뻐	-7834
인해	-7835
저는	-7836
제를	-7837
줘도	-7838
치기	-7839
케팅	-7840
하리	-7841
한텐	-7842
흥미	-7843
~~!	-7844
▁거야	-7845
▁것과	-7846
▁귀찮	-7847
▁나아	-7848
▁됐다	-7849
▁되나	-7850
▁딸이	-7851
▁만날	-7852
▁많네	-7853
▁모순	-7854
▁물어	-7855
▁번역	-7856
▁브로	-7857
▁빠질	-7858
▁센스	-7859
▁수십	-7860
▁신화	-7861
▁안감	-7862
▁안봄	-7863
▁욕심	-7864
▁인권	-7865
▁장소	-7866
▁제왕	-7867
▁조기	-7868
▁졸잼	-7869
▁텐데	-7870
▁한정	-7871
것들이	-7872
것처럼	-7873
게다가	-7874
나저나	-7875
러티브	-7876
손가락	-7877
아닌데	-7878
안된다	-7879
지말자	-7880
지않게	-7881
지않아	-7882
ᅮᅮᅮᅮ	-7883
▁관심을	-7884
▁당시엔	-7885
▁돈으로	-7886
▁레이첼	-7887
▁만들기	-7888
▁매력적	-7889
▁바란다	-7890
▁받아야	-7891
▁보지도	-7892
▁봤는지	-7893
▁상당한	-7894
▁소리가	-7895
▁아빠가	-7896
▁애니를	-7897
▁엑스맨	-7898
▁연기한	-7899
▁영향을	-7900
▁왕가위	-7901
▁윌리스	-7902
▁이루어	-7903
▁재밋고	-7904
▁재방송	-7905
▁주연의	-7906
▁차태현	-7907
▁첫번째	-7908
▁취향이	-7909
▁테이큰	-7910
▁하지말	-7911
▁하하하	-7912
▁흉내내	-7913
모르겠다	-7914
▁동화같은	-7915
▁마무리가	-7916
▁바라보는	-7917
▁부족하고	-7918
▁불쌍해서	-7919
▁비교하면	-7920
▁영웅본색	-7921
▁이어지는	-7922
▁인생영화	-7923
▁전편보다	-7924
▁지금보면	-7925
▁캐스팅도	-7926
▁평론가들	-7927
▁학창시절	-7928
보지마세요	-7929
하겠습니다	-7930
▁시간때우기	-7931
▁오글거리고	-7932
▁인간적으로	-7933
▁현실적으로	-7934
!!!!!!!	-7935
▁감동적입니다	-7936
->	-7937
et	-7938
▁밴	-7939
▁썸	-7940
가게	-7941
구역	-7942
년간	-7943
놈은	-7944
누라	-7945
뜨고	-7946
못함	-7947
복수	-7948
봣다	-7949
신선	-7950
아냐	-7951
앞에	-7952
작은	-7953
진호	-7954
천재	-7955
평이	-7956
할것	-7957
할순	-7958
▁ᅲᅮ	-7959
▁가깝	-7960
▁간단	-7961
▁감수	-7962
▁경악	-7963
▁고작	-7964
▁구경	-7965
▁기적	-7966
▁남긴	-7967
▁놈들	-7968
▁대부	-7969
▁듣는	-7970
▁마틴	-7971
▁맞다	-7972
▁멀쩡	-7973
▁발음	-7974
▁방황	-7975
▁배려	-7976
▁백인	-7977
▁생기	-7978
▁신세	-7979
▁여유	-7980
▁연습	-7981
▁연인	-7982
▁오인	-7983
▁완죤	-7984
▁유승	-7985
▁이순	-7986
▁이중	-7987
▁재치	-7988
▁정석	-7989
▁졸리	-7990
▁죽인	-7991
▁지저	-7992
▁차별	-7993
▁하긴	-7994
나보다	-7995
는거냐	-7996
보기엔	-7997
보인다	-7998
분정도	-7999
시대의	-8000
십니다	-8001
안되고	-8002
에서나	-8003
지않음	-8004
짜증나	-8005
판으로	-8006
평점을	-8007
▁결국엔	-8008
▁공포도	-8009
▁과장된	-8010
▁관람객	-8011
▁국어책	-8012
▁그들을	-8013
▁나와도	-8014
▁내취향	-8015
▁말았다	-8016
▁명작임	-8017
▁믿기지	-8018
▁보고도	-8019
▁심오한	-8020
▁안되네	-8021
▁약하다	-8022
▁어디가	-8023
▁엄정화	-8024
▁영화랑	-8025
▁유치원	-8026
▁있어도	-8027
▁자체도	-8028
▁전율이	-8029
▁중학교	-8030
▁최악이	-8031
▁편견을	-8032
▁화끈한	-8033
없습니다	-8034
왔습니다	-8035
재미있다	-8036
점주기도	-8037
지루하다	-8038
킬링타임	-8039
하고싶은	-8040
▁감독님의	-8041
▁만화영화	-8042
▁미친듯이	-8043
▁별로네요	-8044
▁사람에게	-8045
▁야하지도	-8046
▁연기력과	-8047
▁오글거리	-8048
▁이야기도	-8049
▁지루함의	-8050
점도아깝다	-8051
▁러닝타임이	-8052
▁명작이라고	-8053
▁자연스러운	-8054
▁트랜스포머	-8055
▁현실적이고	-8056
.(	-8057
▁넓	-8058
▁닌	-8059
▁롱	-8060
▁맑	-8061
같네	-8062
거는	-8063
격이	-8064
공부	-8065
구는	-8066
기나	-8067
동을	-8068
들린	-8069
명은	-8070
명화	-8071
문을	-8072
부한	-8073
사라	-8074
왔던	-8075
을지	-8076
자식	-8077
자키	-8078
지원	-8079
철학	-8080
폭력	-8081
할뻔	-8082
현준	-8083
ove	-8084
▁개잼	-8085
▁거다	-8086
▁건강	-8087
▁걸로	-8088
▁고질	-8089
▁그를	-8090
▁김윤	-8091
▁끝은	-8092
▁낚인	-8093
▁남고	-8094
▁넘치	-8095
▁눈요	-8096
▁눈치	-8097
▁니들	-8098
▁동감	-8099
▁따듯	-8100
▁때도	-8101
▁뚝뚝	-8102
▁목적	-8103
▁반갑	-8104
▁배드	-8105
▁색깔	-8106
▁서스	-8107
▁쏘우	-8108
▁애가	-8109
▁없애	-8110
▁욕만	-8111
▁용기	-8112
▁위안	-8113
▁의사	-8114
▁장혁	-8115
▁지하	-8116
▁찾기	-8117
▁커피	-8118
▁컬트	-8119
▁쿵푸	-8120
▁팍팍	-8121
▁하드	-8122
▁해외	-8123
▁허탈	-8124
▁화질	-8125
▁홧팅	-8126
▁흘렀	-8127
▁흥분	-8128
▁힙합	-8129
감동도	-8130
기보단	-8131
내용을	-8132
년동안	-8133
로맨스	-8134
보시길	-8135
샌들러	-8136
씩이나	-8137
자들은	-8138
하더니	-8139
▁가까이	-8140
▁가치도	-8141
▁강동원	-8142
▁기대안	-8143
▁나왔음	-8144
▁내시간	-8145
▁대사는	-8146
▁만화를	-8147
▁명배우	-8148
▁못했던	-8149
▁미래를	-8150
▁받았다	-8151
▁버렸다	-8152
▁범인이	-8153
▁세상의	-8154
▁시간과	-8155
▁알수있	-8156
▁애들도	-8157
▁연출을	-8158
▁예뻐서	-8159
▁우울한	-8160
▁임창정	-8161
▁작가는	-8162
▁재미만	-8163
▁전부다	-8164
▁지나친	-8165
▁클리셰	-8166
▁타이틀	-8167
▁터지는	-8168
▁평점도	-8169
영화였다	-8170
재밋어요	-8171
▁2.22	-8172
▁~~~~	-8173
▁떠오르는	-8174
▁메세지가	-8175
▁사랑한다	-8176
▁아이언맨	-8177
▁우리에게	-8178
▁유치찬란	-8179
▁이야기에	-8180
▁잊지못할	-8181
▁잘하네요	-8182
▁지금이나	-8183
▁해주세요	-8184
▁허접하고	-8185
하셨습니다	-8186
▁공포영화가	-8187
▁드라마라고	-8188
▁만들었으면	-8189
.?	-8190
13	-8191
:)	-8192
na	-8193
▁ᄊ	-8194
▁곡	-8195
▁콤	-8196
▁톱	-8197
▁핀	-8198
거죠	-8199
년을	-8200
노출	-8201
님을	-8202
달아	-8203
더스	-8204
데요	-8205
래셔	-8206
말까	-8207
보며	-8208
봤네	-8209
부모	-8210
뽕짝	-8211
사극	-8212
상도	-8213
어설	-8214
에휴	-8215
일단	-8216
장센	-8217
줘요	-8218
지환	-8219
진의	-8220
짓을	-8221
차이	-8222
한가	-8223
..;	-8224
▁1~	-8225
▁가난	-8226
▁가야	-8227
▁고소	-8228
▁그외	-8229
▁나비	-8230
▁날려	-8231
▁남친	-8232
▁넘는	-8233
▁놓은	-8234
▁더럽	-8235
▁돈벌	-8236
▁되야	-8237
▁드물	-8238
▁로마	-8239
▁망설	-8240
▁못주	-8241
▁무대	-8242
▁미니	-8243
▁믿기	-8244
▁버무	-8245
▁앉아	-8246
▁오페	-8247
▁유익	-8248
▁의한	-8249
▁이란	-8250
▁이뻤	-8251
▁이전	-8252
▁인가	-8253
▁일찍	-8254
▁주관	-8255
▁지지	-8256
▁추가	-8257
▁픽션	-8258
▁하셨	-8259
갑자기	-8260
눈물이	-8261
니버스	-8262
다는것	-8263
방에서	-8264
볼수록	-8265
새끼들	-8266
시네요	-8267
이해가	-8268
재밋음	-8269
****	-8270
very	-8271
▁강하게	-8272
▁김희선	-8273
▁나머진	-8274
▁나올때	-8275
▁되어서	-8276
▁되어야	-8277
▁드림웍	-8278
▁말밖에	-8279
▁무간도	-8280
▁믿을게	-8281
▁불쌍해	-8282
▁빈약한	-8283
▁빠지게	-8284
▁사투리	-8285
▁손색이	-8286
▁어중간	-8287
▁엔딩은	-8288
▁웃긴다	-8289
▁의도를	-8290
▁일본이	-8291
▁일어나	-8292
▁잼나요	-8293
▁점에서	-8294
▁최악임	-8295
▁하지원	-8296
감동적이	-8297
하고싶다	-8298
▁겨울왕국	-8299
▁드래곤볼	-8300
▁멋진영화	-8301
▁보는동안	-8302
▁새록새록	-8303
▁슬프네요	-8304
▁아마추어	-8305
▁안나오고	-8306
▁없었는데	-8307
▁여배우의	-8308
▁영화감독	-8309
▁영화같은	-8310
▁이따구로	-8311
▁이런것도	-8312
▁이탈리아	-8313
▁인상깊게	-8314
▁잔인하고	-8315
▁재미나게	-8316
▁초반에는	-8317
▁흐지부지	-8318
▁감동도없고	-8319
▁되었습니다	-8320
▁매력적이다	-8321
▁시나리오도	-8322
▁아름다웠다	-8323
▁재미없었음	-8324
▁재밌게봤는데	-8325
;;;;;;;;	-8326
ᄉᄇ	-8327
▁ᄍ	-8328
▁껏	-8329
▁즉	-8330
▁헉	-8331
간이	-8332
감에	-8333
괴담	-8334
구먼	-8335
귀신	-8336
글자	-8337
끄는	-8338
랄한	-8339
밑에	-8340
번도	-8341
별루	-8342
숙한	-8343
스코	-8344
시를	-8345
실화	-8346
써요	-8347
임이	-8348
주를	-8349
타는	-8350
판에	-8351
평생	-8352
화면	-8353
힘든	-8354
▁거장	-8355
▁교회	-8356
▁그에	-8357
▁기록	-8358
▁꿈과	-8359
▁끝판	-8360
▁내고	-8361
▁너희	-8362
▁노골	-8363
▁따스	-8364
▁때의	-8365
▁많음	-8366
▁박정	-8367
▁반감	-8368
▁배울	-8369
▁성찰	-8370
▁쓰나	-8371
▁얻어	-8372
▁우롱	-8373
▁으로	-8374
▁일관	-8375
▁점은	-8376
▁죽일	-8377
▁지는	-8378
▁평론	-8379
▁포함	-8380
▁학살	-8381
▁한대	-8382
▁한예	-8383
같네요	-8384
너무잘	-8385
더럽게	-8386
들어서	-8387
리지만	-8388
사람도	-8389
스란히	-8390
스러울	-8391
스트라	-8392
이들이	-8393
이란게	-8394
▁기대에	-8395
▁기억을	-8396
▁끝난다	-8397
▁노래를	-8398
▁달리는	-8399
▁더러워	-8400
▁배우와	-8401
▁베드신	-8402
▁별하나	-8403
▁복잡한	-8404
▁살렸다	-8405
▁설명이	-8406
▁손예진	-8407
▁아이와	-8408
▁않아도	-8409
▁않으면	-8410
▁앞에서	-8411
▁어설퍼	-8412
▁언젠가	-8413
▁없는듯	-8414
▁없으니	-8415
▁영화볼	-8416
▁왔는데	-8417
▁원작과	-8418
▁윌리엄	-8419
▁이딴거	-8420
▁이정재	-8421
▁장동건	-8422
▁전지현	-8423
▁정우성	-8424
▁특이한	-8425
▁한계를	-8426
▁한번씩	-8427
할수없는	-8428
▁감동적임	-8429
▁귀여워서	-8430
▁당시에는	-8431
▁도라에몽	-8432
▁말하려는	-8433
▁분위기를	-8434
▁상상력이	-8435
▁생각했던	-8436
▁소피마르	-8437
▁아이들은	-8438
▁오글거림	-8439
▁의미없는	-8440
▁이것저것	-8441
▁일본에서	-8442
▁좋아하고	-8443
▁지루했음	-8444
▁캐릭터의	-8445
▁코미디는	-8446
▁고맙습니다	-8447
▁다세포소녀	-8448
▁다시봤는데	-8449
▁다크나이트	-8450
▁보고싶네요	-8451
▁영화자체는	-8452
▁ᄏᄏᄏᄏᄏᄏᄏᄏᄏ	-8453
14	-8454
▁숭	-8455
▁싹	-8456
▁쏴	-8457
▁탱	-8458
건강	-8459
겨운	-8460
구리	-8461
남주	-8462
놀이	-8463
될듯	-8464
라곤	-8465
마가	-8466
맞추	-8467
봤을	-8468
삼류	-8469
성룡	-8470
속을	-8471
수정	-8472
실력	-8473
율이	-8474
자에	-8475
전달	-8476
전문	-8477
져라	-8478
졌네	-8479
조한	-8480
지르	-8481
크가	-8482
할줄	-8483
해본	-8484
해줄	-8485
▁가라	-8486
▁가을	-8487
▁김선	-8488
▁나빠	-8489
▁단역	-8490
▁대역	-8491
▁들지	-8492
▁람보	-8493
▁멀리	-8494
▁멈추	-8495
▁무색	-8496
▁반도	-8497
▁받았	-8498
▁베트	-8499
▁봤지	-8500
▁살리	-8501
▁상실	-8502
▁성적	-8503
▁솔까	-8504
▁심한	-8505
▁우승	-8506
▁유혹	-8507
▁의지	-8508
▁이를	-8509
▁이외	-8510
▁일생	-8511
▁재현	-8512
▁지워	-8513
▁추구	-8514
▁크다	-8515
▁티가	-8516
▁한쿡	-8517
▁향한	-8518
▁회상	-8519
너무나	-8520
네이버	-8521
들보다	-8522
들이다	-8523
라노말	-8524
을수도	-8525
일리언	-8526
하구나	-8527
함으로	-8528
히어로	-8529
▁8.5	-8530
▁가치를	-8531
▁낚여서	-8532
▁다른건	-8533
▁다큐를	-8534
▁답답해	-8535
▁대사를	-8536
▁따뜻해	-8537
▁또라이	-8538
▁만나는	-8539
▁면에서	-8540
▁모성애	-8541
▁못따라	-8542
▁무섭지	-8543
▁반전의	-8544
▁봤다는	-8545
▁사람만	-8546
▁슬펐다	-8547
▁신세계	-8548
▁싶으면	-8549
▁아픔을	-8550
▁알려준	-8551
▁애니가	-8552
▁어떠한	-8553
▁어쨌든	-8554
▁어쩌다	-8555
▁오우삼	-8556
▁웃으며	-8557
▁웃음만	-8558
▁일본인	-8559
▁재발견	-8560
▁최고인	-8561
▁카메론	-8562
▁통쾌한	-8563
▁평가를	-8564
▁한가지	-8565
▁흠잡을	-8566
떨어지는	-8567
..-_-	-8568
▁군더더기	-8569
▁다이하드	-8570
▁돋보인다	-8571
▁많은것을	-8572
▁말았어야	-8573
▁미야자키	-8574
▁스릴러물	-8575
▁어디까지	-8576
▁어이없고	-8577
▁좋아했던	-8578
▁지루함이	-8579
▁하지마라	-8580
최고의영화	-8581
▁-_-;;	-8582
▁공포영화는	-8583
▁우리나라의	-8584
▁재미있다고	-8585
▁재미있어서	-8586
▁존경합니다	-8587
▁좋아하네요	-8588
▁깝	-8589
▁뼈	-8590
▁뿜	-8591
▁싼	-8592
감상	-8593
군의	-8594
그림	-8595
금보	-8596
급이	-8597
까봐	-8598
녀가	-8599
려야	-8600
맹랑	-8601
바리	-8602
비는	-8603
시도	-8604
이와	-8605
재현	-8606
지효	-8607
책임	-8608
토퍼	-8609
특집	-8610
파서	-8611
판은	-8612
하죠	-8613
할거	-8614
향이	-8615
▁골때	-8616
▁높네	-8617
▁덴젤	-8618
▁두말	-8619
▁드문	-8620
▁들여	-8621
▁마구	-8622
▁배가	-8623
▁법정	-8624
▁부각	-8625
▁부드	-8626
▁불행	-8627
▁비중	-8628
▁빨간	-8629
▁샤론	-8630
▁스킵	-8631
▁안녕	-8632
▁않네	-8633
▁예산	-8634
▁의견	-8635
▁임청	-8636
▁잡고	-8637
▁저게	-8638
▁주먹	-8639
▁지상	-8640
▁짱임	-8641
▁쯧쯧	-8642
▁친일	-8643
▁코드	-8644
긴장감	-8645
는거다	-8646
받아서	-8647
스에서	-8648
습니당	-8649
하구만	-8650
▁300	-8651
▁결과는	-8652
▁김민종	-8653
▁남자를	-8654
▁데뷔작	-8655
▁도중에	-8656
▁들어도	-8657
▁또봐도	-8658
▁만드냐	-8659
▁머리를	-8660
▁배경도	-8661
▁보기싫	-8662
▁본듯한	-8663
▁소재만	-8664
▁스페인	-8665
▁싶지만	-8666
▁여자애	-8667
▁외국인	-8668
▁원작은	-8669
▁이쁘게	-8670
▁일어날	-8671
▁초중반	-8672
▁탁월한	-8673
▁풀어나	-8674
▁힘들게	-8675
렸습니다	-8676
말이필요	-8677
볼때마다	-8678
스럽네요	-8679
었을텐데	-8680
하겠지만	-8681
▁고스란히	-8682
▁관객에게	-8683
▁다시보게	-8684
▁메세지도	-8685
▁메시지가	-8686
▁메시지를	-8687
▁발연기에	-8688
▁보고싶어	-8689
▁부분에서	-8690
▁생각나게	-8691
▁쓰레기가	-8692
▁영화제목	-8693
▁예고편만	-8694
▁예술영화	-8695
▁오락영화	-8696
▁욕나온다	-8697
▁이상으로	-8698
▁재밋네요	-8699
▁주연배우	-8700
▁주인공을	-8701
▁추천한다	-8702
▁필요없음	-8703
▁훈훈하고	-8704
영화관에서	-8705
잘봤습니다	-8706
▁뮤직비디오	-8707
▁스토리지만	-8708
▁안타깝네요	-8709
▁지루하지않	-8710
▁잔잔하면서도	-8711
34	-8712
el	-8713
if	-8714
▁Y	-8715
▁값	-8716
▁며	-8717
▁붉	-8718
▁쌈	-8719
▁칸	-8720
▁탕	-8721
려진	-8722
로가	-8723
사님	-8724
상욱	-8725
신분	-8726
아버	-8727
어느	-8728
에이	-8729
여야	-8730
연애	-8731
요미	-8732
체를	-8733
펭귄	-8734
..,	-8735
▁99	-8736
▁in	-8737
▁감옥	-8738
▁거냐	-8739
▁괴수	-8740
▁그들	-8741
▁극찬	-8742
▁길고	-8743
▁끊임	-8744
▁나참	-8745
▁냉정	-8746
▁돈만	-8747
▁로보	-8748
▁만듬	-8749
▁만세	-8750
▁명확	-8751
▁몰락	-8752
▁몸을	-8753
▁번을	-8754
▁보아	-8755
▁보일	-8756
▁비하	-8757
▁사로	-8758
▁사망	-8759
▁시사	-8760
▁실수	-8761
▁안남	-8762
▁애절	-8763
▁어딜	-8764
▁어떻	-8765
▁였다	-8766
▁영광	-8767
▁예쁨	-8768
▁완성	-8769
▁이혼	-8770
▁인지	-8771
▁자위	-8772
▁잘해	-8773
▁주목	-8774
▁증명	-8775
▁총격	-8776
▁출발	-8777
▁혁명	-8778
같은거	-8779
거같아	-8780
그자체	-8781
던영화	-8782
드려요	-8783
만하고	-8784
뭡니까	-8785
슬프다	-8786
원주고	-8787
으세요	-8788
잘만들	-8789
재미는	-8790
조차도	-8791
필요한	-8792
..??	-8793
▁개같은	-8794
▁것들을	-8795
▁기승전	-8796
▁넘어가	-8797
▁두시간	-8798
▁떨어진	-8799
▁똑바로	-8800
▁만들다	-8801
▁모자라	-8802
▁보낸다	-8803
▁보느니	-8804
▁보여줌	-8805
▁복수극	-8806
▁솔직한	-8807
▁신데렐	-8808
▁아니냐	-8809
▁아니네	-8810
▁아이러	-8811
▁않았음	-8812
▁알아야	-8813
▁없구나	-8814
▁에로물	-8815
▁엑소시	-8816
▁여운도	-8817
▁원주율	-8818
▁이상함	-8819
▁작품의	-8820
▁장르의	-8821
▁저절로	-8822
▁줄리아	-8823
▁쥬라기	-8824
▁참고로	-8825
▁채널돌	-8826
▁팀버튼	-8827
▁한장면	-8828
▁현실감	-8829
다시봐도	-8830
하기까지	-8831
하는건지	-8832
하더라도	-8833
▁2003	-8834
▁2013	-8835
▁나오다니	-8836
▁남아있는	-8837
▁만으로도	-8838
▁사람들도	-8839
▁사랑으로	-8840
▁식상하다	-8841
▁어우러진	-8842
▁여기저기	-8843
▁잃어버린	-8844
▁졸작이다	-8845
▁죽기전에	-8846
▁초반부터	-8847
▁퀄리티가	-8848
▁필요하다	-8849
▁힘내세요	-8850
▁실망스럽다	-8851
▁영화중에서	-8852
▁울었습니다	-8853
▁흥미진진한	-8854
▁개인적으로는	-8855
.............	-8856
.^	-8857
op	-8858
▁좆	-8859
▁콧	-8860
♡♥	-8861
걸작	-8862
국민	-8863
그때	-8864
급의	-8865
끼는	-8866
넘게	-8867
는뎅	-8868
다코	-8869
도와	-8870
독립	-8871
두사	-8872
라나	-8873
리로	-8874
리칸	-8875
많고	-8876
버전	-8877
설마	-8878
슬퍼	-8879
오로	-8880
올라	-8881
완벽	-8882
왜곡	-8883
웃긴	-8884
원래	-8885
잇고	-8886
쨋든	-8887
쳐도	-8888
초딩	-8889
치않	-8890
카메	-8891
헷갈	-8892
홀로	-8893
.""	-8894
▁it	-8895
▁간첩	-8896
▁공주	-8897
▁그와	-8898
▁까는	-8899
▁납치	-8900
▁내놓	-8901
▁내세	-8902
▁내일	-8903
▁노무	-8904
▁대가	-8905
▁돈과	-8906
▁모호	-8907
▁배워	-8908
▁보소	-8909
▁본인	-8910
▁부러	-8911
▁승부	-8912
▁애로	-8913
▁어마	-8914
▁에러	-8915
▁에바	-8916
▁온몸	-8917
▁유령	-8918
▁이겨	-8919
▁이태	-8920
▁일일	-8921
▁저희	-8922
▁정준	-8923
▁정통	-8924
▁증거	-8925
▁지배	-8926
▁징징	-8927
▁짱이	-8928
▁찾을	-8929
▁카피	-8930
▁캐리	-8931
▁하자	-8932
거든요	-8933
그런가	-8934
냅니다	-8935
돈으로	-8936
모습이	-8937
볼만한	-8938
빼고는	-8939
사에서	-8940
어주는	-8941
였으나	-8942
이정도	-8943
좋아서	-8944
특유의	-8945
편부터	-8946
하는듯	-8947
한건지	-8948
...1	-8949
▁겉멋만	-8950
▁경의를	-8951
▁고마운	-8952
▁굉장한	-8953
▁그들은	-8954
▁그시절	-8955
▁깜짝놀	-8956
▁나은듯	-8957
▁대실망	-8958
▁뛰어나	-8959
▁만화가	-8960
▁미장센	-8961
▁복수를	-8962
▁불륜을	-8963
▁상영관	-8964
▁안나왔	-8965
▁안되서	-8966
▁어둡고	-8967
▁영화제	-8968
▁인물들	-8969
▁장면의	-8970
▁차이가	-8971
▁클래식	-8972
▁태어나	-8973
▁표정이	-8974
▁한숨만	-8975
▁할말을	-8976
▁흑역사	-8977
▁흡입력	-8978
이영화는	-8979
재미있음	-8980
할정도로	-8981
▁다음으로	-8982
▁만들어야	-8983
▁무서워서	-8984
▁사람마다	-8985
▁아니네요	-8986
▁안타까움	-8987
▁없었으면	-8988
▁여태까지	-8989
▁영상미는	-8990
▁좋아하지	-8991
▁줄거리가	-8992
▁캐릭터와	-8993
...-_-	-8994
▁명작이네요	-8995
▁비현실적인	-8996
▁잔잔하지만	-8997
.7	-8998
ce	-8999
▁j	-9000
▁놔	-9001
▁떄	-9002
▁밉	-9003
▁빗	-9004
▁셀	-9005
▁혈	-9006
권택	-9007
근석	-9008
끝내	-9009
나쁘	-9010
남아	-9011
달까	-9012
더러	-9013
덜덜	-9014
등등	-9015
리트	-9016
먼저	-9017
바보	-9018
서방	-9019
소장	-9020
스도	-9021
스피	-9022
예고	-9023
이젠	-9024
인드	-9025
점만	-9026
줘라	-9027
진은	-9028
진희	-9029
챙겨	-9030
크의	-9031
필름	-9032
함만	-9033
해석	-9034
://	-9035
com	-9036
ttp	-9037
▁ᄅᄋ	-9038
▁ᄇᄉ	-9039
▁가해	-9040
▁고증	-9041
▁곱씹	-9042
▁날라	-9043
▁노튼	-9044
▁돈은	-9045
▁될듯	-9046
▁될수	-9047
▁록키	-9048
▁머가	-9049
▁박해	-9050
▁변호	-9051
▁본건	-9052
▁분이	-9053
▁분장	-9054
▁뻔뻔	-9055
▁숨어	-9056
▁안봐	-9057
▁어벤	-9058
▁역쉬	-9059
▁열자	-9060
▁엽문	-9061
▁잘안	-9062
▁저기	-9063
▁정이	-9064
▁종영	-9065
▁주옥	-9066
▁차분	-9067
▁총알	-9068
▁최대	-9069
▁퇴보	-9070
▁허구	-9071
▁활용	-9072
가능한	-9073
때까지	-9074
떨어진	-9075
렸는데	-9076
리다가	-9077
버리지	-9078
버린다	-9079
볼수있	-9080
에서만	-9081
연기에	-9082
인간의	-9083
하나로	-9084
▁7.5	-9085
▁가져다	-9086
▁간간히	-9087
▁개봉을	-9088
▁과정을	-9089
▁구혜선	-9090
▁권상우	-9091
▁더럽고	-9092
▁된다는	-9093
▁매력은	-9094
▁모티브	-9095
▁별로인	-9096
▁분명히	-9097
▁선택한	-9098
▁설정과	-9099
▁성우가	-9100
▁소지섭	-9101
▁수면제	-9102
▁시원한	-9103
▁심리를	-9104
▁액션에	-9105
▁엉터리	-9106
▁영화계	-9107
▁영화찍	-9108
▁오인혜	-9109
▁울었던	-9110
▁웃음과	-9111
▁의문이	-9112
▁의외의	-9113
▁있나요	-9114
▁장면과	-9115
▁재밌지	-9116
▁전성기	-9117
▁전편의	-9118
▁절제된	-9119
▁정확히	-9120
▁조용히	-9121
▁주제는	-9122
▁중후반	-9123
▁즐거움	-9124
▁짐캐리	-9125
▁클라라	-9126
▁클라이	-9127
▁할수있	-9128
▁함부로	-9129
▁흐름이	-9130
영화네요	-9131
티비에서	-9132
▁2004	-9133
▁과대평가	-9134
▁다큐멘터	-9135
▁등장하는	-9136
▁막장으로	-9137
▁몰랐는데	-9138
▁보고있는	-9139
▁아깝다는	-9140
▁아니라서	-9141
▁않았을까	-9142
▁에드워드	-9143
▁작품이라	-9144
것같습니다	-9145
▁보고싶어요	-9146
▁시나리오를	-9147
▁아쉬웠지만	-9148
▁이영화보고	-9149
▁일본영화는	-9150
▁파워레인저	-9151
.9	-9152
ve	-9153
▁긍	-9154
▁꾹	-9155
▁캠	-9156
▁툭	-9157
겨울	-9158
경의	-9159
곳이	-9160
교육	-9161
국이	-9162
꺼다	-9163
나무	-9164
남길	-9165
던거	-9166
도다	-9167
두근	-9168
려니	-9169
블루	-9170
뿐만	-9171
살에	-9172
서린	-9173
서트	-9174
심의	-9175
아침	-9176
어마	-9177
언이	-9178
영웅	-9179
이번	-9180
저질	-9181
정보	-9182
중한	-9183
통에	-9184
하이	-9185
!^^	-9186
est	-9187
▁고딩	-9188
▁괴로	-9189
▁괴롭	-9190
▁권력	-9191
▁나니	-9192
▁내리	-9193
▁도입	-9194
▁또는	-9195
▁뛰쳐	-9196
▁맘이	-9197
▁물건	-9198
▁물씬	-9199
▁바랬	-9200
▁보셈	-9201
▁순진	-9202
▁슈렉	-9203
▁심히	-9204
▁싸울	-9205
▁쓰지	-9206
▁언론	-9207
▁엠마	-9208
▁오오	-9209
▁우아	-9210
▁웹툰	-9211
▁이경	-9212
▁읽는	-9213
▁잘하	-9214
▁잘함	-9215
▁저거	-9216
▁전락	-9217
▁존잼	-9218
▁증말	-9219
▁찍을	-9220
▁찜찜	-9221
▁총을	-9222
▁출현	-9223
▁침묵	-9224
▁태권	-9225
▁하냐	-9226
▁환장	-9227
▁흐뭇	-9228
놈들이	-9229
로서는	-9230
말고는	-9231
발이고	-9232
번이나	-9233
봣어요	-9234
수준이	-9235
앗는데	-9236
앞에서	-9237
앞으로	-9238
어머니	-9239
주의를	-9240
집에서	-9241
편으로	-9242
▁감흥이	-9243
▁갔는데	-9244
▁강아지	-9245
▁거대한	-9246
▁게임을	-9247
▁기대는	-9248
▁기대도	-9249
▁넘어선	-9250
▁막장이	-9251
▁만나고	-9252
▁명성을	-9253
▁미치는	-9254
▁본적이	-9255
▁부르는	-9256
▁불쾌한	-9257
▁사실이	-9258
▁상황에	-9259
▁스릴이	-9260
▁아동용	-9261
▁아쉬울	-9262
▁이유로	-9263
▁있으니	-9264
▁작품중	-9265
▁잼없다	-9266
▁정당화	-9267
▁죽을때	-9268
▁최초의	-9269
▁하던가	-9270
거같네요	-9271
남기는데	-9272
보고나서	-9273
영화에서	-9274
을정도로	-9275
▁감성팔이	-9276
▁결말까지	-9277
▁공감가는	-9278
▁그지같은	-9279
▁극장판은	-9280
▁나왔는데	-9281
▁만들려고	-9282
▁만들었네	-9283
▁미치도록	-9284
▁부끄러운	-9285
▁분위기에	-9286
▁수준이하	-9287
▁아까워요	-9288
▁어린아이	-9289
▁에일리언	-9290
▁영화내내	-9291
▁재밌었고	-9292
▁좋아해요	-9293
▁중간부터	-9294
▁톰크루즈	-9295
▁허무맹랑	-9296
▁허접하다	-9297
▁기대됩니다	-9298
▁러브스토리	-9299
▁싸이코패스	-9300
▁응원합니다	-9301
▁재미있었던	-9302
▁최고였습니다	-9303
!!!!!!!!!	-9304
60	-9305
><	-9306
ch	-9307
▁뚫	-9308
▁멸	-9309
▁밍	-9310
▁쏙	-9311
▁얽	-9312
▁왓	-9313
▁훌	-9314
가니	-9315
가라	-9316
겠냐	-9317
그게	-9318
눈이	-9319
데로	-9320
라지	-9321
르다	-9322
마는	-9323
못보	-9324
문의	-9325
민아	-9326
보셈	-9327
브라	-9328
상실	-9329
스라	-9330
시죠	-9331
았어	-9332
양의	-9333
어난	-9334
엿다	-9335
이형	-9336
일으	-9337
지우	-9338
호의	-9339
효진	-9340
▁28	-9341
▁같네	-9342
▁걸린	-9343
▁구역	-9344
▁그대	-9345
▁기념	-9346
▁길다	-9347
▁김정	-9348
▁남발	-9349
▁내겐	-9350
▁뉴욕	-9351
▁똥을	-9352
▁맞게	-9353
▁멘붕	-9354
▁뿐만	-9355
▁상투	-9356
▁색감	-9357
▁속은	-9358
▁수사	-9359
▁애정	-9360
▁양조	-9361
▁어케	-9362
▁엉덩	-9363
▁이영	-9364
▁일탈	-9365
▁잘살	-9366
▁접근	-9367
▁정화	-9368
▁짐승	-9369
▁집단	-9370
▁징그	-9371
▁쪽팔	-9372
▁참을	-9373
▁토끼	-9374
는것도	-9375
도없는	-9376
봤으면	-9377
성으로	-9378
세상에	-9379
에게도	-9380
영화냐	-9381
이라곤	-9382
작가님	-9383
하였다	-9384
하잖아	-9385
▁MBC	-9386
▁~~~	-9387
▁나가는	-9388
▁낚였네	-9389
▁낚이지	-9390
▁남기고	-9391
▁남는건	-9392
▁너무낮	-9393
▁느리고	-9394
▁더더욱	-9395
▁돈낭비	-9396
▁마케팅	-9397
▁많지만	-9398
▁말이다	-9399
▁머리에	-9400
▁무서울	-9401
▁무엇이	-9402
▁뭔가요	-9403
▁베트남	-9404
▁비정상	-9405
▁사기꾼	-9406
▁생각에	-9407
▁송혜교	-9408
▁실패작	-9409
▁아침에	-9410
▁안되나	-9411
▁양동근	-9412
▁엄마의	-9413
▁예쁘게	-9414
▁유지태	-9415
▁이번에	-9416
▁자유를	-9417
▁잘생긴	-9418
▁조금씩	-9419
▁주제도	-9420
▁죽는다	-9421
▁즐겁고	-9422
▁집중도	-9423
▁태어난	-9424
▁하던데	-9425
▁한효주	-9426
▁행복을	-9427
▁혼자서	-9428
봤었는데	-9429
영화지만	-9430
적이지만	-9431
프라이즈	-9432
하시네요	-9433
▁그들만의	-9434
▁그럼에도	-9435
▁나오는거	-9436
▁답답해서	-9437
▁대표적인	-9438
▁만들기도	-9439
▁말아먹은	-9440
▁받아들이	-9441
▁배우분들	-9442
▁분위기도	-9443
▁생각해서	-9444
▁스릴러를	-9445
▁시간아깝	-9446
▁시선으로	-9447
▁아까웠던	-9448
▁아닌가요	-9449
▁안타깝고	-9450
▁예고편이	-9451
▁이해하지	-9452
▁인간적인	-9453
▁장난아니	-9454
▁재미있네	-9455
▁재밌기만	-9456
▁정신나간	-9457
▁조기종영	-9458
▁중학교때	-9459
▁지루하네	-9460
▁한번쯤은	-9461
▁허무하게	-9462
▁현실성이	-9463
좋아하는데	-9464
▁처음이네요	-9465
▁킬링타임용도	-9466
ct	-9467
~8	-9468
▁ᄃ	-9469
▁빚	-9470
▁엇	-9471
▁혜	-9472
★★	-9473
가자	-9474
거니	-9475
기준	-9476
나만	-9477
내려	-9478
는디	-9479
대전	-9480
대화	-9481
데터	-9482
되네	-9483
드네	-9484
들리	-9485
맞은	-9486
보길	-9487
보임	-9488
부림	-9489
빨고	-9490
사한	-9491
생이	-9492
싱턴	-9493
씨를	-9494
어어	-9495
었죠	-9496
열자	-9497
음에	-9498
잇다	-9499
자막	-9500
저링	-9501
점줄	-9502
제는	-9503
존재	-9504
죽을	-9505
하단	-9506
ion	-9507
▁24	-9508
▁98	-9509
▁가식	-9510
▁경계	-9511
▁구분	-9512
▁극한	-9513
▁난생	-9514
▁느슨	-9515
▁단언	-9516
▁똑똑	-9517
▁마을	-9518
▁매혹	-9519
▁몇개	-9520
▁못본	-9521
▁못살	-9522
▁미리	-9523
▁바꾼	-9524
▁발레	-9525
▁볼것	-9526
▁불면	-9527
▁서서	-9528
▁속의	-9529
▁씨발	-9530
▁알렉	-9531
▁어떡	-9532
▁에릭	-9533
▁여튼	-9534
▁연주	-9535
▁우스	-9536
▁울게	-9537
▁웃게	-9538
▁원표	-9539
▁유부	-9540
▁이자	-9541
▁저주	-9542
▁조심	-9543
▁존내	-9544
▁중년	-9545
▁차마	-9546
▁천만	-9547
▁퀴어	-9548
▁특징	-9549
▁틈이	-9550
▁파이	-9551
▁할배	-9552
▁할지	-9553
▁했을	-9554
▁헷갈	-9555
가슴이	-9556
거에요	-9557
고싶어	-9558
그렇고	-9559
당하고	-9560
됐는데	-9561
만든다	-9562
맞추기	-9563
부분도	-9564
분위기	-9565
수준의	-9566
싶네요	-9567
영화나	-9568
인으로	-9569
있다는	-9570
잘하고	-9571
저예산	-9572
줄거리	-9573
편인데	-9574
▁KBS	-9575
▁개소리	-9576
▁것인지	-9577
▁김구라	-9578
▁꿈꾸는	-9579
▁끝판왕	-9580
▁나오기	-9581
▁돈아까	-9582
▁뜨거운	-9583
▁런닝맨	-9584
▁만화는	-9585
▁모르겟	-9586
▁모르나	-9587
▁뭔가가	-9588
▁미이라	-9589
▁부럽다	-9590
▁살아남	-9591
▁상상을	-9592
▁소리지	-9593
▁스티브	-9594
▁알게된	-9595
▁이해못	-9596
▁이후에	-9597
▁인터뷰	-9598
▁일베충	-9599
▁있겠지	-9600
▁장면들	-9601
▁잼없음	-9602
▁제목과	-9603
▁지나서	-9604
▁짱짱맨	-9605
▁초능력	-9606
▁초반부	-9607
▁최대의	-9608
▁친구들	-9609
▁평점올	-9610
장면에서	-9611
▁기대되는	-9612
▁나온다고	-9613
▁내용으로	-9614
▁너무재밌	-9615
▁너무한다	-9616
▁만들어준	-9617
▁매력있는	-9618
▁몇번이고	-9619
▁몇번이나	-9620
▁별로였음	-9621
▁별한개도	-9622
▁볼만해요	-9623
▁볼만했음	-9624
▁아프리카	-9625
▁안했는데	-9626
▁알겠지만	-9627
▁없다는게	-9628
▁엉성하다	-9629
▁여배우들	-9630
▁영화계의	-9631
▁영화라면	-9632
▁이정도로	-9633
▁이해가안	-9634
▁인간들이	-9635
▁인종차별	-9636
▁주인공도	-9637
▁진짜진짜	-9638
▁파라노말	-9639
▁해도해도	-9640
▁화려하고	-9641
▁영화자체가	-9642
▁오글거려서	-9643
▁재미있었고	-9644
▁지루하기만	-9645
▁너무재밌어요	-9646
▁ᄏᄏᄏᄏᄏᄏᄏᄏᄏᄏᄏ	-9647
un	-9648
▁갇	-9649
▁곁	-9650
▁낸	-9651
▁맷	-9652
▁멕	-9653
▁쫒	-9654
▁쯤	-9655
▁캡	-9656
가진	-9657
간지	-9658
깊게	-9659
데기	-9660
디션	-9661
마트	-9662
맞춘	-9663
매우	-9664
부러	-9665
부턴	-9666
비를	-9667
비홍	-9668
수고	-9669
스티	-9670
시라	-9671
안나	-9672
위로	-9673
유머	-9674
일세	-9675
키스	-9676
플렉	-9677
▁같지	-9678
▁검은	-9679
▁계획	-9680
▁구라	-9681
▁구멍	-9682
▁구지	-9683
▁나뿐	-9684
▁다리	-9685
▁닥터	-9686
▁드리	-9687
▁마초	-9688
▁맛깔	-9689
▁모여	-9690
▁무관	-9691
▁미흡	-9692
▁백배	-9693
▁버리	-9694
▁보진	-9695
▁비싼	-9696
▁빠짐	-9697
▁생략	-9698
▁약한	-9699
▁우습	-9700
▁웃길	-9701
▁잡는	-9702
▁잼씀	-9703
▁정재	-9704
▁조조	-9705
▁쥐어	-9706
▁지적	-9707
▁최후	-9708
▁치는	-9709
▁큐브	-9710
▁토니	-9711
▁푸른	-9712
▁한개	-9713
▁한테	-9714
그것도	-9715
는지도	-9716
모르는	-9717
볼려고	-9718
아쉽다	-9719
아이돌	-9720
아줌마	-9721
었을때	-9722
였다고	-9723
왔어요	-9724
이기에	-9725
지루한	-9726
지않나	-9727
창있네	-9728
티비로	-9729
했더니	-9730
▁ocn	-9731
▁계기가	-9732
▁관객들	-9733
▁관객의	-9734
▁교훈이	-9735
▁구성과	-9736
▁구성은	-9737
▁굿굿굿	-9738
▁나홀로	-9739
▁단체로	-9740
▁당연한	-9741
▁맙시다	-9742
▁모자란	-9743
▁못보고	-9744
▁못하겠	-9745
▁미소를	-9746
▁받아서	-9747
▁배경과	-9748
▁범죄자	-9749
▁봤었다	-9750
▁부족함	-9751
▁생각한	-9752
▁세상은	-9753
▁슬래셔	-9754
▁슬퍼서	-9755
▁시절의	-9756
▁신나게	-9757
▁쌩뚱맞	-9758
▁아닌것	-9759
▁아쉽고	-9760
▁엄마랑	-9761
▁영화본	-9762
▁오타쿠	-9763
▁원피스	-9764
▁인물의	-9765
▁임권택	-9766
▁잘하네	-9767
▁장르는	-9768
▁재밌당	-9769
▁전쟁을	-9770
▁정신차	-9771
▁주제에	-9772
▁충격을	-9773
▁충격이	-9774
▁케이트	-9775
▁코드가	-9776
▁화면이	-9777
▁후회함	-9778
부분에서	-9779
영화중에	-9780
재미없고	-9781
좋았어요	-9782
▁2005	-9783
▁2010	-9784
▁best	-9785
▁강력추천	-9786
▁남자라면	-9787
▁되었는데	-9788
▁때문이다	-9789
▁마지막의	-9790
▁만드는지	-9791
▁모든것을	-9792
▁보냅니다	-9793
▁보이지만	-9794
▁상영관이	-9795
▁스케일이	-9796
▁아니라는	-9797
▁어렸을적	-9798
▁연기까지	-9799
▁영화들은	-9800
▁원작소설	-9801
▁일어나는	-9802
▁재밋는데	-9803
▁존재하는	-9804
▁졸업작품	-9805
▁지났지만	-9806
▁철학적인	-9807
▁코미디가	-9808
▁감동적으로	-9809
▁스타일리쉬	-9810
▁어이없어서	-9811
▁영화라는게	-9812
▁우리나라는	-9813
▁초등학교때	-9814
▁최고였어요	-9815
▁애니메이션이	-9816
▁ᄏᄏᄏᄏᄏᄏᄏᄏᄏᄏ	-9817
22	-9818
▁♡	-9819
▁델	-9820
▁턱	-9821
▁퓨	-9822
가다	-9823
가도	-9824
과정	-9825
괜히	-9826
교훈	-9827
꼬마	-9828
나타	-9829
났던	-9830
리타	-9831
망이	-9832
베리	-9833
보라	-9834
소를	-9835
안의	-9836
어는	-9837
영씨	-9838
일라	-9839
전체	-9840
점짜	-9841
주네	-9842
터짐	-9843
틈이	-9844
하곤	-9845
화는	-9846
,..	-9847
.10	-9848
hat	-9849
ill	-9850
▁가상	-9851
▁간직	-9852
▁강호	-9853
▁건데	-9854
▁경우	-9855
▁경제	-9856
▁고찰	-9857
▁군인	-9858
▁김강	-9859
▁김영	-9860
▁꿈이	-9861
▁넘은	-9862
▁노동	-9863
▁논리	-9864
▁도통	-9865
▁되도	-9866
▁둘의	-9867
▁딱딱	-9868
▁레즈	-9869
▁말만	-9870
▁말에	-9871
▁멤버	-9872
▁몸에	-9873
▁버금	-9874
▁버릴	-9875
▁버전	-9876
▁볼줄	-9877
▁부디	-9878
▁부조	-9879
▁빠지	-9880
▁샤를	-9881
▁섞어	-9882
▁속도	-9883
▁신념	-9884
▁엉엉	-9885
▁여고	-9886
▁여왕	-9887
▁은퇴	-9888
▁의학	-9889
▁이범	-9890
▁임신	-9891
▁잼없	-9892
▁정리	-9893
▁지존	-9894
▁총질	-9895
▁추락	-9896
▁퍼즐	-9897
▁펭귄	-9898
▁하던	-9899
▁휴먼	-9900
가는데	-9901
감동이	-9902
급으로	-9903
기억에	-9904
러워서	-9905
모습을	-9906
봤다가	-9907
봤더니	-9908
성탈출	-9909
수밖에	-9910
영화네	-9911
위해서	-9912
이것도	-9913
이런거	-9914
이쁘고	-9915
좋겠다	-9916
진정한	-9917
합시다	-9918
..."	-9919
▁198	-9920
▁The	-9921
▁가끔씩	-9922
▁강지환	-9923
▁검색해	-9924
▁고인의	-9925
▁공중파	-9926
▁과거를	-9927
▁괜찮아	-9928
▁궁금해	-9929
▁글쎄요	-9930
▁기분만	-9931
▁기억될	-9932
▁깊이가	-9933
▁남았다	-9934
▁놀라울	-9935
▁누구도	-9936
▁담아낸	-9937
▁마스터	-9938
▁마음의	-9939
▁말하려	-9940
▁말해서	-9941
▁모습과	-9942
▁모습도	-9943
▁몬스터	-9944
▁방법이	-9945
▁서스펜	-9946
▁소재에	-9947
▁송지효	-9948
▁시작은	-9949
▁식으로	-9950
▁심각한	-9951
▁아닌지	-9952
▁않았나	-9953
▁액션물	-9954
▁액션신	-9955
▁어째서	-9956
▁없었고	-9957
▁웃어야	-9958
▁의미는	-9959
▁이거는	-9960
▁인물이	-9961
▁일요일	-9962
▁있는게	-9963
▁잘표현	-9964
▁전작에	-9965
▁주상욱	-9966
▁촌스럽	-9967
▁파이팅	-9968
▁평점낮	-9969
▁표현해	-9970
▁하는건	-9971
▁한건지	-9972
▁한국에	-9973
▁핸드폰	-9974
▁현실의	-9975
감동적인	-9976
긴했지만	-9977
이라고는	-9978
점대라니	-9979
▁기분좋게	-9980
▁깔끔하고	-9981
▁말해주는	-9982
▁몽환적인	-9983
▁분위기와	-9984
▁빠져드는	-9985
▁뻔하지만	-9986
▁사무라이	-9987
▁슬프지만	-9988
▁쓰레기임	-9989
▁어린이용	-9990
▁없는영화	-9991
▁영화만들	-9992
▁오글거려	-9993
▁우리들의	-9994
▁움직이는	-9995
▁이걸보고	-9996
▁인디아나	-9997
▁재밌지도	-9998
▁좋아하게	-9999
▁참신하고	-10000
▁코믹영화	-10001
▁해야하나	-10002
▁훌륭하고	-10003
보고싶어요	-10004
▁네이버평점	-10005
▁드라마네요	-10006
▁마지막으로	-10007
▁모르겠는데	-10008
▁미안하지만	-10009
▁보고있어요	-10010
▁사실적으로	-10011
▁시간아까워	-10012
▁아침드라마	-10013
▁......	-10014
▁`	-10015
▁규	-10016
▁넋	-10017
▁덧	-10018
▁맺	-10019
▁켄	-10020
▁홈	-10021
게도	-10022
결론	-10023
그의	-10024
근한	-10025
금을	-10026
급을	-10027
내기	-10028
넣은	-10029
다를	-10030
드문	-10031
마냥	-10032
많다	-10033
맹이	-10034
박이	-10035
볼까	-10036
분만	-10037
비교	-10038
선수	-10039
아닐	-10040
아마	-10041
역의	-10042
올때	-10043
용이	-10044
우면	-10045
월드	-10046
이긴	-10047
이쁨	-10048
이한	-10049
인권	-10050
잼있	-10051
점점	-10052
좋았	-10053
중독	-10054
치네	-10055
틀러	-10056
피는	-10057
해피	-10058
희씨	-10059
힌다	-10060
?""	-10061
▁1,	-10062
▁가시	-10063
▁고급	-10064
▁나누	-10065
▁뇌가	-10066
▁달고	-10067
▁두명	-10068
▁로렌	-10069
▁마주	-10070
▁메가	-10071
▁몸이	-10072
▁미개	-10073
▁미키	-10074
▁보실	-10075
▁복선	-10076
▁비롯	-10077
▁빛이	-10078
▁섭외	-10079
▁싫은	-10080
▁싶게	-10081
▁싶었	-10082
▁쓰렉	-10083
▁악몽	-10084
▁알지	-10085
▁없군	-10086
▁예매	-10087
▁요약	-10088
▁인데	-10089
▁잠수	-10090
▁조정	-10091
▁죽기	-10092
▁천사	-10093
▁최하	-10094
▁충무	-10095
▁치열	-10096
▁타락	-10097
▁토요	-10098
▁파악	-10099
▁파트	-10100
▁한글	-10101
▁황홀	-10102
▁훈남	-10103
▁흑흑	-10104
▁히로	-10105
거라고	-10106
놈들은	-10107
됬는데	-10108
별로다	-10109
스트너	-10110
었어도	-10111
에서야	-10112
영환데	-10113
음악도	-10114
이유가	-10115
파서블	-10116
할게요	-10117
해놓고	-10118
..,,	-10119
ᄃᄃᄃᄃ	-10120
▁가르쳐	-10121
▁결말에	-10122
▁공감을	-10123
▁나이에	-10124
▁노력이	-10125
▁눈물흘	-10126
▁대단히	-10127
▁더빙은	-10128
▁또보고	-10129
▁많네요	-10130
▁못생긴	-10131
▁미국이	-10132
▁박평식	-10133
▁배우만	-10134
▁별점을	-10135
▁부분을	-10136
▁사회에	-10137
▁새롭게	-10138
▁설경구	-10139
▁속아서	-10140
▁수준은	-10141
▁신나는	-10142
▁않았고	-10143
▁여주의	-10144
▁영화고	-10145
▁영화평	-10146
▁왜만들	-10147
▁요소를	-10148
▁용두사	-10149
▁웃겨요	-10150
▁있는듯	-10151
▁죽인다	-10152
▁지겨워	-10153
▁지금껏	-10154
▁채플린	-10155
▁처음임	-10156
▁최민수	-10157
기때문에	-10158
되는영화	-10159
수가없다	-10160
스트우드	-10161
시간낭비	-10162
재미없는	-10163
▁그래픽이	-10164
▁내러티브	-10165
▁돈아깝다	-10166
▁리즈시절	-10167
▁만드네요	-10168
▁만들어졌	-10169
▁멋있어요	-10170
▁스타일의	-10171
▁아이러니	-10172
▁아카데미	-10173
▁안되네요	-10174
▁억지설정	-10175
▁역사왜곡	-10176
▁이해하고	-10177
▁잘생기고	-10178
▁재밌게본	-10179
▁중반부터	-10180
▁지들끼리	-10181
▁촌스러운	-10182
▁최고라는	-10183
▁코미디도	-10184
▁흥미롭고	-10185
▁시나리오에	-10186
▁지루하지만	-10187
▁지루했어요	-10188
▁우리나라에서	-10189
21	-10190
ᅩᅩ	-10191
▁묶	-10192
것다	-10193
공의	-10194
그린	-10195
기동	-10196
나지	-10197
남겨	-10198
놨다	-10199
누군	-10200
런지	-10201
려라	-10202
뭔지	-10203
미니	-10204
불륜	-10205
빈이	-10206
사나	-10207
사진	-10208
새벽	-10209
생의	-10210
소나	-10211
스페	-10212
슬리	-10213
식에	-10214
어쩔	-10215
우니	-10216
을것	-10217
을뿐	-10218
작을	-10219
죽고	-10220
카이	-10221
탄이	-10222
피아	-10223
하가	-10224
할게	-10225
현재	-10226
홍보	-10227
훨씬	-10228
흐름	-10229
히게	-10230
.,.	-10231
ain	-10232
ore	-10233
▁가관	-10234
▁그딴	-10235
▁금방	-10236
▁기쁨	-10237
▁김성	-10238
▁내는	-10239
▁노는	-10240
▁덕에	-10241
▁독창	-10242
▁돌고	-10243
▁말라	-10244
▁매회	-10245
▁머지	-10246
▁모야	-10247
▁무기	-10248
▁물고	-10249
▁발상	-10250
▁벌어	-10251
▁변신	-10252
▁불친	-10253
▁비난	-10254
▁비틀	-10255
▁뻔히	-10256
▁수백	-10257
▁수정	-10258
▁스무	-10259
▁식스	-10260
▁실종	-10261
▁요구	-10262
▁울어	-10263
▁유오	-10264
▁이념	-10265
▁이재	-10266
▁인한	-10267
▁일제	-10268
▁읽은	-10269
▁있으	-10270
▁저리	-10271
▁졸려	-10272
▁주원	-10273
▁직장	-10274
▁찍지	-10275
▁찢어	-10276
▁찰리	-10277
▁창의	-10278
▁찾고	-10279
▁체험	-10280
▁클린	-10281
▁트라	-10282
▁피라	-10283
▁후한	-10284
▁흐르	-10285
▁흔해	-10286
거리고	-10287
겠는가	-10288
나오면	-10289
당하는	-10290
드리고	-10291
매니아	-10292
묘하게	-10293
부분에	-10294
사랑을	-10295
액션이	-10296
이나오	-10297
이유는	-10298
있었던	-10299
하느라	-10300
하시면	-10301
한거지	-10302
한것도	-10303
할려고	-10304
할정도	-10305
해야할	-10306
▁,,,	-10307
▁500	-10308
▁겁니다	-10309
▁과거의	-10310
▁과도한	-10311
▁괜찮네	-10312
▁나라를	-10313
▁남긴다	-10314
▁느껴짐	-10315
▁더럽다	-10316
▁돌려줘	-10317
▁됐는데	-10318
▁리뷰를	-10319
▁말하면	-10320
▁망쳐놓	-10321
▁못만드	-10322
▁별기대	-10323
▁별다른	-10324
▁보기는	-10325
▁보는듯	-10326
▁산만한	-10327
▁서로를	-10328
▁세계관	-10329
▁슬퍼요	-10330
▁신경쓰	-10331
▁아프고	-10332
▁역할을	-10333
▁연출에	-10334
▁연출의	-10335
▁오늘도	-10336
▁외에는	-10337
▁웃겼음	-10338
▁웃기네	-10339
▁웬만한	-10340
▁이건좀	-10341
▁이라고	-10342
▁이작품	-10343
▁인간을	-10344
▁장나라	-10345
▁재밋는	-10346
▁적절히	-10347
▁졸면서	-10348
▁차승원	-10349
▁첨이네	-10350
▁초딩이	-10351
▁추천해	-10352
▁치밀한	-10353
▁컨저링	-10354
▁팔아먹	-10355
▁하나만	-10356
▁하려는	-10357
▁한번은	-10358
▁후덜덜	-10359
기만하고	-10360
다고생각	-10361
들에게는	-10362
스러워서	-10363
▁그런영화	-10364
▁나에게는	-10365
▁남자들의	-10366
▁다가오는	-10367
▁다운로드	-10368
▁따뜻하게	-10369
▁무슨말이	-10370
▁미스터리	-10371
▁봐야겠다	-10372
▁사이에서	-10373
▁소름돋는	-10374
▁신데렐라	-10375
▁어떻게든	-10376
▁어쩌라고	-10377
▁에이리언	-10378
▁영화다운	-10379
▁오리지널	-10380
▁자극하는	-10381
▁자본주의	-10382
▁적당하다	-10383
▁팬이라면	-10384
▁허술하고	-10385
▁혹성탈출	-10386
▁히어로물	-10387
점드립니다	-10388
...;;;	-10389
▁감정이입이	-10390
▁볼만하네요	-10391
▁소피마르소	-10392
▁실망스러운	-10393
▁영화에서는	-10394
▁이런영화에	-10395
▁일깨워주는	-10396
▁재밌는영화	-10397
▁좋아한다면	-10398
▁크리스토퍼	-10399
▁프랑스영화	-10400
▁재미없습니다	-10401
,,,,,,,,	-10402
),	-10403
ht	-10404
ne	-10405
▁‘	-10406
▁뜯	-10407
▁슴	-10408
▁욱	-10409
▁춘	-10410
▁핫	-10411
▁혀	-10412
결이	-10413
고은	-10414
그녀	-10415
껴서	-10416
높다	-10417
높아	-10418
대중	-10419
도에	-10420
되길	-10421
맛이	-10422
몰랐	-10423
무협	-10424
뭐가	-10425
밖엔	-10426
방의	-10427
빼면	-10428
사기	-10429
세이	-10430
씨와	-10431
야오	-10432
연한	-10433
엿음	-10434
용도	-10435
워커	-10436
유혼	-10437
인척	-10438
일때	-10439
입고	-10440
작에	-10441
전히	-10442
정서	-10443
져도	-10444
졸라	-10445
주로	-10446
질때	-10447
타이	-10448
타클	-10449
트리	-10450
프트	-10451
피를	-10452
200	-10453
▁bb	-10454
▁so	-10455
▁거창	-10456
▁고발	-10457
▁고백	-10458
▁관대	-10459
▁국제	-10460
▁그땐	-10461
▁글로	-10462
▁김소	-10463
▁김재	-10464
▁김현	-10465
▁꺼내	-10466
▁나왓	-10467
▁느린	-10468
▁대략	-10469
▁데미	-10470
▁맞춘	-10471
▁무얼	-10472
▁묻혀	-10473
▁믿는	-10474
▁믿어	-10475
▁믿지	-10476
▁밀라	-10477
▁부른	-10478
▁빼앗	-10479
▁사춘	-10480
▁스콧	-10481
▁아가	-10482
▁안웃	-10483
▁예의	-10484
▁오만	-10485
▁오토	-10486
▁위에	-10487
▁은은	-10488
▁이선	-10489
▁저렴	-10490
▁전국	-10491
▁조인	-10492
▁존중	-10493
▁짧게	-10494
▁출신	-10495
▁치명	-10496
▁코엔	-10497
▁크로	-10498
▁허영	-10499
▁환불	-10500
▁후진	-10501
가네요	-10502
곱니다	-10503
곳에서	-10504
로서의	-10505
마음에	-10506
만큼의	-10507
머니즘	-10508
멋대로	-10509
반전이	-10510
보느니	-10511
으려는	-10512
이니까	-10513
점준거	-10514
졌지만	-10515
하려면	-10516
▁ebs	-10517
▁kbs	-10518
▁각본이	-10519
▁것처럼	-10520
▁구리다	-10521
▁그때의	-10522
▁김혜수	-10523
▁나가고	-10524
▁나름의	-10525
▁나중엔	-10526
▁남주가	-10527
▁느꼈던	-10528
▁다를게	-10529
▁대표작	-10530
▁되는거	-10531
▁때리고	-10532
▁몰입을	-10533
▁사라진	-10534
▁산드라	-10535
▁설정에	-10536
▁소녀의	-10537
▁시간의	-10538
▁신파극	-10539
▁실패한	-10540
▁심심한	-10541
▁아닌거	-10542
▁아쉽네	-10543
▁아이의	-10544
▁안에서	-10545
▁어지간	-10546
▁언제쯤	-10547
▁에로틱	-10548
▁영화좀	-10549
▁예뻐요	-10550
▁우리네	-10551
▁원숭이	-10552
▁위험한	-10553
▁음악에	-10554
▁이게왜	-10555
▁이번엔	-10556
▁이상도	-10557
▁임청하	-10558
▁자세히	-10559
▁정도다	-10560
▁조승우	-10561
▁즐기는	-10562
▁찌질한	-10563
▁처절한	-10564
▁충실한	-10565
▁케이지	-10566
▁편집이	-10567
▁평점좀	-10568
▁한없이	-10569
▁환타지	-10570
▁황정민	-10571
▁후반에	-10572
▁훌륭함	-10573
▁흥해라	-10574
배속으로	-10575
보여주는	-10576
점정도가	-10577
...!!	-10578
▁괜찮던데	-10579
▁기다리고	-10580
▁기분좋은	-10581
▁너무좋아	-10582
▁대사들이	-10583
▁두근두근	-10584
▁먹먹하다	-10585
▁멜로영화	-10586
▁무서웠다	-10587
▁보기에도	-10588
▁보는듯한	-10589
▁생각해도	-10590
▁생각했다	-10591
▁스릴있고	-10592
▁시청자를	-10593
▁실화라니	-10594
▁심심해서	-10595
▁쓰레기로	-10596
▁알았더니	-10597
▁어마어마	-10598
▁영화관에	-10599
▁옛날영화	-10600
▁울었네요	-10601
▁이건진짜	-10602
▁있다는게	-10603
▁작품성이	-10604
▁캐릭터에	-10605
▁표현했다	-10606
▁하는건지	-10607
▁헛웃음만	-10608
감사합니다	-10609
▁느낌이랄까	-10610
▁볼만했는데	-10611
▁유치하지만	-10612
▁재밌게봤음	-10613
▁적나라하게	-10614
▁좋아할만한	-10615
▁좋아합니다	-10616
▁다시보고싶은	-10617
▁만들어주세요	-10618
./	-10619
dd	-10620
ld	-10621
▁]	-10622
▁겹	-10623
▁낼	-10624
▁몫	-10625
가치	-10626
겁게	-10627
겠나	-10628
관련	-10629
구조	-10630
근래	-10631
끌고	-10632
날의	-10633
능한	-10634
도전	-10635
뒤로	-10636
디로	-10637
따름	-10638
러브	-10639
려한	-10640
모가	-10641
무니	-10642
문이	-10643
반복	-10644
볼일	-10645
사로	-10646
센트	-10647
수다	-10648
스토	-10649
슬픈	-10650
예능	-10651
운의	-10652
으다	-10653
인상	-10654
일지	-10655
죽여	-10656
차원	-10657
타르	-10658
훼손	-10659
all	-10660
ᄍᄍᄍ	-10661
▁me	-10662
▁sh	-10663
▁각자	-10664
▁개독	-10665
▁결합	-10666
▁공산	-10667
▁과잉	-10668
▁극과	-10669
▁나간	-10670
▁난국	-10671
▁넘겨	-10672
▁대비	-10673
▁두개	-10674
▁때론	-10675
▁마르	-10676
▁못했	-10677
▁미칠	-10678
▁믿음	-10679
▁심은	-10680
▁악플	-10681
▁열린	-10682
▁영활	-10683
▁옛다	-10684
▁오마	-10685
▁이완	-10686
▁잃고	-10687
▁장미	-10688
▁제미	-10689
▁지들	-10690
▁지어	-10691
▁쩌네	-10692
▁철저	-10693
▁첨에	-10694
▁쳐도	-10695
▁초기	-10696
▁편이	-10697
▁할거	-10698
▁허전	-10699
▁호텔	-10700
겟네요	-10701
국주의	-10702
기라도	-10703
나올때	-10704
렸어요	-10705
만들고	-10706
액션은	-10707
어디서	-10708
오르는	-10709
음악이	-10710
이건뭐	-10711
이상은	-10712
졌네요	-10713
좋았음	-10714
테이크	-10715
하는가	-10716
할수록	-10717
▁0.5	-10718
▁???	-10719
▁가볍고	-10720
▁구역질	-10721
▁그것은	-10722
▁그녀가	-10723
▁그만좀	-10724
▁기억도	-10725
▁기회가	-10726
▁남자와	-10727
▁냄새가	-10728
▁놈들은	-10729
▁눈물도	-10730
▁능력이	-10731
▁달달한	-10732
▁당하는	-10733
▁던지는	-10734
▁데려다	-10735
▁레이싱	-10736
▁로보캅	-10737
▁만나서	-10738
▁만큼은	-10739
▁먹먹한	-10740
▁무료로	-10741
▁뭡니까	-10742
▁미안해	-10743
▁배우로	-10744
▁보는줄	-10745
▁불후의	-10746
▁비교가	-10747
▁비교해	-10748
▁비추천	-10749
▁속편이	-10750
▁수작이	-10751
▁스텝업	-10752
▁씁쓸한	-10753
▁아니죠	-10754
▁아들과	-10755
▁아시아	-10756
▁안든다	-10757
▁얘기가	-10758
▁연기파	-10759
▁오래전	-10760
▁이들이	-10761
▁이상을	-10762
▁일상을	-10763
▁잘나가	-10764
▁장난감	-10765
▁재밋어	-10766
▁전쟁이	-10767
▁지브리	-10768
▁진행이	-10769
▁최고라	-10770
▁치고는	-10771
▁하는것	-10772
▁하려고	-10773
▁한국어	-10774
▁홍금보	-10775
기대하고	-10776
만든영화	-10777
만들어도	-10778
배우들도	-10779
이라는걸	-10780
적이지도	-10781
하는구나	-10782
~!!!!	-10783
▁2008	-10784
▁http	-10785
▁그래픽은	-10786
▁나발이고	-10787
▁다른영화	-10788
▁담담하게	-10789
▁메세지는	-10790
▁명작이라	-10791
▁보다보다	-10792
▁분위기의	-10793
▁불필요한	-10794
▁생각하며	-10795
▁선동영화	-10796
▁어른들이	-10797
▁여자들의	-10798
▁오그라들	-10799
▁이연걸의	-10800
▁인간들은	-10801
▁인터스텔	-10802
▁있었다니	-10803
▁작품성은	-10804
▁좋아한다	-10805
▁코스프레	-10806
▁개인적으론	-10807
▁끝날때까지	-10808
▁대한민국의	-10809
▁어처구니가	-10810
▁재미없다는	-10811
▁지금까지도	-10812
▁한국영화가	-10813
ᄏᄏᄏᄏᄏᄏᄏᄏᄏᄏᄏᄏᄏ	-10814
>>	-10815
og	-10816
▁뚱	-10817
▁뺨	-10818
▁쉐	-10819
▁헨	-10820
▁횡	-10821
갖고	-10822
겠군	-10823
공이	-10824
구석	-10825
기면	-10826
기업	-10827
끼고	-10828
날이	-10829
너스	-10830
는걸	-10831
대도	-10832
동네	-10833
라를	-10834
롯데	-10835
마른	-10836
물도	-10837
미래	-10838
분명	-10839
블랙	-10840
비스	-10841
사냥	-10842
성공	-10843
셉션	-10844
스틸	-10845
심은	-10846
쓴다	-10847
역이	-10848
올린	-10849
운이	-10850
움과	-10851
위의	-10852
자랑	-10853
자신	-10854
주에	-10855
질수	-10856
짜는	-10857
책을	-10858
쳤던	-10859
칼렛	-10860
코가	-10861
텔링	-10862
폭행	-10863
행을	-10864
.!!	-10865
▁3,	-10866
▁my	-10867
▁st	-10868
▁가미	-10869
▁고려	-10870
▁공존	-10871
▁구로	-10872
▁구매	-10873
▁기차	-10874
▁넣은	-10875
▁높이	-10876
▁눈부	-10877
▁다케	-10878
▁단조	-10879
▁데려	-10880
▁도덕	-10881
▁돈도	-10882
▁들려	-10883
▁라스	-10884
▁류의	-10885
▁르네	-10886
▁모냐	-10887
▁뭔데	-10888
▁보임	-10889
▁부여	-10890
▁붉은	-10891
▁빅뱅	-10892
▁삽입	-10893
▁상식	-10894
▁순정	-10895
▁실컷	-10896
▁십점	-10897
▁안젤	-10898
▁알리	-10899
▁애를	-10900
▁얼른	-10901
▁에니	-10902
▁옹호	-10903
▁우익	-10904
▁원맨	-10905
▁제법	-10906
▁진보	-10907
▁짱구	-10908
▁쫄깃	-10909
▁참혹	-10910
▁처참	-10911
▁추잡	-10912
▁해줄	-10913
▁향해	-10914
가는게	-10915
가족이	-10916
겠더라	-10917
남는다	-10918
났는데	-10919
느와르	-10920
된다는	-10921
만큼도	-10922
버려서	-10923
버렸음	-10924
시대를	-10925
아니야	-10926
어보이	-10927
윌리스	-10928
이상실	-10929
잇어요	-10930
작가가	-10931
점이지	-10932
졌는데	-10933
주는게	-10934
평점에	-10935
하군요	-10936
하라는	-10937
하지는	-10938
합니까	-10939
해준다	-10940
▁가득찬	-10941
▁그레이	-10942
▁남편이	-10943
▁납니다	-10944
▁대박이	-10945
▁돌아오	-10946
▁된다고	-10947
▁드니로	-10948
▁리암니	-10949
▁마음은	-10950
▁많았던	-10951
▁맞추기	-10952
▁매트릭	-10953
▁목숨을	-10954
▁묘하게	-10955
▁무책임	-10956
▁묵직한	-10957
▁배경은	-10958
▁보자고	-10959
▁본인이	-10960
▁봐줄만	-10961
▁봤다고	-10962
▁뻔해서	-10963
▁성룡이	-10964
▁세계를	-10965
▁스칼렛	-10966
▁실망한	-10967
▁안가고	-10968
▁안되요	-10969
▁알아서	-10970
▁어딘가	-10971
▁어벤져	-10972
▁어색함	-10973
▁어설픔	-10974
▁어울리	-10975
▁영구와	-10976
▁영화죠	-10977
▁와닿는	-10978
▁외로운	-10979
▁웃기지	-10980
▁이은주	-10981
▁잘봤다	-10982
▁잘해서	-10983
▁전도연	-10984
▁전세계	-10985
▁정신을	-10986
▁주고싶	-10987
▁주제로	-10988
▁즐겁다	-10989
▁지대로	-10990
▁지하철	-10991
▁찝찝한	-10992
▁추악한	-10993
▁취향은	-10994
▁코믹한	-10995
▁클라스	-10996
▁한계가	-10997
▁한예슬	-10998
▁황비홍	-10999
라는건지	-11000
볼수있는	-11001
이영화를	-11002
재미있고	-11003
재밌네요	-11004
▁2001	-11005
▁very	-11006
▁공감되는	-11007
▁꺼버렸다	-11008
▁돌아가고	-11009
▁몰입감이	-11010
▁못미치는	-11011
▁묻어나는	-11012
▁미스테리	-11013
▁볼거리가	-11014
▁볼거리도	-11015
▁불러일으	-11016
▁사람으로	-11017
▁사랑스런	-11018
▁솔직하게	-11019
▁스릴러가	-11020
▁신기하다	-11021
▁쓰레기들	-11022
▁아이들을	-11023
▁않았으면	-11024
▁알게해준	-11025
▁알바들이	-11026
▁어머니의	-11027
▁어색하다	-11028
▁없었다면	-11029
▁여자들은	-11030
▁영화로서	-11031
▁왠만해선	-11032
▁유치뽕짝	-11033
▁이게뭐야	-11034
▁작위적인	-11035
▁전개되는	-11036
▁전문성우	-11037
▁좋아지는	-11038
▁주인공과	-11039
▁짜증나네	-11040
▁현실이다	-11041
▁서프라이즈	-11042
▁잘만들어진	-11043
▁재밌게봤다	-11044
▁중간중간에	-11045
▁지루하지않고	-11046
▁감동적이었습니다	-11047
..............	-11048
0-	-11049
?'	-11050
▁끓	-11051
▁왈	-11052
▁퉤	-11053
가수	-11054
거림	-11055
경은	-11056
고를	-11057
권을	-11058
균형	-11059
글고	-11060
깜짝	-11061
끄고	-11062
나를	-11063
드러	-11064
등을	-11065
디젤	-11066
때메	-11067
라구	-11068
란이	-11069
랑이	-11070
로선	-11071
료가	-11072
류가	-11073
만세	-11074
맛에	-11075
무가	-11076
밀리	-11077
바다	-11078
바른	-11079
방법	-11080
보나	-11081
본거	-11082
부탁	-11083
소니	-11084
속이	-11085
순위	-11086
씬도	-11087
여름	-11088
오버	-11089
유쾌	-11090
을꺼	-11091
이즈	-11092
입견	-11093
작정	-11094
주니	-11095
죽음	-11096
지와	-11097
추고	-11098
치콕	-11099
타령	-11100
탄탄	-11101
하트	-11102
항상	-11103
행크	-11104
^_^	-11105
ent	-11106
▁//	-11107
▁가자	-11108
▁강조	-11109
▁개떡	-11110
▁거울	-11111
▁건축	-11112
▁게리	-11113
▁고정	-11114
▁귀가	-11115
▁꺼져	-11116
▁꿈에	-11117
▁끄는	-11118
▁남음	-11119
▁낫지	-11120
▁낮음	-11121
▁너네	-11122
▁너는	-11123
▁넣어	-11124
▁노예	-11125
▁대여	-11126
▁더한	-11127
▁데드	-11128
▁독백	-11129
▁돌이	-11130
▁되새	-11131
▁뚜렷	-11132
▁먼지	-11133
▁미사	-11134
▁미성	-11135
▁박지	-11136
▁별이	-11137
▁볼땐	-11138
▁성경	-11139
▁승화	-11140
▁시민	-11141
▁썰렁	-11142
▁아야	-11143
▁안고	-11144
▁어둠	-11145
▁에너	-11146
▁여지	-11147
▁연장	-11148
▁운동	-11149
▁이랬	-11150
▁잇는	-11151
▁잘만	-11152
▁잘보	-11153
▁저녁	-11154
▁적응	-11155
▁정부	-11156
▁지우	-11157
▁진화	-11158
▁창조	-11159
▁청년	-11160
▁호소	-11161
▁활약	-11162
▁훈련	-11163
▁희한	-11164
갔으면	-11165
기보다	-11166
났어요	-11167
년대의	-11168
되면서	-11169
마무리	-11170
마음을	-11171
보다니	-11172
분보고	-11173
성있는	-11174
안타깝	-11175
았다는	-11176
웃기고	-11177
으라고	-11178
이란걸	-11179
이면서	-11180
장면을	-11181
재밌는	-11182
죽는줄	-11183
지못한	-11184
oooo	-11185
▁and	-11186
▁가는줄	-11187
▁가만히	-11188
▁같기도	-11189
▁개인의	-11190
▁나온거	-11191
▁넘치고	-11192
▁느끼지	-11193
▁달콤한	-11194
▁당신을	-11195
▁당하고	-11196
▁뒤집어	-11197
▁마누라	-11198
▁말아라	-11199
▁말이지	-11200
▁말할수	-11201
▁무서웠	-11202
▁미국판	-11203
▁민망한	-11204
▁버리는	-11205
▁보기도	-11206
▁봤었던	-11207
▁분노의	-11208
▁비중이	-11209
▁사건을	-11210
▁사다코	-11211
▁신기한	-11212
▁아오이	-11213
▁않는데	-11214
▁영화판	-11215
▁예상치	-11216
▁와닿지	-11217
▁와이프	-11218
▁유머와	-11219
▁이름만	-11220
▁이연희	-11221
▁일이다	-11222
▁있는거	-11223
▁잘했다	-11224
▁전작의	-11225
▁정도껏	-11226
▁졸았다	-11227
▁주려고	-11228
▁죽을뻔	-11229
▁최초로	-11230
▁클린트	-11231
▁프레디	-11232
▁하나님	-11233
▁한다면	-11234
▁한번만	-11235
▁한사람	-11236
▁힘든데	-11237
앞으로도	-11238
이라지만	-11239
?????	-11240
▁1000	-11241
▁가슴으로	-11242
▁남자들이	-11243
▁너무하다	-11244
▁대작이다	-11245
▁떠올리게	-11246
▁러브라인	-11247
▁무언가를	-11248
▁보았지만	-11249
▁볼만하고	-11250
▁봐야한다	-11251
▁불편하다	-11252
▁브래드피	-11253
▁생각나네	-11254
▁시원하게	-11255
▁신선하다	-11256
▁신선했다	-11257
▁실망했다	-11258
▁심사위원	-11259
▁아메리칸	-11260
▁아무래도	-11261
▁아이들도	-11262
▁알수없는	-11263
▁엉망이고	-11264
▁영화처럼	-11265
▁외계인이	-11266
▁작품인데	-11267
▁정신건강	-11268
▁조잡하고	-11269
▁주연으로	-11270
▁중국영화	-11271
▁포스터는	-11272
▁휴머니즘	-11273
영화중에서	-11274
▁것만으로도	-11275
▁공포영화를	-11276
▁공포영화의	-11277
▁시나리오는	-11278
▁않았습니다	-11279
▁여주인공은	-11280
18	-11281
ap	-11282
▁)	-11283
▁ᅵ	-11284
가나	-11285
가루	-11286
게리	-11287
고요	-11288
깁슨	-11289
끝에	-11290
낮지	-11291
단다	-11292
단순	-11293
대서	-11294
대충	-11295
드벤	-11296
로봇	-11297
맨이	-11298
메오	-11299
모니	-11300
바탕	-11301
보일	-11302
보잡	-11303
본듯	-11304
볼타	-11305
뿐인	-11306
사무	-11307
사상	-11308
색이	-11309
선가	-11310
설명	-11311
아놔	-11312
안함	-11313
애기	-11314
역에	-11315
욕을	-11316
운동	-11317
은혜	-11318
이웃	-11319
재가	-11320
점의	-11321
졌고	-11322
집중	-11323
차고	-11324
터가	-11325
팬더	-11326
편만	-11327
하든	-11328
한심	-11329
회를	-11330
OST	-11331
▁ᄀᄀ	-11332
▁감당	-11333
▁갑갑	-11334
▁강제	-11335
▁개발	-11336
▁괜춘	-11337
▁꼽을	-11338
▁끝냈	-11339
▁나눠	-11340
▁낳은	-11341
▁눈과	-11342
▁닮은	-11343
▁당최	-11344
▁댄스	-11345
▁동일	-11346
▁땀을	-11347
▁마마	-11348
▁못지	-11349
▁무덤	-11350
▁믿겨	-11351
▁반개	-11352
▁버티	-11353
▁보나	-11354
▁보호	-11355
▁봐주	-11356
▁부를	-11357
▁비명	-11358
▁비유	-11359
▁사토	-11360
▁서인	-11361
▁선수	-11362
▁소림	-11363
▁습작	-11364
▁씨네	-11365
▁어딨	-11366
▁욕먹	-11367
▁유리	-11368
▁이슈	-11369
▁입고	-11370
▁자존	-11371
▁저의	-11372
▁조쉬	-11373
▁조여	-11374
▁조직	-11375
▁종합	-11376
▁주면	-11377
▁진솔	-11378
▁질투	-11379
▁파란	-11380
▁필모	-11381
▁한물	-11382
▁후기	-11383
녀유혼	-11384
는거임	-11385
다니고	-11386
대사가	-11387
밖에는	-11388
보라고	-11389
빠지는	-11390
씬에서	-11391
아닌듯	-11392
안타까	-11393
에게서	-11394
왜이리	-11395
위에서	-11396
있어야	-11397
자들을	-11398
적이며	-11399
점드림	-11400
줬는데	-11401
하겠지	-11402
하나의	-11403
하던가	-11404
했어도	-11405
,...	-11406
▁각자의	-11407
▁괴물이	-11408
▁그때는	-11409
▁그랬다	-11410
▁극적인	-11411
▁김강우	-11412
▁김하늘	-11413
▁눈빛이	-11414
▁다니는	-11415
▁다른거	-11416
▁답답함	-11417
▁대사들	-11418
▁만드나	-11419
▁망쳤다	-11420
▁망치는	-11421
▁못생겼	-11422
▁반전과	-11423
▁보여서	-11424
▁볼수가	-11425
▁부끄럽	-11426
▁빨리감	-11427
▁소년의	-11428
▁스릴감	-11429
▁슬픔이	-11430
▁신현준	-11431
▁아쉬워	-11432
▁어느새	-11433
▁어찌나	-11434
▁없을까	-11435
▁역할이	-11436
▁연출한	-11437
▁원맨쇼	-11438
▁위하여	-11439
▁이동욱	-11440
▁이러한	-11441
▁이름값	-11442
▁익숙한	-11443
▁저것도	-11444
▁좋아하	-11445
▁죽이네	-11446
▁집어넣	-11447
▁짜여진	-11448
▁짧아서	-11449
▁철학적	-11450
▁청춘의	-11451
▁틀어주	-11452
▁펑펑울	-11453
▁플레이	-11454
▁하시는	-11455
▁행동이	-11456
▁행복해	-11457
▁흐름을	-11458
▁힘들어	-11459
재밌는데	-11460
점이라니	-11461
주인공의	-11462
하지않은	-11463
하하하하	-11464
▁감동으로	-11465
▁그나저나	-11466
▁깨달았다	-11467
▁깨알같은	-11468
▁나오는지	-11469
▁드림웍스	-11470
▁들어가는	-11471
▁몇안되는	-11472
▁모르겟다	-11473
▁무척이나	-11474
▁반성해라	-11475
▁실화라는	-11476
▁심심할때	-11477
▁아니었음	-11478
▁안되는데	-11479
▁안봤는데	-11480
▁안봤으면	-11481
▁안봤지만	-11482
▁않았는데	-11483
▁액션으로	-11484
▁어땠을까	-11485
▁였습니다	-11486
▁영상으로	-11487
▁영화인거	-11488
▁왜이러지	-11489
▁잔인하게	-11490
▁잔잔하니	-11491
▁중에서도	-11492
▁최곱니다	-11493
▁틀림없다	-11494
▁프레데터	-11495
▁하기에는	-11496
보고있어요	-11497
▁개봉했을때	-11498
▁객관적으로	-11499
▁뒤로갈수록	-11500
▁드라마에서	-11501
▁드라마에요	-11502
▁드라마였다	-11503
▁생각나네요	-11504
▁생각하는데	-11505
▁시간아까움	-11506
▁시나리오와	-11507
▁아니었으면	-11508
▁억지스럽다	-11509
▁엑소시스트	-11510
▁오랜만이다	-11511
▁지루하다고	-11512
▁말이필요없는	-11513
ᄏᄏᄏᄏᄏᄏᄏᄏᄏᄏ	-11514
.~	-11515
CN	-11516
ul	-11517
▁*	-11518
▁눌	-11519
▁솜	-11520
▁윈	-11521
▁잣	-11522
▁쭈	-11523
▁텅	-11524
▁팽	-11525
▁흰	-11526
더의	-11527
도못	-11528
둘이	-11529
란걸	-11530
래야	-11531
려도	-11532
린거	-11533
마치	-11534
말은	-11535
망한	-11536
미녀	-11537
보비	-11538
본방	-11539
볼때	-11540
봣음	-11541
봤자	-11542
분히	-11543
선물	-11544
선의	-11545
시걸	-11546
시티	-11547
아담	-11548
아역	-11549
알려	-11550
애를	-11551
약간	-11552
엇던	-11553
엉망	-11554
엉성	-11555
외국	-11556
이것	-11557
일체	-11558
잇음	-11559
장님	-11560
짓게	-11561
초등	-11562
태웅	-11563
테니	-11564
트에	-11565
파괴	-11566
해짐	-11567
현우	-11568
현이	-11569
흥행	-11570
.."	-11571
1,2	-11572
^^;	-11573
▁경이	-11574
▁교차	-11575
▁기도	-11576
▁기사	-11577
▁나갈	-11578
▁날로	-11579
▁눈만	-11580
▁당췌	-11581
▁대책	-11582
▁동정	-11583
▁된게	-11584
▁디아	-11585
▁레드	-11586
▁마사	-11587
▁마츠	-11588
▁맛에	-11589
▁매튜	-11590
▁문학	-11591
▁미군	-11592
▁발휘	-11593
▁배틀	-11594
▁보네	-11595
▁볼걸	-11596
▁볼꺼	-11597
▁봐요	-11598
▁봤어	-11599
▁부럽	-11600
▁부자	-11601
▁분은	-11602
▁빨아	-11603
▁빼놓	-11604
▁뽑아	-11605
▁사전	-11606
▁서극	-11607
▁서민	-11608
▁수치	-11609
▁스탤	-11610
▁시스	-11611
▁식의	-11612
▁쌍팔	-11613
▁써도	-11614
▁써야	-11615
▁아따	-11616
▁아랫	-11617
▁아키	-11618
▁악의	-11619
▁어의	-11620
▁어줍	-11621
▁언급	-11622
▁에반	-11623
▁외엔	-11624
▁자라	-11625
▁잠든	-11626
▁장쯔	-11627
▁재주	-11628
▁전무	-11629
▁좌파	-11630
▁지니	-11631
▁차지	-11632
▁창작	-11633
▁채우	-11634
▁총쏘	-11635
▁최저	-11636
▁크고	-11637
▁토이	-11638
▁패턴	-11639
▁표본	-11640
감동을	-11641
기분이	-11642
년이나	-11643
랍시고	-11644
몰입도	-11645
봅시다	-11646
소재로	-11647
십시오	-11648
안나오	-11649
없으면	-11650
연기잘	-11651
이나마	-11652
일까요	-11653
키드먼	-11654
하나는	-11655
하라고	-11656
해서는	-11657
▁거리가	-11658
▁그리스	-11659
▁끝으로	-11660
▁나오게	-11661
▁나이트	-11662
▁더빙도	-11663
▁따듯한	-11664
▁따라한	-11665
▁만점을	-11666
▁몇년이	-11667
▁못하게	-11668
▁뭔가를	-11669
▁배급사	-11670
▁별루다	-11671
▁보기전	-11672
▁볼만은	-11673
▁빡쳐서	-11674
▁빵터짐	-11675
▁사로잡	-11676
▁사실에	-11677
▁섹시한	-11678
▁소리를	-11679
▁수준급	-11680
▁슬프게	-11681
▁아마도	-11682
▁아쉽긴	-11683
▁애절한	-11684
▁약간은	-11685
▁어려울	-11686
▁엄마와	-11687
▁열정이	-11688
▁영혼을	-11689
▁영화면	-11690
▁예술을	-11691
▁오로라	-11692
▁유머가	-11693
▁이건머	-11694
▁이나영	-11695
▁자체를	-11696
▁장르에	-11697
▁재해석	-11698
▁저급한	-11699
▁제작된	-11700
▁줄리엣	-11701
▁중반부	-11702
▁초반의	-11703
▁캐서린	-11704
▁크루즈	-11705
▁터무니	-11706
▁톰행크	-11707
▁하이킥	-11708
▁한국은	-11709
▁한정된	-11710
▁환상의	-11711
▁흘러도	-11712
▁희망이	-11713
우면서도	-11714
임파서블	-11715
....?	-11716
▁감독님이	-11717
▁거부감이	-11718
▁그래픽도	-11719
▁그런대로	-11720
▁깔끔하게	-11721
▁끝내준다	-11722
▁나오면서	-11723
▁능가하는	-11724
▁드라마임	-11725
▁만드는게	-11726
▁멋있었다	-11727
▁못하지만	-11728
▁못했지만	-11729
▁무서웠음	-11730
▁무섭다고	-11731
▁미치겠다	-11732
▁별반개도	-11733
▁보기드문	-11734
▁보면서도	-11735
▁분명하다	-11736
▁사랑이란	-11737
▁사실적인	-11738
▁수준이다	-11739
▁스타일이	-11740
▁안됩니다	-11741
▁알고보니	-11742
▁없었지만	-11743
▁이때까지	-11744
▁이정도는	-11745
▁인내심을	-11746
▁잊을수가	-11747
▁재밌게봤	-11748
▁주옥같은	-11749
▁지루해요	-11750
▁진행되는	-11751
▁출연하는	-11752
▁코미디로	-11753
▁후반으로	-11754
점준것중에	-11755
▁기대합니다	-11756
▁나왔습니다	-11757
▁느꼈습니다	-11758
▁모르겠으나	-11759
▁우리나라에	-11760
▁잔잔하면서	-11761
▁지루하지도	-11762
▁최악입니다	-11763
▁캐릭터들의	-11764
▁페이크다큐	-11765
▁무슨내용인지	-11766
ᄏᄏᄏᄏᄏᄏᄏᄏᄏᄏᄏ	-11767
ᄏᄏᄏᄏᄏᄏᄏᄏᄏᄏᄏᄏ	-11768
78	-11769
>_	-11770
us	-11771
ᄀᄀ	-11772
▁꽁	-11773
▁덩	-11774
▁랩	-11775
감각	-11776
개로	-11777
구로	-11778
나머	-11779
날에	-11780
년은	-11781
달러	-11782
대표	-11783
동석	-11784
동엽	-11785
되냐	-11786
됬다	-11787
력과	-11788
리브	-11789
리어	-11790
림을	-11791
마니	-11792
마의	-11793
말에	-11794
물고	-11795
미와	-11796
부대	-11797
부르	-11798
비의	-11799
슬픔	-11800
시즘	-11801
심과	-11802
어낸	-11803
연습	-11804
인기	-11805
장창	-11806
조절	-11807
준이	-11808
지기	-11809
진지	-11810
키의	-11811
탄은	-11812
풀이	-11813
피니	-11814
하듯	-11815
현지	-11816
홍콩	-11817
회의	-11818
히히	-11819
▁+1	-11820
▁1.	-11821
▁35	-11822
▁95	-11823
▁97	-11824
▁거대	-11825
▁건너	-11826
▁고수	-11827
▁괴작	-11828
▁귀에	-11829
▁껏다	-11830
▁놓친	-11831
▁뉴스	-11832
▁닌자	-11833
▁다듬	-11834
▁단점	-11835
▁동방	-11836
▁되길	-11837
▁라면	-11838
▁마크	-11839
▁많지	-11840
▁말지	-11841
▁망쳤	-11842
▁맞은	-11843
▁메리	-11844
▁무미	-11845
▁문근	-11846
▁봣다	-11847
▁부인	-11848
▁붙여	-11849
▁빌리	-11850
▁사귀	-11851
▁사막	-11852
▁서세	-11853
▁수애	-11854
▁스탈	-11855
▁싶네	-11856
▁썩은	-11857
▁쏠쏠	-11858
▁씬은	-11859
▁아웃	-11860
▁안달	-11861
▁안됐	-11862
▁안티	-11863
▁어렷	-11864
▁오다	-11865
▁오싹	-11866
▁옹박	-11867
▁우수	-11868
▁운운	-11869
▁이길	-11870
▁이라	-11871
▁인연	-11872
▁자칫	-11873
▁작정	-11874
▁잡은	-11875
▁줄은	-11876
▁중구	-11877
▁중세	-11878
▁지도	-11879
▁진주	-11880
▁질문	-11881
▁짧고	-11882
▁찡한	-11883
▁최종	-11884
▁크리	-11885
▁통틀	-11886
▁트루	-11887
▁파멸	-11888
▁픽사	-11889
▁필수	-11890
▁한건	-11891
▁한결	-11892
▁한수	-11893
▁합리	-11894
▁현빈	-11895
▁화해	-11896
▁후유	-11897
▁흔히	-11898
년이지	-11899
다보니	-11900
들과는	-11901
렸지만	-11902
리우드	-11903
메이징	-11904
무서운	-11905
버렸네	-11906
상으로	-11907
어야할	-11908
연기와	-11909
예전에	-11910
오히려	-11911
이쁘다	-11912
이없다	-11913
인들은	-11914
인트가	-11915
자마자	-11916
작품이	-11917
지금은	-11918
지않을	-11919
하던지	-11920
해놓은	-11921
했었다	-11922
ᄋᄋᄋᄋ	-11923
▁가운데	-11924
▁각본과	-11925
▁같다는	-11926
▁결론이	-11927
▁고맙다	-11928
▁관계를	-11929
▁그러지	-11930
▁극장서	-11931
▁기대해	-11932
▁기억은	-11933
▁김태희	-11934
▁꼭봐라	-11935
▁끝나지	-11936
▁나라의	-11937
▁나았다	-11938
▁나한테	-11939
▁남자들	-11940
▁놈들이	-11941
▁니들은	-11942
▁단언컨	-11943
▁대단함	-11944
▁들어오	-11945
▁막장의	-11946
▁몰라서	-11947
▁못된다	-11948
▁무리수	-11949
▁보네요	-11950
▁복수가	-11951
▁봐야함	-11952
▁분노가	-11953
▁사건의	-11954
▁사나이	-11955
▁설레는	-11956
▁성유리	-11957
▁순간이	-11958
▁슬픔을	-11959
▁싸우고	-11960
▁얼굴을	-11961
▁없다면	-11962
▁없을듯	-11963
▁엔딩곡	-11964
▁연기나	-11965
▁영상을	-11966
▁욕하는	-11967
▁웃음도	-11968
▁이런것	-11969
▁이순신	-11970
▁이해는	-11971
▁일본식	-11972
▁일어난	-11973
▁있었나	-11974
▁작품도	-11975
▁잔혹한	-11976
▁장근석	-11977
▁전편에	-11978
▁제정신	-11979
▁졸려서	-11980
▁죽어서	-11981
▁중국의	-11982
▁지겨운	-11983
▁지저분	-11984
▁진하게	-11985
▁첨본다	-11986
▁추천함	-11987
▁카타르	-11988
▁특히나	-11989
▁하고싶	-11990
▁하는가	-11991
▁허접함	-11992
▁후회할	-11993
스럽지만	-11994
시리즈중	-11995
이야기가	-11996
인거같다	-11997
재미있는	-11998
점입니다	-11999
지금까지	-12000
지않았다	-12001
처음부터	-12002
▁2002	-12003
▁love	-12004
▁개연성은	-12005
▁관람불가	-12006
▁관점에서	-12007
▁군대에서	-12008
▁극단적인	-12009
▁마음속에	-12010
▁말할것도	-12011
▁무언가가	-12012
▁불편하고	-12013
▁사랑스러	-12014
▁사랑하게	-12015
▁상상력을	-12016
▁생각하지	-12017
▁샤론스톤	-12018
▁선생님이	-12019
▁식상하고	-12020
▁싶은건지	-12021
▁아니겠지	-12022
▁안나와서	-12023
▁안하는데	-12024
▁알면서도	-12025
▁여고괴담	-12026
▁영화일뿐	-12027
▁욕나오는	-12028
▁최고였음	-12029
▁한순간도	-12030
▁허무하다	-12031
▁현실에서	-12032
▁흥미롭다	-12033
▁가면갈수록	-12034
▁몰입하면서	-12035
▁보면볼수록	-12036
▁수작입니다	-12037
▁아름다움을	-12038
▁아름다웠던	-12039
▁영화관가서	-12040
▁영화인데도	-12041
▁이스트우드	-12042
▁이영화에서	-12043
▁처음입니다	-12044
▁평론가들은	-12045
▁행복해지는	-12046
▁애니메이션을	-12047
▁영화보는내내	-12048
ak	-12049
▁겸	-12050
▁밟	-12051
▁뽕	-12052
개월	-12053
게이	-12054
기스	-12055
꺼라	-12056
나왓	-12057
나잇	-12058
남편	-12059
내면	-12060
느님	-12061
대결	-12062
대작	-12063
동일	-12064
등록	-12065
래원	-12066
리얼	-12067
린지	-12068
릴수	-12069
맞음	-12070
메다	-12071
몸매	-12072
반도	-12073
방에	-12074
별점	-12075
뻔함	-12076
셔요	-12077
순례	-12078
슈퍼	-12079
스텝	-12080
식상	-12081
신지	-12082
실한	-12083
아르	-12084
아팠	-12085
알게	-12086
없구	-12087
영원	-12088
우와	-12089
우울	-12090
은이	-12091
음의	-12092
인칭	-12093
입장	-12094
적일	-12095
절히	-12096
조선	-12097
종교	-12098
중인	-12099
지식	-12100
찾기	-12101
처리	-12102
칠때	-12103
코의	-12104
탄을	-12105
태규	-12106
통쾌	-12107
트와	-12108
포로	-12109
포장	-12110
표를	-12111
피의	-12112
필드	-12113
햇음	-12114
허허	-12115
형사	-12116
호는	-12117
환이	-12118
훈이	-12119
..3	-12120
ant	-12121
▁각인	-12122
▁갈아	-12123
▁갑작	-12124
▁고로	-12125
▁고현	-12126
▁공개	-12127
▁과한	-12128
▁광팬	-12129
▁글구	-12130
▁김동	-12131
▁낚임	-12132
▁날이	-12133
▁낮추	-12134
▁낯선	-12135
▁넘버	-12136
▁달아	-12137
▁당당	-12138
▁대변	-12139
▁등이	-12140
▁디지	-12141
▁똥폼	-12142
▁맞음	-12143
▁매년	-12144
▁명예	-12145
▁못볼	-12146
▁무거	-12147
▁미달	-12148
▁바가	-12149
▁발생	-12150
▁복제	-12151
▁볼껄	-12152
▁사형	-12153
▁삼국	-12154
▁서정	-12155
▁성괴	-12156
▁소방	-12157
▁소비	-12158
▁시덥	-12159
▁신부	-12160
▁신성	-12161
▁실존	-12162
▁써라	-12163
▁안목	-12164
▁안전	-12165
▁안죽	-12166
▁압축	-12167
▁에어	-12168
▁연계	-12169
▁온다	-12170
▁완소	-12171
▁의아	-12172
▁일은	-12173
▁잃지	-12174
▁있죠	-12175
▁자제	-12176
▁잘난	-12177
▁잘된	-12178
▁잘라	-12179
▁재기	-12180
▁재일	-12181
▁전통	-12182
▁정점	-12183
▁제한	-12184
▁줘서	-12185
▁줬다	-12186
▁지닌	-12187
▁칼로	-12188
▁키워	-12189
▁터짐	-12190
▁프렌	-12191
▁한쪽	-12192
▁호감	-12193
▁휴지	-12194
각기동	-12195
간다는	-12196
갔다가	-12197
것같고	-12198
극장판	-12199
날로그	-12200
남자의	-12201
녀석들	-12202
되는거	-12203
몰라도	-12204
뮤지컬	-12205
비슷한	-12206
사랑해	-12207
선생님	-12208
수없다	-12209
슬프고	-12210
아아아	-12211
없다고	-12212
엇지만	-12213
연기자	-12214
였다는	-12215
였다니	-12216
이거나	-12217
일라잇	-12218
자에게	-12219
장면만	-12220
점수는	-12221
점이면	-12222
점인데	-12223
정신이	-12224
중인데	-12225
지금도	-12226
지는데	-12227
치도록	-12228
크리스	-12229
터지는	-12230
할수있	-12231
화부터	-12232
!!^^	-12233
▁OCN	-12234
▁귀요미	-12235
▁그녀는	-12236
▁그러면	-12237
▁그리운	-12238
▁급전개	-12239
▁나라가	-12240
▁나쁘진	-12241
▁노래만	-12242
▁다같이	-12243
▁들었음	-12244
▁때우기	-12245
▁떨어져	-12246
▁러브라	-12247
▁많았다	-12248
▁말이죠	-12249
▁말하지	-12250
▁먹칠을	-12251
▁멋있어	-12252
▁모두다	-12253
▁무식한	-12254
▁방식이	-12255
▁별볼일	-12256
▁보다도	-12257
▁보시는	-12258
▁봤다니	-12259
▁봤을땐	-12260
▁분들께	-12261
▁살인을	-12262
▁새롭고	-12263
▁서서히	-12264
▁성우를	-12265
▁시선을	-12266
▁신세경	-12267
▁아들의	-12268
▁안난다	-12269
▁안들어	-12270
▁어떨까	-12271
▁엄마는	-12272
▁없더라	-12273
▁여성의	-12274
▁역부족	-12275
▁역사의	-12276
▁연출로	-12277
▁와진짜	-12278
▁완벽히	-12279
▁완전한	-12280
▁왔어요	-12281
▁왜이럼	-12282
▁요소는	-12283
▁용서가	-12284
▁울었음	-12285
▁음악의	-12286
▁이러니	-12287
▁이리도	-12288
▁이만큼	-12289
▁이모양	-12290
▁이뻐요	-12291
▁인기가	-12292
▁있겠다	-12293
▁자기만	-12294
▁재미난	-12295
▁재밌긴	-12296
▁정치적	-12297
▁죽음의	-12298
▁차가운	-12299
▁처음봄	-12300
▁천재다	-12301
▁철없는	-12302
▁하야오	-12303
▁하여금	-12304
▁해리슨	-12305
▁했다는	-12306
▁후에도	-12307
▁흔적이	-12308
▁히치콕	-12309
기보다는	-12310
드라마로	-12311
쓰레기다	-12312
이드라마	-12313
이었는데	-12314
▁개봉하는	-12315
▁거슬린다	-12316
▁기준으로	-12317
▁끊임없이	-12318
▁나온다는	-12319
▁남자배우	-12320
▁내용이나	-12321
▁돌아가는	-12322
▁만들겠다	-12323
▁만들었던	-12324
▁멋지네요	-12325
▁모두에게	-12326
▁무의미한	-12327
▁별로지만	-12328
▁상업영화	-12329
▁생각된다	-12330
▁생각해요	-12331
▁생생하게	-12332
▁생생하다	-12333
▁스릴러는	-12334
▁스포일러	-12335
▁아버지를	-12336
▁안된다는	-12337
▁알았지만	-12338
▁어벤져스	-12339
▁어이없네	-12340
▁어정쩡한	-12341
▁영화니까	-12342
▁영화들을	-12343
▁옴니버스	-12344
▁와닿는다	-12345
▁완성도를	-12346
▁욕하면서	-12347
▁인상깊은	-12348
▁있는것도	-12349
▁있었어요	-12350
▁있었을까	-12351
▁줄거리에	-12352
▁지금보니	-12353
▁진정으로	-12354
▁질질끌고	-12355
▁촌스럽고	-12356
▁크리스틴	-12357
▁필요할까	-12358
하지마세요	-12359
;;;;;;	-12360
▁괜찮았어요	-12361
▁대단합니다	-12362
▁드라마보다	-12363
▁로그인하게	-12364
▁리메이크작	-12365
▁못봐주겠다	-12366
▁소름돋는다	-12367
▁영화이지만	-12368
▁오그라든다	-12369
▁자연스럽고	-12370
▁정신건강에	-12371
▁좋아했는데	-12372
▁죽여버리고	-12373
▁지루하네요	-12374
▁캐릭터들도	-12375
▁무슨생각으로	-12376
▁ᄏᄏᄏᄏᄏᄏᄏᄏᄏᄏᄏᄏᄏ	-12377
...............	-12378
@@	-12379
lt	-12380
~7	-12381
▁ᅢ	-12382
▁귓	-12383
▁낄	-12384
▁닐	-12385
▁쉣	-12386
▁져	-12387
▁좁	-12388
▁쬐	-12389
▁쿡	-12390
▁퀸	-12391
겟음	-12392
겟지	-12393
고만	-12394
고에	-12395
관리	-12396
그닥	-12397
길이	-12398
눈에	-12399
돈다	-12400
디에	-12401
력도	-12402
렬한	-12403
로얄	-12404
료로	-12405
만원	-12406
미남	-12407
미달	-12408
바가	-12409
받았	-12410
받지	-12411
밤에	-12412
빠다	-12413
수님	-12414
어렵	-12415
없냐	-12416
와라	-12417
왠지	-12418
우치	-12419
유미	-12420
이소	-12421
인표	-12422
일도	-12423
전기	-12424
찍는	-12425
차가	-12426
청춘	-12427
침을	-12428
탈리	-12429
햇던	-12430
▁22	-12431
▁23	-12432
▁가위	-12433
▁각성	-12434
▁강혜	-12435
▁개빡	-12436
▁걸어	-12437
▁공격	-12438
▁과감	-12439
▁관리	-12440
▁광해	-12441
▁구원	-12442
▁김보	-12443
▁꾸준	-12444
▁끌려	-12445
▁낮춰	-12446
▁넘기	-12447
▁네가	-12448
▁녹화	-12449
▁놈이	-12450
▁대리	-12451
▁동의	-12452
▁되었	-12453
▁들을	-12454
▁로긴	-12455
▁마술	-12456
▁맛을	-12457
▁메인	-12458
▁모건	-12459
▁모델	-12460
▁몰래	-12461
▁미워	-12462
▁반가	-12463
▁발랄	-12464
▁방식	-12465
▁분석	-12466
▁불꽃	-12467
▁불만	-12468
▁불사	-12469
▁불우	-12470
▁선교	-12471
▁수업	-12472
▁숨이	-12473
▁스파	-12474
▁싫음	-12475
▁암이	-12476
▁야마	-12477
▁어서	-12478
▁어쩐	-12479
▁여진	-12480
▁역활	-12481
▁오르	-12482
▁옥의	-12483
▁이룬	-12484
▁이뤄	-12485
▁이슬	-12486
▁이요	-12487
▁인공	-12488
▁인식	-12489
▁인줄	-12490
▁작작	-12491
▁장편	-12492
▁정글	-12493
▁조커	-12494
▁쳐다	-12495
▁큰일	-12496
▁클라	-12497
▁튀어	-12498
▁플래	-12499
▁피가	-12500
▁피디	-12501
▁하얀	-12502
▁하필	-12503
▁해적	-12504
▁했네	-12505
▁혹평	-12506
▁희극	-12507
걸까요	-12508
겁니까	-12509
너무낮	-12510
넘치고	-12511
다가도	-12512
라는데	-12513
본사람	-12514
분들도	-12515
쓰는데	-12516
아들이	-12517
알바들	-12518
야겠다	-12519
올시다	-12520
요소가	-12521
우주연	-12522
잔잔한	-12523
저렇게	-12524
죽이는	-12525
친구가	-12526
프랑스	-12527
픕니다	-12528
할머니	-12529
할영화	-12530
해졌다	-12531
회에서	-12532
훌륭한	-12533
▁CGV	-12534
▁가치는	-12535
▁각각의	-12536
▁감정의	-12537
▁강호동	-12538
▁개성이	-12539
▁고통을	-12540
▁관객은	-12541
▁그녀를	-12542
▁그러니	-12543
▁그런건	-12544
▁그림이	-12545
▁급하게	-12546
▁김명민	-12547
▁끝나면	-12548
▁끝났다	-12549
▁나쁜놈	-12550
▁노래와	-12551
▁당시의	-12552
▁돈아깝	-12553
▁듣보잡	-12554
▁따라가	-12555
▁똑같다	-12556
▁만든것	-12557
▁말한다	-12558
▁멋있음	-12559
▁몸부림	-12560
▁뭐하냐	-12561
▁미국은	-12562
▁미래의	-12563
▁밑에분	-12564
▁바보가	-12565
▁박신혜	-12566
▁배우다	-12567
▁보니깐	-12568
▁본다고	-12569
▁브레이	-12570
▁사라져	-12571
▁생각과	-12572
▁서부극	-12573
▁선입견	-12574
▁성격이	-12575
▁스마트	-12576
▁신민아	-12577
▁심했다	-12578
▁아이도	-12579
▁암울한	-12580
▁어드벤	-12581
▁어려서	-12582
▁어쩌고	-12583
▁얼굴도	-12584
▁없구만	-12585
▁없잖아	-12586
▁오늘은	-12587
▁웃기긴	-12588
▁유아용	-12589
▁이쁘네	-12590
▁이후의	-12591
▁잔잔함	-12592
▁장면에	-12593
▁재평가	-12594
▁전설이	-12595
▁좋은거	-12596
▁주말에	-12597
▁죽어도	-12598
▁중구난	-12599
▁중딩때	-12600
▁지구를	-12601
▁최진실	-12602
▁폴워커	-12603
▁프로젝	-12604
▁한국형	-12605
▁해놓고	-12606
▁현재의	-12607
▁홍진호	-12608
▁흥행에	-12609
▁흥행을	-12610
다는건지	-12611
사랑하는	-12612
생각보다	-12613
생각하게	-12614
스토리를	-12615
액션영화	-12616
이라는거	-12617
이야기를	-12618
적으로도	-12619
점이라도	-12620
짜증난다	-12621
할수밖에	-12622
naver	-12623
▁감동감동	-12624
▁괜찮았고	-12625
▁나오길래	-12626
▁내스타일	-12627
▁너무좋다	-12628
▁누구에게	-12629
▁단순하고	-12630
▁드라마틱	-12631
▁리얼하게	-12632
▁명작인데	-12633
▁무서운거	-12634
▁무협영화	-12635
▁미화하는	-12636
▁밋밋하고	-12637
▁배우들로	-12638
▁배우들만	-12639
▁버금가는	-12640
▁보여주지	-12641
▁본영화중	-12642
▁볼거리는	-12643
▁비현실적	-12644
▁사람인데	-12645
▁상황에서	-12646
▁샤를리즈	-12647
▁시리즈로	-12648
▁쓰레기도	-12649
▁아날로그	-12650
▁아니에요	-12651
▁아름다워	-12652
▁안보는데	-12653
▁안쓰는데	-12654
▁안타까울	-12655
▁알수있는	-12656
▁어릴적에	-12657
▁엑스트라	-12658
▁원작보다	-12659
▁이리저리	-12660
▁이야기와	-12661
▁인물들이	-12662
▁인상깊다	-12663
▁있어보이	-12664
▁잔잔하다	-12665
▁저평가된	-12666
▁줄거리도	-12667
▁짱입니다	-12668
▁천녀유혼	-12669
▁촬영기법	-12670
▁코미디를	-12671
▁판타지를	-12672
▁풋풋하고	-12673
▁허술하다	-12674
▁화가난다	-12675
▁후회하지	-12676
▁대단하네요	-12677
▁만들었다면	-12678
▁스토리텔링	-12679
▁쓰레기라고	-12680
▁연기자들의	-12681
▁인상깊었다	-12682
▁작품이라고	-12683
▁재미가없다	-12684
▁조금이나마	-12685
▁해피엔딩이	-12686
인줄알았는데	-12687
▁흥미진진하고	-12688
▁감동적이었어요	-12689
.'	-12690
▁쟁	-12691
▁펑	-12692
걸고	-12693
겁고	-12694
너의	-12695
년생	-12696
니잼	-12697
데스	-12698
동물	-12699
돼지	-12700
되었	-12701
들인	-12702
러리	-12703
레드	-12704
레미	-12705
력은	-12706
령이	-12707
루니	-12708
리뷰	-12709
만옥	-12710
매가	-12711
매의	-12712
면도	-12713
모토	-12714
못미	-12715
무라	-12716
뭐임	-12717
봤어	-12718
비밀	-12719
생겼	-12720
선징	-12721
세지	-12722
세한	-12723
셜록	-12724
써서	-12725
아파	-12726
야의	-12727
어보	-12728
어휴	-12729
여친	-12730
예상	-12731
울고	-12732
웃겼	-12733
유루	-12734
이구	-12735
이더	-12736
자니	-12737
자이	-12738
제왕	-12739
주변	-12740
즈를	-12741
증에	-12742
진씨	-12743
짝퉁	-12744
차게	-12745
차기	-12746
크를	-12747
타닉	-12748
평범	-12749
포스	-12750
프다	-12751
희를	-12752
▁->	-12753
▁no	-12754
▁ᄆᄎ	-12755
▁가게	-12756
▁간접	-12757
▁감싸	-12758
▁개쩌	-12759
▁거침	-12760
▁걸레	-12761
▁결투	-12762
▁경기	-12763
▁국뽕	-12764
▁기계	-12765
▁깜찍	-12766
▁난감	-12767
▁도움	-12768
▁되냐	-12769
▁드립	-12770
▁롯데	-12771
▁리플	-12772
▁마땅	-12773
▁맞고	-12774
▁먹을	-12775
▁며칠	-12776
▁무뇌	-12777
▁무려	-12778
▁미루	-12779
▁밀어	-12780
▁바뀐	-12781
▁발톱	-12782
▁배슬	-12783
▁버튼	-12784
▁본적	-12785
▁비가	-12786
▁살기	-12787
▁선전	-12788
▁세트	-12789
▁소문	-12790
▁수퍼	-12791
▁스톤	-12792
▁시기	-12793
▁신앙	-12794
▁안질	-12795
▁앵글	-12796
▁얄팍	-12797
▁양반	-12798
▁어긋	-12799
▁어깨	-12800
▁연쇄	-12801
▁오덕	-12802
▁오류	-12803
▁외화	-12804
▁웬만	-12805
▁유작	-12806
▁의존	-12807
▁일드	-12808
▁일방	-12809
▁자빠	-12810
▁작살	-12811
▁잘한	-12812
▁전성	-12813
▁절라	-12814
▁정답	-12815
▁종북	-12816
▁주체	-12817
▁중고	-12818
▁중딩	-12819
▁지원	-12820
▁진자	-12821
▁책도	-12822
▁초콜	-12823
▁택시	-12824
▁터져	-12825
▁투표	-12826
▁해보	-12827
▁향수	-12828
▁홍수	-12829
▁획을	-12830
같지만	-12831
는다면	-12832
리는게	-12833
명이서	-12834
보지말	-12835
봤는지	-12836
분들께	-12837
선징악	-12838
소재를	-12839
시간도	-12840
쒸레기	-12841
왔지만	-12842
정도가	-12843
주려고	-12844
줄알고	-12845
척하는	-12846
햇지만	-12847
했었던	-12848
▁감동에	-12849
▁감정선	-12850
▁개봉작	-12851
▁것들은	-12852
▁곳에서	-12853
▁기괴한	-12854
▁기회를	-12855
▁끔찍한	-12856
▁높네요	-12857
▁다가오	-12858
▁다루는	-12859
▁다음에	-12860
▁더빙을	-12861
▁돋보임	-12862
▁때부터	-12863
▁로버츠	-12864
▁리얼한	-12865
▁매력도	-12866
▁멀쩡한	-12867
▁멋있게	-12868
▁모니터	-12869
▁모처럼	-12870
▁무개념	-12871
▁뭐하러	-12872
▁바라며	-12873
▁박신양	-12874
▁배경을	-12875
▁배우고	-12876
▁보고서	-12877
▁봤으니	-12878
▁빠르고	-12879
▁색감이	-12880
▁생겨서	-12881
▁수작임	-12882
▁수준도	-12883
▁시선이	-12884
▁실망을	-12885
▁안되게	-12886
▁안맞고	-12887
▁알수가	-12888
▁얼굴에	-12889
▁없으며	-12890
▁연결이	-12891
▁와이어	-12892
▁용가리	-12893
▁운명을	-12894
▁이선균	-12895
▁이종석	-12896
▁있기에	-12897
▁작품들	-12898
▁제목도	-12899
▁조선족	-12900
▁조용한	-12901
▁좋아함	-12902
▁징그러	-12903
▁차원이	-12904
▁철저히	-12905
▁충무로	-12906
▁친구를	-12907
▁티비에	-12908
▁팬인데	-12909
▁평가가	-12910
▁필요는	-12911
▁하나를	-12912
▁했다고	-12913
▁했어야	-12914
▁허무함	-12915
▁화난다	-12916
▁흥미가	-12917
나왔으면	-12918
무엇보다	-12919
사랑해요	-12920
시리즈는	-12921
아닌가요	-12922
아버지가	-12923
인것같다	-12924
주고싶다	-12925
채널에서	-12926
▁2011	-12927
▁감동까지	-12928
▁계속해서	-12929
▁기억하고	-12930
▁꼭보시길	-12931
▁나오는게	-12932
▁난무하는	-12933
▁남는영화	-12934
▁네이버에	-12935
▁눈물난다	-12936
▁다가온다	-12937
▁로드무비	-12938
▁로맨스를	-12939
▁몰입도는	-12940
▁미국에서	-12941
▁벌어지는	-12942
▁보는사람	-12943
▁보다보면	-12944
▁섬세하고	-12945
▁스토리라	-12946
▁스펙타클	-12947
▁실화라서	-12948
▁아버지와	-12949
▁아이리스	-12950
▁어디선가	-12951
▁연출력도	-12952
▁영화보면	-12953
▁영화에선	-12954
▁오유에서	-12955
▁이건아니	-12956
▁이미지가	-12957
▁일본애니	-12958
▁있어야지	-12959
▁재밌게봄	-12960
▁재밌었어	-12961
▁재밌지만	-12962
▁제목부터	-12963
▁좋았네요	-12964
▁줄거리는	-12965
▁줄거리를	-12966
▁집중하게	-12967
▁친구들이	-12968
▁코미디의	-12969
▁하지말고	-12970
▁했었는데	-12971
▁허무하고	-12972
▁확실하게	-12973
▁후회한다	-12974
▁훌륭했다	-12975
보고있는데	-12976
최악의영화	-12977
▁내용전개가	-12978
▁너무좋아요	-12979
▁드라마인데	-12980
▁들었습니다	-12981
▁마이너스는	-12982
▁만들었는데	-12983
▁모든면에서	-12984
▁모르겠어요	-12985
▁뭔내용인지	-12986
▁없었습니다	-12987
▁의심스럽다	-12988
▁인상적이다	-12989
▁잊혀지지가	-12990
▁전달하고자	-12991
▁초등학생때	-12992
▁친구들이랑	-12993
▁킬링타임도	-12994
!!!!!!!!!!!	-12995
df	-12996
~?	-12997
▁ᅡ	-12998
▁↓	-12999
▁껴	-13000
▁랄	-13001
▁롭	-13002
▁삭	-13003
▁셰	-13004
▁줫	-13005
▁톡	-13006
가끔	-13007
개뿔	-13008
개판	-13009
걸이	-13010
검색	-13011
관에	-13012
금지	-13013
기네	-13014
끝이	-13015
네용	-13016
네유	-13017
년후	-13018
노키	-13019
느낀	-13020
니콜	-13021
단이	-13022
대본	-13023
대신	-13024
대인	-13025
대장	-13026
등이	-13027
때의	-13028
론이	-13029
마라	-13030
먼이	-13031
민서	-13032
민을	-13033
비판	-13034
비행	-13035
빠이	-13036
설레	-13037
섹스	-13038
소사	-13039
신듯	-13040
신히	-13041
심리	-13042
씬을	-13043
안이	-13044
않는	-13045
앤딩	-13046
야만	-13047
와요	-13048
우마	-13049
유천	-13050
이연	-13051
입은	-13052
잊혀	-13053
전거	-13054
점임	-13055
중요	-13056
지구	-13057
질만	-13058
찍은	-13059
카시	-13060
크는	-13061
행이	-13062
훈훈	-13063
ast	-13064
▁MC	-13065
▁re	-13066
▁ᅮᅲ	-13067
▁강시	-13068
▁강철	-13069
▁고래	-13070
▁고은	-13071
▁곳이	-13072
▁균형	-13073
▁근육	-13074
▁김규	-13075
▁나지	-13076
▁남김	-13077
▁남이	-13078
▁너도	-13079
▁놀람	-13080
▁농구	-13081
▁높냐	-13082
▁눈높	-13083
▁대형	-13084
▁독재	-13085
▁동료	-13086
▁동호	-13087
▁두뇌	-13088
▁드릴	-13089
▁딴짓	-13090
▁똥칠	-13091
▁마저	-13092
▁망함	-13093
▁먹은	-13094
▁명량	-13095
▁몇일	-13096
▁몰려	-13097
▁못된	-13098
▁무방	-13099
▁뭐든	-13100
▁뭣도	-13101
▁반해	-13102
▁발암	-13103
▁밝은	-13104
▁밥먹	-13105
▁버림	-13106
▁부재	-13107
▁비긴	-13108
▁뻔함	-13109
▁사서	-13110
▁산다	-13111
▁살렸	-13112
▁색다	-13113
▁생겨	-13114
▁서사	-13115
▁선배	-13116
▁소오	-13117
▁속상	-13118
▁수다	-13119
▁시바	-13120
▁신뢰	-13121
▁쓰레	-13122
▁씬이	-13123
▁악평	-13124
▁압박	-13125
▁애썼	-13126
▁언어	-13127
▁욕할	-13128
▁원빈	-13129
▁유역	-13130
▁으아	-13131
▁이웃	-13132
▁이주	-13133
▁인듯	-13134
▁장치	-13135
▁조디	-13136
▁좋으	-13137
▁좌절	-13138
▁줄줄	-13139
▁지리	-13140
▁지속	-13141
▁짠한	-13142
▁짱나	-13143
▁책이	-13144
▁추상	-13145
▁취급	-13146
▁치곤	-13147
▁타잔	-13148
▁태극	-13149
▁태양	-13150
▁통찰	-13151
▁통한	-13152
▁트와	-13153
▁특집	-13154
▁파리	-13155
▁패스	-13156
▁피어	-13157
▁하차	-13158
▁학원	-13159
▁한때	-13160
▁한표	-13161
▁함정	-13162
▁해학	-13163
▁허준	-13164
▁흠뻑	-13165
▁히트	-13166
♡♡♡	-13167
개연성	-13168
게스트	-13169
데리고	-13170
되어서	-13171
되어야	-13172
된다고	-13173
라는거	-13174
릅니다	-13175
만드네	-13176
본건데	-13177
사람만	-13178
스라엘	-13179
시간은	-13180
안되게	-13181
았다고	-13182
어가고	-13183
어이가	-13184
였는지	-13185
우리가	-13186
이하도	-13187
정도다	-13188
지면서	-13189
질않나	-13190
케이블	-13191
페이지	-13192
했구나	-13193
▁120	-13194
▁7~8	-13195
▁mbc	-13196
▁가슴찡	-13197
▁감독아	-13198
▁괜찮을	-13199
▁구석이	-13200
▁기존의	-13201
▁김남길	-13202
▁끝내주	-13203
▁나와라	-13204
▁남아돌	-13205
▁납득이	-13206
▁내리는	-13207
▁내면의	-13208
▁눈뜨고	-13209
▁눈요기	-13210
▁다문화	-13211
▁대하여	-13212
▁더빙판	-13213
▁동심을	-13214
▁된다면	-13215
▁로멘틱	-13216
▁마음도	-13217
▁모두를	-13218
▁모를까	-13219
▁무삭제	-13220
▁무작정	-13221
▁뭔내용	-13222
▁미쳤다	-13223
▁배우에	-13224
▁보고있	-13225
▁보내는	-13226
▁본질을	-13227
▁봤어야	-13228
▁부분에	-13229
▁빠르게	-13230
▁사춘기	-13231
▁생생한	-13232
▁수밖에	-13233
▁시스템	-13234
▁시시한	-13235
▁시작한	-13236
▁신들린	-13237
▁씹노잼	-13238
▁아들을	-13239
▁안성기	-13240
▁앞뒤가	-13241
▁애니로	-13242
▁약하고	-13243
▁어떨지	-13244
▁엄태웅	-13245
▁여실히	-13246
▁여자와	-13247
▁욕하고	-13248
▁우리도	-13249
▁위로가	-13250
▁음악만	-13251
▁이런데	-13252
▁이성재	-13253
▁인셉션	-13254
▁일상의	-13255
▁있을듯	-13256
▁잔인함	-13257
▁잘생김	-13258
▁장난해	-13259
▁좋았어	-13260
▁죽었다	-13261
▁진실은	-13262
▁초점을	-13263
▁최강의	-13264
▁최대한	-13265
▁평소에	-13266
▁평점만	-13267
▁표현을	-13268
▁피라냐	-13269
▁피터팬	-13270
▁한번에	-13271
▁합시다	-13272
▁했다면	-13273
▁확실한	-13274
▁후속편	-13275
▁힐링이	-13276
★☆★☆	-13277
대단하다	-13278
리의리의	-13279
만으로는	-13280
영화이다	-13281
재밌었다	-13282
하셨어요	-13283
하지않는	-13284
해지네요	-13285
▁-_-;	-13286
▁2009	-13287
▁가족끼리	-13288
▁감성적인	-13289
▁극장개봉	-13290
▁기억속에	-13291
▁끝내주는	-13292
▁나비효과	-13293
▁나오지만	-13294
▁나중에는	-13295
▁돋보였던	-13296
▁떠오른다	-13297
▁뛰어나다	-13298
▁롱테이크	-13299
▁망한영화	-13300
▁메시지는	-13301
▁몰입도를	-13302
▁물론이고	-13303
▁반전까지	-13304
▁반전영화	-13305
▁별하나도	-13306
▁보여줬다	-13307
▁생각밖에	-13308
▁섬세하게	-13309
▁스릴러의	-13310
▁시사회로	-13311
▁신비로운	-13312
▁쌍팔년도	-13313
▁아쉬웠다	-13314
▁어메이징	-13315
▁어울린다	-13316
▁억지웃음	-13317
▁연기들도	-13318
▁용두사미	-13319
▁유치하기	-13320
▁이름으로	-13321
▁이스라엘	-13322
▁있는영화	-13323
▁작품으로	-13324
▁잼있는데	-13325
▁잼있었음	-13326
▁중요한건	-13327
▁짱이에요	-13328
▁천재적인	-13329
▁캐스팅에	-13330
▁판타스틱	-13331
▁평점테러	-13332
▁화끈하게	-13333
감동적이고	-13334
▁강추입니다	-13335
▁기대하면서	-13336
▁나도모르게	-13337
▁너무재밌게	-13338
▁니콜키드먼	-13339
▁대박입니다	-13340
▁먹먹해지는	-13341
▁볼만하던데	-13342
▁사람으로서	-13343
▁사랑과전쟁	-13344
▁소름끼친다	-13345
▁스크린으로	-13346
▁스토리라인	-13347
▁재미없는데	-13348
▁정말재밌게	-13349
▁조금이라도	-13350
▁지루합니다	-13351
▁추천해주고	-13352
▁할말이없다	-13353
!"	-13354
56	-13355
_+	-13356
ir	-13357
ᄉᄋ	-13358
▁꺄	-13359
▁꽂	-13360
▁닉	-13361
▁돕	-13362
▁밸	-13363
▁벙	-13364
▁쉰	-13365
▁였	-13366
▁펜	-13367
▁훗	-13368
걸린	-13369
과도	-13370
괴물	-13371
그거	-13372
그려	-13373
그지	-13374
기리	-13375
기전	-13376
난이	-13377
남이	-13378
니발	-13379
닥터	-13380
두개	-13381
디스	-13382
따윈	-13383
락이	-13384
런스	-13385
레쉬	-13386
로이	-13387
론데	-13388
린데	-13389
릴라	-13390
만나	-13391
맞아	-13392
맨날	-13393
명도	-13394
미드	-13395
바뀌	-13396
방을	-13397
버렷	-13398
보냐	-13399
브로	-13400
블록	-13401
비한	-13402
산이	-13403
쉽게	-13404
스탈	-13405
시노	-13406
어져	-13407
인디	-13408
인한	-13409
전부	-13410
전설	-13411
조의	-13412
즈는	-13413
질을	-13414
천국	-13415
천만	-13416
츠의	-13417
투자	-13418
파리	-13419
퍼스	-13420
피가	-13421
호화	-13422
///	-13423
ome	-13424
uck	-13425
▁2%	-13426
▁PD	-13427
▁vs	-13428
▁갈릴	-13429
▁강예	-13430
▁경쟁	-13431
▁광기	-13432
▁교도	-13433
▁구려	-13434
▁구할	-13435
▁금지	-13436
▁김창	-13437
▁끊어	-13438
▁끼어	-13439
▁남지	-13440
▁놀랄	-13441
▁높음	-13442
▁눈감	-13443
▁다는	-13444
▁덕후	-13445
▁도박	-13446
▁될것	-13447
▁될까	-13448
▁두분	-13449
▁둘러	-13450
▁딸의	-13451
▁리브	-13452
▁박영	-13453
▁발악	-13454
▁밝고	-13455
▁배운	-13456
▁법칙	-13457
▁벗고	-13458
▁별을	-13459
▁보장	-13460
▁사정	-13461
▁삼가	-13462
▁삼각	-13463
▁선율	-13464
▁설렘	-13465
▁성냥	-13466
▁성숙	-13467
▁수술	-13468
▁수식	-13469
▁스탭	-13470
▁스틸	-13471
▁쓰잘	-13472
▁쓴다	-13473
▁아르	-13474
▁안해	-13475
▁알맹	-13476
▁암살	-13477
▁앤딩	-13478
▁양산	-13479
▁어필	-13480
▁없구	-13481
▁에스	-13482
▁오리	-13483
▁왜냐	-13484
▁우마	-13485
▁웅장	-13486
▁원망	-13487
▁윌스	-13488
▁유사	-13489
▁유전	-13490
▁의식	-13491
▁이명	-13492
▁이모	-13493
▁이문	-13494
▁이와	-13495
▁이질	-13496
▁자격	-13497
▁자는	-13498
▁적어	-13499
▁전환	-13500
▁점도	-13501
▁점을	-13502
▁존스	-13503
▁졸립	-13504
▁죄를	-13505
▁죄책	-13506
▁참다	-13507
▁콤비	-13508
▁타짜	-13509
▁터질	-13510
▁팬티	-13511
▁평은	-13512
▁폭파	-13513
▁필립	-13514
▁한달	-13515
▁할듯	-13516
▁합쳐	-13517
▁홀로	-13518
▁회사	-13519
▁휴가	-13520
맙소사	-13521
무섭다	-13522
배우를	-13523
보는거	-13524
보았다	-13525
본다면	-13526
사회의	-13527
생각해	-13528
설정이	-13529
스럽네	-13530
실에서	-13531
아깝네	-13532
아무튼	-13533
없는게	-13534
없었던	-13535
역으로	-13536
영상미	-13537
원작을	-13538
으므로	-13539
이러스	-13540
일수도	-13541
정말로	-13542
쪽으로	-13543
카메라	-13544
팩트가	-13545
한건가	-13546
1010	-13547
▁가네요	-13548
▁가는데	-13549
▁갔다가	-13550
▁공감은	-13551
▁공포의	-13552
▁구하기	-13553
▁그러고	-13554
▁깨달음	-13555
▁나오길	-13556
▁나오니	-13557
▁나올수	-13558
▁남녀의	-13559
▁내평점	-13560
▁넣어서	-13561
▁노력은	-13562
▁노력한	-13563
▁노출이	-13564
▁당할순	-13565
▁돋보인	-13566
▁되는지	-13567
▁뒷통수	-13568
▁딱봐도	-13569
▁때까지	-13570
▁만큼의	-13571
▁모두들	-13572
▁몰랐던	-13573
▁무난한	-13574
▁보였다	-13575
▁봤으나	-13576
▁빈디젤	-13577
▁사회를	-13578
▁생각안	-13579
▁설정도	-13580
▁소설의	-13581
▁슈스케	-13582
▁슬로우	-13583
▁아시는	-13584
▁안드로	-13585
▁않다는	-13586
▁알려주	-13587
▁애매한	-13588
▁애틋한	-13589
▁야동을	-13590
▁약빨고	-13591
▁어렵게	-13592
▁어린애	-13593
▁얼굴은	-13594
▁여고생	-13595
▁여주는	-13596
▁연기들	-13597
▁이걸로	-13598
▁이범수	-13599
▁이정현	-13600
▁일점도	-13601
▁자체로	-13602
▁장만옥	-13603
▁장애인	-13604
▁재미업	-13605
▁재밌냐	-13606
▁전쟁은	-13607
▁전편을	-13608
▁조재현	-13609
▁좋다는	-13610
▁좋아라	-13611
▁지독한	-13612
▁진리다	-13613
▁최고작	-13614
▁평가할	-13615
▁하여간	-13616
▁해줘서	-13617
▁화면도	-13618
것같아서	-13619
꼭보세요	-13620
다고해서	-13621
봣습니다	-13622
아아아아	-13623
이라는데	-13624
재미없네	-13625
하기에는	-13626
하자마자	-13627
한국영화	-13628
,,,,,	-13629
▁2006	-13630
▁가슴따뜻	-13631
▁고마워요	-13632
▁괜찮지만	-13633
▁기대보다	-13634
▁기분이다	-13635
▁기억하는	-13636
▁난해하다	-13637
▁노잼이다	-13638
▁들었는데	-13639
▁디테일한	-13640
▁로맨스도	-13641
▁만들었지	-13642
▁먹먹하고	-13643
▁멋집니다	-13644
▁보이네요	-13645
▁비슷하게	-13646
▁상관없이	-13647
▁생각지도	-13648
▁손꼽히는	-13649
▁숨막히는	-13650
▁스케일도	-13651
▁시간여행	-13652
▁알겠으나	-13653
▁액션씬이	-13654
▁어이상실	-13655
▁엔딩까지	-13656
▁엽기적인	-13657
▁영화평점	-13658
▁예고편에	-13659
▁우울하고	-13660
▁이야기들	-13661
▁작품성을	-13662
▁제작진이	-13663
▁좋아하면	-13664
▁중구난방	-13665
▁클라이막	-13666
▁토요명화	-13667
▁형편없다	-13668
것도아니고	-13669
보고싶네요	-13670
영화제에서	-13671
재미도없고	-13672
...!!!	-13673
▁내용이지만	-13674
▁다르겠지만	-13675
▁만들어내는	-13676
▁만들었네요	-13677
▁매력적이고	-13678
▁보여줬는데	-13679
▁사랑입니다	-13680
▁실망시키지	-13681
▁아이디어가	-13682
▁알았습니다	-13683
▁여자친구랑	-13684
▁잔인하지도	-13685
▁재미없었던	-13686
▁트와일라잇	-13687
▁미션임파서블	-13688
▁브루스윌리스	-13689
▁애니메이션은	-13690
▁인상적이었다	-13691
▁최고의드라마	-13692
EC	-13693
ee	-13694
ff	-13695
gt	-13696
um	-13697
▁껄	-13698
▁랭	-13699
▁뤽	-13700
▁뷰	-13701
▁샀	-13702
▁앗	-13703
▁왼	-13704
▁츠	-13705
▁킴	-13706
▁틴	-13707
▁험	-13708
가득	-13709
겁다	-13710
결과	-13711
군데	-13712
껀데	-13713
끝도	-13714
남녀	-13715
넘어	-13716
느꼈	-13717
는것	-13718
다이	-13719
라마	-13720
르지	-13721
리던	-13722
맥스	-13723
면에	-13724
몇번	-13725
모자	-13726
몰라	-13727
무어	-13728
물어	-13729
밖의	-13730
별한	-13731
병이	-13732
봤나	-13733
비하	-13734
사부	-13735
상관	-13736
생크	-13737
세는	-13738
슨은	-13739
시장	-13740
씬만	-13741
아래	-13742
안습	-13743
안을	-13744
에효	-13745
연은	-13746
올리	-13747
욕이	-13748
우성	-13749
웃고	-13750
응원	-13751
입이	-13752
잇게	-13753
있었	-13754
자다	-13755
잔데	-13756
잔아	-13757
잤다	-13758
전과	-13759
정씨	-13760
총사	-13761
축구	-13762
클럽	-13763
토가	-13764
토벤	-13765
프가	-13766
해질	-13767
했냐	-13768
힐링	-13769
-.-	-13770
^.^	-13771
▁AV	-13772
▁거리	-13773
▁건드	-13774
▁건진	-13775
▁그룹	-13776
▁극의	-13777
▁근본	-13778
▁급급	-13779
▁긍정	-13780
▁기막	-13781
▁기어	-13782
▁나나	-13783
▁나두	-13784
▁나았	-13785
▁날카	-13786
▁농락	-13787
▁대다	-13788
▁돋는	-13789
▁동원	-13790
▁되니	-13791
▁디비	-13792
▁딸을	-13793
▁떠난	-13794
▁마련	-13795
▁말길	-13796
▁메릴	-13797
▁명성	-13798
▁무릎	-13799
▁뭐죠	-13800
▁미련	-13801
▁박힌	-13802
▁반항	-13803
▁방어	-13804
▁벅찬	-13805
▁베낀	-13806
▁베르	-13807
▁본후	-13808
▁비비	-13809
▁사례	-13810
▁상당	-13811
▁새드	-13812
▁속지	-13813
▁수호	-13814
▁순위	-13815
▁스며	-13816
▁슬플	-13817
▁아일	-13818
▁야이	-13819
▁역을	-13820
▁완결	-13821
▁왜들	-13822
▁욕설	-13823
▁우베	-13824
▁울었	-13825
▁윤아	-13826
▁잠만	-13827
▁재회	-13828
▁저딴	-13829
▁적합	-13830
▁종결	-13831
▁종종	-13832
▁중심	-13833
▁지네	-13834
▁찾게	-13835
▁초라	-13836
▁치닫	-13837
▁쿠엔	-13838
▁평정	-13839
▁포스	-13840
▁한몫	-13841
▁했어	-13842
▁호강	-13843
▁훼손	-13844
▁힘듬	-13845
가치가	-13846
것이지	-13847
겟어요	-13848
끝날때	-13849
남자가	-13850
노래도	-13851
는건지	-13852
들과의	-13853
들인가	-13854
또봐도	-13855
로써는	-13856
리는거	-13857
만한데	-13858
무서워	-13859
바이벌	-13860
배우도	-13861
버리네	-13862
보이고	-13863
봤을때	-13864
부분만	-13865
빠지고	-13866
뻔하고	-13867
사랑과	-13868
사랑은	-13869
산으로	-13870
시킨다	-13871
액션도	-13872
여년전	-13873
역시나	-13874
열심히	-13875
을려고	-13876
읍니다	-13877
이기도	-13878
일만에	-13879
일지도	-13880
재밋고	-13881
주고싶	-13882
지는게	-13883
진짜로	-13884
편보고	-13885
하네여	-13886
하진않	-13887
한거야	-13888
한거임	-13889
할말이	-13890
회까지	-13891
-_-;	-13892
...)	-13893
..10	-13894
9999	-13895
bbbb	-13896
good	-13897
ight	-13898
▁197	-13899
▁간신히	-13900
▁감성에	-13901
▁강하다	-13902
▁개실망	-13903
▁개졸작	-13904
▁고딩때	-13905
▁관계가	-13906
▁구리고	-13907
▁그려진	-13908
▁그치만	-13909
▁기타노	-13910
▁까메오	-13911
▁꺼버림	-13912
▁꽃보다	-13913
▁끝나네	-13914
▁나오나	-13915
▁누구냐	-13916
▁다시보	-13917
▁대박나	-13918
▁돌리도	-13919
▁동생이	-13920
▁되다니	-13921
▁또다시	-13922
▁또한번	-13923
▁마시고	-13924
▁마음속	-13925
▁말대로	-13926
▁맞지만	-13927
▁무미건	-13928
▁미국에	-13929
▁범인은	-13930
▁베리굿	-13931
▁봉태규	-13932
▁새롭다	-13933
▁생각남	-13934
▁속편은	-13935
▁스피드	-13936
▁시절이	-13937
▁시키는	-13938
▁신기할	-13939
▁신선함	-13940
▁실력이	-13941
▁싫어서	-13942
▁심장을	-13943
▁심하네	-13944
▁아팠다	-13945
▁안나올	-13946
▁않았을	-13947
▁앞서간	-13948
▁양조위	-13949
▁어리석	-13950
▁어울릴	-13951
▁엄마를	-13952
▁엉덩이	-13953
▁엉성함	-13954
▁영상물	-13955
▁예술가	-13956
▁올만에	-13957
▁왜이런	-13958
▁외모가	-13959
▁용기를	-13960
▁이러지	-13961
▁이민기	-13962
▁이준기	-13963
▁인피니	-13964
▁일반인	-13965
▁일본판	-13966
▁있는것	-13967
▁있을때	-13968
▁자막이	-13969
▁장난이	-13970
▁잼있고	-13971
▁전개를	-13972
▁전쟁에	-13973
▁제작한	-13974
▁조연들	-13975
▁좋으면	-13976
▁주는데	-13977
▁죽음이	-13978
▁찍어도	-13979
▁찍어라	-13980
▁차인표	-13981
▁첫장면	-13982
▁초반은	-13983
▁최고지	-13984
▁최선을	-13985
▁최후의	-13986
▁충격과	-13987
▁타이밍	-13988
▁투성이	-13989
▁퍼펙트	-13990
▁표현된	-13991
▁행동을	-13992
▁헛소리	-13993
▁흔하디	-13994
나는영화	-13995
났습니다	-13996
봤는데도	-13997
사람들의	-13998
신분들은	-13999
용으로도	-14000
일뿐이다	-14001
잼있어요	-14002
점이상은	-14003
캐릭터가	-14004
하기만한	-14005
했을텐데	-14006
..!!!	-14007
▁2007	-14008
▁감독이나	-14009
▁개봉하지	-14010
▁개성있는	-14011
▁공각기동	-14012
▁그러니까	-14013
▁기대하게	-14014
▁나왔는지	-14015
▁도대체가	-14016
▁맥라이언	-14017
▁맥어보이	-14018
▁무시하고	-14019
▁보지말고	-14020
▁볼까말까	-14021
▁봤는데요	-14022
▁부끄럽다	-14023
▁분위기만	-14024
▁순수함을	-14025
▁아버지는	-14026
▁어색해서	-14027
▁어이없게	-14028
▁어중간한	-14029
▁어찌보면	-14030
▁영화로는	-14031
▁영화로써	-14032
▁예술이다	-14033
▁왔다갔다	-14034
▁이딴영화	-14035
▁이야기로	-14036
▁재밌겠다	-14037
▁전하고자	-14038
▁주고싶은	-14039
▁즐거웠다	-14040
▁지루함과	-14041
▁추천해요	-14042
▁팬이라서	-14043
▁한국인이	-14044
▁한번보고	-14045
▁해주길래	-14046
이런영화가	-14047
▁고등학교때	-14048
▁너무재미있	-14049
▁너무하네요	-14050
▁떨어지지만	-14051
▁아쉽습니다	-14052
▁안타깝지만	-14053
▁우리나라가	-14054
▁이런쓰레기	-14055
▁일본영화의	-14056
▁있었을텐데	-14057
▁재미있던데	-14058
▁좋은영화다	-14059
▁최악이었다	-14060
▁감사드립니다	-14061
▁해피엔딩으로	-14062
▁수고하셨습니다	-14063
▁재밌게봤습니다	-14064
▁ᄏᄏᄏᄏᄏᄏᄏᄏᄏᄏᄏᄏᄏᄏ	-14065
+1	-14066
0^	-14067
_=	-14068
av	-14069
th	-14070
ᅳᅮ	-14071
▁믹	-14072
▁숫	-14073
▁챔	-14074
계상	-14075
구여	-14076
국가	-14077
그대	-14078
금이	-14079
긴데	-14080
년들	-14081
놔서	-14082
눈빛	-14083
다메	-14084
당신	-14085
대요	-14086
람이	-14087
려구	-14088
를린	-14089
리라	-14090
만함	-14091
많아	-14092
멸의	-14093
모루	-14094
뭐니	-14095
미로	-14096
바꿔	-14097
박스	-14098
배가	-14099
백한	-14100
부부	-14101
분장	-14102
비도	-14103
삶을	-14104
상처	-14105
서로	-14106
스톱	-14107
시윤	-14108
신경	-14109
신다	-14110
심심	-14111
에나	-14112
우월	-14113
은지	-14114
의사	-14115
이군	-14116
이시	-14117
인형	-14118
일어	-14119
자극	-14120
자유	-14121
제국	-14122
제라	-14123
졌을	-14124
지난	-14125
지로	-14126
진리	-14127
진부	-14128
질러	-14129
찍고	-14130
최강	-14131
커스	-14132
클리	-14133
키가	-14134
탐정	-14135
태의	-14136
파는	-14137
포드	-14138
포트	-14139
한이	-14140
해낸	-14141
해여	-14142
헌터	-14143
.25	-14144
ust	-14145
▁av	-14146
▁ᄂᄂ	-14147
▁강박	-14148
▁거임	-14149
▁거친	-14150
▁건달	-14151
▁걸릴	-14152
▁견디	-14153
▁고고	-14154
▁고집	-14155
▁고향	-14156
▁골든	-14157
▁곳에	-14158
▁관광	-14159
▁그중	-14160
▁근거	-14161
▁금치	-14162
▁기원	-14163
▁김상	-14164
▁꼽는	-14165
▁누워	-14166
▁눈은	-14167
▁느꼇	-14168
▁다죽	-14169
▁동참	-14170
▁두렵	-14171
▁따른	-14172
▁면도	-14173
▁명곡	-14174
▁명절	-14175
▁무성	-14176
▁무심	-14177
▁무어	-14178
▁뭘말	-14179
▁바꿀	-14180
▁박상	-14181
▁박용	-14182
▁백만	-14183
▁법한	-14184
▁보물	-14185
▁보인	-14186
▁본드	-14187
▁사나	-14188
▁사냥	-14189
▁산타	-14190
▁성지	-14191
▁성질	-14192
▁손을	-14193
▁쇼킹	-14194
▁수학	-14195
▁스탠	-14196
▁시네	-14197
▁시킨	-14198
▁썩어	-14199
▁아시	-14200
▁아휴	-14201
▁안성	-14202
▁약을	-14203
▁약해	-14204
▁완존	-14205
▁왕따	-14206
▁왜저	-14207
▁워킹	-14208
▁원초	-14209
▁유니	-14210
▁윤제	-14211
▁이시	-14212
▁잃어	-14213
▁입은	-14214
▁잡을	-14215
▁잼따	-14216
▁전파	-14217
▁제공	-14218
▁제주	-14219
▁지내	-14220
▁쩔고	-14221
▁찾은	-14222
▁치우	-14223
▁파헤	-14224
▁평작	-14225
▁피로	-14226
▁했고	-14227
▁했지	-14228
▁행운	-14229
▁호평	-14230
▁호프	-14231
가보다	-14232
감으로	-14233
겠구나	-14234
결말도	-14235
귀여워	-14236
그렇지	-14237
급이다	-14238
꼭봐야	-14239
나오게	-14240
나와라	-14241
내용에	-14242
놈들아	-14243
달리는	-14244
더이상	-14245
되는게	-14246
로버츠	-14247
많은데	-14248
무조건	-14249
밖에안	-14250
받아야	-14251
보니깐	-14252
봤을까	-14253
분들의	-14254
분으로	-14255
빠지게	-14256
살짜리	-14257
소재는	-14258
아름다	-14259
어릴때	-14260
없었음	-14261
왜이래	-14262
요일이	-14263
우면서	-14264
으니깐	-14265
으려나	-14266
이래서	-14267
이어서	-14268
인건가	-14269
있다고	-14270
자신을	-14271
점이야	-14272
제목이	-14273
주의에	-14274
주의자	-14275
코드가	-14276
티비티	-14277
편보단	-14278
폰으로	-14279
필요가	-14280
하려다	-14281
해줘서	-14282
▁개인적	-14283
▁경찰이	-14284
▁과하게	-14285
▁긴장을	-14286
▁꼽히는	-14287
▁나와는	-14288
▁나왔을	-14289
▁내보내	-14290
▁넘친다	-14291
▁놀래키	-14292
▁눈물샘	-14293
▁돋는다	-14294
▁듯하다	-14295
▁떠나는	-14296
▁라디오	-14297
▁멋졌다	-14298
▁못되는	-14299
▁못하나	-14300
▁무리가	-14301
▁무한한	-14302
▁문화를	-14303
▁바꿔라	-14304
▁바람에	-14305
▁바보로	-14306
▁발전이	-14307
▁보내고	-14308
▁보느라	-14309
▁보는건	-14310
▁보시고	-14311
▁비오는	-14312
▁살인자	-14313
▁상상도	-14314
▁세번째	-14315
▁싶다는	-14316
▁싶을때	-14317
▁씨리즈	-14318
▁아픔이	-14319
▁않은가	-14320
▁어쨋든	-14321
▁없는지	-14322
▁엉망인	-14323
▁여자도	-14324
▁왜그러	-14325
▁욕나옴	-14326
▁우리를	-14327
▁이것만	-14328
▁이들의	-14329
▁이러면	-14330
▁이어지	-14331
▁이전에	-14332
▁일본에	-14333
▁임수정	-14334
▁잔잔히	-14335
▁잘모르	-14336
▁잘봤음	-14337
▁잠이나	-14338
▁잼있어	-14339
▁조악한	-14340
▁존나게	-14341
▁존재가	-14342
▁졸작이	-14343
▁지금이	-14344
▁짧지만	-14345
▁찍었다	-14346
▁찾았다	-14347
▁최민식	-14348
▁출연자	-14349
▁충격적	-14350
▁테스트	-14351
▁투자한	-14352
▁하늘을	-14353
▁하니까	-14354
▁하시길	-14355
▁한방에	-14356
▁해보고	-14357
▁향수를	-14358
▁화면은	-14359
▁환상을	-14360
▁흐른다	-14361
그레이드	-14362
드라마의	-14363
생각하고	-14364
스토리에	-14365
이라이트	-14366
이었다는	-14367
인줄알고	-14368
ᅲᅲᅲᅲᅲ	-14369
▁괜찮아요	-14370
▁궁금하게	-14371
▁기분나쁜	-14372
▁남자들은	-14373
▁네이버는	-14374
▁느끼는게	-14375
▁느낄수있	-14376
▁느낌으로	-14377
▁다른사람	-14378
▁달달하고	-14379
▁되어버린	-14380
▁말하려고	-14381
▁망했는지	-14382
▁머릿속에	-14383
▁목소리도	-14384
▁발연기가	-14385
▁배우들과	-14386
▁보석같은	-14387
▁보이는데	-14388
▁비극적인	-14389
▁사라지고	-14390
▁생각하니	-14391
▁성장영화	-14392
▁수준낮은	-14393
▁시간아까	-14394
▁아저씨가	-14395
▁안가네요	-14396
▁않았다면	-14397
▁어디에도	-14398
▁연기력을	-14399
▁연출력과	-14400
▁연출이나	-14401
▁영상미에	-14402
▁영화까지	-14403
▁오래오래	-14404
▁완성도는	-14405
▁웃기려고	-14406
▁유치하게	-14407
▁유쾌하다	-14408
▁으리으리	-14409
▁있을까요	-14410
▁재밌구만	-14411
▁잼있었다	-14412
▁정신세계	-14413
▁조폭영화	-14414
▁존재한다	-14415
▁지루했던	-14416
▁찍었을까	-14417
▁최소한의	-14418
▁타이타닉	-14419
▁하루종일	-14420
▁하루하루	-14421
▁할머니가	-14422
▁흔해빠진	-14423
이었습니다	-14424
~~~~~~	-14425
▁1,2,3	-14426
▁감동이네요	-14427
▁그렇다치고	-14428
▁내용도없고	-14429
▁네이버에서	-14430
▁느낄수있는	-14431
▁다시보기로	-14432
▁대단하다고	-14433
▁더럽게없다	-14434
▁되돌아보게	-14435
▁볼만한영화	-14436
▁사랑이라는	-14437
▁생각해보면	-14438
▁어쩔수없이	-14439
▁억지스러움	-14440
▁이건아니다	-14441
▁충격적이다	-14442
▁프로그램이	-14443
▁훌륭합니다	-14444
쓰레기쓰레기	-14445
▁등장인물들이	-14446
▁무섭지도않고	-14447
▁아름다운영화	-14448
▁행복했습니다	-14449
▁흥미진진하게	-14450
?.	-14451
SF	-14452
ly	-14453
os	-14454
~3	-14455
▁껍	-14456
▁꾀	-14457
▁밧	-14458
▁얕	-14459
▁힛	-14460
갈수	-14461
감성	-14462
같지	-14463
겹고	-14464
고어	-14465
광수	-14466
길바	-14467
내놔	-14468
내라	-14469
다녀	-14470
단의	-14471
더블	-14472
된거	-14473
둘다	-14474
드니	-14475
드릴	-14476
랜든	-14477
레터	-14478
르르	-14479
리암	-14480
릿한	-14481
막극	-14482
만치	-14483
문학	-14484
뭉클	-14485
뭐라	-14486
민우	-14487
밀한	-14488
복이	-14489
블리	-14490
산다	-14491
살짝	-14492
상상	-14493
상식	-14494
세번	-14495
세월	-14496
세트	-14497
셨나	-14498
소서	-14499
스테	-14500
슬링	-14501
습니	-14502
시킴	-14503
씁쓸	-14504
아씨	-14505
아웃	-14506
안보	-14507
앓이	-14508
어려	-14509
어준	-14510
어쩜	-14511
연예	-14512
였군	-14513
외엔	-14514
의도	-14515
이용	-14516
장군	-14517
조각	-14518
지경	-14519
지라	-14520
쯤은	-14521
취급	-14522
코비	-14523
크래	-14524
폭발	-14525
화로	-14526
확인	-14527
회사	-14528
?;;	-14529
▁-1	-14530
▁1%	-14531
▁No	-14532
▁ᄉᄀ	-14533
▁ᄌᄅ	-14534
▁가물	-14535
▁개도	-14536
▁고루	-14537
▁고만	-14538
▁구림	-14539
▁그레	-14540
▁극을	-14541
▁낄낄	-14542
▁낮을	-14543
▁놀이	-14544
▁높고	-14545
▁놓칠	-14546
▁누굴	-14547
▁대립	-14548
▁동심	-14549
▁드릅	-14550
▁들었	-14551
▁들은	-14552
▁멈출	-14553
▁못하	-14554
▁무튼	-14555
▁박하	-14556
▁박한	-14557
▁배제	-14558
▁밴드	-14559
▁변명	-14560
▁변함	-14561
▁보편	-14562
▁살릴	-14563
▁생김	-14564
▁소수	-14565
▁손오	-14566
▁송중	-14567
▁수습	-14568
▁수영	-14569
▁스폰	-14570
▁쌍욕	-14571
▁안의	-14572
▁않냐	-14573
▁언더	-14574
▁얻은	-14575
▁에디	-14576
▁옷을	-14577
▁요란	-14578
▁우월	-14579
▁운전	-14580
▁위선	-14581
▁유년	-14582
▁으으	-14583
▁은행	-14584
▁이틀	-14585
▁자부	-14586
▁작년	-14587
▁전범	-14588
▁접한	-14589
▁주의	-14590
▁지껄	-14591
▁지능	-14592
▁지식	-14593
▁짜고	-14594
▁찌푸	-14595
▁청순	-14596
▁최수	-14597
▁최신	-14598
▁충족	-14599
▁치면	-14600
▁침몰	-14601
▁파일	-14602
▁프랭	-14603
▁한듯	-14604
▁한회	-14605
▁해군	-14606
▁후려	-14607
▁흡사	-14608
게리온	-14609
굉장히	-14610
귀엽고	-14611
그만큼	-14612
나이에	-14613
남네요	-14614
된영화	-14615
드럽게	-14616
들이여	-14617
못한다	-14618
반전도	-14619
사랑의	-14620
새로운	-14621
스파이	-14622
시기를	-14623
아먹는	-14624
엄마가	-14625
없다는	-14626
여자는	-14627
영환줄	-14628
예쁘고	-14629
으라면	-14630
있는게	-14631
자체는	-14632
잼있게	-14633
점수를	-14634
좋았던	-14635
지가않	-14636
출연진	-14637
해야만	-14638
----	-14639
▁(10	-14640
▁sbs	-14641
▁가깝다	-14642
▁가난한	-14643
▁가지게	-14644
▁강혜정	-14645
▁개명작	-14646
▁것으로	-14647
▁곳곳에	-14648
▁그래두	-14649
▁극치를	-14650
▁근래에	-14651
▁기대됨	-14652
▁김래원	-14653
▁꼬라지	-14654
▁내생의	-14655
▁노무현	-14656
▁놀라고	-14657
▁뇌리에	-14658
▁느낌과	-14659
▁다녀온	-14660
▁담백한	-14661
▁대박임	-14662
▁대학교	-14663
▁돌아온	-14664
▁되버린	-14665
▁두려움	-14666
▁뒤통수	-14667
▁따라서	-14668
▁뜬금포	-14669
▁마피아	-14670
▁맛있는	-14671
▁모니카	-14672
▁모여서	-14673
▁묘사가	-14674
▁미개한	-14675
▁미성년	-14676
▁미치지	-14677
▁바뀌고	-14678
▁밖에는	-14679
▁발견한	-14680
▁베토벤	-14681
▁별로네	-14682
▁별점은	-14683
▁보라는	-14684
▁본다는	-14685
▁본사람	-14686
▁봤더만	-14687
▁봤어도	-14688
▁부끄러	-14689
▁부성애	-14690
▁비교도	-14691
▁뽀로로	-14692
▁뿐이고	-14693
▁사소한	-14694
▁사실은	-14695
▁사이에	-14696
▁상황과	-14697
▁샌들러	-14698
▁생각날	-14699
▁생뚱맞	-14700
▁성공한	-14701
▁스릴은	-14702
▁시절을	-14703
▁신동엽	-14704
▁아까웠	-14705
▁아깝게	-14706
▁아는데	-14707
▁아직은	-14708
▁안쓰러	-14709
▁어렵고	-14710
▁어쩌구	-14711
▁어쩐지	-14712
▁엉뚱한	-14713
▁여동생	-14714
▁역사는	-14715
▁열연이	-14716
▁였어요	-14717
▁예전의	-14718
▁오드리	-14719
▁오페라	-14720
▁욕심이	-14721
▁울나라	-14722
▁울림이	-14723
▁웨스턴	-14724
▁유머도	-14725
▁유해진	-14726
▁이것을	-14727
▁이러냐	-14728
▁이루는	-14729
▁이름에	-14730
▁이용해	-14731
▁이유도	-14732
▁인간에	-14733
▁인내심	-14734
▁잃었다	-14735
▁있다가	-14736
▁자체의	-14737
▁잠수함	-14738
▁재능이	-14739
▁재밋네	-14740
▁저지른	-14741
▁조아요	-14742
▁좋은듯	-14743
▁주다니	-14744
▁주연이	-14745
▁주제곡	-14746
▁죽어나	-14747
▁즐거워	-14748
▁진수를	-14749
▁진실이	-14750
▁짜증날	-14751
▁초콜릿	-14752
▁추억에	-14753
▁친구와	-14754
▁친일파	-14755
▁코믹도	-14756
▁콘서트	-14757
▁파트너	-14758
▁포스가	-14759
▁풍부한	-14760
▁하고자	-14761
▁하기도	-14762
▁하나다	-14763
▁한국식	-14764
▁한국이	-14765
▁한지민	-14766
▁했네요	-14767
▁호기심	-14768
▁히틀러	-14769
거같아서	-14770
그렇다고	-14771
나오는거	-14772
남는영화	-14773
답답하고	-14774
드라마도	-14775
들에게도	-14776
본방사수	-14777
스타일이	-14778
아무것도	-14779
이었다면	-14780
있었지만	-14781
잘봤어요	-14782
재밌었음	-14783
적이었다	-14784
점준거중	-14785
점줍니다	-14786
좋아해서	-14787
중간중간	-14788
하더군요	-14789
해야하나	-14790
했더라면	-14791
...10	-14792
▁4000	-14793
▁개나소나	-14794
▁권선징악	-14795
▁기다리는	-14796
▁기대하며	-14797
▁기발하고	-14798
▁기본적인	-14799
▁늑대인간	-14800
▁늘어지는	-14801
▁말도안돼	-14802
▁매력있고	-14803
▁명작중의	-14804
▁별점테러	-14805
▁보았네요	-14806
▁볼수없는	-14807
▁봤던건데	-14808
▁불가능한	-14809
▁빠져든다	-14810
▁산만하다	-14811
▁생각나고	-14812
▁생각해볼	-14813
▁스타일은	-14814
▁스토리며	-14815
▁식스센스	-14816
▁싶어지는	-14817
▁아쉬운건	-14818
▁아침부터	-14819
▁안나오나	-14820
▁안젤리나	-14821
▁알았네요	-14822
▁암걸리는	-14823
▁압도적인	-14824
▁어이없어	-14825
▁엄마한테	-14826
▁열받아서	-14827
▁올레티비	-14828
▁왜이러냐	-14829
▁유치원생	-14830
▁이거보면	-14831
▁이쁘네요	-14832
▁이정도의	-14833
▁인도영화	-14834
▁임팩트가	-14835
▁있다는걸	-14836
▁정신없이	-14837
▁제목처럼	-14838
▁제외하면	-14839
▁주인공인	-14840
▁처음보는	-14841
▁코스트너	-14842
▁크리스마	-14843
▁편안하게	-14844
▁포스터를	-14845
▁표정연기	-14846
▁피해자가	-14847
▁필요없고	-14848
▁하는구나	-14849
▁현실성도	-14850
▁흡입력이	-14851
것만으로도	-14852
▁감동이에요	-14853
▁궁금하네요	-14854
▁기대했건만	-14855
▁나홀로집에	-14856
▁드라마중에	-14857
▁사이코패스	-14858
▁시간아까운	-14859
▁실망입니다	-14860
▁싶을정도로	-14861
▁아니더라도	-14862
▁안남기는데	-14863
▁에니메이션	-14864
▁영화보다는	-14865
▁인터스텔라	-14866
▁자극적이고	-14867
▁재미없던데	-14868
▁주인공으로	-14869
▁감동적이예요	-14870
▁내인생최고의	-14871
▁말이필요없음	-14872
▁스토리전개가	-14873
▁기대안하고봤는데	-14874
ab	-14875
ag	-14876
ᄅᄀ	-14877
▁ᄁ	-14878
▁★	-14879
▁굵	-14880
▁낡	-14881
▁란	-14882
▁빤	-14883
▁썻	-14884
▁쟤	-14885
▁째	-14886
▁쫙	-14887
▁퀄	-14888
▁헝	-14889
값이	-14890
갔음	-14891
같애	-14892
걸음	-14893
겁나	-14894
국을	-14895
그걸	-14896
기들	-14897
꺼임	-14898
났고	-14899
내돈	-14900
노무	-14901
노의	-14902
놓는	-14903
눈을	-14904
단지	-14905
덕환	-14906
드레	-14907
든데	-14908
란게	-14909
러지	-14910
론을	-14911
루요	-14912
마에	-14913
마을	-14914
많네	-14915
먹어	-14916
먼의	-14917
못할	-14918
민정	-14919
발로	-14920
발음	-14921
범이	-14922
변화	-14923
보가	-14924
본적	-14925
비로	-14926
비언	-14927
빨로	-14928
세대	-14929
세용	-14930
슴다	-14931
승리	-14932
시로	-14933
신과	-14934
실제	-14935
애씨	-14936
앤더	-14937
양반	-14938
어찌	-14939
없던	-14940
에여	-14941
오의	-14942
왕짱	-14943
울이	-14944
이럴	-14945
익은	-14946
잭맨	-14947
전투	-14948
제의	-14949
제이	-14950
조가	-14951
조폭	-14952
졸잼	-14953
종의	-14954
좋앗	-14955
줬던	-14956
진한	-14957
짜고	-14958
쩌네	-14959
쩔어	-14960
착한	-14961
찮은	-14962
참나	-14963
칙한	-14964
캐리	-14965
클레	-14966
탄생	-14967
포기	-14968
황당	-14969
희망	-14970
..)	-14971
..-	-14972
art	-14973
▁26	-14974
▁88	-14975
▁XX	-14976
▁sm	-14977
▁강우	-14978
▁개망	-14979
▁건담	-14980
▁겪는	-14981
▁계시	-14982
▁고쳐	-14983
▁곽지	-14984
▁관점	-14985
▁금성	-14986
▁기반	-14987
▁기절	-14988
▁깔깔	-14989
▁깨어	-14990
▁꾸밈	-14991
▁꾸역	-14992
▁끄고	-14993
▁끌지	-14994
▁끝장	-14995
▁낚이	-14996
▁남한	-14997
▁낫네	-14998
▁내놔	-14999
▁네임	-15000
▁노인	-15001
▁님들	-15002
▁당한	-15003
▁두서	-15004
▁등에	-15005
▁따지	-15006
▁똥싸	-15007
▁리더	-15008
▁리부	-15009
▁말까	-15010
▁망상	-15011
▁먹어	-15012
▁멸망	-15013
▁몰고	-15014
▁바램	-15015
▁박철	-15016
▁반짝	-15017
▁배두	-15018
▁베끼	-15019
▁베니	-15020
▁베일	-15021
▁보낼	-15022
▁부패	-15023
▁불교	-15024
▁빌어	-15025
▁빨려	-15026
▁사장	-15027
▁살았	-15028
▁살자	-15029
▁살지	-15030
▁살해	-15031
▁샤말	-15032
▁서른	-15033
▁서우	-15034
▁서유	-15035
▁섞여	-15036
▁세대	-15037
▁소련	-15038
▁소외	-15039
▁숀펜	-15040
▁수목	-15041
▁아리	-15042
▁안경	-15043
▁안내	-15044
▁안듬	-15045
▁안믿	-15046
▁알면	-15047
▁야쿠	-15048
▁얘네	-15049
▁연구	-15050
▁영호	-15051
▁오열	-15052
▁오줌	-15053
▁일기	-15054
▁입을	-15055
▁잉여	-15056
▁작업	-15057
▁잠안	-15058
▁장기	-15059
▁장인	-15060
▁장점	-15061
▁재벌	-15062
▁저건	-15063
▁저격	-15064
▁조롱	-15065
▁조명	-15066
▁좋구	-15067
▁좌좀	-15068
▁주구	-15069
▁질이	-15070
▁질주	-15071
▁처벌	-15072
▁최우	-15073
▁추적	-15074
▁침략	-15075
▁탈락	-15076
▁터지	-15077
▁토르	-15078
▁토미	-15079
▁트렌	-15080
▁편히	-15081
▁할일	-15082
▁해소	-15083
▁현장	-15084
▁획기	-15085
▁효민	-15086
▁흘릴	-15087
같았다	-15088
개막장	-15089
것인지	-15090
관람가	-15091
나오지	-15092
다니엘	-15093
대에서	-15094
더구만	-15095
됐지만	-15096
들었다	-15097
따구로	-15098
떄문에	-15099
렸을때	-15100
만해도	-15101
박하고	-15102
번이상	-15103
보여주	-15104
본적이	-15105
부분을	-15106
사랑이	-15107
세기에	-15108
소리만	-15109
소설을	-15110
십니까	-15111
아프다	-15112
안보고	-15113
역사상	-15114
연출이	-15115
울었다	-15116
의식이	-15117
이런걸	-15118
인데요	-15119
인생을	-15120
있는듯	-15121
있는지	-15122
자신이	-15123
자체도	-15124
재미로	-15125
전개도	-15126
좋았고	-15127
주는거	-15128
치면서	-15129
테스크	-15130
하게만	-15131
한거다	-15132
햇어요	-15133
했기에	-15134
...2	-15135
...;	-15136
▁6.5	-15137
▁개봉할	-15138
▁개짜증	-15139
▁개쩐다	-15140
▁거부감	-15141
▁것일까	-15142
▁결말만	-15143
▁그래요	-15144
▁그정도	-15145
▁극대화	-15146
▁금요일	-15147
▁기분나	-15148
▁긴박감	-15149
▁꾸준히	-15150
▁나같은	-15151
▁나오냐	-15152
▁나타내	-15153
▁남아도	-15154
▁내면을	-15155
▁노출도	-15156
▁놀라움	-15157
▁놀랍고	-15158
▁누구를	-15159
▁단어가	-15160
▁대기업	-15161
▁두가지	-15162
▁두려워	-15163
▁뒤돌아	-15164
▁따분한	-15165
▁리스트	-15166
▁마동석	-15167
▁막무가	-15168
▁말이야	-15169
▁말장난	-15170
▁맙소사	-15171
▁명작중	-15172
▁목적이	-15173
▁못한게	-15174
▁무표정	-15175
▁뭉클한	-15176
▁뭐이리	-15177
▁뭐하자	-15178
▁미치게	-15179
▁미친거	-15180
▁믿을수	-15181
▁바람피	-15182
▁보지만	-15183
▁봉준호	-15184
▁봤는대	-15185
▁부실한	-15186
▁불쌍함	-15187
▁빌려서	-15188
▁빠지고	-15189
▁뻔뻔한	-15190
▁뻔하디	-15191
▁사랑할	-15192
▁사회가	-15193
▁새로울	-15194
▁색감도	-15195
▁소설이	-15196
▁쇼생크	-15197
▁시걸의	-15198
▁싶었음	-15199
▁쒸레기	-15200
▁쓸쓸한	-15201
▁악역이	-15202
▁안가네	-15203
▁안되지	-15204
▁알게되	-15205
▁어느것	-15206
▁언니가	-15207
▁얼굴만	-15208
▁여름에	-15209
▁여운과	-15210
▁여인의	-15211
▁여태껏	-15212
▁영혼이	-15213
▁오디션	-15214
▁외로움	-15215
▁요즘엔	-15216
▁우정이	-15217
▁월드컵	-15218
▁유아인	-15219
▁이감독	-15220
▁이슬람	-15221
▁인물을	-15222
▁인연이	-15223
▁있었지	-15224
▁정서에	-15225
▁정재영	-15226
▁제레미	-15227
▁좀비물	-15228
▁주변에	-15229
▁주었다	-15230
▁중국이	-15231
▁줘야지	-15232
▁지못미	-15233
▁짠하고	-15234
▁철학이	-15235
▁추억돋	-15236
▁춤추는	-15237
▁케이스	-15238
▁코믹물	-15239
▁쿠엔틴	-15240
▁파치노	-15241
▁편안한	-15242
▁포장한	-15243
▁폴리스	-15244
▁하더니	-15245
▁행복은	-15246
▁흥행이	-15247
대한민국	-15248
방송에서	-15249
본영화중	-15250
봐야겠다	-15251
시리즈를	-15252
아니지만	-15253
아이들이	-15254
에서부터	-15255
지도않은	-15256
지루해서	-15257
진심으로	-15258
하긴한데	-15259
.,.,.	-15260
▁1980	-15261
▁결혼하고	-15262
▁그럴듯한	-15263
▁그림체도	-15264
▁그립네요	-15265
▁나오지도	-15266
▁남깁니다	-15267
▁녹아있는	-15268
▁느껴져서	-15269
▁대부분의	-15270
▁댓글알바	-15271
▁돈아까움	-15272
▁드러나는	-15273
▁들어가서	-15274
▁따뜻하다	-15275
▁만드는데	-15276
▁매끄럽지	-15277
▁메시지도	-15278
▁명작이지	-15279
▁목소리는	-15280
▁밀려오는	-15281
▁반복되는	-15282
▁별로였던	-15283
▁부족했다	-15284
▁불우이웃	-15285
▁브라이언	-15286
▁살아있다	-15287
▁상관없는	-15288
▁서스펜스	-15289
▁소소하게	-15290
▁스릴러도	-15291
▁스토리만	-15292
▁시리즈물	-15293
▁시청자가	-15294
▁실망스러	-15295
▁실화라고	-15296
▁아까운데	-15297
▁안무서움	-15298
▁안주는데	-15299
▁압권이다	-15300
▁영화ᄏᄏ	-15301
▁영화보단	-15302
▁오래도록	-15303
▁오토바이	-15304
▁외국영화	-15305
▁우울할때	-15306
▁음악까지	-15307
▁이유없이	-15308
▁있었으나	-15309
▁재미까지	-15310
▁적절하게	-15311
▁조잡하다	-15312
▁좋아하던	-15313
▁중심으로	-15314
▁쥬라기공	-15315
▁지루했고	-15316
▁진지하고	-15317
▁찾아가는	-15318
▁촌스럽지	-15319
▁최고예요	-15320
▁파격적인	-15321
▁표현하는	-15322
▁풀어가는	-15323
▁프로젝트	-15324
▁흥미롭지	-15325
스럽습니다	-15326
영화라지만	-15327
재미없어요	-15328
재밌었는데	-15329
재밌었어요	-15330
추천합니다	-15331
하긴하지만	-15332
▁개연성없는	-15333
▁관객들에게	-15334
▁괜찮은영화	-15335
▁느껴지네요	-15336
▁심리묘사가	-15337
▁아담샌들러	-15338
▁안나왔으면	-15339
▁에반게리온	-15340
▁여주인공도	-15341
▁영화였네요	-15342
▁이딴영화가	-15343
▁잔인하기만	-15344
▁잘만든영화	-15345
▁재미없으면	-15346
▁재밌음ᄏᄏ	-15347
▁저예산으로	-15348
▁지루하기도	-15349
▁토이스토리	-15350
▁하지마루요	-15351
▁안좋아하는데	-15352
!'	-15353
GM	-15354
OD	-15355
gh	-15356
gm	-15357
ry	-15358
~5	-15359
~6	-15360
▁v	-15361
▁꽥	-15362
▁닦	-15363
▁댓	-15364
▁떳	-15365
▁띠	-15366
▁래	-15367
▁룰	-15368
▁르	-15369
▁몹	-15370
▁뺀	-15371
▁뻘	-15372
▁엎	-15373
▁킥	-15374
▁텔	-15375
▁펄	-15376
각을	-15377
갈등	-15378
거북	-15379
경씨	-15380
경험	-15381
계에	-15382
공간	-15383
공룡	-15384
관은	-15385
구구	-15386
굳굳	-15387
그가	-15388
길을	-15389
꾸역	-15390
나나	-15391
노는	-15392
노쉬	-15393
단말	-15394
데가	-15395
도현	-15396
됐음	-15397
된게	-15398
된듯	-15399
될까	-15400
디의	-15401
락을	-15402
량이	-15403
레알	-15404
려원	-15405
마미	-15406
매일	-15407
모도	-15408
모험	-15409
민족	-15410
바꾸	-15411
바에	-15412
발랄	-15413
배를	-15414
봤고	-15415
분투	-15416
생명	-15417
성인	-15418
성장	-15419
세를	-15420
세에	-15421
셨다	-15422
스랑	-15423
스맨	-15424
싶어	-15425
아련	-15426
아픔	-15427
안다	-15428
예뻐	-15429
예전	-15430
옥빈	-15431
올려	-15432
와도	-15433
용석	-15434
울수	-15435
워라	-15436
워야	-15437
윤아	-15438
으시	-15439
이루	-15440
일드	-15441
자살	-15442
잡이	-15443
잼씀	-15444
전도	-15445
졌어	-15446
조합	-15447
줬음	-15448
지노	-15449
차드	-15450
최근	-15451
춰진	-15452
치에	-15453
카의	-15454
캔들	-15455
쿠삭	-15456
쿼터	-15457
투표	-15458
트랙	-15459
티네	-15460
폐지	-15461
피해	-15462
한명	-15463
호강	-15464
▁2.	-15465
▁27	-15466
▁3.	-15467
▁44	-15468
▁93	-15469
▁am	-15470
▁ᄉᄉ	-15471
▁가다	-15472
▁개가	-15473
▁개운	-15474
▁것의	-15475
▁곁에	-15476
▁계단	-15477
▁골라	-15478
▁관능	-15479
▁구나	-15480
▁구입	-15481
▁그후	-15482
▁근친	-15483
▁긴급	-15484
▁깊다	-15485
▁나른	-15486
▁남들	-15487
▁대륙	-15488
▁대처	-15489
▁더러	-15490
▁던지	-15491
▁되요	-15492
▁디젤	-15493
▁딸과	-15494
▁뗄수	-15495
▁뜨고	-15496
▁뜻이	-15497
▁말곤	-15498
▁맞을	-15499
▁머니	-15500
▁모래	-15501
▁몸짓	-15502
▁문채	-15503
▁박스	-15504
▁백미	-15505
▁버스	-15506
▁벌레	-15507
▁보냐	-15508
▁보수	-15509
▁브금	-15510
▁브리	-15511
▁서영	-15512
▁세이	-15513
▁셜록	-15514
▁소나	-15515
▁속아	-15516
▁속터	-15517
▁손이	-15518
▁스테	-15519
▁슴가	-15520
▁싶고	-15521
▁싼티	-15522
▁쌍벽	-15523
▁쓰면	-15524
▁안줄	-15525
▁않길	-15526
▁알라	-15527
▁애는	-15528
▁억압	-15529
▁얻을	-15530
▁여정	-15531
▁와나	-15532
▁외에	-15533
▁웃다	-15534
▁웃어	-15535
▁웬지	-15536
▁유도	-15537
▁유튜	-15538
▁이가	-15539
▁이국	-15540
▁이뿌	-15541
▁인과	-15542
▁잃게	-15543
▁작렬	-15544
▁잠재	-15545
▁장백	-15546
▁장선	-15547
▁장화	-15548
▁장황	-15549
▁재료	-15550
▁재연	-15551
▁재판	-15552
▁저능	-15553
▁전의	-15554
▁정경	-15555
▁제맛	-15556
▁조성	-15557
▁좌빨	-15558
▁주네	-15559
▁주장	-15560
▁주저	-15561
▁중견	-15562
▁지날	-15563
▁진출	-15564
▁질러	-15565
▁짙은	-15566
▁책은	-15567
▁추석	-15568
▁춤을	-15569
▁치부	-15570
▁쿠바	-15571
▁클럽	-15572
▁탈을	-15573
▁투입	-15574
▁하실	-15575
▁학예	-15576
▁한게	-15577
▁해설	-15578
▁해운	-15579
▁호화	-15580
▁활동	-15581
감독과	-15582
거같고	-15583
거리며	-15584
거린다	-15585
나는데	-15586
내시간	-15587
드래곤	-15588
따위로	-15589
많아서	-15590
무서움	-15591
베스트	-15592
보는중	-15593
보여준	-15594
부르는	-15595
사랑에	-15596
셨어요	-15597
쇼스키	-15598
시네마	-15599
시대가	-15600
시절의	-15601
싸이코	-15602
아닐까	-15603
억지로	-15604
엇으면	-15605
었을듯	-15606
연기짱	-15607
영화야	-15608
완성도	-15609
으려다	-15610
이상한	-15611
작가의	-15612
작품은	-15613
절하게	-15614
점이라	-15615
지모르	-15616
차이가	-15617
초반에	-15618
티스트	-15619
편이나	-15620
할께요	-15621
핵노잼	-15622
했을듯	-15623
*^^*	-15624
▁140	-15625
▁ᅮᅮᅮ	-15626
▁가족은	-15627
▁감정에	-15628
▁강력한	-15629
▁개망작	-15630
▁갱스터	-15631
▁건질게	-15632
▁공포와	-15633
▁과거에	-15634
▁관람가	-15635
▁그걸로	-15636
▁그러다	-15637
▁기분을	-15638
▁기억남	-15639
▁길들여	-15640
▁김수로	-15641
▁꽝이다	-15642
▁끌리는	-15643
▁나까지	-15644
▁나라는	-15645
▁나온게	-15646
▁나혼자	-15647
▁남자랑	-15648
▁낫다고	-15649
▁높은거	-15650
▁다큐가	-15651
▁다큐로	-15652
▁대단해	-15653
▁대사에	-15654
▁대작이	-15655
▁댓글이	-15656
▁데스노	-15657
▁도가니	-15658
▁돋았다	-15659
▁돌아간	-15660
▁되겠다	-15661
▁드릅게	-15662
▁드리고	-15663
▁마니아	-15664
▁만들까	-15665
▁만화로	-15666
▁많이나	-15667
▁매력과	-15668
▁모아서	-15669
▁못본게	-15670
▁못봤다	-15671
▁미묘한	-15672
▁박유천	-15673
▁박해일	-15674
▁보아야	-15675
▁분노를	-15676
▁불끄고	-15677
▁불멸의	-15678
▁불편함	-15679
▁비교할	-15680
▁빠순이	-15681
▁빠지지	-15682
▁사랑함	-15683
▁살아갈	-15684
▁설명은	-15685
▁설정을	-15686
▁성폭행	-15687
▁소설로	-15688
▁속시원	-15689
▁순수함	-15690
▁스트레	-15691
▁시청율	-15692
▁싱크로	-15693
▁아픔과	-15694
▁악당이	-15695
▁안보길	-15696
▁안봤다	-15697
▁안하는	-15698
▁않겠다	-15699
▁암걸릴	-15700
▁애들용	-15701
▁애잔한	-15702
▁양심도	-15703
▁어울려	-15704
▁어울림	-15705
▁없는거	-15706
▁없는것	-15707
▁없이도	-15708
▁여행을	-15709
▁역겹고	-15710
▁역량이	-15711
▁열정을	-15712
▁요즘에	-15713
▁우리들	-15714
▁울버린	-15715
▁웃긴데	-15716
▁원작도	-15717
▁원작인	-15718
▁은은한	-15719
▁이기는	-15720
▁이들을	-15721
▁이자벨	-15722
▁이하의	-15723
▁일본어	-15724
▁일으킨	-15725
▁입가에	-15726
▁있도록	-15727
▁자연의	-15728
▁전부인	-15729
▁좋겠음	-15730
▁주는거	-15731
▁주는건	-15732
▁주셔서	-15733
▁지겹고	-15734
▁지들이	-15735
▁질질끄	-15736
▁짱인듯	-15737
▁채널을	-15738
▁초호화	-15739
▁최악은	-15740
▁최지우	-15741
▁출연작	-15742
▁토할뻔	-15743
▁포기한	-15744
▁표현은	-15745
▁프리퀄	-15746
▁한국을	-15747
▁한두번	-15748
▁합리화	-15749
▁현대판	-15750
겠습니까	-15751
생각나서	-15752
시간가는	-15753
시간짜리	-15754
영화보고	-15755
으로부터	-15756
이나네요	-15757
이영화가	-15758
인들에게	-15759
주인공은	-15760
처음으로	-15761
최악이다	-15762
해피엔딩	-15763
~~!!!	-15764
~~~^^	-15765
▁감안해도	-15766
▁것입니다	-15767
▁관객들이	-15768
▁교훈적인	-15769
▁나에게도	-15770
▁남습니다	-15771
▁내인생의	-15772
▁누군가가	-15773
▁눈물나는	-15774
▁다시보면	-15775
▁다좋은데	-15776
▁되었지만	-15777
▁로드리게	-15778
▁막무가내	-15779
▁만들었음	-15780
▁명작으로	-15781
▁몇년전에	-15782
▁못만드나	-15783
▁바보같은	-15784
▁벗어나지	-15785
▁별로던데	-15786
▁보았어요	-15787
▁볼만했던	-15788
▁빠져들어	-15789
▁성냥팔이	-15790
▁시각으로	-15791
▁시끄럽고	-15792
▁시원시원	-15793
▁시점에서	-15794
▁아깝다고	-15795
▁아련하고	-15796
▁안무섭고	-15797
▁애들한테	-15798
▁어쩌라는	-15799
▁억지스럽	-15800
▁없으면서	-15801
▁영화에는	-15802
▁예상되는	-15803
▁완벽했다	-15804
▁웃기기도	-15805
▁유머러스	-15806
▁이럴수가	-15807
▁있는건지	-15808
▁있었다면	-15809
▁자막으로	-15810
▁잘생겼다	-15811
▁재밌으면	-15812
▁저질영화	-15813
▁제목으로	-15814
▁좋았을걸	-15815
▁짜증났음	-15816
▁팬이지만	-15817
▁해주네요	-15818
▁현실감이	-15819
▁후반부는	-15820
▁후회된다	-15821
▁가족드라마	-15822
▁괜찮았지만	-15823
▁누구에게나	-15824
▁등장인물들	-15825
▁떨어지네요	-15826
▁생각됩니다	-15827
▁소름돋았다	-15828
▁스토리까지	-15829
▁시리즈중에	-15830
▁아름답네요	-15831
▁안드로메다	-15832
▁이런드라마	-15833
▁잘어울리는	-15834
▁재미더럽게	-15835
▁제시카알바	-15836
▁처음이었다	-15837
▁평론가들이	-15838
▁포스터보고	-15839
▁하이라이트	-15840
▁기대안했는데	-15841
▁모르겠습니다	-15842
▁재미없었어요	-15843
▁하나만으로도	-15844
/3	-15845
~.	-15846
~^	-15847
▁Z	-15848
▁ᄎ	-15849
▁뉘	-15850
▁둥	-15851
▁득	-15852
▁랜	-15853
▁료	-15854
▁샬	-15855
▁샹	-15856
▁솟	-15857
▁쯔	-15858
▁촉	-15859
▁훅	-15860
▁휩	-15861
가기	-15862
가물	-15863
거짓	-15864
겠니	-15865
고리	-15866
과연	-15867
관념	-15868
관심	-15869
구멍	-15870
귀가	-15871
그릇	-15872
김기	-15873
깊이	-15874
남친	-15875
났네	-15876
네스	-15877
노동	-15878
느낄	-15879
님과	-15880
댄스	-15881
동의	-15882
돼서	-15883
되니	-15884
되야	-15885
드류	-15886
디다	-15887
딱지	-15888
뜬금	-15889
란의	-15890
랄라	-15891
렸어	-15892
렸을	-15893
로게	-15894
마를	-15895
만남	-15896
말투	-15897
먹기	-15898
먹음	-15899
모델	-15900
모어	-15901
무술	-15902
미야	-15903
바퀴	-15904
방울	-15905
백만	-15906
벌써	-15907
별이	-15908
부들	-15909
분간	-15910
분열	-15911
불패	-15912
빵빵	-15913
사장	-15914
사투	-15915
상업	-15916
성격	-15917
소문	-15918
시각	-15919
신사	-15920
싶음	-15921
쓸데	-15922
양은	-15923
여성	-15924
연씨	-15925
영혼	-15926
예쁜	-15927
오바	-15928
왜케	-15929
운다	-15930
위는	-15931
자본	-15932
잘안	-15933
젊은	-15934
조용	-15935
좀더	-15936
주혁	-15937
죽은	-15938
줄도	-15939
즈업	-15940
지던	-15941
지상	-15942
질에	-15943
체류	-15944
출신	-15945
칠이	-15946
카드	-15947
코난	-15948
크게	-15949
타인	-15950
태가	-15951
터클	-15952
통이	-15953
피디	-15954
하도	-15955
해줌	-15956
행동	-15957
황후	-15958
히지	-15959
!""	-15960
--;	-15961
her	-15962
▁do	-15963
▁go	-15964
▁가요	-15965
▁갖추	-15966
▁개쩔	-15967
▁결제	-15968
▁공식	-15969
▁귀한	-15970
▁김대	-15971
▁깨우	-15972
▁나네	-15973
▁남상	-15974
▁낯설	-15975
▁넣고	-15976
▁놀아	-15977
▁당할	-15978
▁대구	-15979
▁대만	-15980
▁도로	-15981
▁뒤집	-15982
▁똥망	-15983
▁러닝	-15984
▁만듦	-15985
▁매니	-15986
▁멍때	-15987
▁못찾	-15988
▁물리	-15989
▁미남	-15990
▁바둑	-15991
▁박물	-15992
▁배고	-15993
▁병원	-15994
▁비급	-15995
▁비둘	-15996
▁비포	-15997
▁뻔해	-15998
▁사골	-15999
▁서글	-16000
▁서태	-16001
▁세븐	-16002
▁소속	-16003
▁스콜	-16004
▁아끼	-16005
▁알앗	-16006
▁양키	-16007
▁얼어	-16008
▁여군	-16009
▁연령	-16010
▁옮겨	-16011
▁용감	-16012
▁용의	-16013
▁울려	-16014
▁유기	-16015
▁육체	-16016
▁으악	-16017
▁이글	-16018
▁인위	-16019
▁자가	-16020
▁잘짜	-16021
▁잡지	-16022
▁잭슨	-16023
▁저만	-16024
▁저번	-16025
▁정성	-16026
▁조건	-16027
▁주식	-16028
▁주인	-16029
▁죽지	-16030
▁준수	-16031
▁집합	-16032
▁짓게	-16033
▁짓을	-16034
▁차갑	-16035
▁참내	-16036
▁최선	-16037
▁케미	-16038
▁크라	-16039
▁타는	-16040
▁탐욕	-16041
▁폰부	-16042
▁프랑	-16043
▁해병	-16044
▁향기	-16045
▁헐크	-16046
▁형성	-16047
▁형식	-16048
▁확신	-16049
감정이	-16050
거라곤	-16051
결말은	-16052
그렇다	-16053
나보네	-16054
내인생	-16055
느낌의	-16056
되는지	-16057
되었던	-16058
또보고	-16059
래이션	-16060
멋있다	-16061
모로우	-16062
미니즘	-16063
보다더	-16064
시켰다	-16065
씁니다	-16066
아이들	-16067
안나옴	-16068
여자의	-16069
연출력	-16070
영화들	-16071
영화와	-16072
오피스	-16073
이구나	-16074
이네여	-16075
인건지	-16076
인이다	-16077
일텐데	-16078
작품을	-16079
잘어울	-16080
준영화	-16081
지마요	-16082
질질끌	-16083
충분히	-16084
칩니다	-16085
하구요	-16086
하도록	-16087
하셔서	-16088
▁0.1	-16089
▁but	-16090
▁for	-16091
▁각본을	-16092
▁갑이다	-16093
▁같았음	-16094
▁같으니	-16095
▁개그는	-16096
▁것보다	-16097
▁결혼식	-16098
▁경쾌한	-16099
▁고마워	-16100
▁고스트	-16101
▁공포감	-16102
▁공효진	-16103
▁과언이	-16104
▁교도소	-16105
▁군대가	-16106
▁그런걸	-16107
▁나쁘다	-16108
▁나서도	-16109
▁나았을	-16110
▁나온건	-16111
▁나이를	-16112
▁나지만	-16113
▁나타난	-16114
▁낚였어	-16115
▁남동생	-16116
▁남들이	-16117
▁노다메	-16118
▁놓치지	-16119
▁다있냐	-16120
▁다있어	-16121
▁댓글에	-16122
▁들어요	-16123
▁들었던	-16124
▁들여다	-16125
▁디자인	-16126
▁따스한	-16127
▁때로는	-16128
▁류덕환	-16129
▁리차드	-16130
▁많이들	-16131
▁말처럼	-16132
▁맞나요	-16133
▁몸매는	-16134
▁못보겠	-16135
▁못하면	-16136
▁못해도	-16137
▁민주화	-16138
▁바뀌는	-16139
▁베를린	-16140
▁보지않	-16141
▁부모가	-16142
▁부족해	-16143
▁사건이	-16144
▁사는게	-16145
▁색다르	-16146
▁성장기	-16147
▁세기의	-16148
▁슬픔과	-16149
▁신은경	-16150
▁심금을	-16151
▁아이는	-16152
▁안만들	-16153
▁알려진	-16154
▁앨리스	-16155
▁엔딩도	-16156
▁여자랑	-16157
▁역사와	-16158
▁영화보	-16159
▁예술적	-16160
▁오늘의	-16161
▁오랫만	-16162
▁올리기	-16163
▁우리와	-16164
▁우리집	-16165
▁울린다	-16166
▁워싱턴	-16167
▁위안부	-16168
▁유오성	-16169
▁의지가	-16170
▁이런류	-16171
▁이렇다	-16172
▁이름도	-16173
▁이민정	-16174
▁이민호	-16175
▁이수근	-16176
▁이용한	-16177
▁이제껏	-16178
▁인디언	-16179
▁있는건	-16180
▁자리를	-16181
▁자식을	-16182
▁자전거	-16183
▁자존심	-16184
▁잼없어	-16185
▁저에게	-16186
▁전작을	-16187
▁전체를	-16188
▁정점을	-16189
▁제외한	-16190
▁조금더	-16191
▁조화가	-16192
▁졸작을	-16193
▁주지훈	-16194
▁지나고	-16195
▁지나면	-16196
▁지상파	-16197
▁지진희	-16198
▁짓거리	-16199
▁찌질이	-16200
▁찍어서	-16201
▁찍으면	-16202
▁초월한	-16203
▁총으로	-16204
▁출연료	-16205
▁킹왕짱	-16206
▁탕웨이	-16207
▁평가는	-16208
▁풍기는	-16209
▁하나씩	-16210
▁하더라	-16211
▁하품만	-16212
▁학생들	-16213
▁함께한	-16214
▁해야할	-16215
▁호러물	-16216
▁화면에	-16217
▁힘들고	-16218
떨어지고	-16219
배우들은	-16220
보지마셈	-16221
스러움이	-16222
영화라는	-16223
영화로는	-16224
영화인지	-16225
왠만하면	-16226
을수없는	-16227
이정도면	-16228
좋겠어요	-16229
좋았는데	-16230
지금봐도	-16231
지못하고	-16232
짜증나서	-16233
한영화다	-16234
해야한다	-16235
-_-;;	-16236
..;;;	-16237
▁this	-16238
▁감안하고	-16239
▁감정표현	-16240
▁귀엽네요	-16241
▁그대로의	-16242
▁그러는데	-16243
▁극장판이	-16244
▁나뿐인가	-16245
▁나오는건	-16246
▁나오니까	-16247
▁나올법한	-16248
▁나이먹고	-16249
▁남자친구	-16250
▁내용이라	-16251
▁내인생에	-16252
▁내취향은	-16253
▁너무했다	-16254
▁넘어가는	-16255
▁놀랍네요	-16256
▁눈물나게	-16257
▁다르지만	-16258
▁담겨있는	-16259
▁당시에도	-16260
▁대단하고	-16261
▁레즈비언	-16262
▁마지막을	-16263
▁만든거지	-16264
▁만큼이나	-16265
▁바이올린	-16266
▁방황하는	-16267
▁별로라고	-16268
▁보는건지	-16269
▁봤던영화	-16270
▁봤을때는	-16271
▁부분들이	-16272
▁부족함이	-16273
▁불법체류	-16274
▁블루레이	-16275
▁비교된다	-16276
▁비디오용	-16277
▁사라지는	-16278
▁사람에겐	-16279
▁생각되는	-16280
▁생각없는	-16281
▁설득력이	-16282
▁섹시하고	-16283
▁순간순간	-16284
▁순수하게	-16285
▁순수함이	-16286
▁슬펐어요	-16287
▁시간때우	-16288
▁시덥잖은	-16289
▁시시하고	-16290
▁시어머니	-16291
▁시작된다	-16292
▁신기하고	-16293
▁씁쓸하다	-16294
▁안무섭다	-16295
▁알고싶다	-16296
▁알수있다	-16297
▁어거지로	-16298
▁어느하나	-16299
▁어렷을때	-16300
▁어른들을	-16301
▁어우러져	-16302
▁여자애가	-16303
▁연기들이	-16304
▁영화군요	-16305
▁영화로만	-16306
▁올라갈때	-16307
▁올리비아	-16308
▁유치하지	-16309
▁이거밖에	-16310
▁이때부터	-16311
▁이영화도	-16312
▁이해안감	-16313
▁있었네요	-16314
▁있었다는	-16315
▁잘하시고	-16316
▁재밌더라	-16317
▁저버리지	-16318
▁전달하는	-16319
▁정신없는	-16320
▁정체성을	-16321
▁조연들의	-16322
▁종교적인	-16323
▁좋겠는데	-16324
▁중요하다	-16325
▁지루한건	-16326
▁질질끄는	-16327
▁추천하는	-16328
▁친구한테	-16329
▁코미디와	-16330
▁쿵푸팬더	-16331
▁평점으로	-16332
▁할수있는	-16333
뻔한스토리	-16334
영화보면서	-16335
재밌습니다	-16336
최고입니다	-16337
▁다섯손가락	-16338
▁다시보고싶	-16339
▁드라마지만	-16340
▁만들어놓고	-16341
▁만들어주는	-16342
▁무엇보다도	-16343
▁보고나서도	-16344
▁사람으로써	-16345
▁생각한다면	-16346
▁소름끼치게	-16347
▁시사회에서	-16348
▁일본영화가	-16349
▁재미없어도	-16350
▁중반까지는	-16351
▁카리스마가	-16352
▁테러리스트	-16353
▁한국영화를	-16354
▁한국영화에	-16355
▁한국영화중	-16356
▁기대이상으로	-16357
▁보게되었는데	-16358
▁어처구니없는	-16359
▁킬링타임으로	-16360
▁흥미진진하다	-16361
00000000	-16362
ᅲᅲᅲᅲᅲᅲᅲᅲᅲᅲᅲᅲᅲᅲᅲᅲ	-16363
▁ᄏᄏᄏᄏᄏᄏᄏᄏᄏᄏᄏᄏᄏᄏᄏ	-16364
-)	-16365
.<	-16366
~♡	-16367
▁@	-16368
▁괘	-16369
▁깬	-16370
▁딜	-16371
▁밨	-16372
▁뻑	-16373
▁삘	-16374
▁쌀	-16375
▁썅	-16376
▁씻	-16377
▁젬	-16378
▁쩜	-16379
▁큼	-16380
▁탔	-16381
▁톤	-16382
▁휼	-16383
강력	-16384
거가	-16385
거고	-16386
것과	-16387
고의	-16388
공을	-16389
과거	-16390
관의	-16391
광이	-16392
그로	-16393
끈다	-16394
끈한	-16395
나은	-16396
날뻔	-16397
넬로	-16398
노소	-16399
다섯	-16400
단계	-16401
당함	-16402
더가	-16403
될지	-16404
두환	-16405
듣는	-16406
들게	-16407
따로	-16408
라며	-16409
란드	-16410
람쥐	-16411
렴풋	-16412
로움	-16413
리냐	-16414
리리	-16415
림의	-16416
망신	-16417
목을	-16418
묘사	-16419
무한	-16420
미지	-16421
버젼	-16422
법을	-16423
벗고	-16424
베일	-16425
보려	-16426
보인	-16427
봣던	-16428
불편	-16429
비씨	-16430
산을	-16431
생긴	-16432
서를	-16433
서사	-16434
세연	-16435
세영	-16436
세의	-16437
시코	-16438
아닙	-16439
안볼	-16440
애의	-16441
에의	-16442
여왕	-16443
열에	-16444
였죠	-16445
예모	-16446
오를	-16447
올림	-16448
용을	-16449
우며	-16450
으루	-16451
이정	-16452
이치	-16453
재석	-16454
저의	-16455
정아	-16456
조치	-16457
지좀	-16458
진모	-16459
질뻔	-16460
짧은	-16461
채영	-16462
천히	-16463
치며	-16464
태어	-16465
토의	-16466
통을	-16467
툭튀	-16468
파일	-16469
폭탄	-16470
표절	-16471
한숨	-16472
향을	-16473
호크	-16474
흑흑	-16475
흘러	-16476
ᄒᄃᄃ	-16477
▁SM	-16478
▁ch	-16479
▁on	-16480
▁갈망	-16481
▁강동	-16482
▁강수	-16483
▁갖는	-16484
▁같애	-16485
▁걸고	-16486
▁공동	-16487
▁교감	-16488
▁구석	-16489
▁기름	-16490
▁김두	-16491
▁김준	-16492
▁꾸며	-16493
▁나게	-16494
▁너의	-16495
▁넘나	-16496
▁년이	-16497
▁놀랬	-16498
▁높여	-16499
▁느려	-16500
▁늦은	-16501
▁니미	-16502
▁닮아	-16503
▁답습	-16504
▁답을	-16505
▁대로	-16506
▁대세	-16507
▁더해	-16508
▁돈에	-16509
▁동경	-16510
▁되네	-16511
▁될지	-16512
▁등을	-16513
▁디게	-16514
▁딴거	-16515
▁루이	-16516
▁면을	-16517
▁몇명	-16518
▁모리	-16519
▁모지	-16520
▁목을	-16521
▁못잡	-16522
▁무당	-16523
▁무모	-16524
▁무자	-16525
▁묵직	-16526
▁뭘본	-16527
▁밍밍	-16528
▁반의	-16529
▁백번	-16530
▁비약	-16531
▁빠졌	-16532
▁사연	-16533
▁사운	-16534
▁상쾌	-16535
▁생길	-16536
▁서지	-16537
▁세기	-16538
▁솔찍	-16539
▁수단	-16540
▁식당	-16541
▁신발	-16542
▁아포	-16543
▁안할	-16544
▁안함	-16545
▁애쓰	-16546
▁애쓴	-16547
▁없죠	-16548
▁여긴	-16549
▁오정	-16550
▁오죽	-16551
▁올인	-16552
▁울음	-16553
▁위기	-16554
▁유준	-16555
▁유희	-16556
▁윤재	-16557
▁윤진	-16558
▁이브	-16559
▁일도	-16560
▁자녀	-16561
▁자매	-16562
▁자폐	-16563
▁잡다	-16564
▁장담	-16565
▁재활	-16566
▁잼게	-16567
▁적인	-16568
▁전용	-16569
▁조미	-16570
▁조악	-16571
▁좁은	-16572
▁종말	-16573
▁주려	-16574
▁주민	-16575
▁죽임	-16576
▁줬어	-16577
▁지연	-16578
▁지쳐	-16579
▁직원	-16580
▁짐작	-16581
▁집안	-16582
▁쫓아	-16583
▁찐한	-16584
▁차기	-16585
▁청소	-16586
▁축하	-16587
▁치중	-16588
▁캡틴	-16589
▁킬빌	-16590
▁타워	-16591
▁톡톡	-16592
▁퇴마	-16593
▁틀에	-16594
▁편향	-16595
▁포커	-16596
▁한층	-16597
▁함축	-16598
▁허우	-16599
▁형이	-16600
▁홍경	-16601
▁후후	-16602
▁훌쩍	-16603
▁휼륭	-16604
가야지	-16605
가에서	-16606
같다는	-16607
거같은	-16608
것들은	-16609
겟지만	-16610
관계를	-16611
괜찮은	-16612
귀여운	-16613
귀엽다	-16614
그래요	-16615
기대를	-16616
나왔다	-16617
났네요	-16618
는지는	-16619
다시는	-16620
대단한	-16621
더라는	-16622
도좋고	-16623
되다니	-16624
들처럼	-16625
라고는	-16626
라는건	-16627
랐는데	-16628
머리가	-16629
박자가	-16630
배우는	-16631
보기로	-16632
보여서	-16633
부리는	-16634
부에서	-16635
분까지	-16636
살면서	-16637
시간의	-16638
시하는	-16639
아프고	-16640
애들도	-16641
었다니	-16642
었으나	-16643
오그라	-16644
유치한	-16645
을정도	-16646
이구만	-16647
이예요	-16648
주의의	-16649
진부한	-16650
짜증남	-16651
짱짱맨	-16652
편이랑	-16653
프스키	-16654
하는걸	-16655
해버린	-16656
했어야	-16657
OOOO	-16658
zzzz	-16659
▁1~2	-16660
▁^-^	-16661
▁^^*	-16662
▁bgm	-16663
▁not	-16664
▁가볍지	-16665
▁가족들	-16666
▁가족에	-16667
▁갈리는	-16668
▁감독에	-16669
▁감정과	-16670
▁강우석	-16671
▁개고생	-16672
▁개허접	-16673
▁거의다	-16674
▁걸작을	-16675
▁결말로	-16676
▁결말의	-16677
▁결혼을	-16678
▁경험이	-16679
▁굿바이	-16680
▁귀엽게	-16681
▁그런게	-16682
▁그림도	-16683
▁그보다	-16684
▁그사람	-16685
▁기묘한	-16686
▁김정은	-16687
▁김창완	-16688
▁꺼버린	-16689
▁나탈리	-16690
▁남아요	-16691
▁느껴야	-16692
▁달라서	-16693
▁담아내	-16694
▁데이트	-16695
▁된장녀	-16696
▁따라올	-16697
▁마디로	-16698
▁만든듯	-16699
▁말기를	-16700
▁말하기	-16701
▁망했다	-16702
▁맞먹는	-16703
▁모두의	-16704
▁몰입할	-16705
▁몸매가	-16706
▁못알아	-16707
▁무고한	-16708
▁무능력	-16709
▁무슨죄	-16710
▁문제다	-16711
▁뭐이런	-16712
▁뭔지도	-16713
▁바치는	-16714
▁발전을	-16715
▁배슬기	-16716
▁배역이	-16717
▁범죄를	-16718
▁보려면	-16719
▁복수는	-16720
▁본인은	-16721
▁볼때는	-16722
▁봤건만	-16723
▁불면증	-16724
▁브로디	-16725
▁비극을	-16726
▁비운의	-16727
▁비참한	-16728
▁설레고	-16729
▁속으로	-16730
▁스러운	-16731
▁아프게	-16732
▁안되냐	-16733
▁알면서	-16734
▁알았지	-16735
▁알지만	-16736
▁애니의	-16737
▁어렴풋	-16738
▁어른을	-16739
▁여진구	-16740
▁영웅이	-16741
▁영환지	-16742
▁예술로	-16743
▁오마쥬	-16744
▁올해의	-16745
▁욕망을	-16746
▁울트라	-16747
▁웅장한	-16748
▁유익한	-16749
▁이렇지	-16750
▁이보단	-16751
▁이상형	-16752
▁이어서	-16753
▁이지만	-16754
▁일본을	-16755
▁있을지	-16756
▁있음을	-16757
▁자격이	-16758
▁자체다	-16759
▁잘하시	-16760
▁재미에	-16761
▁저렴한	-16762
▁절실히	-16763
▁정서가	-16764
▁정준호	-16765
▁정체가	-16766
▁정확한	-16767
▁조인성	-16768
▁존쿠삭	-16769
▁존트라	-16770
▁종교를	-16771
▁지금에	-16772
▁지르고	-16773
▁진부함	-16774
▁진실된	-16775
▁짜증을	-16776
▁짱짱짱	-16777
▁찝찝함	-16778
▁채민서	-16779
▁최고야	-16780
▁최악인	-16781
▁치밀어	-16782
▁케로로	-16783
▁키드먼	-16784
▁토마스	-16785
▁팬이라	-16786
▁포스트	-16787
▁피노키	-16788
▁필요도	-16789
▁하는짓	-16790
▁하여튼	-16791
▁현재를	-16792
▁형제의	-16793
▁호흡이	-16794
▁희생을	-16795
▁히스레	-16796
▁힘들듯	-16797
나오는데	-16798
드라마다	-16799
명작이다	-16800
수준이다	-16801
시리즈의	-16802
영화라니	-16803
왜이렇게	-16804
유치하고	-16805
입장에서	-16806
지지않는	-16807
해보이는	-16808
해야하는	-16809
?....	-16810
▁1990	-16811
▁1998	-16812
▁1999	-16813
▁9~10	-16814
▁ᅮᅮᅮᅮ	-16815
▁가슴속에	-16816
▁거기다가	-16817
▁견자단이	-16818
▁골때리는	-16819
▁공간에서	-16820
▁관객들을	-16821
▁괜찮다고	-16822
▁괜찮을듯	-16823
▁그랬지만	-16824
▁그이하도	-16825
▁깊이있는	-16826
▁꾸역꾸역	-16827
▁끝났으면	-16828
▁나오겠지	-16829
▁나한테는	-16830
▁너무한거	-16831
▁담백하게	-16832
▁답답하게	-16833
▁대리만족	-16834
▁대부분이	-16835
▁돈아깝고	-16836
▁동생이랑	-16837
▁되었어요	-16838
▁되었으면	-16839
▁두번이나	-16840
▁들었어요	-16841
▁떨어져서	-16842
▁마녀사냥	-16843
▁말해준다	-16844
▁맘에든다	-16845
▁맞지않는	-16846
▁머리속에	-16847
▁모습에서	-16848
▁모자이크	-16849
▁무서워요	-16850
▁미화시킨	-16851
▁보셨으면	-16852
▁보여지는	-16853
▁비슷하다	-16854
▁비슷해서	-16855
▁빠짐없이	-16856
▁서정적인	-16857
▁수준으로	-16858
▁슈퍼액션	-16859
▁신선했고	-16860
▁쓰잘데기	-16861
▁아쉬웠던	-16862
▁아주그냥	-16863
▁않았어요	-16864
▁액션씬은	-16865
▁야한장면	-16866
▁어렸을땐	-16867
▁어색하지	-16868
▁연쇄살인	-16869
▁영화라도	-16870
▁영화사에	-16871
▁영화제작	-16872
▁예고편을	-16873
▁오리지날	-16874
▁원한다면	-16875
▁위대하다	-16876
▁이것밖에	-16877
▁이렇게나	-16878
▁이번에도	-16879
▁이제그만	-16880
▁인간들의	-16881
▁인피니트	-16882
▁일어나서	-16883
▁자신에게	-16884
▁작품성도	-16885
▁잔인하다	-16886
▁재밋던데	-16887
▁제작진은	-16888
▁좋은작품	-16889
▁주구장창	-16890
▁중간까지	-16891
▁중학생때	-16892
▁지나가는	-16893
▁지루한데	-16894
▁촌스럽다	-16895
▁최악으로	-16896
▁치밀하고	-16897
▁친구에게	-16898
▁팬으로서	-16899
▁평점조작	-16900
▁하는영화	-16901
▁행복하다	-16902
감동적이다	-16903
본영화중에	-16904
이런영화를	-16905
▁결정적으로	-16906
▁그로테스크	-16907
▁기대되네요	-16908
▁마지막에는	-16909
▁보고싶어서	-16910
▁볼수있어서	-16911
▁스티븐시걸	-16912
▁쓰레기통에	-16913
▁아기자기한	-16914
▁아니었는데	-16915
▁아름다워요	-16916
▁액션영화가	-16917
▁연기때문에	-16918
▁연기력으로	-16919
▁영화인가요	-16920
▁영화임에도	-16921
▁유치하다고	-16922
▁인상깊었던	-16923
▁전달하려는	-16924
▁짜증나네요	-16925
▁찾아봤는데	-16926
▁최악이네요	-16927
▁허무맹랑한	-16928
▁흘러나오는	-16929
▁보고있습니다	-16930
▁기대하고봤는데	-16931
▁처음부터끝까지	-16932
▁~~~~~~~~	-16933
▁시간가는줄모르고	-16934
!!!!!!!!!!!!!!	-16935
)/	-16936
2.	-16937
?(	-16938
PD	-16939
bl	-16940
ke	-16941
ᄅᄅ	-16942
▁“	-16943
▁깃	-16944
▁꼼	-16945
▁뱉	-16946
▁쎄	-16947
▁쑤	-16948
▁씩	-16949
▁엣	-16950
▁즈	-16951
▁짭	-16952
▁쯧	-16953
▁쳤	-16954
▁칙	-16955
▁틸	-16956
▁펠	-16957
▁햄	-16958
가까	-16959
감만	-16960
강의	-16961
걸륜	-16962
것네	-16963
겄다	-16964
곡이	-16965
광록	-16966
궁창	-16967
그럴	-16968
글구	-16969
기본	-16970
꼬박	-16971
꿈을	-16972
날듯	-16973
니는	-16974
다나	-16975
다행	-16976
데드	-16977
되기	-16978
듣기	-16979
디아	-16980
련다	-16981
로소	-16982
리자	-16983
마무	-16984
마부	-16985
맞게	-16986
먹먹	-16987
모독	-16988
민씨	-16989
반의	-16990
본능	-16991
본데	-16992
볼걸	-16993
부른	-16994
부짖	-16995
분쯤	-16996
빙빙	-16997
살의	-16998
성만	-16999
성재	-17000
성형	-17001
세끼	-17002
소라	-17003
슬펐	-17004
시시	-17005
십쇼	-17006
싱어	-17007
악당	-17008
안감	-17009
안한	-17010
애는	-17011
앵글	-17012
어제	-17013
었군	-17014
연결	-17015
오와	-17016
올드	-17017
와닿	-17018
와우	-17019
왕의	-17020
왕자	-17021
우를	-17022
우우	-17023
으실	-17024
이병	-17025
이쁜	-17026
이서	-17027
인터	-17028
자한	-17029
조리	-17030
조심	-17031
조작	-17032
존스	-17033
좋을	-17034
주냐	-17035
죽이	-17036
준비	-17037
진웅	-17038
질로	-17039
쨌든	-17040
칼립	-17041
컨셉	-17042
크에	-17043
키드	-17044
태를	-17045
테고	-17046
통해	-17047
튼의	-17048
티나	-17049
티의	-17050
평해	-17051
풍경	-17052
프라	-17053
피언	-17054
하심	-17055
학대	-17056
할말	-17057
혹한	-17058
ang	-17059
ime	-17060
ive	-17061
▁94	-17062
▁It	-17063
▁Th	-17064
▁up	-17065
▁we	-17066
▁가려	-17067
▁가질	-17068
▁강남	-17069
▁개미	-17070
▁개척	-17071
▁거참	-17072
▁거칠	-17073
▁걷는	-17074
▁걸려	-17075
▁검사	-17076
▁고난	-17077
▁곤란	-17078
▁과도	-17079
▁관찰	-17080
▁괴기	-17081
▁괴리	-17082
▁교양	-17083
▁구구	-17084
▁구린	-17085
▁길어	-17086
▁김아	-17087
▁남았	-17088
▁눈시	-17089
▁늙어	-17090
▁다다	-17091
▁다뤄	-17092
▁다뤘	-17093
▁다코	-17094
▁대니	-17095
▁덮어	-17096
▁땜시	-17097
▁떠들	-17098
▁똥꼬	-17099
▁많았	-17100
▁말것	-17101
▁말론	-17102
▁맑은	-17103
▁망침	-17104
▁모범	-17105
▁목표	-17106
▁무명	-17107
▁무신	-17108
▁물결	-17109
▁미지	-17110
▁민간	-17111
▁반미	-17112
▁받쳐	-17113
▁배낀	-17114
▁법을	-17115
▁보낸	-17116
▁보삼	-17117
▁붕괴	-17118
▁빌린	-17119
▁산뜻	-17120
▁삼천	-17121
▁상승	-17122
▁선한	-17123
▁세뇌	-17124
▁수상	-17125
▁수천	-17126
▁스웨	-17127
▁스쳐	-17128
▁슬슬	-17129
▁심함	-17130
▁쓰래	-17131
▁쓸모	-17132
▁아낌	-17133
▁아트	-17134
▁안재	-17135
▁애청	-17136
▁엇갈	-17137
▁에단	-17138
▁에혀	-17139
▁여인	-17140
▁열어	-17141
▁오른	-17142
▁오컬	-17143
▁올림	-17144
▁왤캐	-17145
▁울림	-17146
▁울뻔	-17147
▁유우	-17148
▁유인	-17149
▁유진	-17150
▁은희	-17151
▁음란	-17152
▁이면	-17153
▁이빨	-17154
▁입에	-17155
▁입이	-17156
▁잡탕	-17157
▁잤음	-17158
▁장군	-17159
▁장수	-17160
▁잼이	-17161
▁저랑	-17162
▁정권	-17163
▁정지	-17164
▁제격	-17165
▁제길	-17166
▁제인	-17167
▁종이	-17168
▁주요	-17169
▁주위	-17170
▁지긋	-17171
▁지역	-17172
▁진다	-17173
▁찬란	-17174
▁책읽	-17175
▁처리	-17176
▁춤추	-17177
▁취권	-17178
▁치킨	-17179
▁클릭	-17180
▁팬들	-17181
▁푹빠	-17182
▁하길	-17183
▁할것	-17184
▁헌신	-17185
▁황진	-17186
▁회복	-17187
같은건	-17188
개드림	-17189
거같네	-17190
거기다	-17191
게없다	-17192
구성이	-17193
기면서	-17194
나가고	-17195
더이다	-17196
됐으면	-17197
되지만	-17198
들여서	-17199
레쉬맨	-17200
레스트	-17201
레이터	-17202
렸다는	-17203
말인지	-17204
모든게	-17205
베이터	-17206
셨는데	-17207
시디어	-17208
심하게	-17209
아쉬운	-17210
안본다	-17211
얘기가	-17212
어디가	-17213
어설픈	-17214
어지고	-17215
얼굴이	-17216
에비해	-17217
였을까	-17218
영화만	-17219
영화지	-17220
으리라	-17221
음에도	-17222
이나는	-17223
익스피	-17224
인에게	-17225
잘만든	-17226
전문가	-17227
통으로	-17228
투성이	-17229
페이스	-17230
하겠네	-17231
해보는	-17232
했던거	-17233
했으니	-17234
화까지	-17235
1000	-17236
^^;;	-17237
reat	-17238
▁bor	-17239
▁cgv	-17240
▁top	-17241
▁가문의	-17242
▁감동먹	-17243
▁감정은	-17244
▁같은거	-17245
▁거시기	-17246
▁건가요	-17247
▁겁나게	-17248
▁것같다	-17249
▁결과가	-17250
▁경험을	-17251
▁고민을	-17252
▁고질라	-17253
▁공감대	-17254
▁교훈은	-17255
▁그것뿐	-17256
▁그놈의	-17257
▁그리움	-17258
▁그토록	-17259
▁기준이	-17260
▁길거리	-17261
▁김옥빈	-17262
▁김윤석	-17263
▁깎아내	-17264
▁꼴보기	-17265
▁끝가지	-17266
▁나오긴	-17267
▁난잡한	-17268
▁남자인	-17269
▁내일이	-17270
▁노출은	-17271
▁놀라게	-17272
▁눈물은	-17273
▁다른데	-17274
▁다섯개	-17275
▁다음날	-17276
▁다이빙	-17277
▁다큐는	-17278
▁담담한	-17279
▁답없다	-17280
▁덤으로	-17281
▁동물의	-17282
▁됐어요	-17283
▁되었던	-17284
▁두말할	-17285
▁따지면	-17286
▁똑같네	-17287
▁루즈한	-17288
▁류승룡	-17289
▁마모루	-17290
▁만나면	-17291
▁만들자	-17292
▁말던가	-17293
▁말라고	-17294
▁맘에들	-17295
▁망하는	-17296
▁매끄럽	-17297
▁모르면	-17298
▁못보는	-17299
▁못했음	-17300
▁문소리	-17301
▁문화적	-17302
▁미화한	-17303
▁밑바닥	-17304
▁배역을	-17305
▁배우나	-17306
▁별론데	-17307
▁보는지	-17308
▁본거지	-17309
▁본인의	-17310
▁봐야될	-17311
▁봣어요	-17312
▁비교를	-17313
▁사람에	-17314
▁삶이란	-17315
▁새끼들	-17316
▁생기는	-17317
▁서인국	-17318
▁성룡은	-17319
▁성우들	-17320
▁세계가	-17321
▁숭고한	-17322
▁스릴과	-17323
▁스토커	-17324
▁슬펐던	-17325
▁시작해	-17326
▁싫어요	-17327
▁싱거운	-17328
▁아니란	-17329
▁아빠를	-17330
▁안나온	-17331
▁안나와	-17332
▁앉아서	-17333
▁알았어	-17334
▁암유발	-17335
▁애정이	-17336
▁야하다	-17337
▁없군요	-17338
▁없었나	-17339
▁없을것	-17340
▁엉망이	-17341
▁여기선	-17342
▁역겨워	-17343
▁역사가	-17344
▁연극을	-17345
▁열정과	-17346
▁옛날엔	-17347
▁욕나올	-17348
▁유승준	-17349
▁음모론	-17350
▁의도로	-17351
▁의리로	-17352
▁이름은	-17353
▁인간과	-17354
▁있었을	-17355
▁재미짐	-17356
▁적당함	-17357
▁전개로	-17358
▁전기세	-17359
▁전하는	-17360
▁절묘한	-17361
▁제작자	-17362
▁좀비가	-17363
▁좋던데	-17364
▁주연급	-17365
▁죽겠다	-17366
▁집중을	-17367
▁짜맞춘	-17368
▁짠하다	-17369
▁쪽바리	-17370
▁차이를	-17371
▁착하고	-17372
▁초대박	-17373
▁초딩용	-17374
▁최강희	-17375
▁추억은	-17376
▁친구의	-17377
▁케서방	-17378
▁크레이	-17379
▁타임머	-17380
▁톱스타	-17381
▁편집도	-17382
▁편집을	-17383
▁평점과	-17384
▁평점높	-17385
▁표현의	-17386
▁풍경이	-17387
▁하겠다	-17388
▁하우스	-17389
▁할려고	-17390
▁허니잼	-17391
▁현실적	-17392
▁화나는	-17393
같습니다	-17394
다시한번	-17395
들때문에	-17396
등장인물	-17397
때문인지	-17398
사부일체	-17399
스트레스	-17400
재미있어	-17401
줄알았음	-17402
지는영화	-17403
편보다는	-17404
하겠는데	-17405
▁가족들과	-17406
▁감독이다	-17407
▁공감하고	-17408
▁관객들의	-17409
▁그려냈다	-17410
▁기억으로	-17411
▁깜짝깜짝	-17412
▁나옵니다	-17413
▁난잡하고	-17414
▁내용없는	-17415
▁냉정하게	-17416
▁노력하는	-17417
▁단편영화	-17418
▁데려다가	-17419
▁돈아까운	-17420
▁동성애를	-17421
▁떨어졌다	-17422
▁또하나의	-17423
▁뛰어나고	-17424
▁로맨스는	-17425
▁리암니슨	-17426
▁만들던가	-17427
▁만들려면	-17428
▁매력있다	-17429
▁멋있어서	-17430
▁모르겠는	-17431
▁몰입감도	-17432
▁보기전에	-17433
▁보다보니	-17434
▁보여주기	-17435
▁부담없이	-17436
▁부족했던	-17437
▁분들에게	-17438
▁불쌍하고	-17439
▁비교해서	-17440
▁사랑이다	-17441
▁살아가고	-17442
▁상태에서	-17443
▁생각났다	-17444
▁선사하는	-17445
▁성지순례	-17446
▁소소하고	-17447
▁시시하다	-17448
▁시청자들	-17449
▁아니구나	-17450
▁아니였다	-17451
▁아니자나	-17452
▁아쉬울뿐	-17453
▁아주아주	-17454
▁알려지지	-17455
▁알았어요	-17456
▁야한영화	-17457
▁연예인이	-17458
▁연출까지	-17459
▁영화보기	-17460
▁영화였던	-17461
▁영화이고	-17462
▁예상대로	-17463
▁요소들이	-17464
▁이게무슨	-17465
▁이영화로	-17466
▁일깨워준	-17467
▁있는거지	-17468
▁자연스레	-17469
▁장난치는	-17470
▁장면에선	-17471
▁재밌는거	-17472
▁전설적인	-17473
▁전작보다	-17474
▁전해지는	-17475
▁전혀없는	-17476
▁존재하지	-17477
▁줄거리만	-17478
▁짜증나요	-17479
▁챙겨보는	-17480
▁추억으로	-17481
▁필요없이	-17482
▁하면서도	-17483
▁한국애니	-17484
▁한국전쟁	-17485
▁한마디만	-17486
▁할말없다	-17487
▁후속작이	-17488
영화중하나	-17489
이런영화는	-17490
재미있네요	-17491
재밌는영화	-17492
점주고싶다	-17493
ᅲᅲᅲᅲᅲᅲ	-17494
▁가슴아프고	-17495
▁감동이었다	-17496
▁기본적으로	-17497
▁느낌이었다	-17498
▁만들어버린	-17499
▁만들었다고	-17500
▁몇번을봐도	-17501
▁반지의제왕	-17502
▁별로였는데	-17503
▁별로였어요	-17504
▁사람들에겐	-17505
▁생각이든다	-17506
▁생각하면서	-17507
▁쓰레기라는	-17508
▁연기자들이	-17509
▁우리나라도	-17510
▁이런영화도	-17511
▁이해안되는	-17512
▁자랑스럽다	-17513
▁재밌게봤던	-17514
▁잼있었어요	-17515
▁키아누리브	-17516
▁하나입니다	-17517
재미있었어요	-17518
▁다시보고싶다	-17519
▁뭐하자는건지	-17520
▁보고싶어지는	-17521
▁쓰레기영화는	-17522
▁애니메이션의	-17523
▁마지막장면에서	-17524
▁좋은영화입니다	-17525
!!!!!!!!!!	-17526
????????????????	-17527
).	-17528
,4	-17529
-1	-17530
UT	-17531
VE	-17532
ol	-17533
ri	-17534
~4	-17535
ᄌᄒ	-17536
▁긁	-17537
▁깐	-17538
▁놨	-17539
▁닫	-17540
▁릴	-17541
▁므	-17542
▁뱃	-17543
▁뱅	-17544
▁뻐	-17545
▁엥	-17546
▁옜	-17547
▁퀼	-17548
거려	-17549
고가	-17550
국에	-17551
그룹	-17552
나입	-17553
남고	-17554
낼수	-17555
녀는	-17556
단한	-17557
담이	-17558
답지	-17559
당께	-17560
대소	-17561
댄다	-17562
독특	-17563
량한	-17564
력의	-17565
르면	-17566
름이	-17567
리니	-17568
마조	-17569
말라	-17570
망생	-17571
머가	-17572
먹지	-17573
멋짐	-17574
멍청	-17575
모드	-17576
미나	-17577
미치	-17578
밀라	-17579
바르	-17580
바엔	-17581
반대	-17582
방학	-17583
밴드	-17584
벌레	-17585
범인	-17586
베르	-17587
베스	-17588
변태	-17589
별반	-17590
볼땐	-17591
부끄	-17592
부여	-17593
브이	-17594
새키	-17595
색히	-17596
서가	-17597
세로	-17598
섹시	-17599
션스	-17600
소수	-17601
송이	-17602
수리	-17603
스넌	-17604
시리	-17605
신혜	-17606
씨엔	-17607
아비	-17608
어게	-17609
어릴	-17610
어에	-17611
언젠	-17612
업이	-17613
역활	-17614
연속	-17615
오면	-17616
왔음	-17617
움직	-17618
유럽	-17619
은채	-17620
이이	-17621
일로	-17622
잇어	-17623
자매	-17624
잘함	-17625
잡아	-17626
잭슨	-17627
적을	-17628
전한	-17629
점씩	-17630
점인	-17631
종을	-17632
좋네	-17633
중근	-17634
중심	-17635
짱나	-17636
찌질	-17637
차를	-17638
찮게	-17639
처드	-17640
초도	-17641
출한	-17642
캐릭	-17643
커녕	-17644
코를	-17645
크레	-17646
투더	-17647
튀는	-17648
특수	-17649
티를	-17650
프의	-17651
하노	-17652
하에	-17653
한부	-17654
헤헤	-17655
호구	-17656
호와	-17657
호흡	-17658
화의	-17659
환경	-17660
..'	-17661
?!!	-17662
ess	-17663
ith	-17664
~~♥	-17665
▁4,	-17666
▁NO	-17667
▁가네	-17668
▁감격	-17669
▁거라	-17670
▁겉만	-17671
▁견뎌	-17672
▁결여	-17673
▁계기	-17674
▁고아	-17675
▁광주	-17676
▁구식	-17677
▁굴러	-17678
▁그곳	-17679
▁그릇	-17680
▁근대	-17681
▁글래	-17682
▁기생	-17683
▁김유	-17684
▁김청	-17685
▁꼬맹	-17686
▁나약	-17687
▁나치	-17688
▁낚여	-17689
▁너를	-17690
▁네이	-17691
▁노트	-17692
▁눈도	-17693
▁능청	-17694
▁다짐	-17695
▁닭살	-17696
▁도는	-17697
▁됐지	-17698
▁되려	-17699
▁됬다	-17700
▁때우	-17701
▁마시	-17702
▁마인	-17703
▁막막	-17704
▁맛은	-17705
▁매길	-17706
▁목사	-17707
▁미셸	-17708
▁바꿨	-17709
▁바비	-17710
▁박재	-17711
▁반면	-17712
▁받지	-17713
▁버젼	-17714
▁벅차	-17715
▁변질	-17716
▁보냈	-17717
▁복귀	-17718
▁복싱	-17719
▁볼일	-17720
▁부풀	-17721
▁분류	-17722
▁뷰티	-17723
▁비됴	-17724
▁비춰	-17725
▁사업	-17726
▁사촌	-17727
▁상을	-17728
▁서동	-17729
▁성기	-17730
▁스튜	-17731
▁시놉	-17732
▁시퀀	-17733
▁식겁	-17734
▁써서	-17735
▁안정	-17736
▁애인	-17737
▁얼음	-17738
▁여럿	-17739
▁여우	-17740
▁온통	-17741
▁올린	-17742
▁왜캐	-17743
▁요한	-17744
▁운지	-17745
▁원더	-17746
▁위협	-17747
▁이뭐	-17748
▁이분	-17749
▁이서	-17750
▁이안	-17751
▁이입	-17752
▁일대	-17753
▁입체	-17754
▁자이	-17755
▁잘되	-17756
▁잠자	-17757
▁장사	-17758
▁재조	-17759
▁잼난	-17760
▁잼남	-17761
▁전원	-17762
▁정선	-17763
▁졸린	-17764
▁죄가	-17765
▁주신	-17766
▁지은	-17767
▁지친	-17768
▁직쏘	-17769
▁진작	-17770
▁차가	-17771
▁창문	-17772
▁통일	-17773
▁퇴폐	-17774
▁특색	-17775
▁핀처	-17776
▁했냐	-17777
▁허비	-17778
▁환영	-17779
▁힛걸	-17780
감독을	-17781
결론은	-17782
고있는	-17783
기때문	-17784
김기덕	-17785
끝나서	-17786
나중에	-17787
났지만	-17788
눈물을	-17789
더니만	-17790
도저히	-17791
됐어요	-17792
랬는데	-17793
력으로	-17794
로맨틱	-17795
리가라	-17796
만이쁨	-17797
말도안	-17798
말하는	-17799
매력이	-17800
버렸어	-17801
보비치	-17802
봤을땐	-17803
분보다	-17804
상과학	-17805
순수한	-17806
싶었다	-17807
쓰래기	-17808
아이를	-17809
알바가	-17810
어진다	-17811
었기에	-17812
엔딩이	-17813
여기서	-17814
여주는	-17815
영화란	-17816
오면서	-17817
워싱턴	-17818
원으로	-17819
의미로	-17820
이니깐	-17821
이상의	-17822
인거지	-17823
입니당	-17824
있구나	-17825
있었음	-17826
있으니	-17827
있을때	-17828
자리에	-17829
장면에	-17830
잼있다	-17831
점밖에	-17832
주의가	-17833
지르고	-17834
추억이	-17835
치지만	-17836
콘서트	-17837
터지고	-17838
팬인데	-17839
하게도	-17840
하니깐	-17841
한테도	-17842
합니당	-17843
▁-.-	-17844
▁You	-17845
▁^^;	-17846
▁갈등과	-17847
▁개웃김	-17848
▁거장의	-17849
▁겨울에	-17850
▁경찰은	-17851
▁고현정	-17852
▁공산당	-17853
▁관련된	-17854
▁구분이	-17855
▁궁금함	-17856
▁귀신은	-17857
▁그랬어	-17858
▁그영화	-17859
▁긴박한	-17860
▁나라면	-17861
▁나와요	-17862
▁나타나	-17863
▁낫네요	-17864
▁낮은듯	-17865
▁내용만	-17866
▁노력을	-17867
▁놀랬다	-17868
▁눈부신	-17869
▁느껴진	-17870
▁다르고	-17871
▁다르지	-17872
▁다른게	-17873
▁다큐의	-17874
▁대화가	-17875
▁돌리고	-17876
▁되야지	-17877
▁되었고	-17878
▁드라큐	-17879
▁드러난	-17880
▁들으면	-17881
▁들지만	-17882
▁떄문에	-17883
▁떠나지	-17884
▁떠오르	-17885
▁러셀크	-17886
▁로빈윌	-17887
▁류승완	-17888
▁만나게	-17889
▁만났다	-17890
▁만들엇	-17891
▁만으로	-17892
▁많은듯	-17893
▁맘대로	-17894
▁멍하니	-17895
▁멜깁슨	-17896
▁모호한	-17897
▁몰라요	-17898
▁묘사한	-17899
▁무심코	-17900
▁바꿔서	-17901
▁바이블	-17902
▁박현지	-17903
▁방송에	-17904
▁방어율	-17905
▁변하는	-17906
▁변화가	-17907
▁보지는	-17908
▁부모의	-17909
▁분들도	-17910
▁불친절	-17911
▁비교적	-17912
▁빠진다	-17913
▁뻔하지	-17914
▁사랑한	-17915
▁상어가	-17916
▁상처가	-17917
▁상큼한	-17918
▁서세원	-17919
▁선택이	-17920
▁성동일	-17921
▁소방관	-17922
▁솔찍히	-17923
▁수작을	-17924
▁수준에	-17925
▁수준임	-17926
▁순간의	-17927
▁시기에	-17928
▁신경을	-17929
▁아내가	-17930
▁아이엠	-17931
▁않으며	-17932
▁알바냐	-17933
▁애국심	-17934
▁어려움	-17935
▁어른도	-17936
▁억지가	-17937
▁에리카	-17938
▁여운은	-17939
▁여지껏	-17940
▁영혼의	-17941
▁영화ᄏ	-17942
▁영화니	-17943
▁영화엔	-17944
▁옆에서	-17945
▁예술이	-17946
▁오늘날	-17947
▁오묘한	-17948
▁와중에	-17949
▁요근래	-17950
▁요소도	-17951
▁용기가	-17952
▁우스꽝	-17953
▁울다가	-17954
▁울부짖	-17955
▁웃기게	-17956
▁웨슬리	-17957
▁유승호	-17958
▁유튜브	-17959
▁유행어	-17960
▁윤계상	-17961
▁윤은혜	-17962
▁이나라	-17963
▁이상이	-17964
▁이세상	-17965
▁인생과	-17966
▁입에서	-17967
▁있으신	-17968
▁자다가	-17969
▁장예모	-17970
▁장점을	-17971
▁재밋엇	-17972
▁잼있네	-17973
▁전투씬	-17974
▁조금도	-17975
▁조지클	-17976
▁종류의	-17977
▁좋겠네	-17978
▁좋아도	-17979
▁죄없는	-17980
▁주말의	-17981
▁주연을	-17982
▁죽어야	-17983
▁죽음에	-17984
▁중국인	-17985
▁중국판	-17986
▁중년의	-17987
▁지린다	-17988
▁추천할	-17989
▁크로우	-17990
▁클레이	-17991
▁타인의	-17992
▁태권도	-17993
▁티라노	-17994
▁파리의	-17995
▁파이널	-17996
▁판치는	-17997
▁페이스	-17998
▁편견이	-17999
▁표한다	-18000
▁풍경과	-18001
▁하나경	-18002
▁하던지	-18003
▁한니발	-18004
▁한이다	-18005
▁한참을	-18006
▁할텐데	-18007
▁화이트	-18008
▁후회가	-18009
▁후회안	-18010
▁흘렀다	-18011
▁흥미도	-18012
그나저나	-18013
긴장감도	-18014
디에이터	-18015
보여주고	-18016
분보다가	-18017
선생님이	-18018
아쉽지만	-18019
어이없음	-18020
었던영화	-18021
여자들이	-18022
영화보는	-18023
으로서의	-18024
이야말로	-18025
적이어서	-18026
지루했다	-18027
하기위해	-18028
한거같다	-18029
할때마다	-18030
흥미진진	-18031
....!	-18032
▁가능성을	-18033
▁가물가물	-18034
▁감동있는	-18035
▁같았는데	-18036
▁같았어요	-18037
▁개봉한지	-18038
▁견자단의	-18039
▁공상과학	-18040
▁구로사와	-18041
▁국내에서	-18042
▁깨달음을	-18043
▁나왔어요	-18044
▁느와르의	-18045
▁늘어지고	-18046
▁다봤는데	-18047
▁단언컨데	-18048
▁동방불패	-18049
▁또보고싶	-18050
▁막장이다	-18051
▁만든거냐	-18052
▁만들었니	-18053
▁만점짜리	-18054
▁만화같은	-18055
▁망작이다	-18056
▁망쳐놓은	-18057
▁매력적임	-18058
▁멍청하고	-18059
▁못하네요	-18060
▁못하는게	-18061
▁무서웠던	-18062
▁미국영화	-18063
▁밀려온다	-18064
▁발연기는	-18065
▁방식으로	-18066
▁보고싶지	-18067
▁복잡하고	-18068
▁불과하다	-18069
▁불쾌하고	-18070
▁사실이다	-18071
▁상상력에	-18072
▁상영시간	-18073
▁서바이벌	-18074
▁섹시하다	-18075
▁순수했던	-18076
▁숨어있는	-18077
▁스펙터클	-18078
▁시사하는	-18079
▁싱크로율	-18080
▁싸이코패	-18081
▁쓰레기라	-18082
▁쓰레기에	-18083
▁아까웠음	-18084
▁아오이유	-18085
▁아프네요	-18086
▁안나지만	-18087
▁애들영화	-18088
▁어딜봐서	-18089
▁영화구나	-18090
▁영화내용	-18091
▁영화여서	-18092
▁영화이긴	-18093
▁예쁘네요	-18094
▁오다기리	-18095
▁우롱하는	-18096
▁우주전쟁	-18097
▁울컥했다	-18098
▁유발하는	-18099
▁음악영화	-18100
▁이제까지	-18101
▁자극적이	-18102
▁자리에서	-18103
▁자신들의	-18104
▁장난으로	-18105
▁장면으로	-18106
▁재미라도	-18107
▁재미있었	-18108
▁전반적인	-18109
▁정신없고	-18110
▁정신이상	-18111
▁제작진의	-18112
▁좋았을듯	-18113
▁죽어가는	-18114
▁즐거웠던	-18115
▁지날수록	-18116
▁지니어스	-18117
▁지루하긴	-18118
▁지저분한	-18119
▁집착하는	-18120
▁찾아보니	-18121
▁처절하게	-18122
▁최악이네	-18123
▁추구하는	-18124
▁친구들과	-18125
▁코믹요소	-18126
▁코엔형제	-18127
▁트라우마	-18128
▁펼쳐지는	-18129
▁풀어내는	-18130
▁함께하는	-18131
▁행복했다	-18132
▁호기심에	-18133
너무좋아요	-18134
되었습니다	-18135
말도안되는	-18136
하나하나가	-18137
▁거듭할수록	-18138
▁기대했지만	-18139
▁또보고싶다	-18140
▁리얼리티가	-18141
▁만들었다는	-18142
▁매력적으로	-18143
▁무서운영화	-18144
▁보러갔는데	-18145
▁보여주는데	-18146
▁봐야겠어요	-18147
▁사람에게는	-18148
▁사실적이고	-18149
▁수작이라고	-18150
▁스크린에서	-18151
▁아니올시다	-18152
▁에피소드가	-18153
▁여러가지로	-18154
▁영화치고는	-18155
▁의학드라마	-18156
▁작품이네요	-18157
▁장난아니다	-18158
▁재밌긴한데	-18159
▁죄송하지만	-18160
▁지금에서야	-18161
▁지루하다는	-18162
▁지루했지만	-18163
▁카타르시스	-18164
▁행복합니다	-18165
▁훈훈해지는	-18166
▁흥미로웠다	-18167
재밌게봤는데	-18168
▁다운받았는데	-18169
▁드라마였어요	-18170
▁등장인물들의	-18171
▁마지막장면은	-18172
▁비현실적이고	-18173
▁시간때우기용	-18174
▁여자주인공이	-18175
▁감동이었습니다	-18176
▁드라마였습니다	-18177
-_	-18178
.♥	-18179
/2	-18180
ia	-18181
▁z	-18182
▁ᅩ	-18183
▁닳	-18184
▁됫	-18185
▁딥	-18186
▁셔	-18187
▁씌	-18188
▁앜	-18189
▁얹	-18190
▁윗	-18191
▁죤	-18192
▁켈	-18193
▁켜	-18194
▁텐	-18195
▁템	-18196
▁튼	-18197
▁핏	-18198
간데	-18199
것임	-18200
겨우	-18201
겨워	-18202
겨진	-18203
계가	-18204
공연	-18205
구마	-18206
국제	-18207
기간	-18208
기게	-18209
기며	-18210
길동	-18211
끼들	-18212
낚시	-18213
난감	-18214
놈에	-18215
누님	-18216
니를	-18217
니와	-18218
닐때	-18219
님도	-18220
다크	-18221
단체	-18222
담한	-18223
답고	-18224
던게	-18225
두리	-18226
드에	-18227
드와	-18228
등의	-18229
란도	-18230
러드	-18231
렇지	-18232
레비	-18233
렸고	-18234
루치	-18235
마져	-18236
만약	-18237
말곤	-18238
말의	-18239
말자	-18240
맛을	-18241
매매	-18242
머프	-18243
민주	-18244
박자	-18245
반성	-18246
버가	-18247
버거	-18248
번의	-18249
보아	-18250
북한	-18251
삼아	-18252
생에	-18253
설수	-18254
세주	-18255
셔도	-18256
수술	-18257
쉬튼	-18258
시끄	-18259
쓰나	-18260
쓰렉	-18261
아동	-18262
아류	-18263
안될	-18264
야마	-18265
에노	-18266
역대	-18267
온나	-18268
왜이	-18269
용의	-18270
우슬	-18271
은게	-18272
인양	-18273
임은	-18274
작렬	-18275
장과	-18276
재림	-18277
잼잇	-18278
적도	-18279
전화	-18280
정과	-18281
정권	-18282
정돈	-18283
정부	-18284
조로	-18285
쥔공	-18286
지리	-18287
지션	-18288
질주	-18289
짜로	-18290
찾는	-18291
쳐라	-18292
코는	-18293
크릿	-18294
타가	-18295
테랑	-18296
포먼	-18297
품달	-18298
하랴	-18299
형은	-18300
혹시	-18301
화된	-18302
환을	-18303
흔한	-18304
히다	-18305
히로	-18306
..(	-18307
.;;	-18308
199	-18309
OOD	-18310
way	-18311
~90	-18312
▁87	-18313
▁92	-18314
▁im	-18315
▁tr	-18316
▁~!	-18317
▁간에	-18318
▁갇혀	-18319
▁강도	-18320
▁강아	-18321
▁겪은	-18322
▁견줄	-18323
▁계몽	-18324
▁계신	-18325
▁고대	-18326
▁고사	-18327
▁공영	-18328
▁과제	-18329
▁교수	-18330
▁구속	-18331
▁구해	-18332
▁권총	-18333
▁그날	-18334
▁극적	-18335
▁글쓰	-18336
▁금발	-18337
▁기부	-18338
▁김병	-18339
▁김우	-18340
▁김진	-18341
▁깨고	-18342
▁꼬박	-18343
▁끝맺	-18344
▁나갔	-18345
▁낚일	-18346
▁남길	-18347
▁내린	-18348
▁내보	-18349
▁노란	-18350
▁놀고	-18351
▁높을	-18352
▁눈알	-18353
▁눌러	-18354
▁대명	-18355
▁대상	-18356
▁도서	-18357
▁돈날	-18358
▁동급	-18359
▁된거	-18360
▁때매	-18361
▁때묻	-18362
▁똘끼	-18363
▁뜻을	-18364
▁레벨	-18365
▁만다	-18366
▁만원	-18367
▁많을	-18368
▁매춘	-18369
▁머라	-18370
▁명언	-18371
▁몽골	-18372
▁바랄	-18373
▁밖엔	-18374
▁벗는	-18375
▁병사	-18376
▁보상	-18377
▁부처	-18378
▁부천	-18379
▁비꼬	-18380
▁비웃	-18381
▁빠르	-18382
▁삼촌	-18383
▁생동	-18384
▁샤워	-18385
▁수위	-18386
▁수지	-18387
▁순식	-18388
▁쉴드	-18389
▁스키	-18390
▁스턴	-18391
▁스텔	-18392
▁시망	-18393
▁시점	-18394
▁실소	-18395
▁실천	-18396
▁심야	-18397
▁싸이	-18398
▁쓰다	-18399
▁쓰리	-18400
▁쓸때	-18401
▁아른	-18402
▁아청	-18403
▁애교	-18404
▁애도	-18405
▁애써	-18406
▁얘들	-18407
▁어장	-18408
▁엘렌	-18409
▁엠씨	-18410
▁연락	-18411
▁였음	-18412
▁옆집	-18413
▁예외	-18414
▁왕자	-18415
▁우웩	-18416
▁울궈	-18417
▁울린	-18418
▁원본	-18419
▁유감	-18420
▁유연	-18421
▁이불	-18422
▁이익	-18423
▁이장	-18424
▁이집	-18425
▁있기	-18426
▁자화	-18427
▁재생	-18428
▁잼께	-18429
▁잼슴	-18430
▁잼써	-18431
▁저럴	-18432
▁저를	-18433
▁적을	-18434
▁절규	-18435
▁제라	-18436
▁조장	-18437
▁조한	-18438
▁존예	-18439
▁존잘	-18440
▁졸음	-18441
▁좀만	-18442
▁죽게	-18443
▁죽었	-18444
▁중화	-18445
▁지브	-18446
▁지진	-18447
▁지킬	-18448
▁직설	-18449
▁쪼금	-18450
▁쭈욱	-18451
▁최상	-18452
▁추악	-18453
▁킹콩	-18454
▁터뜨	-18455
▁테론	-18456
▁토마	-18457
▁특정	-18458
▁틀을	-18459
▁판에	-18460
▁퍼시	-18461
▁평에	-18462
▁폐쇄	-18463
▁표출	-18464
▁풍부	-18465
▁프라	-18466
▁피를	-18467
▁피의	-18468
▁합격	-18469
▁허각	-18470
▁호모	-18471
▁황제	-18472
▁회를	-18473
▁후련	-18474
▁휘둘	-18475
▁휴대	-18476
▁흐흐	-18477
▁히든	-18478
감동과	-18479
감동의	-18480
감정을	-18481
같은게	-18482
거기에	-18483
게된다	-18484
겠지요	-18485
내리는	-18486
네ᄏᄏ	-18487
느라고	-18488
닼ᄏᄏ	-18489
대사도	-18490
대통령	-18491
덕화가	-18492
동영상	-18493
들에겐	-18494
릴려고	-18495
마이갓	-18496
만화가	-18497
멘터리	-18498
몇번을	-18499
몰입이	-18500
못했다	-18501
문화가	-18502
버리면	-18503
보기도	-18504
볼만함	-18505
브레이	-18506
쁩니다	-18507
상에서	-18508
상황에	-18509
생각도	-18510
생활을	-18511
소리를	-18512
수준을	-18513
스타뎀	-18514
시간만	-18515
시사회	-18516
시절이	-18517
시켜서	-18518
실제로	-18519
심지어	-18520
싶어요	-18521
아니냐	-18522
아빠가	-18523
아이는	-18524
안치고	-18525
았을까	-18526
액션의	-18527
어색한	-18528
어있는	-18529
었군요	-18530
여자를	-18531
외에는	-18532
웃기다	-18533
음악은	-18534
이나서	-18535
작가는	-18536
장르가	-18537
점대의	-18538
제라블	-18539
주제에	-18540
중요한	-18541
참고로	-18542
처음엔	-18543
치는데	-18544
플레이	-18545
할때는	-18546
할지도	-18547
해주면	-18548
행하는	-18549
화려한	-18550
////	-18551
100%	-18552
2014	-18553
▁1.2	-18554
▁10,	-18555
▁5~6	-18556
▁90%	-18557
▁BGM	-18558
▁are	-18559
▁가능성	-18560
▁가다가	-18561
▁가지가	-18562
▁간절히	-18563
▁감상평	-18564
▁갑툭튀	-18565
▁개노답	-18566
▁거리는	-18567
▁거품이	-18568
▁걸작이	-18569
▁게이는	-18570
▁고리타	-18571
▁고생한	-18572
▁고소영	-18573
▁고통과	-18574
▁과하다	-18575
▁관계에	-18576
▁관점이	-18577
▁교훈과	-18578
▁권하고	-18579
▁그때가	-18580
▁그랬음	-18581
▁그리는	-18582
▁기념비	-18583
▁기다린	-18584
▁긴장의	-18585
▁김민준	-18586
▁꼭한번	-18587
▁꽃미남	-18588
▁끊기는	-18589
▁끝나나	-18590
▁끝없는	-18591
▁나무랄	-18592
▁나처럼	-18593
▁남아서	-18594
▁남았던	-18595
▁낮은게	-18596
▁내평생	-18597
▁느낀건	-18598
▁다른걸	-18599
▁당할수	-18600
▁대만족	-18601
▁대상이	-18602
▁도입부	-18603
▁돌아와	-18604
▁동화를	-18605
▁동화책	-18606
▁되는게	-18607
▁두마리	-18608
▁들어갈	-18609
▁디지털	-18610
▁마인드	-18611
▁만드신	-18612
▁만든게	-18613
▁많았고	-18614
▁말로는	-18615
▁말코비	-18616
▁맘에듬	-18617
▁맘에안	-18618
▁맞는듯	-18619
▁맷데이	-18620
▁멜로물	-18621
▁뭐든지	-18622
▁미친놈	-18623
▁바라본	-18624
▁바람이	-18625
▁박한별	-18626
▁반했다	-18627
▁백프로	-18628
▁벗어난	-18629
▁보는걸	-18630
▁보는중	-18631
▁보여줘	-18632
▁보이나	-18633
▁본건지	-18634
▁봐서는	-18635
▁봤었지	-18636
▁부르고	-18637
▁부분만	-18638
[...]
