<pad>	0
<s>	0
</s>	0
<unk>	0
▁the	-3.00715
▁.	-3.22088
▁,	-3.24839
s	-3.42199
▁a	-3.87711
▁to	-3.89025
ed	-3.92077
▁of	-3.93668
▁in	-4.01556
▁and	-4.087
ing	-4.31507
▁s	-4.45603
▁	-4.69928
▁said	-4.87065
▁on	-4.88161
▁for	-4.96057
▁that	-4.98318
y	-5.01276
d	-5.15498
ly	-5.18253
▁is	-5.19884
▁was	-5.25751
▁with	-5.29241
▁be	-5.32297
▁it	-5.40864
▁he	-5.49484
▁at	-5.49969
▁an	-5.57596
▁from	-5.61288
▁by	-5.63098
▁as	-5.65887
▁has	-5.68781
▁his	-5.76174
▁have	-5.76316
▁are	-5.88236
▁but	-5.93673
e	-5.94055
▁were	-5.95619
▁will	-5.98581
▁not	-6.04339
▁who	-6.09301
▁after	-6.14811
▁u	-6.15127
▁had	-6.17962
▁been	-6.23723
▁they	-6.24758
▁this	-6.27475
▁their	-6.30481
▁people	-6.31559
▁t	-6.31972
▁year	-6.32117
▁i	-6.33163
▁about	-6.34042
▁more	-6.34661
n	-6.36877
▁its	-6.36883
▁two	-6.39263
▁new	-6.42605
▁we	-6.43186
t	-6.43438
▁which	-6.45816
▁one	-6.46463
▁her	-6.47931
▁president	-6.48907
▁up	-6.4969
▁korea	-6.51183
▁would	-6.51775
▁government	-6.5229
▁or	-6.54233
▁she	-6.57493
▁also	-6.59788
▁than	-6.61598
▁out	-6.62331
▁north	-6.62695
▁cnn	-6.67123
ies	-6.68357
▁over	-6.68905
▁last	-6.6925
▁police	-6.7034
▁when	-6.71771
▁first	-6.74818
▁south	-6.78955
▁there	-6.80413
▁other	-6.82212
▁into	-6.83599
▁some	-6.84068
r	-6.85221
▁us	-6.85332
▁all	-6.8611
▁no	-6.88845
er	-6.89848
▁time	-6.90184
a	-6.9097
▁told	-6.91317
▁1	-6.91974
▁al	-6.92499
▁world	-6.93336
es	-6.94201
an	-6.95187
l	-6.95985
ce	-6.97446
▁state	-6.99416
▁years	-7.0029
▁percent	-7.00504
▁you	-7.00543
▁can	-7.01775
▁000	-7.04354
▁korean	-7.05164
▁united	-7.05545
▁could	-7.05673
on	-7.06276
▁them	-7.06914
▁according	-7.07013
▁if	-7.07519
▁officials	-7.07858
▁three	-7.10892
▁country	-7.12182
▁monday	-7.12857
▁iraq	-7.13589
▁militar	-7.14588
▁tuesday	-7.14638
▁minister	-7.14863
▁party	-7.15719
ese	-7.17851
▁day	-7.18022
▁2	-7.18396
▁national	-7.18587
o	-7.19995
▁what	-7.20012
▁says	-7.20055
▁kill	-7.20479
▁old	-7.21696
▁week	-7.21873
▁million	-7.22513
▁him	-7.22961
▁wednesday	-7.235
▁like	-7.23577
▁states	-7.23978
▁obama	-7.24364
▁before	-7.24611
▁most	-7.25118
▁sunday	-7.25301
▁so	-7.267
▁since	-7.26721
▁japan	-7.27316
▁against	-7.27518
al	-7.29071
▁where	-7.29912
▁now	-7.30021
▁near	-7.30313
▁china	-7.30479
▁bush	-7.31356
▁down	-7.32012
▁dur	-7.32615
▁under	-7.33085
▁nuclear	-7.3445
cause	-7.34863
▁back	-7.35128
▁city	-7.36375
▁official	-7.36382
▁m	-7.364
▁thursday	-7.36455
▁off	-7.36524
▁say	-7.36757
▁former	-7.37999
▁re	-7.38026
▁may	-7.38479
▁nation	-7.38551
▁un	-7.39016
▁reported	-7.39065
▁just	-7.39589
▁whil	-7.39981
▁security	-7.40253
▁four	-7.40967
▁take	-7.41464
tween	-7.41542
▁house	-7.42154
ish	-7.42724
▁made	-7.42836
▁war	-7.43327
▁3	-7.43456
▁american	-7.44731
▁high	-7.46608
▁many	-7.47292
▁group	-7.47692
▁through	-7.48387
▁month	-7.4906
▁200	-7.49398
▁10	-7.50069
▁do	-7.51685
▁end	-7.5233
th	-7.52528
▁news	-7.52675
▁man	-7.53173
▁called	-7.5375
▁including	-7.5422
i	-7.54246
▁being	-7.54439
▁plan	-7.56088
▁statement	-7.56127
▁did	-7.56484
▁international	-7.57184
▁home	-7.57304
▁show	-7.57557
▁our	-7.58069
▁any	-7.58258
▁found	-7.59324
▁5	-7.59507
▁b	-7.60076
▁get	-7.60597
▁help	-7.60937
▁six	-7.62043
▁work	-7.63075
▁part	-7.64357
▁report	-7.64597
▁won	-7.66142
▁five	-7.66839
▁my	-7.6734
▁make	-7.67732
▁next	-7.67974
▁death	-7.68122
▁court	-7.68182
▁second	-7.68416
▁attack	-7.68689
▁still	-7.68842
▁go	-7.68846
hose	-7.69244
▁days	-7.69644
▁foreign	-7.69927
▁how	-7.70987
▁prime	-7.71127
▁long	-7.72372
▁reports	-7.72641
able	-7.72677
en	-7.73733
▁talks	-7.73899
in	-7.74063
▁4	-7.74633
▁troops	-7.74637
▁authorit	-7.75067
other	-7.75209
▁around	-7.75334
▁office	-7.75423
▁spokesm	-7.77513
▁leas	-7.77595
▁hour	-7.77827
▁want	-7.78023
▁recent	-7.78039
ther	-7.78446
▁6	-7.78949
▁come	-7.79992
▁set	-7.80301
▁seoul	-7.80503
▁arm	-7.80658
▁20	-7.80818
▁release	-7.80902
▁leader	-7.81203
▁top	-7.81666
▁clinton	-7.82035
▁ministry	-7.82049
▁way	-7.82756
▁see	-7.83165
▁site	-7.83707
ity	-7.83815
▁program	-7.83855
▁lead	-7.84264
▁support	-7.84673
▁place	-7.85262
▁company	-7.85282
▁public	-7.85285
▁n	-7.85394
▁close	-7.85642
▁washington	-7.85967
▁w	-7.86403
man	-7.86522
ion	-7.86984
▁agency	-7.87726
▁return	-7.87818
▁well	-7.87865
out	-7.87898
▁iraqi	-7.87908
c	-7.88309
▁presidential	-7.89146
▁brit	-7.89234
▁children	-7.89265
▁even	-7.89311
▁expected	-7.89329
▁look	-7.8944
▁billion	-7.90211
▁chief	-7.90302
▁press	-7.90456
▁bank	-7.90638
▁saying	-7.91114
▁know	-7.91372
▁should	-7.91614
▁forces	-7.91798
▁york	-7.92059
▁both	-7.92163
▁earlie	-7.92533
▁died	-7.9298
▁campaign	-7.93782
▁believe	-7.9397
▁political	-7.93986
▁saturday	-7.94205
▁arrest	-7.94455
very	-7.94546
▁early	-7.94736
▁friday	-7.95082
▁members	-7.95094
▁election	-7.95285
▁number	-7.95429
▁30	-7.95986
▁chin	-7.96216
est	-7.964
▁head	-7.96402
▁car	-7.96901
▁white	-7.97033
▁meeting	-7.97816
m	-7.97916
▁general	-7.98141
▁women	-7.98141
▁air	-7.98225
▁countries	-7.9827
▁democratic	-7.99211
▁fire	-7.9922
such	-7.99478
▁team	-7.99707
▁came	-7.99812
▁health	-8.00503
▁family	-8.0063
▁center	-8.00801
▁times	-8.00873
▁good	-8.01098
▁among	-8.01165
▁use	-8.01582
▁large	-8.01683
▁kim	-8.01813
▁claim	-8.01836
▁p	-8.01949
▁took	-8.02125
▁months	-8.02304
▁ask	-8.02621
▁power	-8.03197
▁going	-8.03875
▁think	-8.04075
▁much	-8.04845
▁economic	-8.0488
▁later	-8.0515
▁then	-8.05224
▁human	-8.05348
▁left	-8.05371
▁force	-8.05513
▁try	-8.0553
▁issue	-8.05884
▁night	-8.05906
▁life	-8.05953
▁name	-8.06316
▁visit	-8.06793
▁capital	-8.06948
▁face	-8.07279
▁move	-8.07788
▁john	-8.07798
▁ago	-8.07818
▁need	-8.08015
▁lee	-8.09095
▁8	-8.09542
ment	-8.09606
▁area	-8.10138
▁major	-8.10267
▁pakistan	-8.10312
ers	-8.10732
▁run	-8.11118
▁men	-8.1141
▁allow	-8.11648
▁turn	-8.12383
▁k	-8.12454
▁secretary	-8.12623
▁deal	-8.12845
▁iran	-8.13062
0	-8.13126
▁hit	-8.13212
▁19	-8.13422
st	-8.13568
▁same	-8.143
▁held	-8.14339
way	-8.15172
▁oil	-8.15396
▁me	-8.15475
▁own	-8.15509
▁severa	-8.16075
▁business	-8.16256
▁de	-8.16299
▁case	-8.16815
▁local	-8.16879
▁market	-8.16954
▁department	-8.17037
▁don	-8.17194
▁university	-8.17231
▁main	-8.17408
▁media	-8.17624
▁right	-8.17778
▁11	-8.18136
▁dead	-8.18599
▁record	-8.18609
▁appear	-8.18922
▁start	-8.18958
▁past	-8.19234
h	-8.19387
▁school	-8.19412
▁third	-8.19729
▁15	-8.19861
▁concern	-8.20051
▁militant	-8.20051
▁put	-8.20286
▁yesterday	-8.20373
▁these	-8.20526
▁call	-8.20669
▁half	-8.20772
▁win	-8.21149
▁law	-8.21158
▁few	-8.21188
▁today	-8.2145
▁london	-8.21512
▁candidate	-8.21839
▁opposition	-8.22006
▁vote	-8.22247
▁space	-8.2239
▁100	-8.22396
▁whe	-8.23061
land	-8.23136
▁leaders	-8.23283
▁50	-8.23538
▁clear	-8.23661
▁morning	-8.2385
le	-8.2447
▁economy	-8.24668
▁late	-8.24811
▁d	-8.24923
▁water	-8.25005
▁defense	-8.25176
▁roh	-8.25181
▁hospital	-8.2535
▁film	-8.25862
▁german	-8.26373
▁remain	-8.26435
▁your	-8.26551
▁financial	-8.26715
▁taliban	-8.26715
▁free	-8.26966
▁sign	-8.27047
ve	-8.27054
▁open	-8.27096
▁e	-8.27121
▁palestinian	-8.27406
▁per	-8.27686
▁workers	-8.28045
▁change	-8.2878
▁afghanistan	-8.29157
▁does	-8.29227
▁base	-8.29263
▁beijing	-8.29509
▁test	-8.29572
4	-8.29618
▁service	-8.29671
▁final	-8.3
▁rule	-8.30037
▁best	-8.30752
▁baghdad	-8.3076
▁money	-8.30849
▁eight	-8.3094
▁attacks	-8.31
▁administration	-8.31116
▁march	-8.31125
▁line	-8.31155
▁great	-8.31661
▁f	-8.31743
▁led	-8.31763
▁mccain	-8.32203
▁system	-8.32293
▁play	-8.32351
▁com	-8.32364
▁12	-8.3245
▁increase	-8.32567
▁already	-8.32751
▁small	-8.32751
▁video	-8.32887
▁along	-8.32958
ation	-8.3301
▁killing	-8.33107
▁strong	-8.33154
▁give	-8.3332
▁park	-8.33343
▁source	-8.33491
▁province	-8.33501
▁big	-8.33668
▁began	-8.33698
▁far	-8.33811
▁miles	-8.33962
▁central	-8.34512
▁announc	-8.34537
▁seven	-8.34597
▁bomb	-8.3468
2	-8.34859
▁thousand	-8.3497
5	-8.35034
▁decision	-8.35223
▁control	-8.35401
each	-8.35422
▁hope	-8.35983
▁current	-8.361
▁french	-8.36668
▁co	-8.3677
▁9	-8.3685
▁keep	-8.37234
▁conference	-8.3725
▁food	-8.37355
▁region	-8.37669
▁continue	-8.37682
▁web	-8.37998
▁trade	-8.37999
▁however	-8.38022
▁bill	-8.38061
▁operation	-8.38141
▁israeli	-8.38433
▁become	-8.38597
▁israel	-8.38696
▁cut	-8.38736
▁gas	-8.39089
▁post	-8.39417
across	-8.39445
▁station	-8.39447
▁southern	-8.3996
▁mak	-8.40309
▁consider	-8.40522
▁bas	-8.40577
▁fund	-8.40634
▁spokes	-8.40731
▁attempt	-8.40746
▁40	-8.40893
▁rights	-8.41226
▁woman	-8.41437
▁qa	-8.41506
▁ap	-8.41542
▁soldiers	-8.41599
▁european	-8.4161
▁information	-8.41753
▁global	-8.41817
▁sen	-8.42641
▁violen	-8.42662
▁agreement	-8.42925
▁others	-8.4303
▁25	-8.44115
▁injur	-8.44155
▁border	-8.44176
▁russia	-8.44415
▁director	-8.45224
▁east	-8.45227
yang	-8.45254
▁young	-8.45367
▁person	-8.45404
▁offer	-8.45434
▁town	-8.46006
▁star	-8.46266
▁here	-8.4653
▁cause	-8.4659
um	-8.46613
▁barack	-8.46669
▁condition	-8.47082
▁union	-8.47402
▁article	-8.47511
▁count	-8.47519
▁weapons	-8.47529
▁action	-8.47579
▁c	-8.47662
▁full	-8.47694
▁plann	-8.47899
▁weeks	-8.48337
▁internet	-8.48363
▁northern	-8.48582
▁live	-8.49046
▁peace	-8.49241
▁following	-8.49558
▁committee	-8.49674
▁prices	-8.49963
ic	-8.50323
▁students	-8.50426
▁every	-8.50452
▁britain	-8.50527
▁point	-8.50895
▁federal	-8.50959
▁added	-8.5099
▁rate	-8.51062
▁order	-8.51133
▁total	-8.51372
▁ve	-8.5138
▁california	-8.51624
▁short	-8.5199
▁republican	-8.52546
▁comment	-8.52548
▁hundred	-8.52651
▁might	-8.52736
▁never	-8.52974
▁launch	-8.52986
▁watch	-8.53038
▁grow	-8.53159
▁include	-8.5316
▁alleged	-8.53535
▁target	-8.54085
▁aid	-8.54521
▁pyong	-8.5454
▁outside	-8.54578
▁side	-8.5483
▁talk	-8.5498
▁immediate	-8.54995
▁research	-8.55113
▁key	-8.55329
▁congress	-8.55454
▁ahead	-8.55468
een	-8.55598
▁france	-8.55729
▁organization	-8.5592
▁22	-8.56065
▁must	-8.56195
▁emergency	-8.56402
▁18	-8.5657
▁199	-8.56845
▁game	-8.57335
▁went	-8.57438
▁little	-8.57554
▁find	-8.57716
▁investigation	-8.57932
▁member	-8.57988
▁cost	-8.57995
▁500	-8.58554
▁senior	-8.58721
▁anti	-8.58742
▁points	-8.58871
▁real	-8.59301
▁follow	-8.59336
▁body	-8.59374
▁hold	-8.59488
▁working	-8.59531
▁stock	-8.59612
te	-8.59675
▁accus	-8.59905
▁west	-8.60041
▁energy	-8.60162
▁2006	-8.60191
▁study	-8.60435
us	-8.60488
▁hard	-8.60572
▁january	-8.60637
▁newspaper	-8.60639
▁stop	-8.6087
▁companies	-8.60879
▁charges	-8.61175
▁question	-8.61182
▁possible	-8.61189
▁confirm	-8.61202
▁elections	-8.6125
▁speak	-8.61368
8	-8.614
▁crisis	-8.6161
▁race	-8.61959
▁involv	-8.61977
▁13	-8.6235
▁16	-8.62425
ry	-8.62432
▁got	-8.62456
▁reporters	-8.62456
▁again	-8.62549
▁age	-8.62576
▁building	-8.62908
▁share	-8.63011
▁russian	-8.63047
known	-8.63097
▁june	-8.63115
▁sea	-8.63222
▁14	-8.63608
▁council	-8.6376
▁search	-8.63832
▁ban	-8.641
▁previous	-8.64332
▁further	-8.64334
▁prosecutor	-8.64585
▁child	-8.64608
▁latest	-8.64648
▁airport	-8.64692
▁interview	-8.64764
▁england	-8.64836
raf	-8.65129
▁due	-8.65336
▁carry	-8.65642
▁red	-8.65681
▁tell	-8.65772
▁toward	-8.65792
▁meet	-8.65804
▁coast	-8.65947
1	-8.66194
eda	-8.66239
▁george	-8.66366
▁suicide	-8.66369
▁process	-8.6656
▁television	-8.66623
▁provide	-8.66687
▁pay	-8.66787
▁less	-8.66906
▁mean	-8.67009
▁travel	-8.67072
▁charge	-8.67074
▁america	-8.67216
▁judge	-8.67766
▁hyun	-8.6784
▁interest	-8.67925
▁weekend	-8.68172
▁medical	-8.68178
▁too	-8.68338
▁afghan	-8.68428
▁round	-8.68683
▁policy	-8.68934
▁hav	-8.6894
▁september	-8.68954
▁couple	-8.68966
▁lost	-8.69082
▁pass	-8.69217
▁list	-8.69235
▁future	-8.69259
▁minutes	-8.69413
▁damage	-8.69421
▁ever	-8.69472
self	-8.69639
▁bring	-8.69647
▁term	-8.6972
▁scientist	-8.69746
▁gaza	-8.70041
▁develop	-8.70137
▁storm	-8.70316
▁son	-8.70328
▁groups	-8.70511
▁tour	-8.70563
▁poll	-8.70644
▁efforts	-8.70715
▁demand	-8.70876
▁black	-8.71072
▁father	-8.71101
ness	-8.71317
▁level	-8.71385
▁mother	-8.71839
▁serious	-8.71888
▁ruling	-8.71891
taken	-8.71934
▁street	-8.71952
▁act	-8.72439
▁victory	-8.72491
▁wide	-8.72777
▁shot	-8.72835
▁musha	-8.72853
▁24	-8.72961
▁send	-8.72973
▁island	-8.7316
▁terrorist	-8.7334
▁executive	-8.73527
▁better	-8.73538
▁o	-8.73697
▁lawmaker	-8.74095
▁0	-8.74212
woman	-8.74228
▁break	-8.7462
coming	-8.74768
▁60	-8.74773
▁parliament	-8.74822
▁suggest	-8.74855
▁hostage	-8.74921
▁sent	-8.74984
▁goal	-8.7503
▁result	-8.75044
most	-8.75446
though	-8.75456
▁series	-8.75643
▁hotel	-8.75753
▁fuel	-8.75769
▁incident	-8.75981
▁sex	-8.75986
▁december	-8.76032
▁ju	-8.76121
▁hand	-8.76292
▁stay	-8.76314
▁strike	-8.76482
▁fall	-8.76549
hind	-8.76632
▁wounded	-8.76684
▁tv	-8.76768
▁missile	-8.76884
▁lot	-8.77102
▁communist	-8.77171
▁heart	-8.77199
cy	-8.77237
▁train	-8.77312
▁grand	-8.77548
▁europe	-8.77929
age	-8.77938
to	-8.782
▁direct	-8.78222
▁apri	-8.78288
▁western	-8.78316
▁elect	-8.78448
▁pro	-8.78529
▁inside	-8.78592
▁industry	-8.78604
▁enough	-8.78614
▁important	-8.78616
▁yet	-8.78641
▁flight	-8.78877
▁mission	-8.79186
▁ground	-8.79487
▁front	-8.79563
▁room	-8.79684
ous	-8.79742
▁plane	-8.79798
▁threaten	-8.79801
▁history	-8.80072
▁nine	-8.80078
▁really	-8.80216
▁vehicle	-8.80356
▁cell	-8.80385
▁wall	-8.80505
▁complete	-8.80522
▁seek	-8.80533
▁rice	-8.8096
▁estimate	-8.80999
ought	-8.812
▁prison	-8.81215
▁november	-8.81541
▁player	-8.81759
▁fighting	-8.81767
f	-8.81773
▁disease	-8.81839
▁wife	-8.81851
k	-8.8189
▁special	-8.81957
▁voter	-8.81977
3	-8.82085
▁asia	-8.82104
g	-8.82288
▁whose	-8.82375
son	-8.82399
▁amid	-8.82493
▁soon	-8.82589
▁david	-8.82741
▁given	-8.82773
▁protest	-8.83011
taking	-8.8302
u	-8.83126
▁august	-8.8365
▁private	-8.83653
▁cha	-8.8371
▁india	-8.83757
▁chairman	-8.83966
▁democrat	-8.83981
▁supporter	-8.84065
▁started	-8.84111
▁discuss	-8.84197
▁foot	-8.84305
▁different	-8.84574
▁san	-8.8462
▁job	-8.84721
ty	-8.84745
▁cross	-8.84784
▁role	-8.8483
▁crash	-8.85184
▁walk	-8.85195
▁season	-8.8528
▁ship	-8.85341
▁though	-8.85469
▁price	-8.85547
▁middle	-8.85804
▁animal	-8.86125
▁victims	-8.86161
vez	-8.86182
▁liv	-8.86495
▁associat	-8.86522
▁commission	-8.86634
▁problem	-8.86659
na	-8.86774
▁areas	-8.86932
▁join	-8.86954
▁exchange	-8.86997
▁light	-8.87038
▁district	-8.87055
▁evidence	-8.87055
▁situation	-8.87056
▁rebel	-8.87064
▁dozen	-8.87371
▁2005	-8.87459
▁protect	-8.87654
▁problems	-8.8777
▁gave	-8.88011
▁step	-8.88311
▁conduct	-8.88342
bc	-8.88405
▁boy	-8.88571
▁warn	-8.88615
▁movie	-8.88647
▁homes	-8.88697
▁february	-8.88963
▁mark	-8.8923
▁fail	-8.89262
▁am	-8.89389
▁board	-8.89468
▁met	-8.89554
▁resident	-8.89732
▁development	-8.8998
▁australia	-8.90082
▁bus	-8.90273
▁primar	-8.9055
▁risk	-8.90585
▁leave	-8.90604
▁road	-8.90902
▁gen	-8.90903
ntil	-8.91651
▁pressure	-8.91784
▁crew	-8.91901
▁fell	-8.91902
▁happen	-8.92074
▁church	-8.92234
▁negotiation	-8.92242
▁pakistani	-8.92383
▁lawyer	-8.92565
▁lower	-8.9267
▁bad	-8.92701
▁reach	-8.92758
▁21	-8.9287
▁trip	-8.93008
▁summit	-8.93226
▁senator	-8.93226
ally	-8.93315
▁los	-8.93351
▁october	-8.93562
less	-8.93729
▁results	-8.93737
▁tried	-8.9397
▁low	-8.94169
▁analyst	-8.94239
▁together	-8.94277
▁express	-8.94306
▁link	-8.9462
one	-8.94793
▁heavy	-8.94915
▁wanted	-8.95053
▁thought	-8.95053
▁address	-8.95141
▁passenger	-8.95257
wide	-8.95325
▁pull	-8.95485
▁speech	-8.95599
▁summer	-8.956
▁tokyo	-8.95603
▁rival	-8.95609
▁prevent	-8.95943
▁crowd	-8.95953
▁product	-8.96038
▁serve	-8.96103
▁let	-8.96226
▁something	-8.96645
▁vice	-8.96774
▁intelligen	-8.96796
▁relations	-8.97124
mar	-8.97347
▁paris	-8.97349
▁technology	-8.97361
▁2008	-8.97405
▁mid	-8.97533
6	-8.97539
▁loss	-8.97579
▁unti	-8.97627
▁illegal	-8.97679
▁florida	-8.9768
▁cup	-8.97694
▁crime	-8.97694
▁leban	-8.97713
▁position	-8.97716
▁phone	-8.97737
▁urg	-8.97777
▁land	-8.97796
▁ra	-8.97974
▁hamas	-8.98031
▁senate	-8.98032
▁daughter	-8.98059
▁inter	-8.98104
▁girl	-8.98354
▁attorney	-8.98382
▁request	-8.98382
▁brown	-8.98468
▁protesters	-8.98545
▁project	-8.9859
z	-8.98641
ary	-8.98667
▁missing	-8.98701
▁justice	-8.98742
▁attend	-8.98903
▁calls	-8.98983
▁fight	-8.98999
▁2003	-8.99153
▁releas	-8.99228
▁officer	-8.99423
▁coalition	-8.99446
▁muslim	-8.99446
▁gold	-8.99577
▁stage	-8.99648
▁award	-8.99715
▁games	-8.99719
▁league	-8.9984
▁focus	-8.99986
▁hong	-9.00181
▁ll	-9.00246
▁rise	-9.00295
biggest	-9.00317
▁online	-9.00352
▁sell	-9.00593
▁chance	-9.00607
▁quick	-9.00885
▁eastern	-9.00943
▁announce	-9.0098
▁approv	-9.01169
▁getting	-9.01284
▁growth	-9.01332
▁reached	-9.01439
▁markets	-9.01442
▁begin	-9.01598
▁battle	-9.01633
ard	-9.01665
▁23	-9.018
ive	-9.01874
▁fee	-9.01881
▁fan	-9.01941
p	-9.02014
▁pick	-9.02076
co	-9.02222
▁decided	-9.02243
▁needed	-9.02297
▁sarkozy	-9.02339
▁apparent	-9.02343
▁match	-9.02443
▁popular	-9.02712
▁olympic	-9.02807
▁saw	-9.02836
▁legal	-9.02853
▁survey	-9.0288
▁hillary	-9.03089
▁treat	-9.03097
▁officers	-9.03117
▁labor	-9.03119
by	-9.03386
▁j	-9.03388
▁moo	-9.03397
▁democrac	-9.03446
ri	-9.03533
▁buy	-9.03571
▁sentence	-9.03701
▁caus	-9.0373
▁scene	-9.03825
▁effort	-9.03935
▁jail	-9.04206
▁despi	-9.04246
▁blood	-9.04247
▁feel	-9.04383
▁love	-9.04469
▁kind	-9.04684
▁hill	-9.04765
▁thai	-9.05002
▁h	-9.05033
▁turkey	-9.05327
▁music	-9.05622
▁services	-9.05733
▁assembly	-9.05734
▁asian	-9.05816
came	-9.05907
side	-9.05924
ance	-9.0597
▁expect	-9.06112
▁seem	-9.0619
▁threat	-9.06255
▁credit	-9.06419
▁joint	-9.06646
▁destroy	-9.06655
▁network	-9.0667
▁cover	-9.06965
ism	-9.07084
▁stand	-9.07124
▁nomination	-9.07242
▁running	-9.07243
▁staff	-9.07339
▁letter	-9.07645
▁bid	-9.07692
▁australian	-9.07821
▁drug	-9.0789
▁issues	-9.08137
▁polls	-9.08202
▁population	-9.08396
▁deput	-9.08396
▁robert	-9.08508
▁form	-9.08666
▁koreans	-9.08699
▁larges	-9.08839
▁tax	-9.08944
▁quarter	-9.09185
▁image	-9.09235
▁beat	-9.09242
▁radio	-9.09325
ra	-9.09412
▁protests	-9.09422
▁blast	-9.0957
▁community	-9.09709
▁why	-9.10031
▁sales	-9.10106
▁experts	-9.10246
▁paul	-9.10318
▁texas	-9.10359
▁receiv	-9.10432
▁host	-9.10435
▁murder	-9.10628
▁safety	-9.10773
▁idea	-9.11062
▁embass	-9.1116
▁event	-9.11248
▁researcher	-9.11352
▁title	-9.1138
▁story	-9.11635
▁river	-9.11657
or	-9.11672
▁plant	-9.11893
▁book	-9.11914
▁field	-9.11928
▁royal	-9.11969
▁things	-9.11993
▁association	-9.11998
▁cit	-9.12051
▁higher	-9.12066
▁jobs	-9.12149
▁delay	-9.12381
▁civilians	-9.12386
▁r	-9.12402
▁daily	-9.12426
x	-9.12565
▁mov	-9.12638
▁safe	-9.12738
▁deep	-9.12746
▁camp	-9.12988
ton	-9.13005
▁opened	-9.13029
▁198	-9.1305
▁lives	-9.13108
▁rose	-9.1324
▁message	-9.13258
▁similar	-9.13591
▁earth	-9.13601
▁often	-9.13761
▁continued	-9.13806
▁identified	-9.13895
greed	-9.13976
▁debate	-9.14022
▁trial	-9.1403
▁computer	-9.14319
▁ceremon	-9.14416
▁appeal	-9.14419
▁average	-9.14567
▁governor	-9.14671
▁neighbor	-9.14828
▁husband	-9.14831
▁resolution	-9.14832
▁journalist	-9.14854
▁production	-9.14878
▁minute	-9.14945
▁airline	-9.15175
▁rais	-9.15346
▁aim	-9.15509
▁famili	-9.15657
▁initial	-9.15671
▁poor	-9.15674
▁fear	-9.15767
▁fact	-9.15839
▁iranian	-9.15905
▁king	-9.15961
▁delegates	-9.15982
▁care	-9.16055
▁africa	-9.16334
▁shooting	-9.16463
▁suffer	-9.16484
whil	-9.165
▁doing	-9.16682
▁moment	-9.16955
▁date	-9.17035
▁kong	-9.17099
▁contain	-9.17106
▁receive	-9.17163
▁investigator	-9.17406
▁wait	-9.17474
▁arriv	-9.17577
pent	-9.17604
▁sanction	-9.17792
▁300	-9.17927
▁firm	-9.18219
▁accident	-9.18275
▁tourist	-9.18311
▁ki	-9.186
▁michael	-9.18647
▁ordered	-9.18807
▁african	-9.18824
▁dr	-9.18833
▁burn	-9.19186
▁raise	-9.19392
▁involve	-9.1974
▁cat	-9.19775
▁parents	-9.19916
▁quot	-9.19937
▁increasing	-9.19949
▁transport	-9.1995
▁club	-9.19957
ways	-9.19982
▁dispute	-9.2
▁suspected	-9.20009
▁commander	-9.20171
▁certain	-9.20388
▁included	-9.20473
▁movement	-9.20486
▁islami	-9.20518
▁prince	-9.20724
nato	-9.20851
▁g	-9.2096
▁fired	-9.21039
▁difficult	-9.21045
hutto	-9.21126
▁details	-9.21323
▁present	-9.214
▁done	-9.21598
▁ambassador	-9.21715
▁rest	-9.21935
▁reform	-9.22154
▁education	-9.22215
▁manager	-9.22314
▁period	-9.22344
▁related	-9.22348
▁measures	-9.22461
▁matter	-9.22589
▁paper	-9.22653
▁sexual	-9.23077
▁wear	-9.23107
▁facilit	-9.23346
▁view	-9.23435
truck	-9.23466
▁gain	-9.2351
▁affair	-9.23513
▁english	-9.23513
▁afternoon	-9.23514
▁bodie	-9.23655
▁majorit	-9.23677
▁cars	-9.23768
▁kilometer	-9.23968
▁saudi	-9.23969
▁drive	-9.24068
▁ready	-9.2408
▁push	-9.24332
ung	-9.24391
▁accept	-9.24397
▁potential	-9.24425
▁professor	-9.24425
▁finish	-9.24491
▁detain	-9.24881
▁contact	-9.24884
▁account	-9.2492
▁draw	-9.24951
▁course	-9.24958
▁design	-9.2506
▁turk	-9.25152
▁opening	-9.25159
▁80	-9.25318
▁patient	-9.25374
hua	-9.25584
rought	-9.25736
▁rock	-9.25805
▁cabinet	-9.25807
▁brother	-9.2582
▁treatment	-9.25845
▁leav	-9.25858
▁access	-9.26003
▁contract	-9.26156
▁reject	-9.26233
▁suspend	-9.26272
▁holding	-9.26517
▁29	-9.2674
▁indian	-9.26889
▁th	-9.2693
▁block	-9.27217
▁sure	-9.27284
▁broadcast	-9.27366
▁huge	-9.27376
▁marine	-9.27566
▁rally	-9.27717
▁26	-9.27973
▁track	-9.27988
▁challenge	-9.28125
▁raid	-9.28204
▁announcement	-9.28216
▁spoke	-9.28281
re	-9.28298
▁broke	-9.28301
▁friend	-9.28318
▁civil	-9.28367
▁cases	-9.28408
▁rescue	-9.2863
▁conservative	-9.28631
▁limit	-9.28639
wood	-9.28641
▁doctors	-9.28655
▁played	-9.28663
▁interior	-9.28679
▁activities	-9.28702
▁deliver	-9.2893
za	-9.28931
▁square	-9.29114
▁availab	-9.29222
▁enter	-9.29268
stead	-9.29574
▁dow	-9.29817
uch	-9.29866
▁response	-9.30073
▁explosion	-9.30073
▁shows	-9.30315
▁common	-9.30441
▁streets	-9.30466
▁check	-9.30575
▁understand	-9.30621
▁forward	-9.30709
▁cities	-9.30726
▁hearing	-9.30772
▁means	-9.30784
▁critical	-9.3094
▁agree	-9.31022
▁progress	-9.31032
▁lift	-9.3109
▁create	-9.31102
▁village	-9.31298
ey	-9.31338
▁non	-9.31561
▁describ	-9.31645
▁separate	-9.31984
▁terror	-9.31998
▁illinois	-9.32029
▁session	-9.32029
▁actor	-9.32085
▁single	-9.32317
▁mexico	-9.32524
▁partie	-9.3253
▁probabl	-9.3261
▁rain	-9.32707
ler	-9.32959
▁peninsula	-9.33022
▁relationship	-9.33025
▁institute	-9.33039
▁data	-9.33047
▁31	-9.33192
ney	-9.33219
▁green	-9.33481
▁allegation	-9.33524
▁refus	-9.33902
▁spread	-9.33957
▁taiwan	-9.34024
▁vot	-9.34036
▁index	-9.34056
▁code	-9.34123
▁islam	-9.3435
▁fast	-9.34356
▁natural	-9.34458
▁success	-9.34505
▁female	-9.34529
▁nothing	-9.34548
▁prisoner	-9.3458
▁warning	-9.34834
geles	-9.34888
▁35	-9.34941
selves	-9.35003
▁criminal	-9.35037
▁chicago	-9.35037
▁virginia	-9.35055
▁investor	-9.35061
▁2001	-9.35144
▁insurgent	-9.35547
▁giant	-9.35551
▁nav	-9.35604
ial	-9.35655
ful	-9.35915
▁abo	-9.3593
▁actual	-9.36061
▁italian	-9.36067
▁rising	-9.36111
▁400	-9.36186
▁sun	-9.36193
▁fly	-9.3638
▁published	-9.36389
▁personal	-9.36408
▁l	-9.3648
▁helicopter	-9.36575
▁avoid	-9.36646
▁friends	-9.36773
▁secret	-9.36992
▁shiite	-9.37094
▁citizens	-9.37119
▁sold	-9.37263
▁eu	-9.37465
▁material	-9.37474
▁investigat	-9.37516
▁annual	-9.37565
▁schedule	-9.37587
▁trading	-9.37614
▁spending	-9.3765
▁decades	-9.37658
▁diplomatic	-9.37678
▁social	-9.37819
▁provid	-9.37973
▁discovered	-9.38037
▁investment	-9.38095
▁longer	-9.38124
▁particular	-9.38139
▁weather	-9.38156
▁italy	-9.38194
▁truck	-9.38219
▁injuries	-9.38425
▁90	-9.38516
▁thing	-9.38551
▁require	-9.3859
▁satellite	-9.38667
▁lack	-9.38676
▁winning	-9.38678
▁boat	-9.38706
▁guard	-9.38857
▁nominee	-9.39193
▁45	-9.39273
time	-9.39284
▁independent	-9.3934
▁pai	-9.39413
▁driv	-9.39435
▁size	-9.3959
▁experience	-9.39649
▁barrel	-9.39735
▁camera	-9.39778
gnp	-9.398
▁century	-9.39882
putin	-9.39923
▁sever	-9.40005
▁mail	-9.40058
giving	-9.40355
▁ran	-9.40375
▁adding	-9.40607
pain	-9.40624
▁employees	-9.40646
▁nasa	-9.4073
▁xin	-9.4081
▁blue	-9.40875
▁toll	-9.40923
▁additional	-9.40931
▁declar	-9.40973
▁color	-9.41012
▁visitor	-9.41059
▁smith	-9.41172
▁honor	-9.41293
9	-9.41319
▁28	-9.41398
▁operat	-9.41551
▁export	-9.41669
▁snow	-9.41847
▁range	-9.42157
▁mass	-9.4231
▁earthquake	-9.42428
▁science	-9.42471
▁espe	-9.42484
▁committ	-9.42565
▁parts	-9.4273
▁port	-9.42951
▁everything	-9.42979
▁construction	-9.42982
▁ice	-9.42983
cially	-9.43014
▁rare	-9.43019
▁zone	-9.43058
▁insist	-9.43068
▁flood	-9.43069
▁worth	-9.4309
▁moon	-9.43287
▁finding	-9.4332
ley	-9.43342
▁unit	-9.43482
▁jones	-9.43562
▁mayor	-9.43577
▁gather	-9.43904
▁value	-9.43969
▁slow	-9.43974
▁steps	-9.43977
▁supreme	-9.44088
▁peaceful	-9.44108
00	-9.44187
men	-9.44207
▁quit	-9.44296
▁wound	-9.44479
▁establish	-9.44549
▁occurr	-9.44688
▁voice	-9.4488
harry	-9.44893
▁dropp	-9.45059
▁refugee	-9.45076
▁meter	-9.4509
▁le	-9.45153
▁seat	-9.45201
▁anything	-9.45211
▁original	-9.45326
▁read	-9.45417
spite	-9.45515
▁la	-9.45591
▁deni	-9.45616
▁industrial	-9.45714
▁moscow	-9.45771
▁8212	-9.45771
▁carolina	-9.45771
▁standard	-9.45817
▁chung	-9.46068
▁pre	-9.46299
▁kar	-9.46301
▁contest	-9.46323
▁massive	-9.46355
kept	-9.4651
▁mountain	-9.46531
▁dollar	-9.46542
▁gun	-9.46619
responsible	-9.46743
▁represent	-9.46888
▁college	-9.46912
▁aircraft	-9.46921
▁speed	-9.46981
▁model	-9.47003
▁extend	-9.47009
bi	-9.47009
▁approach	-9.47098
▁peter	-9.47317
▁ben	-9.47373
▁build	-9.47383
▁ii	-9.47433
▁resign	-9.47463
▁normal	-9.47479
▁figure	-9.4748
▁condemn	-9.47485
▁maintain	-9.47485
▁attention	-9.47487
▁jump	-9.4749
▁activist	-9.47491
▁defeat	-9.47494
▁engineer	-9.47734
▁reactor	-9.4807
▁schedul	-9.48105
▁shut	-9.48126
▁questions	-9.48168
▁command	-9.48228
▁born	-9.48271
▁driver	-9.4829
▁student	-9.48327
▁store	-9.48476
▁produc	-9.48555
▁regard	-9.48645
▁alliance	-9.48648
▁brain	-9.48653
▁opportunit	-9.48674
▁terroris	-9.48936
▁dollars	-9.49025
aught	-9.49184
▁cancer	-9.49243
▁significant	-9.4926
▁evening	-9.49288
▁convicted	-9.49349
▁suspect	-9.49472
▁fighter	-9.49547
▁remains	-9.49596
▁super	-9.497
▁tibet	-9.4972
▁pacifi	-9.49818
el	-9.49888
▁promise	-9.50113
▁criticiz	-9.50197
▁produce	-9.50215
▁independen	-9.50255
oft	-9.50346
▁monitor	-9.5041
▁usual	-9.50417
▁shin	-9.50564
▁hands	-9.50629
ar	-9.50764
ritten	-9.50926
▁uk	-9.51099
▁wors	-9.5127
▁training	-9.51372
▁indonesia	-9.51429
▁museum	-9.51607
▁guilt	-9.51633
▁society	-9.51681
▁rich	-9.51729
▁admitted	-9.51776
▁class	-9.51909
▁customer	-9.5192
▁schools	-9.52178
▁marriage	-9.52206
▁prompt	-9.52206
▁envoy	-9.52206
▁discussion	-9.52331
▁hurt	-9.52334
▁severe	-9.5242
▁banks	-9.52708
▁whom	-9.52765
▁prosecution	-9.52815
▁beginning	-9.52819
▁environmental	-9.52829
▁remarks	-9.52906
▁pennsylvania	-9.53188
▁sale	-9.53258
▁il	-9.53343
▁management	-9.53434
rote	-9.5344
▁bridge	-9.5349
▁millions	-9.53585
▁abbas	-9.53596
▁angel	-9.53833
▁review	-9.53931
▁heard	-9.53956
▁levels	-9.5399
▁conflict	-9.54036
▁device	-9.54041
▁baby	-9.54081
▁song	-9.54125
ia	-9.54132
▁canno	-9.54214
▁dae	-9.54268
▁double	-9.54313
▁suspects	-9.54323
▁fill	-9.54347
▁effect	-9.54507
▁critic	-9.5455
ble	-9.54599
▁ohio	-9.54653
▁prize	-9.54688
▁fair	-9.547
▁ex	-9.54899
▁32	-9.55026
▁chang	-9.55031
▁author	-9.55112
▁custody	-9.55274
▁performance	-9.55283
▁impact	-9.55286
▁leadership	-9.55305
▁fine	-9.5541
▁decline	-9.55481
▁factor	-9.55523
▁st	-9.5558
▁resume	-9.55639
▁consumer	-9.55834
▁bin	-9.55917
▁drink	-9.55947
▁intend	-9.56051
▁reason	-9.56173
▁blame	-9.5626
▁import	-9.56386
▁screen	-9.5647
▁mo	-9.56473
up	-9.56476
▁drop	-9.5649
▁holiday	-9.56528
▁parliamentar	-9.56714
▁forest	-9.56884
tan	-9.56931
▁georgia	-9.56981
▁electric	-9.57046
▁combat	-9.57164
▁communication	-9.57165
rt	-9.57166
▁finance	-9.57192
▁buildings	-9.57194
▁everyone	-9.57211
▁pledge	-9.57262
▁micros	-9.57327
▁repeated	-9.57589
▁changes	-9.57626
▁republic	-9.577
▁civilian	-9.57775
▁sharp	-9.58235
▁buil	-9.5838
▁criticism	-9.58449
▁tak	-9.58495
▁aide	-9.5856
▁sound	-9.58764
▁environment	-9.5886
▁regime	-9.58862
▁traffic	-9.58887
▁boost	-9.58985
▁brief	-9.59054
▁opinion	-9.59084
▁mosque	-9.59084
▁territor	-9.59095
▁word	-9.59176
▁sides	-9.59267
▁score	-9.59319
▁fish	-9.59327
▁career	-9.59328
ni	-9.59329
▁commercial	-9.59433
▁constitution	-9.59525
▁save	-9.59682
▁scandal	-9.59733
ever	-9.60042
▁bak	-9.60103
▁allies	-9.60339
▁specific	-9.60364
▁adopt	-9.60381
▁corruption	-9.6039
▁recover	-9.6039
▁uri	-9.60442
▁regional	-9.60625
▁associate	-9.60882
▁ball	-9.60939
▁formal	-9.61003
▁climate	-9.61047
▁panel	-9.61052
▁spanish	-9.61054
▁james	-9.61059
▁fifth	-9.61061
▁traditional	-9.61277
▁seats	-9.61524
▁olympics	-9.61526
▁route	-9.61544
▁documents	-9.61694
▁negotiator	-9.61722
▁answer	-9.61723
▁surgery	-9.61757
tp	-9.61778
▁reduce	-9.61789
▁surprise	-9.61969
▁colombia	-9.622
▁language	-9.62373
▁difference	-9.62374
▁quake	-9.62374
▁bombing	-9.62381
▁created	-9.62414
▁proposal	-9.62426
▁penalt	-9.62429
▁numbers	-9.62536
ur	-9.62566
▁failure	-9.63046
▁ba	-9.63091
▁tree	-9.6314
▁hop	-9.63176
▁mind	-9.63276
▁na	-9.63279
▁ky	-9.63333
▁wave	-9.63708
▁domestic	-9.6372
▁complex	-9.6372
▁fresh	-9.63721
▁apple	-9.63725
▁mobile	-9.63754
▁telephone	-9.63804
▁fac	-9.63893
▁richard	-9.63962
▁corp	-9.63963
▁polic	-9.64001
responsibility	-9.64094
▁makes	-9.64163
▁owner	-9.6431
▁beach	-9.64323
▁reveal	-9.64401
▁coach	-9.64405
▁shuttle	-9.64407
▁disaster	-9.64411
▁events	-9.64452
▁francis	-9.64508
▁girls	-9.64528
▁ko	-9.64608
▁bit	-9.64766
▁violent	-9.64916
▁profit	-9.65086
▁dangerous	-9.65097
▁compar	-9.65115
▁agent	-9.65128
abe	-9.65166
▁holly	-9.6518
▁queen	-9.6518
▁hu	-9.65235
▁nor	-9.65282
▁figures	-9.65498
▁gates	-9.65507
▁itself	-9.65566
▁describe	-9.65623
▁astronaut	-9.65775
▁recall	-9.65775
▁assault	-9.65775
▁sleep	-9.65835
▁option	-9.65847
▁protection	-9.65858
▁exist	-9.65876
ory	-9.66243
▁addition	-9.66298
▁individual	-9.66469
▁supply	-9.66478
▁mug	-9.66481
▁cho	-9.665
▁possibilit	-9.66503
▁flights	-9.66523
▁myung	-9.66543
▁carrie	-9.67034
▁miss	-9.67059
▁withdraw	-9.671
▁accuse	-9.67146
▁positive	-9.67169
▁neighborhood	-9.67173
▁shown	-9.67174
▁cash	-9.67185
▁powerful	-9.67213
▁page	-9.67301
ine	-9.67463
▁controll	-9.67532
▁sunni	-9.67536
▁stopped	-9.67567
▁planet	-9.6787
▁showing	-9.67922
▁package	-9.6795
▁arab	-9.6798
▁improve	-9.68023
▁cap	-9.6816
▁affected	-9.68297
▁self	-9.6834
▁amount	-9.68376
▁magazine	-9.68582
▁trigger	-9.68582
▁vow	-9.68597
▁touch	-9.68679
▁ht	-9.68947
▁measure	-9.69035
well	-9.69122
▁necessary	-9.69389
▁trouble	-9.69615
▁tie	-9.69735
▁respond	-9.69747
▁resolve	-9.69804
▁premier	-9.69933
▁carri	-9.69976
▁brazil	-9.7001
▁headquarter	-9.70016
▁rocket	-9.70048
▁arrive	-9.7007
▁jong	-9.70078
▁adviser	-9.70111
▁replace	-9.70131
ng	-9.70156
▁mil	-9.70204
▁piece	-9.70249
▁150	-9.70422
▁tests	-9.70629
town	-9.70658
▁respect	-9.70725
▁words	-9.70736
▁winter	-9.70767
▁secure	-9.70839
▁600	-9.70882
▁propos	-9.70893
▁advance	-9.71091
▁maker	-9.71169
▁forecast	-9.712
▁kids	-9.71328
▁fears	-9.71355
▁crude	-9.71471
▁degree	-9.71471
▁behavior	-9.71476
▁felt	-9.71476
▁else	-9.71482
▁appearance	-9.71524
▁terms	-9.71555
▁affect	-9.71788
▁heat	-9.71807
▁rank	-9.71962
▁id	-9.72184
▁po	-9.72194
▁anniversar	-9.72206
▁straight	-9.72206
▁display	-9.72206
▁deadline	-9.72229
▁referr	-9.72252
▁struggl	-9.72295
▁bay	-9.72382
▁type	-9.72444
ie	-9.72557
▁da	-9.72573
▁abe	-9.7279
▁perform	-9.7293
▁hurricane	-9.72946
▁solution	-9.72959
▁herald	-9.72963
▁pilot	-9.72965
▁sometime	-9.73097
lew	-9.73151
▁forc	-9.73222
▁cold	-9.73371
▁yang	-9.73497
▁supplie	-9.7352
▁bar	-9.73563
ak	-9.73639
▁riot	-9.73882
▁bear	-9.7392
▁soldier	-9.74239
▁winner	-9.74257
▁birth	-9.74447
▁regular	-9.74457
▁successful	-9.74458
▁loan	-9.7449
▁apartment	-9.74527
▁votes	-9.74558
▁arms	-9.74568
▁ongoing	-9.74648
▁drugs	-9.74667
▁joined	-9.75098
▁blair	-9.75202
▁location	-9.7523
▁below	-9.75233
▁virus	-9.75515
▁football	-9.75687
▁asp	-9.75717
ist	-9.75802
▁pack	-9.75899
▁entire	-9.75966
▁resort	-9.75971
▁famous	-9.76015
▁style	-9.76023
ong	-9.76153
gone	-9.76224
▁welcome	-9.76246
▁adult	-9.76249
ahoo	-9.76313
▁blow	-9.76554
▁abu	-9.76674
▁clean	-9.76676
▁madrid	-9.76735
▁channel	-9.76736
▁freedom	-9.76741
▁highway	-9.76743
▁van	-9.76789
▁wa	-9.76852
▁reserve	-9.76853
▁scor	-9.77061
▁ali	-9.77074
▁ocean	-9.77111
▁twic	-9.77136
▁bann	-9.77267
▁influence	-9.77342
▁victim	-9.77394
ither	-9.77432
▁malik	-9.77447
▁surrounding	-9.77499
▁wrong	-9.77501
▁govern	-9.77502
▁correspondent	-9.77515
▁spark	-9.77532
▁abuse	-9.7755
▁mount	-9.77558
▁800	-9.77605
▁true	-9.77621
▁choice	-9.77779
▁cancel	-9.77994
▁cooperati	-9.78267
▁cent	-9.78275
▁species	-9.78326
▁feature	-9.78345
▁witnesses	-9.78393
▁learn	-9.78811
▁christian	-9.78816
▁male	-9.78943
▁decade	-9.79018
▁overseas	-9.79079
▁happy	-9.79079
▁assistant	-9.79082
▁charles	-9.79135
▁tech	-9.79197
▁producer	-9.79197
▁tibetan	-9.7921
▁legislati	-9.79308
ian	-9.79338
▁propert	-9.79346
▁winds	-9.7951
new	-9.79513
▁singer	-9.796
▁el	-9.79613
▁et	-9.79642
▁singapore	-9.7977
▁zimbabwe	-9.79773
▁doctor	-9.79829
▁software	-9.79873
▁sudan	-9.79875
▁confidence	-9.79877
ro	-9.79888
▁champions	-9.79911
▁trust	-9.79975
▁33	-9.80115
▁politic	-9.80314
▁door	-9.80326
▁kidnapped	-9.80439
▁olme	-9.80448
off	-9.80594
▁journal	-9.80648
▁competition	-9.80673
▁abandon	-9.80673
▁floor	-9.80674
▁extreme	-9.80678
▁controversial	-9.80679
▁division	-9.8068
▁exile	-9.8069
▁hair	-9.80699
▁card	-9.80707
▁williams	-9.81108
nel	-9.81294
▁row	-9.81312
▁shar	-9.81333
▁nam	-9.81397
▁eye	-9.81449
▁hussein	-9.81479
▁christmas	-9.81479
▁palace	-9.81481
▁festival	-9.81489
▁resignation	-9.81513
▁shari	-9.81562
▁activit	-9.81651
▁determine	-9.81682
▁active	-9.81746
▁constitutional	-9.81853
▁qualit	-9.81948
▁gay	-9.81958
▁studie	-9.82084
▁36	-9.82189
▁tough	-9.82203
▁eventual	-9.82293
▁enem	-9.82294
▁married	-9.82328
▁pound	-9.82348
▁hot	-9.82387
▁gunm	-9.82391
▁jet	-9.82412
▁setting	-9.82415
▁collapse	-9.82479
▁su	-9.8248
▁art	-9.82496
▁alone	-9.82564
▁ma	-9.82661
▁promis	-9.82734
▁indicate	-9.82797
▁remove	-9.82938
▁kosov	-9.83115
▁heavi	-9.83118
▁bombings	-9.83171
▁laws	-9.8326
uters	-9.8328
▁indicat	-9.8334
ner	-9.83399
ang	-9.83493
▁burma	-9.83587
▁steve	-9.83727
▁shop	-9.83855
▁mine	-9.83903
den	-9.83904
▁christophe	-9.83938
▁dream	-9.8395
▁gord	-9.83959
▁throw	-9.83976
▁dis	-9.83981
▁2009	-9.8402
▁flu	-9.84076
▁dog	-9.84091
▁che	-9.84191
▁william	-9.84331
overall	-9.84385
▁northeast	-9.84632
▁pentagon	-9.84771
▁ilbo	-9.84773
▁42	-9.84872
▁reflect	-9.84882
ium	-9.84907
▁culture	-9.84913
▁photograph	-9.84971
▁serving	-9.84981
▁wild	-9.85059
▁denie	-9.85198
is	-9.85445
▁ronald	-9.85612
▁concert	-9.85616
▁prepared	-9.85628
▁1999	-9.85642
▁beyon	-9.85666
▁38	-9.85698
▁euro	-9.85754
▁han	-9.85841
▁prove	-9.85888
eastern	-9.85991
▁clashe	-9.86024
▁seed	-9.86042
▁syria	-9.8609
▁actress	-9.86462
▁recession	-9.86465
▁survivor	-9.86471
▁demonstrator	-9.86472
id	-9.86478
▁surge	-9.86511
▁kick	-9.86517
▁halt	-9.86521
▁effective	-9.86545
▁practice	-9.86654
▁sub	-9.86741
▁fil	-9.86753
▁farmer	-9.87105
▁transfer	-9.87107
▁imposed	-9.87171
▁demanding	-9.87238
la	-9.87301
▁condoleez	-9.87314
▁48	-9.8735
▁dark	-9.87378
▁lone	-9.8754
▁chi	-9.8758
▁capture	-9.87673
▁sports	-9.87865
▁flow	-9.87884
▁earn	-9.87902
▁smoke	-9.88122
▁losing	-9.88141
▁picture	-9.88167
▁egypt	-9.88169
▁soviet	-9.88176
▁tournament	-9.88176
▁relief	-9.88177
▁portug	-9.88177
▁religious	-9.8818
▁declaration	-9.88209
▁violation	-9.88221
▁connection	-9.88227
▁doubt	-9.8828
▁consumers	-9.88314
▁shift	-9.8834
▁treasur	-9.88348
▁foundation	-9.88416
▁historic	-9.88629
▁auto	-9.88653
▁determined	-9.88679
▁multi	-9.88714
▁ho	-9.88769
▁alert	-9.88846
▁bag	-9.88875
▁witness	-9.88933
▁rush	-9.8895
▁roll	-9.89008
▁various	-9.89046
▁draft	-9.89047
▁commitment	-9.89063
ham	-9.89122
▁withdrawal	-9.89133
▁traveling	-9.89167
▁tony	-9.89276
▁pope	-9.89284
▁sense	-9.89314
▁guy	-9.89343
▁via	-9.8952
▁jew	-9.89717
▁complain	-9.89768
▁add	-9.89909
▁currenc	-9.89923
▁hall	-9.89962
atomic	-9.90012
▁wor	-9.90043
▁di	-9.9006
▁counter	-9.90067
▁content	-9.90238
▁partner	-9.90271
▁signal	-9.9028
▁whole	-9.9028
▁martin	-9.90293
▁kidnapping	-9.9037
▁presen	-9.90381
▁convention	-9.90506
▁tank	-9.90582
▁computers	-9.90625
▁jul	-9.90643
▁cast	-9.90679
▁zoo	-9.90729
▁ending	-9.90782
▁tehran	-9.90808
▁militia	-9.90808
▁crackdown	-9.9081
▁pictures	-9.90817
▁easi	-9.90928
▁broad	-9.91079
▁frank	-9.91202
▁dress	-9.91243
▁scale	-9.91296
▁meetings	-9.91434
▁196	-9.91508
▁34	-9.91625
▁extra	-9.91648
▁implement	-9.917
▁dialogue	-9.917
▁medicine	-9.9172
▁speaker	-9.91791
▁leg	-9.9184
▁spring	-9.91973
▁minor	-9.92285
▁stem	-9.92327
▁55	-9.92368
▁spot	-9.92428
▁bomber	-9.92536
ester	-9.92537
▁dut	-9.92561
▁appoint	-9.92568
▁delegation	-9.92601
▁enjoy	-9.92601
▁budget	-9.92605
▁ceo	-9.92617
▁suit	-9.92636
▁1980	-9.92667
▁flame	-9.92725
▁min	-9.92734
▁weight	-9.92764
▁hous	-9.92797
▁torch	-9.93073
▁52	-9.93078
▁hole	-9.93083
▁god	-9.93083
▁rape	-9.93112
zai	-9.93135
▁politicians	-9.93165
▁trail	-9.93168
▁southeast	-9.93267
▁probe	-9.9327
▁44	-9.93315
▁arabia	-9.93351
▁las	-9.93445
▁deploy	-9.9348
▁organizer	-9.93493
▁se	-9.93495
▁temperature	-9.9351
▁rapid	-9.93512
▁sector	-9.9352
▁version	-9.93535
▁diana	-9.93544
▁register	-9.9355
▁users	-9.93577
▁works	-9.93635
▁apolog	-9.93739
ship	-9.93781
where	-9.9408
▁favor	-9.94116
▁table	-9.94198
b	-9.94213
▁academ	-9.9427
▁tens	-9.94324
▁51	-9.94393
▁kennedy	-9.94429
▁beckham	-9.94429
▁virtual	-9.94435
▁machine	-9.94493
▁sister	-9.94501
▁climb	-9.94519
▁income	-9.9456
▁defend	-9.9459
junta	-9.94603
▁waters	-9.94621
▁wing	-9.94622
▁demonstrations	-9.94632
▁gar	-9.94689
▁stone	-9.94706
▁hear	-9.94794
▁systems	-9.94927
▁shock	-9.94966
▁tensions	-9.95003
▁slight	-9.95068
▁fled	-9.95129
▁250	-9.95138
▁li	-9.95179
▁jose	-9.95213
▁seiz	-9.95225
▁standing	-9.95244
▁liver	-9.95317
▁alcohol	-9.95333
▁danger	-9.9535
▁encourage	-9.95354
▁unveil	-9.95354
▁saddam	-9.95354
▁kabul	-9.95355
▁orbit	-9.9538
▁urani	-9.95394
▁gov	-9.95428
▁suffering	-9.95438
▁wind	-9.95478
▁remov	-9.95491
▁collapsed	-9.95534
▁escape	-9.95565
▁sky	-9.95639
▁die	-9.95654
ter	-9.95705
▁artist	-9.95839
▁mile	-9.95955
▁items	-9.95993
▁decide	-9.96095
▁ring	-9.96101
▁pounds	-9.96238
▁feder	-9.96257
▁economist	-9.96289
▁ethnic	-9.96294
▁fellow	-9.96296
▁accepted	-9.96321
berg	-9.96356
away	-9.96453
suu	-9.96526
▁taxes	-9.96561
ification	-9.96689
da	-9.96752
▁kenya	-9.97058
▁enforce	-9.97073
▁ahmadi	-9.97093
▁pa	-9.97153
▁vietnam	-9.97232
▁nicola	-9.97232
▁simpson	-9.97233
▁enrich	-9.97233
▁regulation	-9.97238
▁assistance	-9.9724
▁reaction	-9.97264
▁1990	-9.9735
▁chose	-9.97385
▁warming	-9.97415
▁dan	-9.97527
▁cb	-9.97559
western	-9.97632
▁stoo	-9.97669
yone	-9.97743
▁isn	-9.97776
▁ten	-9.97905
▁possibl	-9.9792
▁cuba	-9.98068
▁object	-9.98102
▁explosives	-9.98141
▁fraud	-9.98184
▁michigan	-9.98184
▁exact	-9.98184
▁remote	-9.98184
▁stadium	-9.98184
▁islamabad	-9.98185
▁championship	-9.98193
▁unlike	-9.98202
▁massa	-9.98259
▁physical	-9.98264
▁sadr	-9.9828
▁inspector	-9.98292
▁sa	-9.98453
▁broken	-9.98598
▁basic	-9.98689
▁cruise	-9.98717
▁wealth	-9.98864
▁ranking	-9.98951
▁foreigner	-9.98954
▁spend	-9.99055
▁jerusalem	-9.99146
chuse	-9.9915
▁mad	-9.99199
▁generation	-9.99208
▁box	-9.99211
▁troop	-9.99435
▁license	-9.99565
▁arizo	-9.99581
▁stars	-9.99612
▁ji	-9.99736
▁ensure	-9.99761
▁ways	-9.99949
cient	-10.001
▁purpose	-10.0012
▁rallie	-10.0012
▁iowa	-10.0016
▁googl	-10.0021
▁lose	-10.0031
▁stake	-10.0032
▁edge	-10.0053
▁file	-10.0054
▁blam	-10.0055
▁pain	-10.0058
tts	-10.0066
▁declare	-10.0067
▁cia	-10.0068
▁motor	-10.007
▁modern	-10.0071
▁net	-10.0075
▁statu	-10.0076
▁surface	-10.008
▁relative	-10.0082
▁43	-10.0094
▁violat	-10.0101
▁chair	-10.0108
live	-10.0108
▁catholic	-10.011
▁vegas	-10.0112
▁traveler	-10.0119
ack	-10.012
▁founder	-10.0125
▁spear	-10.0125
▁tape	-10.0138
ribal	-10.0146
ado	-10.0163
▁declin	-10.0176
▁audience	-10.0181
▁photos	-10.0183
▁demanded	-10.0194
confirmed	-10.0196
▁visa	-10.0209
▁rough	-10.0217
▁lad	-10.0229
▁evacuated	-10.0241
▁commissioner	-10.0243
▁wi	-10.027
▁oscar	-10.0285
▁putt	-10.0289
▁obtain	-10.0309
▁equipment	-10.0309
▁perfect	-10.0311
▁speculation	-10.0311
▁strengthen	-10.0313
▁dutch	-10.0314
▁runner	-10.0316
▁writer	-10.0325
▁continu	-10.0328
▁agre	-10.0335
ea	-10.034
▁plot	-10.0362
▁fix	-10.0372
▁brand	-10.0375
▁62	-10.0382
▁53	-10.0386
▁tons	-10.039
▁subject	-10.041
▁colleague	-10.041
▁invite	-10.041
back	-10.041
▁task	-10.041
▁globe	-10.041
▁assassination	-10.0411
▁wake	-10.0411
▁warrant	-10.0412
▁wolf	-10.0413
▁boycott	-10.0426
▁complaint	-10.0428
▁oppos	-10.0443
▁takes	-10.0445
▁equal	-10.0458
▁thanks	-10.0466
at	-10.0466
▁explain	-10.0483
▁promote	-10.0486
▁electronic	-10.0495
haps	-10.0496
▁magnitude	-10.0512
▁detention	-10.0512
▁narrow	-10.0512
▁relay	-10.0513
▁daniel	-10.0513
▁carbon	-10.0513
▁nevada	-10.0514
▁band	-10.0514
▁guest	-10.0515
▁celebrit	-10.0518
▁organiz	-10.0525
ability	-10.0529
▁discovery	-10.0541
aks	-10.0551
▁smok	-10.0581
▁ei	-10.0591
▁era	-10.0593
ily	-10.0593
ier	-10.0593
▁jan	-10.0595
▁detail	-10.0603
▁windows	-10.0607
▁closer	-10.061
▁trillion	-10.0615
▁sheriff	-10.0615
▁louis	-10.0615
▁internal	-10.0618
▁professional	-10.062
▁gang	-10.0624
▁canad	-10.0632
▁santa	-10.0633
▁spy	-10.0651
▁dismissed	-10.0657
▁patrol	-10.0684
mer	-10.0688
▁estimat	-10.0701
▁nepal	-10.0702
field	-10.0702
▁weapon	-10.071
▁invasion	-10.0719
▁mahmoud	-10.0719
▁suburb	-10.0719
▁temporar	-10.0719
▁crucial	-10.0719
▁fashion	-10.072
▁jackson	-10.072
▁agenci	-10.072
▁tight	-10.0723
▁calm	-10.0725
▁debt	-10.0726
▁lake	-10.0731
▁arrival	-10.0734
▁transition	-10.0736
▁stress	-10.0747
▁representatives	-10.0753
▁anger	-10.0776
▁expand	-10.0794
▁angr	-10.0801
ant	-10.0812
▁dogs	-10.0813
ana	-10.0816
▁champion	-10.0819
▁reporter	-10.0821
▁attract	-10.0821
▁strategy	-10.0824
▁remember	-10.0825
▁monk	-10.0827
▁mike	-10.083
▁restriction	-10.083
▁manch	-10.083
▁samsun	-10.0832
pool	-10.0832
un	-10.0839
▁colombian	-10.0852
▁handed	-10.088
▁provinc	-10.0894
dna	-10.0907
ical	-10.091
▁tonight	-10.0911
▁alaska	-10.0915
▁liberal	-10.092
▁example	-10.0924
▁aware	-10.0927
▁stall	-10.0928
▁path	-10.0929
itarian	-10.093
▁identify	-10.0931
▁agricultur	-10.0931
▁dubai	-10.0931
▁lawsuit	-10.0931
▁estate	-10.0931
▁charg	-10.0934
broad	-10.0934
▁jung	-10.0941
▁fed	-10.0941
▁leak	-10.0965
corporate	-10.0981
▁meant	-10.0997
▁mix	-10.102
▁pair	-10.1024
▁ray	-10.1025
▁exercise	-10.1026
▁dub	-10.1031
▁offensive	-10.1038
▁sudden	-10.1038
▁presiden	-10.1039
▁batter	-10.1041
▁phones	-10.1057
▁worrie	-10.1059
▁relatives	-10.1069
▁visiting	-10.1071
ma	-10.1073
▁46	-10.1123
▁inc	-10.1128
▁venezuela	-10.1129
▁memorial	-10.1147
▁entertainment	-10.1147
▁babies	-10.1149
▁bailout	-10.1149
▁casualties	-10.115
▁berlin	-10.115
▁nobel	-10.115
▁vi	-10.1156
▁choose	-10.1162
▁theater	-10.1163
ized	-10.1164
▁document	-10.1174
ani	-10.118
▁chen	-10.1184
▁201	-10.1217
▁wood	-10.1239
▁argu	-10.1254
▁suspicion	-10.1257
▁veteran	-10.1257
▁advantage	-10.1257
▁ukrain	-10.1257
▁exit	-10.1258
▁potter	-10.1258
▁auction	-10.126
▁none	-10.1263
▁projects	-10.1268
▁reasons	-10.1271
spread	-10.1272
ization	-10.1276
▁maca	-10.1282
▁warm	-10.1284
▁label	-10.1285
oline	-10.1304
▁sport	-10.1307
▁lady	-10.131
j	-10.1313
▁freed	-10.1314
▁urge	-10.1332
▁joong	-10.1336
▁rome	-10.134
▁41	-10.1352
ified	-10.1355
▁books	-10.1363
▁fa	-10.1363
▁guarantee	-10.1368
▁permanent	-10.1368
▁counterpart	-10.1368
▁nadal	-10.1368
▁sydn	-10.1368
▁hilton	-10.1372
▁aboard	-10.1375
▁jur	-10.1377
▁favorite	-10.1378
▁johnson	-10.1381
▁simple	-10.1382
▁princess	-10.1394
▁offering	-10.1407
▁wonder	-10.1418
as	-10.1439
surance	-10.1443
▁haven	-10.1465
▁reduction	-10.148
▁tiger	-10.1481
▁simply	-10.1481
▁destruction	-10.1482
▁split	-10.1482
▁lay	-10.1484
▁movies	-10.1512
▁manag	-10.1514
night	-10.1515
▁65	-10.1528
▁catch	-10.153
▁mohamm	-10.1547
▁creat	-10.1569
▁landing	-10.1574
▁ease	-10.1577
▁struggle	-10.158
▁coup	-10.1587
▁anonymity	-10.1594
▁compound	-10.1594
▁frequent	-10.1594
▁technical	-10.1594
▁investigate	-10.1594
▁buri	-10.1595
▁cutting	-10.1598
▁strain	-10.1598
▁expectation	-10.1601
▁teenager	-10.1602
gun	-10.1611
▁fit	-10.1611
▁wen	-10.1629
▁con	-10.1631
▁roads	-10.1643
▁pe	-10.1648
▁harm	-10.1698
▁diplomats	-10.1708
▁soccer	-10.1709
▁chelsea	-10.1709
▁delta	-10.1709
▁atmospher	-10.1709
▁recovery	-10.1709
▁canadian	-10.171
▁firefighter	-10.1724
▁manufactur	-10.1726
▁issu	-10.1728
▁cultur	-10.175
▁lt	-10.1752
▁unclea	-10.1755
▁threats	-10.1759
▁engine	-10.1775
▁explod	-10.1782
▁yes	-10.1808
10	-10.1812
▁fata	-10.1813
▁strip	-10.1818
ll	-10.1819
▁recruit	-10.1825
▁shelter	-10.1825
▁kingdom	-10.1825
▁emission	-10.1825
▁element	-10.1826
▁ru	-10.1828
▁plus	-10.1833
▁renew	-10.1835
▁guards	-10.184
enko	-10.1841
▁worse	-10.1842
▁refuse	-10.1845
▁64	-10.1846
▁devastat	-10.1848
▁easy	-10.1848
▁tom	-10.1863
▁purchase	-10.1865
▁forum	-10.187
▁trapped	-10.1871
▁km	-10.1876
▁tear	-10.1887
ersey	-10.1894
▁dong	-10.1899
▁rang	-10.1905
▁improv	-10.1912
▁acknowledg	-10.1914
▁pc	-10.1916
▁sh	-10.1932
▁prepar	-10.1936
▁erupt	-10.1938
▁unusual	-10.1943
▁tomorrow	-10.1943
▁debut	-10.1943
▁agenda	-10.1943
▁froze	-10.1944
▁valley	-10.1945
▁shortage	-10.1951
▁profile	-10.1955
▁chemical	-10.1956
▁ride	-10.1967
▁bone	-10.197
▁expert	-10.1976
▁mr	-10.1978
dai	-10.1979
▁percentage	-10.198
▁resources	-10.1988
▁en	-10.1999
▁heads	-10.2009
▁indiana	-10.2018
▁sw	-10.2021
ional	-10.2036
▁pop	-10.2043
▁malaysia	-10.2044
▁kurdis	-10.2057
▁mars	-10.2058
▁disappear	-10.2061
▁cleric	-10.2062
▁thomas	-10.2062
yongbyon	-10.2062
▁negative	-10.2062
▁diamond	-10.2064
▁section	-10.2066
▁writing	-10.2068
▁elder	-10.2069
▁khan	-10.2071
▁youth	-10.2075
▁payment	-10.2076
arta	-10.2081
ground	-10.2081
imed	-10.2095
mph	-10.2097
▁institution	-10.2101
go	-10.2106
▁petr	-10.2143
▁proper	-10.2144
rew	-10.2157
▁thank	-10.2159
▁rat	-10.2161
▁studio	-10.2182
▁conspirac	-10.2183
▁crack	-10.2183
▁eyes	-10.2183
▁nature	-10.2183
▁gap	-10.2185
▁clinic	-10.2186
▁locat	-10.2206
it	-10.2207
di	-10.2208
▁learned	-10.2224
▁basi	-10.2234
olar	-10.2243
▁rescuer	-10.2252
▁notice	-10.2259
▁54	-10.2268
▁toys	-10.2271
▁mccann	-10.2304
▁miami	-10.2304
▁abdullah	-10.2305
▁mention	-10.2307
▁apologize	-10.2311
▁listen	-10.2331
▁heading	-10.2335
▁homeland	-10.2343
▁jak	-10.2349
▁vessel	-10.235
▁benefits	-10.2356
ju	-10.2368
▁birds	-10.2376
▁digital	-10.2385
▁ang	-10.2393
▁cool	-10.2398
im	-10.2414
▁sit	-10.2417
▁collect	-10.2419
▁detect	-10.2421
▁nominat	-10.2424
▁disappoint	-10.2425
▁assets	-10.2426
▁darfur	-10.2428
▁error	-10.2428
▁succeed	-10.2428
▁radical	-10.2428
▁bullet	-10.2428
▁edition	-10.2429
▁wedding	-10.2429
▁boss	-10.2436
▁lowest	-10.2441
▁venezuelan	-10.2448
▁observer	-10.2464
▁ghaz	-10.2464
▁boe	-10.2464
▁landed	-10.2469
▁album	-10.2474
▁ticket	-10.2478
▁restaurant	-10.2479
▁identit	-10.2481
▁oppose	-10.2484
▁cheer	-10.2484
▁hung	-10.2485
▁retir	-10.2487
azir	-10.2493
over	-10.2507
▁southwest	-10.252
▁mortgage	-10.2553
▁preliminar	-10.2553
▁convoy	-10.2553
▁alternative	-10.2553
▁yellow	-10.2553
▁gulf	-10.2554
▁maryland	-10.2555
▁hunt	-10.2555
▁execution	-10.2556
▁joe	-10.2566
▁inflation	-10.2567
▁soar	-10.2572
▁sort	-10.2572
▁belong	-10.2575
▁closing	-10.2606
▁divorce	-10.2651
▁marked	-10.2656
▁northwest	-10.2662
▁reduced	-10.2665
▁bureau	-10.2666
ga	-10.2671
▁edwards	-10.2673
▁campus	-10.2676
▁operate	-10.2676
▁journey	-10.2679
▁method	-10.268
▁proud	-10.268
▁hezb	-10.2682
erson	-10.2688
▁bird	-10.2688
▁dramatic	-10.269
▁prett	-10.2696
▁bottle	-10.27
▁farm	-10.271
▁pet	-10.2711
▁sentenc	-10.2721
▁reading	-10.2724
▁sean	-10.2729
▁corner	-10.2741
▁goods	-10.2742
▁rail	-10.2743
▁zealand	-10.2748
▁pace	-10.2754
ville	-10.2759
ten	-10.276
beth	-10.277
▁knee	-10.2771
fare	-10.2772
▁pushing	-10.2789
ina	-10.2793
day	-10.2803
▁bangkok	-10.2807
▁youtube	-10.2807
▁sustain	-10.2808
ican	-10.2809
▁assist	-10.281
▁shrine	-10.2811
▁gonzale	-10.2824
body	-10.2834
▁plead	-10.2843
▁fate	-10.285
▁clash	-10.2875
▁participate	-10.2878
▁lock	-10.2882
ta	-10.2883
▁falling	-10.2892
▁coordinat	-10.2903
▁pose	-10.2904
ne	-10.2906
▁alexand	-10.2929
▁desert	-10.2931
▁strength	-10.2933
▁client	-10.2937
▁vacation	-10.2937
▁cloud	-10.2937
madeleine	-10.2938
▁gallon	-10.2939
▁restore	-10.2939
▁bottom	-10.2941
▁x	-10.2952
▁scot	-10.2954
▁opponents	-10.2971
▁shoe	-10.2976
▁gathering	-10.2984
▁hospitaliz	-10.2985
▁woo	-10.2988
llah	-10.2994
▁39	-10.2999
▁ha	-10.3003
▁stores	-10.3008
▁ill	-10.301
▁guns	-10.3011
aid	-10.3026
▁sponsor	-10.3026
▁fatal	-10.3027
▁entering	-10.3037
▁95	-10.3038
ious	-10.3041
mi	-10.3045
▁balance	-10.3053
▁lama	-10.3058
▁select	-10.3068
▁pump	-10.3069
▁ballot	-10.3069
▁innocent	-10.3073
▁kang	-10.3074
▁gains	-10.3076
▁chrys	-10.3077
▁firing	-10.3079
▁approve	-10.3097
▁effects	-10.3098
▁structure	-10.311
▁roman	-10.3116
▁delivery	-10.3119
ny	-10.3128
▁drew	-10.3129
▁seal	-10.3132
▁shape	-10.3135
work	-10.3138
▁waste	-10.3141
▁outbreak	-10.3145
▁benefit	-10.3146
▁col	-10.3149
▁im	-10.315
hai	-10.3174
▁holy	-10.3182
▁flee	-10.319
▁controversy	-10.3202
▁bilateral	-10.3202
▁drove	-10.3202
▁surround	-10.3204
▁jesu	-10.3204
▁truth	-10.3206
▁deployment	-10.3207
▁hopeful	-10.3209
▁1994	-10.3216
▁osam	-10.3217
▁stability	-10.3221
ence	-10.3221
▁chain	-10.3225
▁nas	-10.3228
▁afford	-10.3229
▁engag	-10.3229
▁friendly	-10.323
▁acre	-10.3231
▁damag	-10.3241
▁beating	-10.3256
▁boom	-10.3258
▁argentin	-10.327
▁ro	-10.3271
▁ia	-10.3279
agan	-10.329
▁carrier	-10.3291
▁weak	-10.3298
▁tru	-10.33
ling	-10.3314
▁charit	-10.3315
▁56	-10.3315
▁write	-10.3326
▁landslide	-10.3337
▁tsunami	-10.3337
▁captain	-10.3337
▁girlfriend	-10.3337
▁boston	-10.3337
▁vast	-10.334
▁shopping	-10.3341
▁grew	-10.3342
▁weaken	-10.3343
▁vat	-10.3346
▁kurd	-10.335
▁immigrat	-10.3352
▁islamist	-10.3353
▁oh	-10.3355
▁peru	-10.3356
▁participat	-10.336
ehud	-10.3361
▁handl	-10.3365
aeus	-10.3366
down	-10.3372
▁tall	-10.3374
▁indonesian	-10.3377
water	-10.3378
▁gore	-10.3393
▁grave	-10.3396
ford	-10.3398
▁divers	-10.341
ick	-10.3418
▁predicted	-10.3433
▁tim	-10.3436
▁har	-10.3459
▁invest	-10.3467
▁pregnan	-10.3468
▁length	-10.347
▁ka	-10.3472
▁convince	-10.3474
▁experiment	-10.3474
▁yonhap	-10.3474
▁wildlife	-10.3474
▁plastic	-10.3475
▁corporation	-10.3475
arah	-10.3475
upper	-10.3477
▁dump	-10.348
▁palm	-10.3487
▁meaning	-10.349
▁scott	-10.3503
▁lea	-10.3503
▁string	-10.3504
▁electora	-10.3519
▁teachers	-10.352
▁120	-10.353
▁tire	-10.3537
▁detonat	-10.3537
bed	-10.354
▁tradition	-10.3559
▁130	-10.356
▁stan	-10.3561
▁representative	-10.3568
▁teacher	-10.3578
▁islands	-10.3584
itting	-10.3589
▁affiliate	-10.3592
ez	-10.3596
▁serbia	-10.3596
▁weigh	-10.36
▁vladimir	-10.3603
▁rockets	-10.3608
▁barcelon	-10.3613
▁endanger	-10.3613
▁initiative	-10.3614
▁conversation	-10.3614
▁ultimate	-10.3614
w	-10.3614
▁lab	-10.3615
▁inspection	-10.3615
▁numer	-10.3615
▁temple	-10.3615
▁squad	-10.3616
▁neck	-10.3617
▁yard	-10.3618
▁defendant	-10.3618
▁atlantic	-10.3624
▁194	-10.3625
ural	-10.3628
▁slave	-10.3633
▁bright	-10.3636
▁je	-10.3643
▁bound	-10.3656
▁cable	-10.3657
▁formed	-10.3663
▁margin	-10.3682
▁planes	-10.3686
▁battl	-10.3696
▁restaurants	-10.3696
▁61	-10.3711
▁symbol	-10.3715
▁metal	-10.3721
▁survived	-10.3733
iego	-10.3741
▁195	-10.3742
▁dala	-10.3745
▁restrict	-10.3747
▁knowledge	-10.3754
▁delhi	-10.3754
▁jordan	-10.3754
▁brazilian	-10.3755
▁connect	-10.3756
▁memory	-10.3756
▁typical	-10.3757
▁palin	-10.3757
▁collection	-10.3761
▁failing	-10.3769
▁fox	-10.377
▁yoo	-10.3783
kk	-10.3791
▁ally	-10.3794
▁achieve	-10.3818
▁wish	-10.3818
▁younger	-10.3822
▁responded	-10.3829
iya	-10.3835
▁crop	-10.3841
▁barr	-10.3841
▁print	-10.3851
ay	-10.3854
▁dealing	-10.3856
▁settle	-10.3867
▁49	-10.387
ept	-10.3872
▁abduct	-10.3886
▁drama	-10.3892
▁abdul	-10.3896
▁prospect	-10.3897
▁routine	-10.3897
▁buddhist	-10.3897
▁sample	-10.3898
▁birthday	-10.3898
▁59	-10.3905
▁advertis	-10.3905
ger	-10.3913
▁mayb	-10.3919
▁character	-10.3923
▁lie	-10.3932
▁provinces	-10.3933
▁mate	-10.3946
baki	-10.397
▁stretch	-10.3972
▁warnings	-10.3973
▁par	-10.3984
han	-10.3984
▁farc	-10.3994
▁maxim	-10.3999
▁flag	-10.4001
▁recommend	-10.4003
▁demonstration	-10.4011
▁58	-10.4013
▁bond	-10.4025
▁clon	-10.4033
▁hampshire	-10.4042
▁superdelegate	-10.4042
▁surrender	-10.4042
▁eliza	-10.4042
▁stole	-10.4043
▁illness	-10.4044
▁kerr	-10.4047
ejad	-10.4052
daq	-10.4053
ches	-10.4054
▁veto	-10.4055
▁accord	-10.4059
▁morgan	-10.4061
▁shang	-10.4066
▁feeling	-10.4071
chuan	-10.4078
ren	-10.4085
▁pursu	-10.4089
▁runway	-10.4116
tiny	-10.4154
▁bi	-10.4167
▁negotiat	-10.4175
▁publicly	-10.4183
▁knock	-10.4185
▁airstrike	-10.4189
▁hawaii	-10.4189
▁michel	-10.4189
▁capacity	-10.419
▁distance	-10.4193
▁peak	-10.4193
▁fortune	-10.4194
▁stories	-10.4197
▁shark	-10.4198
▁requir	-10.4201
▁66	-10.4201
▁accusation	-10.4201
evin	-10.421
▁kenyan	-10.4216
▁wage	-10.4224
▁beef	-10.4225
▁glass	-10.4234
▁rom	-10.4238
▁abc	-10.4242
▁striker	-10.425
▁trains	-10.4273
▁note	-10.4284
▁photo	-10.4284
▁pirates	-10.4286
lor	-10.4296
▁brutal	-10.43
am	-10.43
line	-10.43
▁photographer	-10.4302
▁ga	-10.4312
▁pledg	-10.4315
▁messages	-10.4317
▁torture	-10.4319
▁conclude	-10.4322
▁worker	-10.4322
▁featur	-10.4328
▁obvious	-10.4338
▁participant	-10.4338
▁cyclone	-10.4339
▁strict	-10.4339
▁direction	-10.4339
▁genetic	-10.434
▁columbia	-10.434
▁shoot	-10.434
▁shirt	-10.4341
▁punishment	-10.4341
▁switch	-10.4345
▁briefing	-10.4346
▁promot	-10.435
▁solve	-10.4357
▁chile	-10.4358
▁sensitiv	-10.4362
▁philippines	-10.4377
▁ski	-10.4381
▁wins	-10.4384
▁humans	-10.4389
▁skin	-10.4414
▁comfort	-10.4415
▁jim	-10.4421
▁somali	-10.4421
▁ta	-10.4425
▁ne	-10.4426
▁caucuse	-10.4427
50	-10.4438
▁excit	-10.4449
employment	-10.4451
▁unity	-10.4452
▁commit	-10.4455
▁moderate	-10.446
witz	-10.4462
▁celebrate	-10.4468
hattan	-10.4469
▁highlight	-10.4473
▁revolutionar	-10.4485
▁spirit	-10.449
▁coffee	-10.449
▁argue	-10.449
▁dinner	-10.449
▁arsenal	-10.4491
▁everybody	-10.4492
▁2012	-10.4493
▁urban	-10.4494
▁congo	-10.4496
▁native	-10.4497
▁mental	-10.4499
tah	-10.4508
▁lung	-10.4525
▁transferr	-10.4527
▁acknowledge	-10.4528
▁corps	-10.453
owitz	-10.453
▁bowl	-10.454
pped	-10.4556
rey	-10.4569
▁hospitals	-10.4576
ca	-10.458
▁du	-10.4589
▁authoriz	-10.459
▁introduce	-10.4593
▁eating	-10.4621
▁63	-10.4626
▁cloth	-10.4627
▁react	-10.4632
▁aids	-10.4633
▁editor	-10.4643
▁scientific	-10.4644
▁surveill	-10.4644
▁cease	-10.4644
▁jack	-10.4644
▁views	-10.4646
▁whal	-10.4646
▁sailor	-10.4646
▁successor	-10.4648
▁expensive	-10.465
▁peacekeep	-10.4654
▁celebrat	-10.466
▁comedy	-10.466
▁text	-10.4662
▁nei	-10.4664
ities	-10.4675
▁mouth	-10.4688
iana	-10.4715
▁maj	-10.4738
▁compete	-10.476
▁tool	-10.4763
har	-10.4763
▁zar	-10.477
▁depend	-10.477
▁citizen	-10.4791
▁bell	-10.4795
▁televis	-10.4796
▁venue	-10.48
▁watchdog	-10.48
▁inquir	-10.48
▁prepare	-10.4801
▁midnight	-10.4802
▁appointment	-10.4805
▁intense	-10.4811
▁circumstances	-10.4818
▁dick	-10.4828
▁eat	-10.4832
ippi	-10.4835
▁loh	-10.4862
▁metropoli	-10.4863
chi	-10.4879
▁gree	-10.4883
▁gmt	-10.4884
▁pursue	-10.4907
▁v	-10.4909
▁matche	-10.4926
▁pr	-10.4929
erland	-10.4933
▁ordinar	-10.4941
▁powers	-10.4945
▁ca	-10.4946
▁disney	-10.4958
▁steven	-10.4958
▁dispatch	-10.4959
▁sovereign	-10.4959
▁swiss	-10.4959
▁multiple	-10.4959
▁federation	-10.4963
▁bitter	-10.4963
▁rumor	-10.4963
▁regulator	-10.4964
▁bob	-10.4964
▁mississ	-10.4964
▁operator	-10.4969
▁conclud	-10.4977
▁musical	-10.4988
▁henr	-10.5013
▁realize	-10.5015
▁saving	-10.5026
▁pos	-10.5034
▁earning	-10.5041
▁guide	-10.5046
▁historical	-10.5047
no	-10.5049
▁ire	-10.5053
▁recognize	-10.5063
▁stressed	-10.5082
▁hiv	-10.5083
▁bombers	-10.5084
▁floods	-10.5093
▁emerged	-10.5099
▁jane	-10.511
▁diplomat	-10.5114
▁69	-10.5114
▁owners	-10.5119
▁wreck	-10.512
▁funeral	-10.512
▁phoeni	-10.512
▁quiet	-10.512
▁dvd	-10.5121
▁harsh	-10.5121
▁egyptian	-10.5121
▁supposed	-10.5122
▁barrier	-10.5122
▁chart	-10.5122
▁teen	-10.5128
▁cafe	-10.513
erry	-10.5134
▁debri	-10.5135
▁bail	-10.5141
▁mur	-10.5154
▁68	-10.5175
armament	-10.5175
▁rod	-10.5178
▁divide	-10.5184
▁moham	-10.5193
▁bull	-10.5203
▁undergo	-10.5211
▁handle	-10.5214
▁rescued	-10.5214
ular	-10.5227
▁broadcaster	-10.5229
ha	-10.5233
▁hwan	-10.5238
▁gul	-10.5241
▁engage	-10.5247
▁diet	-10.5249
▁yi	-10.5274
▁conservation	-10.5281
▁accounts	-10.5281
▁faith	-10.5283
▁tobacco	-10.5284
▁mexican	-10.5284
▁shareholder	-10.5284
▁testimon	-10.5284
▁false	-10.5284
▁crown	-10.5285
▁intention	-10.5286
▁fierce	-10.5287
▁castro	-10.5289
▁explosive	-10.5291
▁indication	-10.5293
▁apart	-10.5298
▁sick	-10.5298
▁socialist	-10.5302
▁disable	-10.5306
▁fun	-10.5307
▁blaze	-10.5308
▁continent	-10.5309
▁lights	-10.5309
▁sch	-10.5311
▁liter	-10.5331
▁fat	-10.535
sumption	-10.5354
▁appropriate	-10.5359
ch	-10.5369
▁infect	-10.5371
▁cave	-10.5373
more	-10.5374
▁civi	-10.5383
▁survive	-10.5384
▁patric	-10.5401
▁willing	-10.5404
ota	-10.5411
▁category	-10.545
▁occupation	-10.545
▁verdict	-10.545
▁benchmark	-10.545
▁confident	-10.545
▁joseph	-10.5451
▁boyfriend	-10.5451
▁amnes	-10.5452
▁apply	-10.5453
stance	-10.5454
▁careful	-10.5455
eath	-10.5456
▁1950	-10.5458
▁vital	-10.5463
▁window	-10.5464
▁frame	-10.5473
▁carlo	-10.5482
▁ge	-10.5491
▁paint	-10.5492
▁deny	-10.5495
▁unknown	-10.5496
▁chad	-10.551
▁twin	-10.5512
▁ti	-10.5519
▁somalia	-10.5527
▁villager	-10.5534
ent	-10.5534
▁chest	-10.554
▁jin	-10.5544
light	-10.5547
▁85	-10.557
pending	-10.5582
▁consult	-10.5588
▁slipp	-10.5602
▁austria	-10.5602
rs	-10.5604
▁disrupt	-10.5615
▁cd	-10.5618
▁mccorm	-10.562
▁antarctic	-10.562
▁uniform	-10.562
▁stern	-10.5621
▁preparation	-10.5624
▁negotiate	-10.5624
▁gross	-10.5626
▁steel	-10.5629
put	-10.563
▁beaut	-10.5653
▁believ	-10.5661
▁chris	-10.5667
▁correct	-10.5668
▁communit	-10.5676
▁wine	-10.5679
▁fay	-10.5683
▁regions	-10.569
ol	-10.5691
▁sad	-10.5709
hood	-10.5718
bus	-10.5718
▁captur	-10.5721
ah	-10.5748
▁hail	-10.5756
▁stimul	-10.5781
▁priva	-10.5792
▁czech	-10.5792
▁unfortunate	-10.5792
▁benedict	-10.5792
▁blago	-10.5792
▁reconciliation	-10.5792
▁typhoon	-10.5793
▁sweep	-10.5794
▁punish	-10.5794
▁cargo	-10.5798
▁trader	-10.5801
▁familiar	-10.5802
▁specialist	-10.5803
▁marks	-10.5808
▁cuban	-10.5829
▁antoni	-10.5833
▁mal	-10.5845
▁commerc	-10.5845
▁stands	-10.5864
▁copie	-10.5866
wise	-10.5868
▁hat	-10.5903
▁wel	-10.5908
▁sri	-10.5961
▁aggressive	-10.5968
▁breakthrough	-10.5968
▁laptop	-10.5968
▁striking	-10.5968
▁conclusion	-10.5968
▁legend	-10.5968
▁grant	-10.5968
▁clark	-10.5968
▁clock	-10.5968
▁conviction	-10.5969
▁concrete	-10.5969
▁sheikh	-10.5969
▁petition	-10.5969
▁repair	-10.5969
luton	-10.597
▁fta	-10.5972
▁1960	-10.5974
▁odd	-10.5975
▁shield	-10.5976
▁zero	-10.5977
▁tend	-10.598
▁reference	-10.5985
house	-10.5986
▁absolutely	-10.5986
▁hero	-10.5989
▁parent	-10.5994
▁copy	-10.5995
▁variet	-10.5996
▁scar	-10.5999
▁camps	-10.6002
▁paulo	-10.6002
pover	-10.6006
▁custom	-10.6014
lin	-10.6022
tv	-10.6026
▁mont	-10.6029
▁bo	-10.6035
efa	-10.6037
▁medal	-10.6037
▁pitch	-10.6037
court	-10.6039
craft	-10.6045
▁graduate	-10.605
▁shore	-10.6058
▁miner	-10.606
▁outrage	-10.6066
▁sir	-10.6071
mumba	-10.6078
▁athen	-10.6079
▁partners	-10.6085
▁chun	-10.6094
▁stephen	-10.6096
▁aren	-10.6102
▁hub	-10.6108
▁painting	-10.6109
▁seize	-10.6111
▁ar	-10.6124
▁ryan	-10.6124
▁counts	-10.6129
ei	-10.6132
▁kyo	-10.6136
▁volcano	-10.6143
▁inform	-10.6143
▁immigrant	-10.6146
▁imprison	-10.6146
▁tennesse	-10.6146
▁departure	-10.6146
▁await	-10.6147
▁separatist	-10.6147
▁motion	-10.6148
erdog	-10.6148
▁assessment	-10.6149
▁glacier	-10.6152
▁sweet	-10.6156
▁chao	-10.6159
▁mistake	-10.6164
▁substantial	-10.6165
▁rebuild	-10.6165
▁entry	-10.617
▁hug	-10.6177
▁attacker	-10.6185
▁settlement	-10.6187
▁contribute	-10.6192
▁pitt	-10.6194
▁stable	-10.6201
▁bolt	-10.6204
▁prayer	-10.621
▁athletes	-10.621
▁complet	-10.6237
▁retail	-10.6239
quo	-10.6242
▁spott	-10.6245
▁hills	-10.6245
▁inch	-10.6252
▁mary	-10.6254
▁rio	-10.6258
▁900	-10.6262
▁fires	-10.6263
▁generate	-10.6265
▁convert	-10.6278
▁mar	-10.6288
▁chong	-10.6293
▁tackle	-10.6301
▁fame	-10.6312
▁classic	-10.6313
▁praise	-10.6313
▁classifie	-10.6315
▁except	-10.6323
▁mourn	-10.6325
▁referendum	-10.6328
▁muscle	-10.6328
▁compensation	-10.6328
▁impeach	-10.6329
▁roger	-10.6329
▁sentiment	-10.6329
▁contrast	-10.633
▁buyer	-10.6331
ting	-10.6331
▁novel	-10.6333
▁mel	-10.6334
▁sole	-10.6341
▁brad	-10.6344
▁railway	-10.6345
▁1992	-10.6346
▁rafa	-10.6348
oney	-10.635
▁mis	-10.635
▁dam	-10.6359
▁tsv	-10.6361
lanta	-10.6373
▁delegate	-10.6374
▁overwhelming	-10.6374
▁turnout	-10.6375
▁jae	-10.6389
▁kid	-10.6394
▁shipp	-10.6397
▁toxic	-10.6403
▁greet	-10.6405
▁cow	-10.642
▁airway	-10.6426
▁brun	-10.6427
▁abus	-10.6433
▁bigge	-10.6436
▁soil	-10.6442
do	-10.6461
▁secular	-10.6466
▁jeff	-10.6473
▁organ	-10.6483
▁stepp	-10.6487
▁libya	-10.6496
▁employ	-10.6496
▁bangladesh	-10.6501
▁priorit	-10.6503
▁robot	-10.6511
▁loyal	-10.6513
▁platform	-10.6513
▁caution	-10.6513
delphi	-10.6513
▁laborator	-10.6513
▁retain	-10.6514
▁darwin	-10.6514
▁huck	-10.6514
▁flash	-10.6514
▁orange	-10.6515
▁outcome	-10.6515
▁essential	-10.652
▁dust	-10.6521
▁float	-10.6523
▁hang	-10.6524
evich	-10.6524
▁kate	-10.6526
▁moore	-10.6529
▁kent	-10.6544
▁clothe	-10.6544
▁chant	-10.6552
fp	-10.6554
▁wire	-10.6558
▁employee	-10.6566
▁whale	-10.6567
▁root	-10.6569
▁introduc	-10.6575
▁resolv	-10.6579
▁seconds	-10.6587
iri	-10.6623
▁ignor	-10.6626
bility	-10.663
dp	-10.6632
istan	-10.6635
▁promotion	-10.6655
▁traffick	-10.6662
▁advi	-10.6664
▁polar	-10.6668
▁propose	-10.6669
▁spill	-10.6695
▁unrest	-10.6702
▁lobby	-10.6702
▁quarterfinal	-10.6702
▁creature	-10.6702
▁tunnel	-10.6702
▁crush	-10.6702
▁donald	-10.6703
▁impossible	-10.6703
▁consequence	-10.6703
▁slump	-10.6705
▁map	-10.6708
▁roof	-10.6709
▁residence	-10.6711
▁160	-10.6719
ada	-10.6721
▁fleet	-10.6728
▁confrontation	-10.6742
nancy	-10.6742
▁anticipat	-10.6744
stein	-10.6755
▁larr	-10.6766
▁wheel	-10.6773
▁securit	-10.6774
zo	-10.6784
▁si	-10.6786
▁sung	-10.679
▁andrew	-10.6791
▁robber	-10.6793
▁manage	-10.6806
▁rep	-10.6807
gi	-10.6817
▁divid	-10.6822
▁towns	-10.6841
▁garden	-10.6848
▁alex	-10.6859
▁sand	-10.6866
head	-10.6867
▁gambar	-10.6868
▁prior	-10.6874
▁lanka	-10.6876
▁starr	-10.6877
▁guerrilla	-10.6894
▁transaction	-10.6894
▁checkpoint	-10.6895
▁rifle	-10.6895
▁strategic	-10.6895
▁greenhouse	-10.6895
▁curb	-10.6896
▁restor	-10.6898
▁doors	-10.6898
▁davis	-10.6898
▁teens	-10.69
▁missou	-10.6901
▁phila	-10.6902
mbled	-10.6904
▁slamm	-10.6915
▁offender	-10.6925
▁electronics	-10.6926
ki	-10.6929
▁beer	-10.6937
▁villa	-10.6941
▁worsen	-10.6948
▁revenue	-10.6956
clusive	-10.6958
▁yong	-10.6961
▁sam	-10.6962
▁81	-10.6973
▁breach	-10.6973
▁undermine	-10.6979
▁inspir	-10.6982
▁mi	-10.6984
▁hunter	-10.6985
▁thinking	-10.6992
▁banner	-10.7002
▁ousted	-10.7003
tar	-10.7005
rac	-10.7006
▁legs	-10.7008
▁fo	-10.7016
▁phase	-10.7027
▁uh	-10.703
cation	-10.7037
▁lend	-10.7039
losi	-10.7045
▁impose	-10.7046
▁documentar	-10.7053
▁whit	-10.7068
▁dictator	-10.709
▁qualify	-10.709
▁hybrid	-10.709
▁administrative	-10.709
▁merkel	-10.709
▁technique	-10.709
▁swimming	-10.709
▁exposure	-10.709
▁hamid	-10.7091
▁panama	-10.7091
▁abortion	-10.7091
▁relocation	-10.7091
▁mohammad	-10.7091
▁eve	-10.7092
▁alarm	-10.7092
▁pattern	-10.7093
▁panda	-10.7094
▁respective	-10.7094
▁extraordinar	-10.7094
▁coca	-10.7095
▁timor	-10.7095
▁dawn	-10.7096
▁centre	-10.7096
▁runoff	-10.7098
irai	-10.7104
led	-10.7122
▁fever	-10.7124
▁82	-10.7142
▁jon	-10.7151
▁colon	-10.7154
▁minorit	-10.7164
▁household	-10.7164
▁polan	-10.7167
▁politician	-10.7167
▁warner	-10.7177
board	-10.7179
tion	-10.7179
▁syrian	-10.7181
▁tension	-10.7185
▁viewers	-10.7185
▁overcom	-10.7186
▁retailer	-10.7188
▁thin	-10.7194
▁moral	-10.72
shore	-10.72
▁hunting	-10.7205
▁airports	-10.7206
▁plung	-10.7211
▁upset	-10.7212
▁dean	-10.7213
▁shell	-10.7213
▁depressi	-10.7214
▁please	-10.7218
▁golf	-10.7222
oding	-10.7227
▁resist	-10.7228
▁liquid	-10.7232
ated	-10.7236
▁criticize	-10.7237
▁yo	-10.7238
ential	-10.7239
▁pray	-10.7241
▁laugh	-10.7244
▁replac	-10.7252
▁whales	-10.7252
▁submit	-10.726
▁mom	-10.7261
▁hitt	-10.7265
▁newly	-10.7269
▁del	-10.727
▁exhibit	-10.7281
▁giuli	-10.729
▁minimum	-10.729
▁netherlands	-10.729
▁ambush	-10.729
▁testify	-10.729
▁twenty	-10.729
▁embryo	-10.7291
▁orlean	-10.7291
▁wildfire	-10.7291
▁substance	-10.7291
▁toilet	-10.7291
▁evacuation	-10.7292
▁amendment	-10.7292
▁duck	-10.7292
▁greek	-10.7293
▁slam	-10.7293
▁baseball	-10.7293
▁serb	-10.7295
▁rodrigue	-10.7296
▁jungle	-10.7296
▁ioc	-10.7296
▁gear	-10.7299
oil	-10.73
▁freeze	-10.7303
▁deadlie	-10.7304
burg	-10.7306
▁stroke	-10.7306
▁portion	-10.7308
▁gray	-10.731
▁virgin	-10.7316
▁volunteers	-10.7316
▁hawk	-10.7318
▁submitt	-10.7324
▁jo	-10.7324
▁gate	-10.733
▁smash	-10.7331
▁concept	-10.7333
▁compet	-10.7341
▁tropica	-10.7343
▁mor	-10.7354
▁core	-10.7355
▁trend	-10.737
▁breath	-10.7387
abee	-10.7397
▁rowl	-10.7401
▁amounts	-10.7402
▁plate	-10.7413
▁shots	-10.7415
▁extremists	-10.7417
▁laho	-10.7436
▁dec	-10.7438
▁function	-10.7447
▁mall	-10.7447
▁combin	-10.7451
held	-10.7458
be	-10.7464
▁88	-10.7467
▁latin	-10.7485
▁revolution	-10.7486
▁counsel	-10.749
▁ok	-10.7493
▁pla	-10.7493
▁stuff	-10.7495
▁seattle	-10.7496
▁disappearance	-10.7497
▁wireless	-10.7498
▁efficient	-10.75
burgh	-10.7501
▁celebration	-10.7502
▁yuan	-10.7507
▁feed	-10.7509
▁leftist	-10.7514
▁emotional	-10.7526
▁laid	-10.7527
▁rudd	-10.7539
▁solid	-10.7563
▁nice	-10.7564
▁worry	-10.7571
half	-10.7573
▁bu	-10.7582
sh	-10.7582
east	-10.7582
▁defending	-10.7585
▁191	-10.759
▁attitude	-10.76
▁endur	-10.7603
identified	-10.7607
que	-10.7611
▁denounc	-10.7612
▁albert	-10.7633
▁ja	-10.7638
▁wrapp	-10.7645
▁isolat	-10.7646
▁stick	-10.7665
▁quote	-10.7665
▁pat	-10.7671
▁flat	-10.7689
▁cheap	-10.7693
▁kuwait	-10.7694
▁touris	-10.7694
▁anchor	-10.7698
▁spa	-10.7701
▁infant	-10.7702
▁luxur	-10.7703
▁detroit	-10.7703
▁encounter	-10.7703
▁capitol	-10.7703
▁swift	-10.7703
▁constant	-10.7703
▁summon	-10.7703
▁fulfill	-10.7703
▁obligation	-10.7704
▁timetable	-10.7705
▁houston	-10.7705
▁influ	-10.7707
▁bankruptcy	-10.7707
▁reward	-10.7708
▁meat	-10.7711
▁maria	-10.7712
▁wal	-10.772
▁rum	-10.7725
▁rac	-10.7731
▁murr	-10.7735
▁homeless	-10.7735
▁simon	-10.7737
▁shi	-10.7737
▁revive	-10.7737
▁ron	-10.7737
▁trick	-10.7745
▁pav	-10.7745
▁shoulder	-10.775
▁euros	-10.775
▁feb	-10.776
opec	-10.7764
▁winners	-10.7764
▁sao	-10.7777
▁attach	-10.7785
▁eric	-10.7786
▁fin	-10.779
▁investigations	-10.7791
▁dat	-10.7791
▁sons	-10.7792
▁faction	-10.7794
long	-10.7795
ko	-10.7813
standing	-10.7814
ball	-10.7816
▁nak	-10.7822
▁sin	-10.7825
▁stag	-10.7831
▁bang	-10.7841
ella	-10.7877
▁dry	-10.788
▁ver	-10.7891
▁cleve	-10.7906
▁semifinal	-10.7914
▁enterprise	-10.7916
▁relax	-10.7916
▁voluntar	-10.7916
▁belief	-10.7916
▁elephant	-10.7916
▁cigarette	-10.7916
▁spiritual	-10.7916
▁offense	-10.7916
▁landmark	-10.7916
▁blanket	-10.7916
▁hint	-10.7916
▁terminal	-10.7916
▁aftershock	-10.7917
▁competitive	-10.7917
▁displac	-10.7918
▁launder	-10.7919
▁arabic	-10.7922
▁inquest	-10.7922
▁abduction	-10.7922
▁keb	-10.7926
▁granted	-10.7927
▁compromise	-10.7928
arctic	-10.7929
▁torn	-10.7933
▁pour	-10.7936
▁execut	-10.7938
▁presumpti	-10.7938
▁140	-10.794
▁universal	-10.794
▁icon	-10.7945
▁dop	-10.795
▁expos	-10.7954
▁apologiz	-10.7956
▁designer	-10.7957
▁wales	-10.7958
▁shara	-10.7958
sfeld	-10.796
dc	-10.7961
▁flags	-10.7966
▁kansa	-10.7969
▁detainees	-10.797
▁fi	-10.7991
▁cartoon	-10.7994
ze	-10.7997
▁escap	-10.7999
▁disclose	-10.8
▁coal	-10.8002
ov	-10.8004
▁bribe	-10.801
▁burst	-10.8018
▁bei	-10.8029
▁advisor	-10.8048
km	-10.8049
▁tay	-10.8056
▁decisions	-10.8057
▁soo	-10.8059
▁kath	-10.8063
hdi	-10.8068
▁habitat	-10.8074
▁locate	-10.8075
▁distribut	-10.8078
▁hir	-10.8079
▁mandat	-10.8102
▁hasn	-10.8102
▁follower	-10.8102
▁yel	-10.8106
▁iron	-10.8108
cia	-10.8114
▁pan	-10.8124
▁confront	-10.8129
▁consecutive	-10.8133
▁precaution	-10.8133
▁expansion	-10.8133
▁mortar	-10.8133
▁salmon	-10.8133
▁vitamin	-10.8134
▁barbara	-10.8134
▁ballistic	-10.8134
▁suspicious	-10.8134
▁tragedy	-10.8135
▁colonial	-10.8135
▁prominent	-10.8136
▁priest	-10.8136
▁turm	-10.8138
▁musician	-10.8141
▁pole	-10.8148
▁load	-10.815
wright	-10.8156
v	-10.8169
▁chole	-10.817
▁pun	-10.817
nnan	-10.8183
▁bars	-10.8185
izu	-10.8191
ehouse	-10.8193
▁gm	-10.8211
▁lion	-10.8213
omar	-10.8214
ius	-10.8231
▁holder	-10.8244
eva	-10.8247
▁desire	-10.8253
precedent	-10.8255
▁equit	-10.8262
uri	-10.8263
iro	-10.8263
▁uni	-10.8264
▁capabilit	-10.827
▁centur	-10.8292
▁dominate	-10.8297
▁responsibilit	-10.833
drew	-10.834
▁breed	-10.8345
lum	-10.8348
▁industri	-10.8348
▁prohibit	-10.835
▁reduc	-10.8354
▁deficit	-10.8355
▁disorder	-10.8355
▁ecuador	-10.8355
▁evolution	-10.8355
▁technologies	-10.8355
▁clinch	-10.8355
▁inauguration	-10.8356
▁admission	-10.8356
▁tornado	-10.8356
▁drill	-10.8356
▁dissident	-10.8356
▁medication	-10.8358
▁urgent	-10.8358
▁uncover	-10.8358
▁insult	-10.8358
▁gyeong	-10.8359
▁empty	-10.8361
▁ir	-10.8361
▁sweden	-10.8361
▁amazon	-10.8363
▁insurgenc	-10.8367
tsin	-10.8377
▁theft	-10.838
▁gu	-10.8382
▁malaysian	-10.8388
▁cooper	-10.8389
▁sang	-10.8393
▁91	-10.8393
▁cards	-10.8395
▁proceedings	-10.8397
▁dad	-10.84
▁adam	-10.8401
▁demonstrate	-10.8402
▁scheme	-10.8412
▁characters	-10.8412
rut	-10.8413
▁geologic	-10.8417
▁lo	-10.8421
▁drawing	-10.8424
▁peer	-10.8427
ors	-10.8449
▁ramo	-10.8454
▁frontier	-10.8454
▁lin	-10.8472
▁180	-10.8482
▁passport	-10.8482
▁inde	-10.8489
▁libert	-10.8491
▁ni	-10.8493
▁employment	-10.8493
▁indicted	-10.8495
▁mountains	-10.8499
▁dominat	-10.8499
▁cooperate	-10.85
ila	-10.8501
▁oversee	-10.8526
▁deliberate	-10.8534
▁diploma	-10.8565
▁happening	-10.8576
▁yemen	-10.8577
▁confess	-10.8579
▁concession	-10.8582
▁genocid	-10.8582
▁religion	-10.8582
▁tabloid	-10.8582
▁transplant	-10.8582
▁chapter	-10.8583
▁extensive	-10.8583
▁lewis	-10.8583
▁evil	-10.8583
▁definite	-10.8583
▁pipeline	-10.8583
▁unfair	-10.8583
kovic	-10.8583
▁kanda	-10.8584
▁accompani	-10.8584
iscons	-10.8584
▁ibrahim	-10.8585
▁tribute	-10.8585
▁99	-10.8586
▁gerr	-10.8588
▁sight	-10.8588
▁hide	-10.8589
▁creation	-10.8592
▁ambition	-10.8595
▁proof	-10.8598
et	-10.86
▁loud	-10.8602
▁milk	-10.8603
▁spray	-10.8605
me	-10.8607
▁instance	-10.861
▁tale	-10.8612
▁occasion	-10.8614
▁personally	-10.8625
▁suggestion	-10.8628
viation	-10.8632
▁publication	-10.8632
▁pointed	-10.8639
▁visibl	-10.8646
▁ruler	-10.8647
▁motors	-10.8647
▁diya	-10.8655
the	-10.8669
▁canal	-10.8685
▁rodd	-10.8686
dev	-10.8687
sul	-10.8703
▁stepping	-10.8708
ison	-10.8713
▁stead	-10.872
▁principle	-10.8723
▁impo	-10.8729
▁vessels	-10.8729
▁discover	-10.873
▁pool	-10.873
▁circle	-10.8734
▁fake	-10.8736
▁clip	-10.8737
▁decid	-10.8739
▁regret	-10.8741
▁tower	-10.8743
ok	-10.875
▁permissi	-10.8756
▁86	-10.8766
▁flower	-10.8777
ek	-10.8778
▁mer	-10.8792
▁woods	-10.8794
ntao	-10.8796
▁denucleariz	-10.88
▁grab	-10.8803
▁wrap	-10.8809
▁telescope	-10.8815
▁migrant	-10.8815
▁pepper	-10.8815
▁suspension	-10.8815
▁exclusive	-10.8817
▁qu	-10.8818
▁statue	-10.8818
▁consistent	-10.8818
▁snake	-10.8819
▁recommendation	-10.8819
▁chamber	-10.882
▁dragg	-10.8821
▁gaz	-10.8824
▁grass	-10.8825
▁replacement	-10.8826
▁background	-10.8828
▁mart	-10.8829
▁tighten	-10.8831
▁contractor	-10.8843
▁escalat	-10.8847
▁ahmad	-10.885
▁mac	-10.885
lated	-10.887
▁tho	-10.8882
▁kyu	-10.8893
der	-10.8899
▁trace	-10.891
▁rains	-10.892
her	-10.892
▁strand	-10.8931
▁au	-10.8939
▁tomb	-10.8941
▁tickets	-10.8957
▁automaker	-10.8966
▁ker	-10.898
▁350	-10.8982
▁recognized	-10.8982
▁crossing	-10.8994
em	-10.8997
▁ke	-10.9006
pol	-10.9009
▁thick	-10.9009
▁philip	-10.9027
▁occur	-10.9032
▁nigeria	-10.9036
▁teenage	-10.9038
▁welcom	-10.9039
verish	-10.9044
ppp	-10.9045
gt	-10.9046
▁interpret	-10.9051
▁pilgrim	-10.9052
▁consensu	-10.9053
▁predecessor	-10.9053
▁tissue	-10.9053
▁volume	-10.9053
▁prosper	-10.9053
▁fault	-10.9053
▁destination	-10.9054
nd	-10.9054
▁zawah	-10.9054
▁respondent	-10.9054
▁idol	-10.9054
▁download	-10.9054
▁katrin	-10.9055
▁lord	-10.9055
▁partnership	-10.9055
▁possession	-10.9056
▁contribution	-10.9057
▁rebound	-10.9058
▁resistance	-10.9058
▁emirate	-10.9059
▁brigade	-10.906
▁occupie	-10.9062
▁imagine	-10.9069
▁grenade	-10.9072
▁publisher	-10.9085
▁reverse	-10.909
▁rent	-10.9097
ament	-10.9099
▁kitt	-10.9102
▁secur	-10.9103
▁persuade	-10.9104
▁taxi	-10.911
ological	-10.9112
▁sheet	-10.9112
▁masters	-10.9116
▁goalkeep	-10.9125
▁proceed	-10.9154
▁riding	-10.9158
▁nazi	-10.9159
▁pm	-10.9171
arachi	-10.9191
▁expire	-10.9208
fk	-10.9224
▁125	-10.923
hook	-10.924
▁hike	-10.924
▁berna	-10.9262
▁transform	-10.9271
▁chip	-10.9272
dari	-10.9288
▁ambulance	-10.9297
▁embarrass	-10.9297
▁infrastructure	-10.9297
▁judiciar	-10.9297
▁oklahoma	-10.9297
▁skull	-10.9297
▁unacceptabl	-10.9297
▁absence	-10.9297
▁videotape	-10.9297
▁vermont	-10.9297
▁extension	-10.9297
▁autonom	-10.9297
▁craig	-10.9297
▁instant	-10.9297
▁incredibl	-10.9297
▁steep	-10.9298
▁desperate	-10.9298
▁interrogation	-10.9298
▁guideline	-10.9301
▁puert	-10.9301
▁outlook	-10.9301
bama	-10.9302
▁everywhere	-10.9303
▁kyung	-10.9305
▁polluti	-10.9307
▁torre	-10.931
▁ch	-10.9312
▁charter	-10.9312
▁marking	-10.9317
▁factors	-10.932
▁matters	-10.9334
▁harv	-10.9344
▁ph	-10.9345
▁recording	-10.9354
▁classe	-10.9358
▁procedures	-10.9363
▁plent	-10.9374
nke	-10.9375
▁primari	-10.9379
▁nin	-10.9406
▁universit	-10.9412
▁lender	-10.9412
▁mon	-10.9424
▁mu	-10.9444
lets	-10.9461
▁richards	-10.9462
▁hidd	-10.9482
▁exploit	-10.9482
indi	-10.9485
li	-10.9493
▁vision	-10.9494
▁cart	-10.9496
▁chancell	-10.9499
▁rivers	-10.95
sen	-10.9505
▁pleas	-10.951
min	-10.9538
▁z	-10.954
▁blog	-10.9541
ucky	-10.9543
▁depart	-10.9544
refore	-10.9544
▁afr	-10.9547
▁superior	-10.9547
▁spaniard	-10.9547
ari	-10.9547
▁jolie	-10.9547
▁maritime	-10.9547
▁economies	-10.9547
▁balloon	-10.9547
▁overturn	-10.9548
▁chicken	-10.9548
▁shutdown	-10.9548
▁archaeologist	-10.9549
▁honest	-10.9549
▁midfielder	-10.955
▁brick	-10.955
▁endorsement	-10.9551
▁graham	-10.9551
▁grace	-10.9551
▁pardon	-10.9552
▁steal	-10.9553
ad	-10.9554
▁ahmed	-10.9554
▁legitimate	-10.9559
▁walter	-10.956
▁craft	-10.9562
▁commuter	-10.9562
▁nair	-10.9565
▁hwa	-10.9566
▁vien	-10.9567
▁afterward	-10.9567
▁galaxy	-10.9568
▁der	-10.9569
▁dirt	-10.9572
obi	-10.9574
▁silence	-10.9588
▁melt	-10.9589
▁partial	-10.959
▁clay	-10.9602
▁bloom	-10.9602
▁plea	-10.9604
▁examin	-10.9609
▁clo	-10.9628
tada	-10.9638
▁dropping	-10.9639
harto	-10.964
cut	-10.9648
▁mask	-10.9651
▁guan	-10.9655
▁headline	-10.9668
▁achiev	-10.9681
▁fred	-10.9685
ral	-10.9688
math	-10.969
▁bow	-10.9694
▁sec	-10.9705
▁chase	-10.9724
pov	-10.9728
▁vaccine	-10.973
▁massacre	-10.9731
▁nicole	-10.9733
▁infection	-10.9737
▁opponent	-10.9737
▁philippine	-10.9737
▁univers	-10.9738
▁procedure	-10.9739
▁plays	-10.9741
ova	-10.9745
▁pen	-10.9747
ean	-10.975
▁master	-10.9755
▁kidnapp	-10.9756
▁victor	-10.9765
▁manufacturers	-10.9775
▁mrs	-10.9784
▁compare	-10.9786
▁vulnerab	-10.9795
▁analysi	-10.9795
▁violate	-10.9797
fer	-10.9799
▁telecom	-10.9801
▁fundamental	-10.9801
judicial	-10.9803
▁component	-10.9803
▁marathon	-10.9803
▁taxpayer	-10.9803
▁legislature	-10.9803
▁unexpected	-10.9803
▁regain	-10.9803
▁gradual	-10.9803
▁monarch	-10.9803
▁distress	-10.9804
▁entrance	-10.9804
▁wilson	-10.9804
▁biologist	-10.9805
▁theme	-10.9805
▁expell	-10.9806
▁principal	-10.9807
▁descend	-10.9807
▁guild	-10.9808
▁poison	-10.9808
▁burden	-10.9808
▁rad	-10.9812
▁remarkable	-10.9814
▁landscape	-10.9816
▁distribution	-10.9816
▁statistics	-10.9817
▁airplane	-10.9819
▁filmmaker	-10.982
▁burial	-10.982
▁confirmation	-10.9823
▁libyan	-10.9828
▁shake	-10.9845
▁penn	-10.9845
▁yu	-10.9848
▁magic	-10.9848
▁tanker	-10.9873
ino	-10.9874
▁habit	-10.9875
▁bacteria	-10.9885
▁stream	-10.9886
▁endorse	-10.9888
phy	-10.9894
▁deals	-10.9894
▁abuses	-10.9895
yen	-10.9904
▁plunge	-10.9908
▁chan	-10.9909
ioxid	-10.9915
▁brook	-10.9925
▁84	-10.993
kara	-10.9933
▁dismantl	-10.9936
▁launching	-10.9948
tarian	-10.9955
▁skills	-10.9956
▁predict	-10.9959
▁roma	-10.9975
▁ram	-10.9983
▁orchestra	-10.9984
latter	-10.9989
▁knight	-10.9991
▁contribut	-10.9991
▁nurse	-10.9993
▁victoria	-10.9998
col	-10.9998
ware	-11.0002
▁emerg	-11.0013
ose	-11.0033
▁glas	-11.004
▁uganda	-11.0048
▁98	-11.005
▁preserve	-11.0056
▁oct	-11.0056
not	-11.006
▁cape	-11.0062
▁oxygen	-11.0067
▁volatil	-11.0067
▁bargain	-11.0067
▁dolphin	-11.0067
▁surprising	-11.0067
▁thirty	-11.0067
▁composite	-11.0067
▁campbell	-11.0067
▁drown	-11.0067
▁registration	-11.0067
▁mirror	-11.0067
▁toyota	-11.0069
▁statistical	-11.0069
▁guang	-11.0069
▁combination	-11.0069
▁height	-11.007
▁unique	-11.007
▁inmate	-11.007
▁myspace	-11.0071
▁gender	-11.0071
▁amaz	-11.0073
▁pig	-11.0074
▁pornograph	-11.0074
▁coverage	-11.0077
▁ruin	-11.0077
▁miller	-11.008
▁passage	-11.0082
ou	-11.009
▁astronomer	-11.0093
sburg	-11.0094
▁deepen	-11.0095
▁medic	-11.0095
▁serbian	-11.0101
▁hye	-11.0105
▁bb	-11.0105
anamo	-11.0112
ell	-11.0112
▁embrace	-11.0113
russel	-11.0121
▁clue	-11.0121
▁decrease	-11.0124
▁rob	-11.0128
ev	-11.013
▁fe	-11.0134
▁raped	-11.0135
rd	-11.0139
▁hiding	-11.0141
▁belgi	-11.0142
▁determin	-11.0146
▁killer	-11.0153
▁cats	-11.0154
▁wash	-11.0159
▁broker	-11.0161
▁eggs	-11.0164
▁covering	-11.0168
▁jay	-11.0169
▁turns	-11.0186
ba	-11.0192
▁bhut	-11.0199
▁prais	-11.0205
▁sevill	-11.0212
tic	-11.0215
ington	-11.0225
mond	-11.0227
▁comfortabl	-11.0232
▁mere	-11.0241
▁plac	-11.0246
▁forget	-11.0251
▁endors	-11.0254
▁discount	-11.0254
▁harris	-11.0258
▁challeng	-11.0258
▁phil	-11.0258
ribe	-11.0258
▁mud	-11.0277
▁jets	-11.028
▁christ	-11.0286
▁fatalit	-11.0297
▁accidental	-11.0298
▁dealers	-11.0306
▁repeat	-11.0317
vili	-11.0324
▁tr	-11.0333
▁coincide	-11.0337
▁indefinite	-11.0337
▁beautiful	-11.0337
▁enormous	-11.0337
▁escort	-11.0337
▁retreat	-11.0337
▁gunshot	-11.0337
▁prestig	-11.0337
▁talent	-11.0338
▁probation	-11.0338
▁teeth	-11.0338
▁slip	-11.0338
▁reopen	-11.0339
▁installation	-11.0339
▁examination	-11.0339
▁manipulation	-11.0339
teen	-11.0339
▁parade	-11.0341
▁pronounce	-11.0341
remlin	-11.0342
▁audio	-11.0342
▁iphone	-11.0342
▁albanian	-11.0343
▁romantic	-11.0343
▁guess	-11.0343
▁engagement	-11.0345
▁ferg	-11.0345
▁jobless	-11.0349
▁gesture	-11.0349
▁brian	-11.0352
▁smart	-11.0352
▁selection	-11.0354
▁publicist	-11.0355
▁mice	-11.0356
▁closure	-11.0357
ebay	-11.0365
▁wo	-11.0366
▁refusal	-11.0368
▁minne	-11.0378
liberation	-11.0386
▁arrang	-11.0387
▁dallas	-11.0387
▁dy	-11.0398
sley	-11.04
▁refuge	-11.04
▁joy	-11.0401
▁elaborate	-11.0411
▁armor	-11.0417
inho	-11.0422
▁bears	-11.0428
▁alan	-11.0428
▁unna	-11.043
▁joke	-11.0431
▁tent	-11.0432
▁ye	-11.0433
▁thus	-11.0435
waz	-11.044
▁zoe	-11.0442
▁principles	-11.0446
▁update	-11.0446
nt	-11.0448
if	-11.0454
ugher	-11.0458
onna	-11.0462
▁wav	-11.0465
ties	-11.0467
▁ala	-11.0489
▁atlant	-11.0501
▁mir	-11.0516
▁em	-11.0519
bow	-11.0526
▁hindu	-11.0532
▁theory	-11.0532
▁fare	-11.0539
▁complicat	-11.054
▁venture	-11.0544
▁remark	-11.055
▁suk	-11.055
▁ranch	-11.0555
▁swor	-11.0558
▁mistakes	-11.0559
ked	-11.0561
▁admit	-11.0564
ishu	-11.0566
▁permit	-11.0584
▁sect	-11.0602
stone	-11.0605
▁portray	-11.0608
▁troubl	-11.0608
▁revis	-11.0609
▁comprehensive	-11.0615
▁curfew	-11.0615
▁encouraging	-11.0615
▁cautious	-11.0615
▁oregon	-11.0615
▁intervention	-11.0615
▁harbor	-11.0615
▁casino	-11.0615
▁prophet	-11.0615
▁optimistic	-11.0615
▁unanimous	-11.0615
▁mercur	-11.0615
▁mutual	-11.0615
▁unpopular	-11.0615
▁ibm	-11.0616
▁pyeong	-11.0616
▁prolong	-11.0617
▁moga	-11.0618
▁comply	-11.0618
▁yield	-11.0619
▁objective	-11.0623
▁castle	-11.0623
▁silver	-11.0628
▁attraction	-11.0634
▁subway	-11.0635
▁kaes	-11.0641
▁finger	-11.0644
▁manner	-11.0647
▁luis	-11.0653
ably	-11.0663
cher	-11.0669
▁93	-11.0681
▁panic	-11.0685
▁rigg	-11.0685
▁fift	-11.0698
▁micro	-11.0699
▁taste	-11.0704
▁prov	-11.0707
▁sp	-11.0707
▁110	-11.0711
ullah	-11.0712
▁sink	-11.0712
▁defender	-11.0715
tt	-11.0718
▁forecaster	-11.072
▁scrap	-11.0727
▁rash	-11.0732
▁lunch	-11.0737
▁bur	-11.074
▁defin	-11.0745
▁sha	-11.075
▁argentine	-11.0753
ron	-11.0753
med	-11.0755
▁prostitute	-11.0756
athrow	-11.0756
orry	-11.0761
004	-11.0763
▁cult	-11.0764
nell	-11.0773
▁reiterat	-11.0773
▁fence	-11.0774
▁ag	-11.0774
▁jewel	-11.0783
▁posting	-11.0792
▁purchas	-11.0803
il	-11.0809
ck	-11.0816
▁te	-11.0819
elite	-11.0826
▁kun	-11.0833
▁radi	-11.0836
space	-11.0842
▁shah	-11.0851
▁usa	-11.0859
▁tip	-11.0863
▁volunteer	-11.0864
▁deteriorat	-11.0865
▁argument	-11.0872
▁consum	-11.0873
▁83	-11.0878
com	-11.0882
▁financ	-11.0886
▁mood	-11.0887
prom	-11.0889
▁branch	-11.089
▁danc	-11.0893
mo	-11.0893
▁circulat	-11.0895
▁adjust	-11.0897
▁crocodile	-11.09
▁episode	-11.09
▁expense	-11.09
▁incumbent	-11.09
▁citigroup	-11.09
▁crocker	-11.09
▁aspect	-11.09
▁eligib	-11.0901
▁elevator	-11.0901
▁surf	-11.0901
▁reconstruction	-11.0901
▁basket	-11.0901
nba	-11.0902
▁pirac	-11.0902
▁kidney	-11.0902
▁acid	-11.0902
ronto	-11.0902
▁bahama	-11.0906
▁captor	-11.0906
▁proliferat	-11.0908
▁nov	-11.0912
▁grabb	-11.0917
▁rev	-11.0917
▁observation	-11.0924
▁yourself	-11.0929
▁amy	-11.0931
▁tries	-11.0932
ade	-11.0941
▁chat	-11.0958
▁opposit	-11.0968
▁cheong	-11.0982
iest	-11.0983
egger	-11.0993
▁nose	-11.0999
dong	-11.1003
ka	-11.1004
▁juan	-11.1044
▁89	-11.1045
▁fisher	-11.1052
awat	-11.1058
▁signing	-11.1061
▁ku	-11.1061
▁br	-11.1065
▁burm	-11.1074
▁mc	-11.109
going	-11.1097
prime	-11.1099
sky	-11.1102
▁hanging	-11.1108
▁alli	-11.1112
▁swing	-11.1112
▁sept	-11.1116
▁user	-11.1125
▁pitts	-11.1138
went	-11.114
▁presum	-11.1147
▁reviv	-11.1148
▁twist	-11.1148
▁smil	-11.1152
▁pollut	-11.1153
ago	-11.1159
▁gift	-11.1164
▁fl	-11.1169
▁eas	-11.1171
▁ratings	-11.1178
▁connecti	-11.1187
▁linds	-11.1188
▁greenpeace	-11.1194
▁dakota	-11.1194
▁dinosaur	-11.1194
▁motorcycle	-11.1195
▁schwarz	-11.1195
▁ultra	-11.1195
▁eager	-11.1195
▁slogan	-11.1195
▁bolster	-11.1195
▁epicenter	-11.1195
▁approximate	-11.1195
▁bedroom	-11.1195
▁reputation	-11.1195
droe	-11.1195
▁mammal	-11.1195
▁deadlock	-11.1195
▁motive	-11.1195
▁twel	-11.1195
▁tripoli	-11.1195
▁borrow	-11.1196
▁rhetoric	-11.1196
▁foster	-11.1196
▁assess	-11.1196
oprah	-11.1197
▁zap	-11.1197
▁recycl	-11.1198
▁extinction	-11.1198
▁detective	-11.1199
▁survival	-11.1199
▁intervene	-11.12
▁fertil	-11.1201
▁disruption	-11.1203
mpson	-11.1206
▁ivor	-11.1209
▁brave	-11.1213
▁requirement	-11.1213
▁spur	-11.1214
▁alien	-11.1215
▁rawal	-11.1216
▁tea	-11.1221
▁useful	-11.1221
▁matt	-11.1225
▁automatic	-11.1227
▁boxes	-11.123
fire	-11.1235
▁slaughter	-11.1238
▁atlanti	-11.1242
▁marry	-11.1243
▁bal	-11.1244
▁academic	-11.1246
ves	-11.1247
▁ear	-11.125
▁ads	-11.1254
▁coin	-11.1268
▁publish	-11.127
▁pure	-11.1276
▁challenger	-11.1301
▁explode	-11.1304
▁install	-11.1305
my	-11.131
▁indict	-11.1311
▁ignore	-11.1324
▁rocky	-11.1325
▁posts	-11.1327
▁ac	-11.1329
enver	-11.1329
ego	-11.1338
▁nationalist	-11.134
▁dismantle	-11.1343
ampa	-11.1361
▁sat	-11.1362
▁enable	-11.1365
band	-11.1373
ward	-11.1377
cheon	-11.1388
▁button	-11.1393
▁contenders	-11.1396
stream	-11.1399
fall	-11.14
▁examine	-11.1401
piece	-11.1401
person	-11.1404
▁hostil	-11.1411
▁hire	-11.1415
▁ripp	-11.1416
▁populat	-11.1432
▁ideal	-11.1436
▁tai	-11.1438
ture	-11.1441
olla	-11.1449
som	-11.145
▁worri	-11.1453
▁tactic	-11.1467
▁wu	-11.1469
front	-11.1471
▁widen	-11.1473
▁shak	-11.1477
▁cambodia	-11.148
▁96	-11.1481
▁opt	-11.1482
au	-11.1484
▁tap	-11.1488
▁spectac	-11.1496
▁accompany	-11.1498
▁counterfeit	-11.1498
▁shrink	-11.1498
▁sprawl	-11.1498
▁asteroid	-11.1498
▁benjamin	-11.1498
▁equivalent	-11.1498
▁imminent	-11.1498
▁instrument	-11.1498
▁denmark	-11.1498
▁incentive	-11.1498
▁incursion	-11.1498
▁carpet	-11.1498
▁strait	-11.1498
▁loot	-11.1498
▁excessive	-11.1498
▁pension	-11.1498
▁outdoor	-11.1499
▁strategist	-11.1499
▁patriot	-11.1499
▁classroom	-11.15
▁bernard	-11.1501
bo	-11.1502
▁revision	-11.1503
▁bruce	-11.1503
▁serge	-11.1503
▁broadway	-11.1505
▁divert	-11.1507
▁utilit	-11.1507
▁ethiopian	-11.1509
▁branches	-11.151
▁pregnancy	-11.1512
▁freez	-11.1516
▁musa	-11.1518
won	-11.1534
▁limb	-11.154
▁experienc	-11.1543
▁noon	-11.1547
▁assume	-11.1557
rry	-11.1561
▁teaching	-11.1562
▁shouted	-11.1566
lisa	-11.1569
ible	-11.1569
▁bold	-11.157
▁eliminat	-11.1571
▁allen	-11.1573
▁slide	-11.1597
▁lane	-11.1611
▁automakers	-11.1611
▁winf	-11.1619
▁christians	-11.1619
fda	-11.1631
▁deposit	-11.1631
ul	-11.1642
▁shap	-11.1644
▁advanc	-11.1659
▁parker	-11.1666
residential	-11.1686
ster	-11.1689
▁stalin	-11.1689
▁installed	-11.1691
our	-11.1695
▁hack	-11.1696
ega	-11.1703
skirt	-11.1707
port	-11.171
380	-11.1717
mon	-11.1722
rmed	-11.1725
▁scrambl	-11.173
▁almo	-11.1734
▁rid	-11.1735
▁tears	-11.1736
▁racial	-11.1745
care	-11.1746
▁mas	-11.1757
fish	-11.1764
ee	-11.1766
▁starts	-11.1781
awi	-11.1784
▁remind	-11.1786
▁billionaire	-11.1788
▁prefer	-11.179
▁sympath	-11.1792
mura	-11.1796
▁depict	-11.1806
▁disagree	-11.1807
▁personalit	-11.1807
▁applications	-11.1809
▁adapt	-11.1809
▁caribbean	-11.181
▁invitation	-11.181
▁mammoth	-11.181
▁overhaul	-11.181
▁pichushkin	-11.181
▁revenge	-11.181
▁surpass	-11.181
▁unsuccessful	-11.181
▁wrongdoing	-11.181
▁crunch	-11.181
▁administrator	-11.181
▁cardinal	-11.181
▁confine	-11.181
▁saint	-11.1811
▁anonymous	-11.1811
▁stronghold	-11.1811
▁abolish	-11.1811
akash	-11.1812
lmand	-11.1812
▁legislator	-11.1812
▁haul	-11.1813
▁candidacy	-11.1813
▁spell	-11.1813
▁assertion	-11.1815
▁ambitio	-11.1817
▁achievement	-11.1818
horta	-11.182
▁pride	-11.1821
▁eruption	-11.1823
▁anybody	-11.1824
▁mumm	-11.183
▁ab	-11.183
▁hometown	-11.1833
tra	-11.1835
▁hip	-11.1837
udh	-11.1844
▁surgeon	-11.1845
▁phenomen	-11.1846
▁intent	-11.1848
ood	-11.1848
▁consideration	-11.185
▁yasu	-11.1851
▁petrole	-11.1851
▁shooter	-11.1851
▁aig	-11.1854
room	-11.1857
▁nikk	-11.1858
▁assured	-11.1865
▁92	-11.1868
▁interviewed	-11.1868
▁leap	-11.1872
▁luc	-11.1872
▁expanding	-11.1892
▁deck	-11.191
wear	-11.1917
yodo	-11.1918
▁geu	-11.1918
cal	-11.1918
▁amin	-11.1921
die	-11.1923
▁lesson	-11.1924
how	-11.193
ver	-11.1931
ho	-11.1932
mann	-11.1933
▁shim	-11.1934
tified	-11.1942
▁exporter	-11.1946
▁developer	-11.1949
bourne	-11.195
▁tae	-11.1955
▁menu	-11.1968
▁inspire	-11.1973
henin	-11.1974
▁slum	-11.1979
▁opera	-11.1989
▁therap	-11.1993
world	-11.2008
▁ash	-11.2015
▁stopp	-11.2029
▁springs	-11.2061
▁eliminate	-11.2061
▁retire	-11.2064
allah	-11.208
▁canne	-11.2085
▁surg	-11.2085
children	-11.2097
▁endeavo	-11.2114
▁haiti	-11.2122
▁cyber	-11.2124
▁hud	-11.2126
▁rove	-11.2127
▁exam	-11.2129
▁extinct	-11.2129
pa	-11.2131
▁mini	-11.2131
▁pyramid	-11.2133
▁tragic	-11.2133
▁aquarium	-11.2133
▁depth	-11.2133
▁thorough	-11.2133
▁anthem	-11.2133
▁fingerprint	-11.2133
▁tumor	-11.2133
▁crater	-11.2133
▁bathroom	-11.2133
▁breakfast	-11.2133
▁lynch	-11.2133
▁steam	-11.2133
▁expedition	-11.2133
▁restart	-11.2133
▁random	-11.2133
▁hamper	-11.2133
▁facebook	-11.2134
sterol	-11.2134
▁application	-11.2134
▁citizenship	-11.2135
▁rampage	-11.2135
▁pact	-11.2135
▁painful	-11.2136
▁merger	-11.2137
▁gibbon	-11.2138
▁pad	-11.2138
▁defector	-11.2139
▁drunk	-11.2143
▁belgian	-11.2144
▁provider	-11.2147
▁wayne	-11.2148
▁operative	-11.215
▁symptoms	-11.215
▁defect	-11.2151
▁sack	-11.2153
▁empir	-11.2154
▁cristian	-11.2162
▁jean	-11.2168
▁asset	-11.2169
▁arguments	-11.2176
▁attribut	-11.2176
▁archive	-11.218
▁advise	-11.2181
▁nur	-11.2183
▁oust	-11.2189
▁agreements	-11.2201
▁lucky	-11.2203
▁supplier	-11.2217
▁topic	-11.2217
▁bonds	-11.2226
▁rider	-11.2232
▁advocate	-11.2233
▁beside	-11.2238
▁patroll	-11.2244
cious	-11.2245
▁tala	-11.2248
hou	-11.2251
mao	-11.2254
▁resum	-11.2255
abao	-11.2257
▁knowing	-11.2262
▁sacrifice	-11.2269
▁dispos	-11.2272
▁passes	-11.2276
lando	-11.2288
▁mp	-11.2298
▁cole	-11.2303
▁donations	-11.2306
rotti	-11.2306
▁sum	-11.2325
cef	-11.2326
▁dar	-11.2343
▁med	-11.2344
mouth	-11.2357
he	-11.2361
▁hate	-11.2361
▁biolog	-11.2366
▁measur	-11.2369
▁sail	-11.2375
ke	-11.2399
ida	-11.2399
▁stewar	-11.2401
▁emi	-11.2406
▁fif	-11.2416
tti	-11.2419
ich	-11.2421
▁provision	-11.2422
▁ya	-11.2428
▁dun	-11.2428
▁hun	-11.2432
try	-11.2438
▁hui	-11.2444
▁designat	-11.2446
▁coat	-11.2449
like	-11.2451
▁digit	-11.2454
▁buzz	-11.2462
▁hearts	-11.2464
▁automobile	-11.2466
▁explanation	-11.2466
▁margaret	-11.2466
▁norwegian	-11.2466
▁shepherd	-11.2466
▁sophisticat	-11.2466
▁verify	-11.2466
▁subsequent	-11.2466
▁silent	-11.2466
▁hazard	-11.2466
▁mercedes	-11.2466
▁animated	-11.2466
▁diabet	-11.2466
▁boast	-11.2466
▁website	-11.2466
▁physician	-11.2467
▁scatter	-11.2467
▁judgment	-11.2467
▁graphic	-11.2467
▁echo	-11.2467
▁samarra	-11.2467
▁tribunal	-11.2468
▁disagreement	-11.2469
▁polish	-11.2469
▁equipp	-11.247
▁quell	-11.247
▁tayyi	-11.2471
▁blitz	-11.2472
▁consultation	-11.2473
▁autops	-11.2474
▁warehouse	-11.2475
zhei	-11.2478
nold	-11.2478
▁modest	-11.248
▁monkey	-11.2481
▁wheat	-11.2481
▁edward	-11.2484
▁practical	-11.2484
▁fujimo	-11.2486
▁lifetime	-11.2486
▁belonging	-11.2488
▁objection	-11.2488
▁assert	-11.2489
can	-11.2491
▁450	-11.2494
▁mccart	-11.2494
▁combine	-11.2496
▁denial	-11.2499
▁smuggling	-11.2501
▁mitt	-11.2502
▁alter	-11.2503
▁donor	-11.2503
▁bel	-11.2504
▁tips	-11.2512
▁pf	-11.2513
▁shouting	-11.252
▁plott	-11.2524
▁luna	-11.2529
▁fisc	-11.2534
▁projection	-11.2535
ook	-11.2545
▁rely	-11.2553
▁generat	-11.2567
▁cri	-11.2568
▁rings	-11.2581
▁lit	-11.2588
fected	-11.259
war	-11.2594
▁lov	-11.2602
▁caucus	-11.2607
apped	-11.2608
▁designate	-11.2608
11	-11.2611
▁immun	-11.2615
▁advis	-11.2618
ubble	-11.2629
▁happens	-11.2633
▁matsu	-11.2641
▁bind	-11.2645
▁cook	-11.2647
▁rada	-11.2649
▁bath	-11.2653
▁slim	-11.2655
▁stones	-11.2662
▁05	-11.2667
tuck	-11.2678
▁caps	-11.268
kat	-11.2688
▁grade	-11.2699
bani	-11.2704
munition	-11.271
▁formula	-11.2716
▁proto	-11.2719
station	-11.2725
▁battles	-11.2725
▁sued	-11.274
▁nud	-11.2745
▁communicate	-11.2746
▁evacuate	-11.2746
▁gus	-11.2747
▁futures	-11.2756
▁mandate	-11.2759
▁hi	-11.2765
▁dedicat	-11.277
▁aging	-11.277
ola	-11.2773
hy	-11.2775
ello	-11.2781
▁disabl	-11.2783
▁stripp	-11.2785
▁visual	-11.2787
▁widow	-11.2788
▁agenc	-11.2794
▁thrill	-11.2795
▁cathedral	-11.2796
wai	-11.2797
q	-11.2797
▁fernand	-11.2803
▁soft	-11.2806
raul	-11.2809
▁triumph	-11.281
elecommunication	-11.2811
▁automotive	-11.2811
▁consortium	-11.2811
▁fossil	-11.2811
▁nervous	-11.2811
▁substitute	-11.2811
▁artificial	-11.2811
▁conceal	-11.2811
▁blind	-11.2811
▁convey	-11.2811
▁scream	-11.2811
▁consent	-11.2811
▁mitchell	-11.2811
▁throat	-11.2811
▁prescription	-11.2811
▁disturb	-11.2811
▁pursuit	-11.2812
▁layoff	-11.2813
▁implication	-11.2813
▁lieutenant	-11.2813
▁madoff	-11.2813
▁outpost	-11.2815
▁retirement	-11.2816
▁croatia	-11.2816
▁shopper	-11.2818
quba	-11.282
▁productiv	-11.2821
▁atrocit	-11.2822
▁wazir	-11.2822
▁brush	-11.2824
▁dance	-11.2825
▁purported	-11.2828
▁presentation	-11.283
▁sank	-11.2831
▁arti	-11.2833
▁matte	-11.2835
▁favorable	-11.2836
▁supervisor	-11.2847
▁austrian	-11.2847
▁bae	-11.2849
▁sideline	-11.285
▁screening	-11.2851
▁intensifie	-11.2857
▁soul	-11.2863
▁keen	-11.2865
▁strange	-11.2871
▁sav	-11.2871
▁ethical	-11.2877
▁marie	-11.2878
tanbu	-11.2879
▁conscious	-11.2881
▁shattered	-11.2882
▁territories	-11.2883
▁dave	-11.2888
▁electrical	-11.2892
▁kell	-11.2894
▁jam	-11.2898
▁cla	-11.2913
aro	-11.2917
▁bever	-11.2919
llery	-11.2919
▁wang	-11.292
▁yan	-11.293
▁stunning	-11.2932
▁joon	-11.2937
▁anim	-11.2952
▁coll	-11.2953
▁ethan	-11.2964
hip	-11.2979
▁format	-11.2985
pec	-11.2985
▁pipe	-11.2993
▁stabilize	-11.2999
▁farms	-11.3009
▁punch	-11.301
ala	-11.3014
▁om	-11.3025
▁lance	-11.3034
▁spots	-11.3041
tage	-11.3047
penh	-11.305
▁slid	-11.3056
▁congratulat	-11.3059
▁ken	-11.3067
▁lope	-11.3069
gen	-11.3069
▁marc	-11.3077
▁anna	-11.3078
▁ward	-11.3082
▁treasure	-11.3096
▁spare	-11.3103
▁transit	-11.311
▁bon	-11.3117
▁ethic	-11.312
▁skeptic	-11.3121
gged	-11.3124
▁lure	-11.3125
▁loose	-11.3149
▁jihad	-11.3151
▁kidnap	-11.3157
▁recogni	-11.3165
▁psycholog	-11.3167
▁crystal	-11.3168
▁epidemic	-11.3168
▁okinawa	-11.3168
▁pistol	-11.3168
▁douglas	-11.3168
▁swallow	-11.3168
▁bishop	-11.3168
▁textbook	-11.3168
▁mcdonald	-11.3168
▁epic	-11.3168
▁nfl	-11.3169
▁nelson	-11.3169
▁evaluation	-11.3169
▁laureate	-11.317
▁uprising	-11.317
teria	-11.317
▁ownership	-11.3171
▁hormone	-11.3174
▁193	-11.3174
▁hydro	-11.3175
▁bryan	-11.3175
▁impression	-11.3176
▁fernando	-11.3176
▁jeong	-11.3176
▁susan	-11.3176
▁aggression	-11.3177
▁happiness	-11.318
▁aziz	-11.318
▁legac	-11.3182
aska	-11.3182
▁steer	-11.3184
▁pink	-11.3186
▁greenland	-11.3188
▁pants	-11.3189
▁removal	-11.3191
▁guin	-11.3193
▁swed	-11.3194
▁sprint	-11.32
▁pastor	-11.3205
▁drought	-11.3205
lene	-11.3206
wa	-11.3207
dom	-11.3207
▁bron	-11.3209
▁beatles	-11.3211
▁acquire	-11.3212
right	-11.3212
▁jacque	-11.3214
▁horse	-11.3215
▁deserve	-11.3218
▁expression	-11.322
▁clos	-11.3221
▁passion	-11.3222
▁ak	-11.3223
nebr	-11.3225
titude	-11.3231
▁investments	-11.3231
▁antibiotics	-11.3248
▁cage	-11.3249
▁christi	-11.325
▁shia	-11.3257
ran	-11.3264
▁rating	-11.3268
▁embezzle	-11.3269
▁inner	-11.3272
▁lev	-11.328
cantil	-11.3281
▁laser	-11.3288
til	-11.3301
▁hijack	-11.331
▁tumbl	-11.3316
▁jaz	-11.3326
ir	-11.3331
▁anne	-11.3334
▁appli	-11.3339
iness	-11.3349
▁tu	-11.3353
air	-11.3356
rich	-11.3367
arade	-11.338
▁ramp	-11.3383
ail	-11.3395
▁exceed	-11.34
▁households	-11.3402
▁captives	-11.3409
▁antho	-11.341
▁arth	-11.341
▁hassan	-11.3418
▁mill	-11.342
▁lu	-11.3425
▁fisherm	-11.3429
bar	-11.3435
jiang	-11.3441
tten	-11.3446
▁grounds	-11.3448
bank	-11.3449
▁briton	-11.345
stock	-11.3452
▁johnsto	-11.3452
▁postpone	-11.3461
▁files	-11.3467
▁shutt	-11.3468
▁emotion	-11.3482
▁captiv	-11.3483
▁kiss	-11.3487
dale	-11.3495
uk	-11.3496
hasa	-11.3498
▁refer	-11.3518
ssett	-11.3519
shi	-11.3522
▁scare	-11.3524
▁mode	-11.3527
▁flick	-11.3527
▁smile	-11.3529
▁donors	-11.353
▁hosts	-11.3533
▁columb	-11.3534
ning	-11.3536
olmer	-11.3537
▁refrain	-11.3538
▁surplus	-11.3538
▁catastroph	-11.3538
▁junior	-11.3538
▁aborigin	-11.3538
▁brothel	-11.3538
▁domain	-11.3538
▁nixon	-11.3538
▁sierra	-11.3538
▁ceiling	-11.3538
▁ankle	-11.3538
▁tentative	-11.3538
▁throne	-11.3538
▁ftse	-11.3538
▁mystery	-11.3538
▁johannes	-11.3539
▁breast	-11.3539
▁propagand	-11.3539
▁predominant	-11.3539
▁kofi	-11.3539
▁intensive	-11.3539
▁dignity	-11.354
▁bosnia	-11.354
▁niger	-11.354
▁pocket	-11.354
▁milestone	-11.354
▁fahr	-11.3541
▁mediator	-11.3541
▁knife	-11.3542
▁assign	-11.3543
▁trademark	-11.3543
▁weakness	-11.3543
▁dug	-11.3543
▁trash	-11.3544
▁transmission	-11.3544
▁constitute	-11.3544
▁exhibition	-11.3545
▁reluctant	-11.3546
▁prefecture	-11.3547
▁minus	-11.3547
▁oak	-11.3547
▁restructur	-11.3547
▁bride	-11.3551
viel	-11.3553
▁contra	-11.3553
▁desk	-11.3554
▁ferry	-11.3556
▁cheaper	-11.3556
▁heighten	-11.3559
▁cambodian	-11.356
bn	-11.3561
▁rover	-11.3563
▁kwang	-11.3564
▁arena	-11.3564
▁inventor	-11.3566
win	-11.3566
▁patien	-11.3566
▁reasonable	-11.3568
▁stemm	-11.3569
▁rick	-11.3571
▁101	-11.3573
▁massage	-11.3574
▁preserv	-11.3574
▁mines	-11.3574
▁annually	-11.3574
manuel	-11.3576
llo	-11.358
▁240	-11.3582
▁premiere	-11.3582
▁gangs	-11.3586
▁rubb	-11.3593
▁outline	-11.3599
▁tenn	-11.3612
ya	-11.3615
▁symbolic	-11.3615
▁subsidiar	-11.3629
▁manufacturer	-11.3629
attle	-11.363
30	-11.3634
▁optimis	-11.3636
▁dense	-11.3656
▁raw	-11.3665
▁moneta	-11.3671
och	-11.3676
nic	-11.3676
eta	-11.3677
▁balti	-11.3679
▁mild	-11.3682
▁ri	-11.3697
▁meals	-11.3699
▁easter	-11.3702
989	-11.3704
▁mous	-11.3705
▁rig	-11.3712
lie	-11.3717
▁relevan	-11.3719
▁carl	-11.3722
▁bok	-11.3725
▁pri	-11.3729
▁guid	-11.3751
▁surveys	-11.3757
used	-11.3773
▁neil	-11.3775
gan	-11.3778
▁cub	-11.3779
enhei	-11.3783
▁stamp	-11.3784
▁giv	-11.3788
▁unemploy	-11.3789
▁shipments	-11.3791
▁tribes	-11.3793
▁stunn	-11.3798
▁feeding	-11.38
wine	-11.3804
rell	-11.3807
ara	-11.3812
▁discriminat	-11.3819
▁wat	-11.3819
▁roots	-11.3828
▁till	-11.3833
kansa	-11.3838
▁sooner	-11.3849
▁tropic	-11.3851
▁intens	-11.386
▁103	-11.3866
ja	-11.387
via	-11.3873
erial	-11.3875
▁bench	-11.3877
dium	-11.3878
▁propell	-11.3882
▁lots	-11.3897
▁rahm	-11.3897
bel	-11.3904
arian	-11.3908
▁intercept	-11.3916
▁audit	-11.392
▁addict	-11.3922
▁condolence	-11.3923
▁historian	-11.3923
▁jirga	-11.3923
▁paparazz	-11.3923
▁plummet	-11.3923
▁starbuck	-11.3923
▁travolta	-11.3923
▁brilliant	-11.3923
▁kazakhstan	-11.3923
▁pioneer	-11.3923
▁simultaneous	-11.3923
▁homosexual	-11.3923
▁kuznetsov	-11.3923
▁cousin	-11.3923
▁oath	-11.3923
▁grandfather	-11.3923
▁yankee	-11.3923
▁decree	-11.3924
▁swim	-11.3924
▁glori	-11.3924
▁psychologist	-11.3924
▁humor	-11.3924
▁mastermind	-11.3924
▁servant	-11.3925
▁impass	-11.3925
▁deutsch	-11.3925
▁editorial	-11.3925
▁circuit	-11.3925
▁holland	-11.3925
▁pageant	-11.3925
▁conglomerate	-11.3925
tearn	-11.3926
▁awake	-11.3927
▁dementi	-11.3927
enos	-11.3927
▁robotic	-11.3927
▁attractive	-11.3927
▁elb	-11.3928
▁phillip	-11.3929
▁poul	-11.393
▁segment	-11.393
▁knut	-11.3931
▁creative	-11.3932
io	-11.3933
▁slush	-11.3934
▁restraint	-11.3934
▁transparent	-11.3937
▁setback	-11.3939
▁jenni	-11.394
▁contestant	-11.3941
▁outlaw	-11.3945
▁programm	-11.3947
▁zan	-11.3948
▁nick	-11.3951
▁grat	-11.3952
▁falluja	-11.3952
▁nigerian	-11.3952
rbil	-11.3957
▁cor	-11.3958
▁java	-11.396
▁formation	-11.396
▁mob	-11.3962
▁ourselves	-11.3963
▁fines	-11.3966
ider	-11.3968
▁silv	-11.3974
ita	-11.3975
▁shame	-11.3976
▁ranger	-11.3978
▁linda	-11.398
▁arts	-11.398
▁jiang	-11.3987
▁kam	-11.399
▁spitz	-11.3991
▁capt	-11.3994
works	-11.3996
▁shelves	-11.3998
▁manipulat	-11.4006
▁pus	-11.4008
▁distribute	-11.4011
▁scan	-11.4014
▁oscars	-11.4017
▁cycle	-11.4018
▁glen	-11.4019
▁reli	-11.4028
▁gi	-11.403
▁pile	-11.4037
▁terra	-11.4037
nce	-11.4038
▁chess	-11.4038
itis	-11.4038
▁enhance	-11.4039
▁spice	-11.4046
▁tuck	-11.4049
▁sponsors	-11.405
top	-11.4054
lateral	-11.4066
▁rein	-11.4068
▁choi	-11.4069
▁filing	-11.4075
▁mega	-11.409
▁emphasiz	-11.4106
oli	-11.4119
▁gambl	-11.412
▁ugl	-11.4121
▁terr	-11.413
▁corn	-11.4131
▁mess	-11.4134
intend	-11.4147
▁sacr	-11.4156
▁container	-11.4157
▁jer	-11.4167
▁inspect	-11.4175
▁injure	-11.4178
erald	-11.4192
furt	-11.42
disclos	-11.4206
▁tut	-11.4211
▁wy	-11.4221
▁08	-11.4226
appropriate	-11.4226
▁cab	-11.4229
▁bearing	-11.4243
▁wan	-11.4255
hal	-11.4257
▁eta	-11.4269
ged	-11.427
soo	-11.4281
▁gala	-11.4281
▁instruct	-11.429
▁tours	-11.43
▁op	-11.4309
▁vers	-11.4309
▁construct	-11.4313
tor	-11.4313
caust	-11.4313
▁cry	-11.4314
▁swap	-11.4314
nati	-11.4317
▁sensitivit	-11.4318
▁organize	-11.4318
▁contaminat	-11.4319
▁possess	-11.4319
▁enact	-11.432
▁guitar	-11.4322
▁excess	-11.4322
▁discharge	-11.4323
▁lincoln	-11.4323
▁obstacle	-11.4323
▁reaffirm	-11.4323
▁tattoo	-11.4323
▁tremendous	-11.4323
▁vegetable	-11.4323
▁kilogram	-11.4323
▁script	-11.4323
▁sibling	-11.4323
▁applicant	-11.4323
▁rhode	-11.4323
▁monument	-11.4323
▁vista	-11.4323
▁grim	-11.4323
▁memories	-11.4323
▁inhabit	-11.4323
▁premium	-11.4323
▁premature	-11.4323
▁overthrow	-11.4323
▁ravag	-11.4323
▁frog	-11.4323
▁railroad	-11.4323
▁notorious	-11.4323
▁monster	-11.4323
▁thwart	-11.4323
▁downturn	-11.4323
▁parole	-11.4323
▁nerve	-11.4323
▁donkey	-11.4324
vacu	-11.4324
▁copper	-11.4324
▁streak	-11.4324
▁psychological	-11.4325
▁transcript	-11.4325
▁respirator	-11.4325
▁faithful	-11.4325
▁contingent	-11.4325
▁decisive	-11.4325
▁orthodox	-11.4325
▁shadow	-11.4325
▁sugar	-11.4325
▁pearl	-11.4326
▁cairo	-11.4326
▁bloc	-11.4326
▁cinc	-11.4326
▁laura	-11.4327
▁lenno	-11.4327
kdo	-11.4327
▁unchang	-11.4329
▁martyr	-11.4329
▁arson	-11.4329
▁chos	-11.4329
▁muq	-11.4331
▁grammy	-11.4331
ustin	-11.4334
▁progressive	-11.4335
▁rehabilitati	-11.4335
▁scrapp	-11.4335
▁representation	-11.434
▁sensor	-11.4341
▁entitl	-11.4341
▁disperse	-11.4345
▁explorer	-11.4351
▁drum	-11.4353
▁gravit	-11.4354
▁observe	-11.4356
▁rattl	-11.4358
▁santi	-11.4361
▁stud	-11.4362
▁frustrat	-11.4363
▁obes	-11.4365
some	-11.4369
lo	-11.437
▁ub	-11.4373
▁zimbabwean	-11.4374
▁dominica	-11.4382
▁slain	-11.4383
▁reunifi	-11.4388
onica	-11.4389
▁exten	-11.4396
▁popp	-11.4397
▁din	-11.4402
▁salt	-11.4404
▁roar	-11.4405
▁span	-11.4406
ospi	-11.4418
ura	-11.4421
▁belt	-11.4451
▁suppress	-11.4465
▁cooperat	-11.4467
▁sars	-11.4479
▁paralyz	-11.4483
shire	-11.4484
▁bil	-11.4485
▁trans	-11.4486
▁aero	-11.4486
▁counterterroris	-11.4489
▁gil	-11.4501
▁steadi	-11.4506
ett	-11.451
pei	-11.4514
▁94	-11.4515
▁00	-11.4517
bu	-11.4518
▁lotte	-11.4522
saka	-11.4525
apping	-11.4531
▁outlets	-11.4535
▁julie	-11.4535
▁duk	-11.4536
let	-11.4543
▁sk	-11.4554
vy	-11.4557
ants	-11.4568
▁uncertaint	-11.4574
oon	-11.4581
▁folks	-11.4582
val	-11.4593
▁roy	-11.4594
os	-11.4602
▁harve	-11.4603
▁choices	-11.4604
▁pin	-11.4606
▁impos	-11.4607
▁disarm	-11.4608
▁heal	-11.4614
▁burg	-11.4616
cliff	-11.464
suf	-11.4646
▁drastic	-11.4647
rk	-11.4656
borne	-11.4656
▁arrange	-11.4658
mus	-11.4661
ux	-11.467
▁cop	-11.4673
▁pres	-11.468
▁retaliati	-11.4685
▁dies	-11.4686
▁bat	-11.469
▁emerge	-11.4702
▁steppe	-11.4703
▁nu	-11.471
▁choos	-11.4723
▁transparen	-11.4724
▁contend	-11.4726
tz	-11.4726
▁q	-11.4735
▁avenue	-11.474
▁genuine	-11.474
▁reckless	-11.474
▁sufficient	-11.474
▁bmw	-11.474
▁kashmir	-11.474
▁coroner	-11.474
▁qassam	-11.474
▁vault	-11.474
▁disgrace	-11.474
▁irregularities	-11.474
▁absent	-11.474
▁venus	-11.474
▁whistle	-11.474
▁nightclub	-11.474
▁lodge	-11.474
▁consist	-11.474
▁lyric	-11.474
▁harper	-11.474
▁negro	-11.474
▁smell	-11.474
▁profound	-11.474
▁veterinarian	-11.474
▁hatred	-11.474
rogge	-11.474
▁certificate	-11.474
▁tomato	-11.4741
▁drain	-11.4741
▁libby	-11.4741
▁colonel	-11.4742
▁boris	-11.4742
gow	-11.4742
▁observ	-11.4742
▁rift	-11.4743
▁gwan	-11.4743
▁jamie	-11.4743
▁addiction	-11.4744
▁sheep	-11.4744
▁sequence	-11.4745
▁terrible	-11.4745
▁leonard	-11.4745
▁revise	-11.4745
▁isolation	-11.4746
▁speculat	-11.4746
▁flin	-11.4746
▁hammer	-11.4747
▁flaw	-11.4747
▁precise	-11.4748
▁amend	-11.4749
▁mechanical	-11.475
▁devil	-11.475
ario	-11.4753
versh	-11.4754
▁hawa	-11.4756
▁dock	-11.4756
▁rita	-11.4758
▁diagnosed	-11.4758
▁belov	-11.4759
▁indoor	-11.476
▁beam	-11.4761
▁laurea	-11.4762
▁couch	-11.4765
▁carmaker	-11.4766
▁warship	-11.4768
▁slot	-11.4768
▁tube	-11.477
▁garb	-11.4771
▁romance	-11.4773
▁mikh	-11.4779
▁lecture	-11.4784
▁comb	-11.4785
▁hallow	-11.4786
▁brig	-11.4788
▁gp	-11.4791
▁rear	-11.4795
▁bother	-11.4799
wc	-11.4801
▁roles	-11.4801
▁genes	-11.4807
▁02	-11.4814
▁blessing	-11.4824
▁210	-11.4829
▁fruit	-11.4833
▁cac	-11.4837
▁div	-11.4845
nshine	-11.4846
▁isolate	-11.4854
▁improvement	-11.4858
▁yog	-11.487
▁crying	-11.4882
▁informal	-11.4887
▁feelings	-11.4892
oster	-11.4902
▁rak	-11.4904
▁luck	-11.491
▁sincere	-11.4915
ini	-11.4916
▁prostitut	-11.4922
▁tense	-11.4928
ions	-11.4932
▁chill	-11.4932
▁kph	-11.4934
▁surviv	-11.4935
▁cleaner	-11.4938
▁fuku	-11.4945
▁barry	-11.4945
▁vol	-11.4954
▁difficulty	-11.4959
lima	-11.4959
king	-11.4962
▁04	-11.4963
ks	-11.4985
wang	-11.4986
ette	-11.499
▁unite	-11.5002
▁ross	-11.5002
zed	-11.5007
▁mori	-11.5012
▁infiltrat	-11.5021
▁cher	-11.5027
▁assassinat	-11.5037
▁spike	-11.5044
▁kil	-11.5056
▁rub	-11.5071
▁medi	-11.5077
rmal	-11.5086
oo	-11.5089
▁commemorate	-11.5091
active	-11.5095
▁lamp	-11.5095
▁vigil	-11.5113
▁nori	-11.5115
▁smooth	-11.512
▁gre	-11.5125
▁architect	-11.5125
▁importan	-11.5127
550	-11.5129
va	-11.513
▁horses	-11.5132
▁ports	-11.5133
▁justin	-11.5136
▁digg	-11.5139
▁recep	-11.5146
itz	-11.5147
yama	-11.5148
▁retrieve	-11.5155
▁estonia	-11.5156
▁monkeys	-11.516
▁exclud	-11.516
adilla	-11.5164
▁harmon	-11.5164
▁reign	-11.5165
▁origin	-11.5165
▁accomplish	-11.5171
▁courage	-11.5174
▁bizarre	-11.5174
▁caretaker	-11.5174
▁chocolate	-11.5174
▁competitor	-11.5174
▁gadget	-11.5174
▁ingredient	-11.5174
▁maradona	-11.5174
▁peanut	-11.5174
▁satisfie	-11.5174
▁acquisition	-11.5174
▁cricket	-11.5174
▁misdemeanor	-11.5174
▁definition	-11.5174
▁minneapolis	-11.5174
▁oversight	-11.5174
▁blunt	-11.5174
▁fidel	-11.5175
▁potato	-11.5175
▁curious	-11.5175
▁mysterious	-11.5175
▁introduction	-11.5175
▁bulk	-11.5175
nan	-11.5175
▁tamil	-11.5175
▁harass	-11.5175
▁lugg	-11.5176
▁click	-11.5176
▁alfred	-11.5176
▁signature	-11.5176
▁bonuses	-11.5176
▁cancellation	-11.5176
▁fortress	-11.5176
▁concentration	-11.5177
▁exploration	-11.5177
▁dili	-11.5177
▁irresponsible	-11.5178
▁slugg	-11.5179
▁logistic	-11.5179
▁collective	-11.5179
▁injection	-11.5179
▁stunt	-11.5179
▁distan	-11.518
▁squid	-11.5181
▁array	-11.5181
▁powder	-11.5181
▁delight	-11.5182
▁ipod	-11.5182
▁rico	-11.5184
▁chunk	-11.5184
▁kwon	-11.5186
25	-11.5187
▁360	-11.5191
▁appreciate	-11.5191
▁guardian	-11.5195
xvi	-11.5196
▁iceland	-11.5197
▁sees	-11.5197
▁veni	-11.5203
▁identifi	-11.5203
▁siege	-11.5204
▁marr	-11.5205
▁spurr	-11.5205
▁kle	-11.5209
▁adequate	-11.5212
▁accurate	-11.5212
▁gifts	-11.522
▁zhang	-11.522
▁carac	-11.5221
▁sach	-11.5221
▁comic	-11.5222
▁examiner	-11.5224
▁kara	-11.5227
chum	-11.5228
▁cecil	-11.5228
▁harr	-11.5231
▁lp	-11.5232
▁portal	-11.5232
▁mat	-11.5234
▁hell	-11.5236
▁applie	-11.5237
ted	-11.5241
▁fantas	-11.5242
ber	-11.5249
▁dire	-11.5255
▁flexib	-11.5257
▁bio	-11.5259
▁philli	-11.526
conscious	-11.5264
▁dama	-11.5265
▁190	-11.5266
▁baker	-11.5266
▁outfit	-11.5268
▁alleg	-11.527
▁gib	-11.5276
▁scenario	-11.5277
▁protein	-11.5286
▁bodyguard	-11.5295
set	-11.53
witt	-11.5305
ot	-11.5307
▁tooth	-11.5317
scus	-11.5321
▁chips	-11.5324
bali	-11.534
▁authorize	-11.5342
▁employers	-11.5343
▁cooking	-11.5349
▁farming	-11.535
cc	-11.5353
▁linger	-11.5356
▁networking	-11.5382
per	-11.5383
▁extremis	-11.5387
kuni	-11.539
▁cel	-11.5391
▁ci	-11.5394
▁scholars	-11.5395
▁characteriz	-11.5404
▁meh	-11.5413
▁faye	-11.5422
▁emphasize	-11.5423
▁dismiss	-11.5434
lena	-11.5437
▁fre	-11.5442
▁municipal	-11.5443
▁uncle	-11.5446
▁poses	-11.5453
▁define	-11.5456
ative	-11.5457
▁flare	-11.5459
▁contents	-11.5466
▁vest	-11.5473
▁cm	-11.5475
hill	-11.5476
▁nis	-11.549
▁bodyguards	-11.5505
▁fal	-11.5505
▁browne	-11.552
▁demonstrat	-11.5522
chang	-11.5523
ponte	-11.5525
elling	-11.5525
point	-11.5529
strong	-11.5533
folk	-11.5535
▁les	-11.5536
about	-11.5537
▁hurl	-11.5542
▁prodi	-11.5547
rity	-11.5552
▁gene	-11.556
▁rap	-11.5565
▁permitt	-11.5566
▁230	-11.5574
che	-11.5574
▁va	-11.5579
▁slash	-11.5582
▁ratio	-11.5588
▁bobb	-11.5589
▁guatemala	-11.561
▁romania	-11.5612
▁neutral	-11.5619
▁midwest	-11.562
▁acquitt	-11.5621
▁pond	-11.5622
red	-11.5623
▁archaeolog	-11.5626
▁imperial	-11.5627
nprofit	-11.5629
▁intellectual	-11.5629
▁portrait	-11.5629
▁stomach	-11.5629
▁junichi	-11.5629
▁ridicul	-11.5629
▁recount	-11.5629
▁database	-11.5629
▁kitchen	-11.5629
▁tenure	-11.5629
▁perception	-11.5629
▁taint	-11.563
▁maoist	-11.563
▁dependent	-11.563
▁interstate	-11.563
▁quarte	-11.563
▁rehab	-11.563
▁excuse	-11.563
▁cluster	-11.5631
▁contentious	-11.5631
▁informant	-11.5631
▁fantastic	-11.5631
▁confidential	-11.5631
▁ukrainian	-11.5632
▁ismail	-11.5632
▁serena	-11.5633
▁consultant	-11.5633
▁frustration	-11.5633
▁infantry	-11.5634
▁wield	-11.5635
▁drunken	-11.5636
▁creator	-11.5636
▁mccon	-11.5636
kia	-11.5637
▁hick	-11.5637
▁ledger	-11.5638
▁titan	-11.5638
▁yale	-11.5639
▁deem	-11.5639
▁hover	-11.564
▁harvest	-11.564
▁disappointment	-11.5641
▁blogger	-11.5641
▁glow	-11.5641
▁bulgarian	-11.5641
▁depos	-11.5644
▁innocen	-11.5646
▁showdown	-11.5647
▁costume	-11.5647
▁convene	-11.5648
▁measurement	-11.565
▁loom	-11.565
mandu	-11.5653
▁hank	-11.5657
▁instruction	-11.5663
▁wii	-11.5663
▁glimpse	-11.5665
▁rejection	-11.5667
▁neal	-11.5673
▁nasr	-11.5674
▁organic	-11.5675
▁collins	-11.5676
▁barely	-11.568
▁pal	-11.5684
▁lean	-11.5687
▁dual	-11.5687
▁karl	-11.5697
▁basin	-11.5699
▁procession	-11.5699
onia	-11.57
▁bp	-11.5704
▁vanco	-11.5706
▁conceded	-11.5706
▁franchise	-11.5717
▁settl	-11.5721
▁val	-11.5726
▁semi	-11.5728
▁drag	-11.574
▁spin	-11.5747
▁sway	-11.5748
▁ferrer	-11.575
▁beck	-11.5755
▁gran	-11.5757
▁humiliat	-11.5758
▁toddler	-11.5763
▁allege	-11.5776
▁nest	-11.5784
▁casualt	-11.5785
eera	-11.5787
▁suv	-11.579
▁nah	-11.5794
ido	-11.5804
▁ashle	-11.5809
▁smoker	-11.5812
▁uncertain	-11.5813
▁triple	-11.5835
hn	-11.5837
▁impressi	-11.5837
▁adventure	-11.5841
hi	-11.5848
▁bog	-11.5849
shima	-11.5853
yman	-11.5854
▁pit	-11.5857
▁ramad	-11.5857
eng	-11.586
▁pills	-11.5861
▁bout	-11.5863
▁yea	-11.587
▁nk	-11.5877
▁item	-11.5877
▁xu	-11.5883
▁gro	-11.5884
▁observat	-11.5886
▁finals	-11.5892
98	-11.5895
▁sighting	-11.5906
▁barak	-11.591
▁rib	-11.5922
▁relieve	-11.5923
▁seller	-11.5926
pp	-11.5926
ston	-11.5937
▁melan	-11.5938
▁dorm	-11.5939
amine	-11.5944
▁pl	-11.5945
▁realiz	-11.5956
▁buck	-11.5958
ft	-11.5966
▁staffer	-11.5967
aw	-11.5978
place	-11.5986
specifi	-11.6003
▁presid	-11.6003
▁pave	-11.6004
decided	-11.6009
▁bran	-11.601
▁poster	-11.6016
▁resemble	-11.6018
▁reunit	-11.6023
▁execute	-11.6028
▁bark	-11.6032
▁memorab	-11.6035
▁bore	-11.6036
▁jun	-11.6038
▁occasional	-11.6039
▁hon	-11.604
▁queens	-11.6042
▁ministr	-11.6043
holo	-11.6046
ira	-11.6048
▁climber	-11.6057
▁inaugura	-11.6063
ping	-11.6073
aker	-11.6075
onga	-11.6082
▁ethiopia	-11.6087
ility	-11.6089
▁topple	-11.6089
▁geit	-11.6095
▁grandm	-11.6095
▁scrutin	-11.6097
▁grip	-11.6098
▁contradict	-11.6099
bs	-11.6101
▁recess	-11.6102
▁column	-11.6104
▁extract	-11.6104
▁abrupt	-11.6105
▁arroyo	-11.6105
▁artifact	-11.6105
▁cosmonaut	-11.6105
▁efficienc	-11.6105
▁inflict	-11.6105
▁magistrate	-11.6105
▁pharmaceutical	-11.6105
▁quarantine	-11.6105
▁seafood	-11.6105
▁sumatra	-11.6105
▁umbrella	-11.6105
▁librar	-11.6105
▁bicycle	-11.6105
▁provocative	-11.6105
▁mislead	-11.6105
▁anxiet	-11.6105
▁diminish	-11.6105
▁seizure	-11.6105
▁copyright	-11.6105
▁greenspan	-11.6105
▁brink	-11.6106
▁flock	-11.6106
▁reception	-11.6106
▁blake	-11.6106
▁dictatorship	-11.6106
▁workforce	-11.6106
▁solomon	-11.6107
▁derail	-11.6107
▁shwe	-11.6107
▁piano	-11.6108
▁wander	-11.6108
▁comedian	-11.6108
▁cinema	-11.6108
▁interaction	-11.6109
▁salarie	-11.6109
▁overweight	-11.611
▁workplace	-11.611
▁basque	-11.611
▁cabin	-11.6111
berra	-11.6114
▁dragon	-11.6115
tact	-11.6115
▁roug	-11.6115
▁honey	-11.6115
▁facial	-11.6118
▁rubber	-11.6119
▁staple	-11.6121
▁interrupt	-11.6122
▁glad	-11.6123
rbach	-11.6125
▁gallery	-11.6127
▁bread	-11.6128
▁seasonal	-11.613
▁pu	-11.613
▁bible	-11.614
▁qualifier	-11.6143
▁wipe	-11.6144
cade	-11.6144
▁keat	-11.6149
▁helpful	-11.6153
▁batch	-11.6154
▁leone	-11.6154
▁economically	-11.6161
▁performer	-11.6164
▁upgrade	-11.6165
aware	-11.6167
rkele	-11.6172
▁reserved	-11.6173
▁highlights	-11.6177
▁utter	-11.6179
▁lucas	-11.6183
▁115	-11.6184
▁lump	-11.6194
▁ark	-11.6195
▁commodit	-11.6197
▁hid	-11.6201
▁claren	-11.6202
▁postpon	-11.6207
▁lak	-11.6208
▁caffein	-11.6211
▁liu	-11.6217
▁ze	-11.6227
▁holed	-11.6229
▁mong	-11.623
▁coordinate	-11.6233
gang	-11.624
▁cannon	-11.6245
▁khali	-11.6246
▁airliner	-11.6246
▁pelo	-11.6248
nintend	-11.625
ap	-11.6258
▁koo	-11.6262
ywhere	-11.6262
▁intel	-11.6263
bound	-11.6272
gb	-11.6277
▁courts	-11.6278
▁layer	-11.6279
ssif	-11.6282
▁contender	-11.6285
▁pirate	-11.6285
ut	-11.6287
▁thi	-11.629
▁stalinis	-11.6294
▁assurance	-11.6295
shed	-11.6297
▁arrangements	-11.6298
▁plain	-11.63
▁dig	-11.6303
▁tribe	-11.6312
hen	-11.6314
▁denounce	-11.6319
▁trailer	-11.632
▁shipment	-11.6322
▁pic	-11.6323
▁slope	-11.6324
▁shocking	-11.6324
▁jimm	-11.6325
aho	-11.6327
▁guarded	-11.6337
▁wool	-11.6349
▁bre	-11.6355
▁org	-11.6356
unch	-11.6357
▁provok	-11.6358
ith	-11.6363
oma	-11.6364
▁tha	-11.6364
▁ol	-11.6369
▁sta	-11.6372
▁superb	-11.6376
▁supervis	-11.6377
▁gonn	-11.6392
▁subsid	-11.6394
unes	-11.6403
▁vo	-11.6414
▁franc	-11.6414
▁wings	-11.6424
ow	-11.6425
▁skinn	-11.6428
oid	-11.6428
▁plains	-11.6431
ement	-11.6432
bala	-11.6437
▁analyze	-11.6442
▁stockpile	-11.6442
olo	-11.6444
▁explor	-11.6446
▁hart	-11.6447
ists	-11.6448
hand	-11.6449
will	-11.6453
▁rotat	-11.6473
▁watcher	-11.6481
uma	-11.6486
▁entr	-11.6491
power	-11.6495
▁sketch	-11.65
▁tone	-11.6504
shift	-11.6509
planes	-11.6509
wealth	-11.6509
▁mem	-11.6516
ilia	-11.6521
▁riders	-11.6523
▁proven	-11.6523
▁dell	-11.6523
▁applau	-11.6533
▁foe	-11.6536
oka	-11.6538
▁necessar	-11.6539
▁societ	-11.654
▁dann	-11.6561
▁09	-11.6568
▁wag	-11.6575
erran	-11.6577
▁bump	-11.6583
zel	-11.6584
▁den	-11.6585
▁algeria	-11.6587
▁deport	-11.6589
▁defi	-11.659
▁valid	-11.6591
▁behead	-11.6593
▁categori	-11.6598
otic	-11.6598
▁inject	-11.6599
▁dealer	-11.6603
pollo	-11.6604
▁ideolog	-11.6605
▁abraham	-11.6605
▁biofuel	-11.6605
▁engulf	-11.6605
▁fragil	-11.6605
▁gossip	-11.6605
▁illicit	-11.6605
▁implant	-11.6605
▁juvenile	-11.6605
▁lesbian	-11.6605
▁newcastle	-11.6605
▁stalemate	-11.6605
▁tycoon	-11.6605
▁curator	-11.6605
▁exxon	-11.6605
▁eleven	-11.6605
▁negligen	-11.6605
▁chapel	-11.6605
▁wrist	-11.6605
▁nickname	-11.6605
▁evolv	-11.6605
▁frontrunner	-11.6605
▁himalaya	-11.6605
▁persistent	-11.6605
iora	-11.6605
▁fiber	-11.6606
▁hispanic	-11.6606
▁levinson	-11.6606
▁keith	-11.6606
▁anxious	-11.6606
▁verification	-11.6606
▁headache	-11.6606
▁cruel	-11.6606
▁sens	-11.6607
▁snack	-11.6607
▁atleti	-11.6608
▁deportation	-11.6608
▁reinforcement	-11.6608
▁grain	-11.6609
▁logo	-11.6611
▁overlook	-11.6613
▁cordon	-11.6614
▁conservationist	-11.6616
▁tenor	-11.6616
▁auditor	-11.6617
▁citi	-11.6619
ket	-11.662
▁whipp	-11.6621
▁owen	-11.6621
▁playoff	-11.6621
▁kiev	-11.6622
▁avert	-11.6622
▁djo	-11.6622
▁kt	-11.6623
▁launche	-11.6624
▁850	-11.6624
▁inspiration	-11.6626
▁readers	-11.6626
▁nail	-11.6627
▁motivat	-11.663
▁coerc	-11.6631
▁juror	-11.6631
▁establishment	-11.6633
▁franco	-11.6636
▁liais	-11.6637
▁spann	-11.6638
▁preferr	-11.6639
▁griffi	-11.6639
itive	-11.664
▁priorities	-11.664
▁bust	-11.6641
▁ferrar	-11.6644
▁nec	-11.6645
▁aug	-11.6647
▁tender	-11.6649
▁phu	-11.6654
▁lawn	-11.6655
▁fold	-11.6665
ill	-11.6669
▁expresse	-11.6672
ulous	-11.6674
▁tin	-11.6675
▁jp	-11.6678
▁filling	-11.6679
tina	-11.6681
▁keeper	-11.6682
▁raj	-11.6691
▁fitt	-11.6692
▁vincen	-11.6693
egu	-11.6697
▁alma	-11.6698
▁evans	-11.6698
▁wip	-11.67
▁accelerate	-11.6702
▁fier	-11.6704
▁winger	-11.6706
▁fur	-11.6716
▁yell	-11.6719
▁gorillas	-11.672
▁hacker	-11.6723
▁explore	-11.6726
▁trac	-11.6736
mz	-11.6742
▁laute	-11.6746
▁sid	-11.6749
▁graz	-11.675
▁dwindl	-11.6753
cha	-11.6766
▁01	-11.6768
▁explaining	-11.6768
ito	-11.677
▁sim	-11.6777
▁tapes	-11.6778
▁napoli	-11.6779
▁addresses	-11.6781
▁homicide	-11.6782
▁por	-11.6784
sef	-11.6806
▁neo	-11.6809
▁extremist	-11.6819
ock	-11.6822
▁petro	-11.683
▁passports	-11.6835
▁captive	-11.6838
▁mann	-11.684
▁horn	-11.685
▁enhanc	-11.6851
▁seeming	-11.6855
▁chased	-11.6856
▁fann	-11.6863
▁tolerate	-11.6864
▁165	-11.6866
om	-11.6866
ato	-11.6869
▁companion	-11.6871
ate	-11.6872
▁interfer	-11.6881
▁nash	-11.6881
▁bros	-11.6892
▁tag	-11.6894
▁confusi	-11.6894
▁discs	-11.69
▁edit	-11.6901
▁folk	-11.6905
singh	-11.6907
▁claus	-11.6907
▁tam	-11.6915
▁underst	-11.6917
ai	-11.6928
▁bend	-11.6936
▁amo	-11.6938
afa	-11.6948
▁kay	-11.6951
uda	-11.6955
▁hae	-11.6956
ives	-11.6958
▁bern	-11.6958
▁tun	-11.6961
▁ham	-11.6962
▁fu	-11.6962
▁lover	-11.6965
ethane	-11.6968
▁concentrate	-11.6968
▁spen	-11.697
▁scratch	-11.6972
▁truc	-11.6985
esi	-11.6988
▁overwhelm	-11.6997
▁horrifi	-11.7003
ancy	-11.7003
qaw	-11.7004
▁bol	-11.7015
▁disk	-11.7015
▁depriv	-11.703
▁cope	-11.703
▁julia	-11.7039
afford	-11.704
▁bor	-11.7044
▁reinstate	-11.7047
oming	-11.7049
grid	-11.7052
▁chronic	-11.7052
▁frost	-11.7059
▁zu	-11.7059
▁hamburg	-11.7061
▁shoulders	-11.7063
▁acquir	-11.7066
made	-11.7068
▁bidd	-11.7074
▁absolute	-11.7075
▁greg	-11.7082
ww	-11.7082
▁pois	-11.7084
and	-11.7085
▁maha	-11.7089
▁dome	-11.7096
▁borne	-11.7111
▁jamaica	-11.7113
▁restrain	-11.7116
▁meteor	-11.7116
▁authentic	-11.7117
▁timing	-11.712
scope	-11.7122
▁str	-11.7131
▁differ	-11.7131
▁barricade	-11.7131
▁battalion	-11.7131
▁calendar	-11.7131
▁convincing	-11.7131
▁emperor	-11.7131
▁excerpt	-11.7131
▁external	-11.7131
▁gorbachev	-11.7131
▁kangaroo	-11.7131
▁mechanism	-11.7131
▁merchant	-11.7131
▁parallel	-11.7131
▁prototype	-11.7131
▁rwanda	-11.7131
▁unlawful	-11.7131
▁wheelchair	-11.7131
▁evangelical	-11.7131
▁jacob	-11.7131
▁robust	-11.7131
▁steroid	-11.7131
▁antiquit	-11.7131
▁clerk	-11.7132
▁confederation	-11.7132
▁dentist	-11.7132
▁unofficial	-11.7132
▁disclosure	-11.7132
▁forensic	-11.7132
▁unilateral	-11.7132
▁boulder	-11.7132
▁helmet	-11.7132
▁trap	-11.7132
▁monaster	-11.7132
▁malawi	-11.7132
▁millenni	-11.7132
▁storage	-11.7132
▁zheng	-11.7132
▁furni	-11.7132
▁supermarket	-11.7132
bhumi	-11.7132
▁collaboration	-11.7132
▁vocal	-11.7133
▁comparison	-11.7133
▁calorie	-11.7133
▁revelation	-11.7133
▁constructive	-11.7133
▁manual	-11.7133
▁beverage	-11.7134
▁eacute	-11.7134
▁chadian	-11.7134
▁maneuver	-11.7134
▁rhino	-11.7134
▁predator	-11.7135
▁instructor	-11.7136
▁galla	-11.7136
▁bypass	-11.7136
▁garner	-11.7137
▁gibb	-11.7137
ries	-11.7137
▁spiel	-11.7137
▁picket	-11.7138
▁kasp	-11.7138
▁soften	-11.7139
▁handgun	-11.7139
arov	-11.7139
▁spouse	-11.714
▁contemporar	-11.714
▁dodge	-11.7142
▁soap	-11.7142
▁prediction	-11.7144
▁mullah	-11.7144
▁medit	-11.7144
▁township	-11.7144
▁acceptance	-11.7145
▁courthouse	-11.7147
▁bare	-11.7149
▁privilege	-11.715
spoke	-11.7151
▁interesting	-11.7153
▁thriller	-11.7155
▁noise	-11.7156
▁280	-11.7157
▁doom	-11.7158
fc	-11.716
▁drift	-11.7161
▁perin	-11.7162
▁vick	-11.7162
▁owe	-11.7168
▁leather	-11.7168
▁carla	-11.717
af	-11.7171
▁craz	-11.7175
▁composer	-11.7177
▁warhead	-11.7181
▁rack	-11.7181
▁charr	-11.7181
ima	-11.7191
▁lyon	-11.7192
▁tail	-11.7194
cca	-11.7203
row	-11.7205
▁thoughts	-11.7207
napped	-11.7207
▁applaud	-11.7208
ef	-11.7211
▁colomb	-11.7212
▁qala	-11.7213
▁gust	-11.7216
lary	-11.7219
▁doo	-11.722
▁bleed	-11.7224
▁sharon	-11.7227
▁underscore	-11.7228
▁heir	-11.7232
yi	-11.7235
rin	-11.724
135	-11.7241
▁monte	-11.7241
▁destabilize	-11.7241
ud	-11.7243
▁scuffle	-11.7243
hem	-11.7246
▁countryside	-11.7247
▁karim	-11.7248
▁soda	-11.7249
van	-11.7256
gm	-11.7257
▁extraditi	-11.7258
schne	-11.7259
▁interfere	-11.727
con	-11.7271
▁nurs	-11.7271
tano	-11.7273
▁costa	-11.7278
▁dot	-11.7278
▁excite	-11.7281
▁infections	-11.7282
rosa	-11.7288
▁tongue	-11.7291
bright	-11.7295
▁brake	-11.7304
▁helen	-11.7308
tha	-11.731
▁mai	-11.7311
▁bart	-11.7323
▁unhapp	-11.7324
▁regulate	-11.7325
▁conventional	-11.7331
▁kissing	-11.7332
▁swear	-11.7335
▁slowing	-11.7339
▁blockbuster	-11.7341
▁ensur	-11.7342
▁solo	-11.7344
▁torrent	-11.7347
▁mus	-11.7347
ab	-11.7348
▁campaigner	-11.7357
▁cartel	-11.7358
▁bayer	-11.7361
▁foods	-11.7361
▁mos	-11.7366
att	-11.7366
▁ignit	-11.7368
▁beache	-11.7369
bin	-11.7375
▁bamb	-11.7382
▁dod	-11.7392
▁ivanov	-11.7393
▁lander	-11.7393
▁rag	-11.7394
▁gad	-11.7395
▁finalize	-11.7398
eon	-11.74
▁clippe	-11.7401
▁nh	-11.7401
▁roj	-11.7403
▁comet	-11.7407
▁breathe	-11.741
▁intelligent	-11.7425
ndrome	-11.7426
▁separat	-11.7427
▁skill	-11.7428
lash	-11.7433
▁pub	-11.7436
▁collaps	-11.7448
▁hood	-11.7451
nder	-11.7453
ndra	-11.7462
▁metro	-11.7473
ire	-11.7476
▁monet	-11.7493
etic	-11.7498
▁cycl	-11.7503
▁revenues	-11.7506
▁cl	-11.7509
stitution	-11.751
▁winston	-11.7512
rative	-11.7513
ories	-11.7526
▁carve	-11.7526
▁henri	-11.7531
▁hom	-11.7538
cna	-11.7543
play	-11.7543
gio	-11.7544
▁frighten	-11.7546
▁cord	-11.7549
sterda	-11.7553
▁tune	-11.7555
▁mobil	-11.757
▁pur	-11.7574
iers	-11.7575
▁volcani	-11.758
jab	-11.7586
▁substanti	-11.759
▁christin	-11.759
box	-11.7593
eful	-11.7598
rank	-11.7608
cover	-11.7618
bon	-11.7621
▁hak	-11.7624
▁assure	-11.7626
▁planner	-11.7627
▁munic	-11.7627
▁erect	-11.7627
▁snap	-11.7629
▁physic	-11.7638
▁favorites	-11.764
▁bounce	-11.764
▁sai	-11.7643
▁gill	-11.7648
▁inning	-11.7651
▁goh	-11.7652
esco	-11.7655
kov	-11.7655
▁russe	-11.7661
▁stir	-11.7668
aki	-11.7669
▁significan	-11.7672
▁dish	-11.7672
ology	-11.7672
▁lakes	-11.7673
ision	-11.7674
▁speculate	-11.7675
▁cred	-11.7678
▁loya	-11.7678
▁kumar	-11.7681
▁veterinar	-11.7686
▁compatriot	-11.7687
▁crawford	-11.7687
▁fatigue	-11.7687
▁hectare	-11.7687
▁intensify	-11.7687
▁perspective	-11.7687
▁precinct	-11.7687
▁reprocess	-11.7687
▁ritual	-11.7687
▁unauthori	-11.7687
▁immense	-11.7687
▁machete	-11.7687
▁mismanage	-11.7687
▁unconditional	-11.7687
▁multinational	-11.7687
▁parachute	-11.7687
▁spree	-11.7687
▁pretend	-11.7687
▁technician	-11.7687
▁solving	-11.7687
▁miracle	-11.7687
▁cameroon	-11.7687
▁spiral	-11.7687
▁keynote	-11.7687
▁staunch	-11.7687
▁splash	-11.7687
▁fitzg	-11.7687
▁litvin	-11.7687
▁abdel	-11.7687
▁norris	-11.7687
▁gauge	-11.7687
▁baggage	-11.7687
▁horror	-11.7687
▁proclaim	-11.7688
▁feud	-11.7688
▁consulate	-11.7688
▁reservation	-11.7688
▁lifestyle	-11.7688
▁lugo	-11.7688
▁jefferson	-11.7688
▁spider	-11.7688
▁collar	-11.7689
dorf	-11.769
▁meteorologist	-11.769
▁embark	-11.769
▁centimeter	-11.769
▁brent	-11.769
▁trump	-11.7691
▁valuable	-11.7691
▁plug	-11.7692
▁distributor	-11.7692
▁sadden	-11.7693
▁miserable	-11.7693
▁uncomm	-11.7693
▁unbeat	-11.7693
▁lobbyist	-11.7694
▁downplay	-11.7694
▁vary	-11.7695
▁weird	-11.7696
▁coastline	-11.7697
▁bias	-11.7697
ox	-11.7697
▁cream	-11.7697
▁1930	-11.7698
▁nike	-11.7698
claren	-11.7699
veral	-11.7699
▁boot	-11.7699
▁alcoholic	-11.77
▁marij	-11.77
▁fiction	-11.77
▁foil	-11.7701
▁chimp	-11.7701
▁quest	-11.7701
▁leaf	-11.7703
▁micke	-11.7704
vich	-11.7704
▁ufo	-11.7704
ped	-11.7708
▁jang	-11.7708
▁swat	-11.771
bane	-11.7714
yushch	-11.7715
▁spectators	-11.7717
▁festiv	-11.7717
▁trek	-11.7718
▁policymaker	-11.7718
▁dear	-11.7721
rous	-11.7721
▁plume	-11.7721
▁usher	-11.7723
▁hostilit	-11.7724
▁tick	-11.7725
▁expose	-11.7727
▁hog	-11.7731
▁jos	-11.7738
▁nichol	-11.7744
lese	-11.7751
▁liga	-11.7752
▁temp	-11.7752
▁persi	-11.7753
▁roller	-11.7756
him	-11.7758
lick	-11.776
fa	-11.7761
▁forgot	-11.7771
rod	-11.7774
acute	-11.7779
▁stricke	-11.7782
▁gh	-11.7787
▁prizes	-11.7789
▁kean	-11.7793
▁gram	-11.7795
▁cu	-11.7799
▁prey	-11.78
ua	-11.7801
lan	-11.7802
▁arabian	-11.7805
descent	-11.7809
▁conscien	-11.7809
tel	-11.7811
amount	-11.7812
hrai	-11.7836
▁hook	-11.7838
▁andrea	-11.7847
▁bet	-11.7848
phis	-11.7848
▁smuggle	-11.7851
▁gamba	-11.7851
▁ears	-11.7854
▁floren	-11.7858
nese	-11.7869
▁serial	-11.787
▁analyz	-11.7872
uki	-11.7874
▁qud	-11.7875
▁psychiatr	-11.7877
▁trainer	-11.7882
ailing	-11.7883
▁doll	-11.7887
ition	-11.7888
tta	-11.7899
capri	-11.7905
ula	-11.7906
▁145	-11.7908
▁marin	-11.791
▁qualifi	-11.7911
gs	-11.7913
▁towers	-11.7925
▁mour	-11.793
▁ste	-11.7931
xel	-11.7945
▁outbreaks	-11.7948
iling	-11.7953
▁disc	-11.7953
▁lashe	-11.7956
po	-11.7959
▁compos	-11.796
▁sacred	-11.796
▁haniy	-11.7962
▁lucian	-11.7962
▁outage	-11.7964
▁seeker	-11.7965
▁attribute	-11.7966
▁distinct	-11.797
▁glove	-11.7973
inches	-11.7978
uous	-11.7989
▁cancell	-11.7989
▁bot	-11.7989
eira	-11.799
ature	-11.7998
▁rud	-11.8004
▁clap	-11.8005
▁ivan	-11.8012
▁sore	-11.8028
▁billy	-11.8033
▁dose	-11.8039
print	-11.8047
idf	-11.805
sud	-11.8058
break	-11.806
▁sci	-11.8062
▁hari	-11.8075
▁math	-11.8076
▁invade	-11.8083
gar	-11.8083
adic	-11.8085
▁facilitate	-11.8088
▁infringe	-11.8095
▁cliff	-11.8098
nnis	-11.81
jo	-11.8101
▁wheels	-11.8103
▁hoi	-11.8117
tech	-11.8122
ique	-11.8129
▁improvements	-11.8136
▁intimidat	-11.814
grade	-11.8158
eh	-11.8159
onda	-11.8167
▁accelerat	-11.8176
▁exception	-11.8179
ulu	-11.8182
▁fla	-11.8184
▁offend	-11.8188
▁bands	-11.8188
▁shaf	-11.8192
▁starv	-11.8194
▁stumbl	-11.8202
▁orchestrat	-11.8204
hmer	-11.8204
map	-11.8207
fi	-11.821
▁nichols	-11.8215
▁concede	-11.8216
▁comput	-11.8224
what	-11.8226
▁chuck	-11.8226
nga	-11.8227
▁chok	-11.8227
▁kg	-11.8229
▁scam	-11.8231
mates	-11.8233
▁assum	-11.8238
▁valen	-11.824
course	-11.8245
coni	-11.8246
▁debat	-11.8256
pe	-11.8262
tis	-11.8263
▁hut	-11.8265
uana	-11.8266
▁porn	-11.8269
▁distort	-11.8269
▁nominate	-11.8273
▁blank	-11.8275
▁demilitariz	-11.8275
▁embargo	-11.8275
▁hamilton	-11.8275
▁integrity	-11.8275
▁jupiter	-11.8275
▁mbeki	-11.8275
▁messenger	-11.8275
▁quebec	-11.8275
▁skyscraper	-11.8275
▁subpoena	-11.8275
▁technological	-11.8275
▁athletic	-11.8275
▁bahrain	-11.8275
▁dynast	-11.8275
▁pedestrian	-11.8275
▁tikrit	-11.8275
▁dormitor	-11.8275
▁delicate	-11.8275
▁heaven	-11.8275
▁cemeter	-11.8275
▁improper	-11.8275
▁bipartisan	-11.8275
▁humpback	-11.8275
▁renown	-11.8275
▁dmitr	-11.8275
▁evasion	-11.8275
▁definitive	-11.8275
▁luft	-11.8275
▁commentator	-11.8275
▁translator	-11.8275
▁ailment	-11.8275
▁thunder	-11.8275
▁fabio	-11.8275
▁ditch	-11.8275
▁appall	-11.8275
▁defence	-11.8275
▁noodle	-11.8276
▁safeguard	-11.8276
▁stint	-11.8276
▁translation	-11.8276
▁premise	-11.8276
▁rogue	-11.8276
▁globo	-11.8276
▁armenian	-11.8276
▁jerem	-11.8276
lroo	-11.8276
▁advertisement	-11.8277
▁hutchins	-11.8277
orenst	-11.8277
▁cough	-11.8277
▁landfall	-11.8278
▁gator	-11.8278
▁lavish	-11.8278
▁ancestor	-11.8279
▁foley	-11.8279
▁floodwater	-11.8279
▁francois	-11.8279
▁feat	-11.8279
▁salary	-11.8279
uver	-11.828
▁emanuel	-11.828
▁fritz	-11.828
▁considerably	-11.828
▁outrageous	-11.8281
ise	-11.8281
▁kor	-11.8281
▁installment	-11.8281
▁persist	-11.8282
▁davyd	-11.8282
▁xp	-11.8282
▁youngster	-11.8282
▁canyon	-11.8283
▁canoe	-11.8284
▁kaka	-11.8284
vinen	-11.8285
▁zahi	-11.8285
▁barrage	-11.8285
▁sheik	-11.8285
mmy	-11.8286
▁therapist	-11.8288
▁scientolog	-11.8289
▁complication	-11.829
▁confession	-11.829
▁magnetic	-11.829
▁seminar	-11.829
▁partisan	-11.8291
▁sicken	-11.8292
▁sampl	-11.8292
ide	-11.8292
▁rim	-11.8295
▁sultan	-11.8295
▁console	-11.8298
rasmus	-11.8299
▁baton	-11.83
▁bubble	-11.83
▁khala	-11.83
awa	-11.8303
▁toppl	-11.8303
▁donate	-11.8303
▁memo	-11.8304
▁peta	-11.8304
▁boil	-11.8304
▁woke	-11.8307
▁lim	-11.8309
▁seo	-11.8309
▁jaw	-11.8313
▁pancreati	-11.8316
▁passionate	-11.8317
▁ful	-11.8318
▁stranger	-11.8318
acas	-11.8324
▁lawless	-11.8326
▁cheat	-11.8327
wick	-11.8328
cular	-11.8331
▁lag	-11.8332
dominant	-11.8334
▁ip	-11.8337
▁samba	-11.8346
▁depressed	-11.8348
jani	-11.8349
yuz	-11.8351
▁stair	-11.8358
▁dissolve	-11.8359
▁lynn	-11.836
▁verifi	-11.836
▁cure	-11.8361
▁vin	-11.8363
▁prop	-11.8368
▁106	-11.837
▁males	-11.8374
▁crippl	-11.8376
nc	-11.8377
oi	-11.8379
▁pric	-11.8385
atic	-11.8389
ochi	-11.8389
lit	-11.84
▁troph	-11.8407
▁masa	-11.842
▁recommends	-11.843
▁morocc	-11.8437
▁rem	-11.8438
▁skipp	-11.8438
▁maru	-11.8444
▁irritat	-11.845
▁assassinate	-11.8466
aking	-11.8474
napoli	-11.8478
▁stabiliz	-11.848
state	-11.848
▁rust	-11.8483
▁mag	-11.849
▁hyper	-11.8492
tting	-11.8494
kto	-11.8497
▁bury	-11.85
▁arise	-11.8501
▁chae	-11.8505
▁corpse	-11.8505
▁bent	-11.8508
▁pedr	-11.8514
▁sue	-11.8529
49	-11.8533
▁pine	-11.8545
▁trauma	-11.8545
eong	-11.8554
ateur	-11.8558
▁iranians	-11.8565
▁retract	-11.857
▁cre	-11.8573
▁educat	-11.8578
▁fuse	-11.8588
rwin	-11.8593
▁provoke	-11.8594
▁corre	-11.8595
oria	-11.8595
vin	-11.8609
▁blade	-11.8615
▁doubl	-11.8615
▁detonate	-11.8615
▁tipp	-11.8615
▁kyong	-11.8615
niste	-11.8616
▁serie	-11.8617
▁troubles	-11.8625
▁sala	-11.8638
dwin	-11.8642
▁wise	-11.8642
lloy	-11.8645
zi	-11.8653
▁brac	-11.8657
mont	-11.8658
▁donation	-11.8671
we	-11.8677
▁barks	-11.8678
▁lovers	-11.868
▁entit	-11.8682
▁snatch	-11.8685
rine	-11.8697
▁berk	-11.8701
▁collid	-11.8714
▁beard	-11.8717
▁genom	-11.8719
▁elector	-11.8732
▁klo	-11.8734
▁liqu	-11.874
▁edg	-11.8741
▁cur	-11.8742
nom	-11.8746
▁kel	-11.8752
old	-11.8752
▁compil	-11.8754
odor	-11.8768
▁zin	-11.8776
inous	-11.8779
▁shower	-11.8788
▁kh	-11.8789
▁boycotted	-11.8798
beat	-11.8799
▁candle	-11.8799
▁ros	-11.8802
nis	-11.8802
continent	-11.8803
▁philosoph	-11.8804
cheong	-11.8804
deal	-11.8806
▁donat	-11.8807
scale	-11.8807
▁amuse	-11.8813
▁gigg	-11.8814
▁levi	-11.8819
uc	-11.8823
kawa	-11.8823
▁bris	-11.8839
▁admitt	-11.8844
▁skip	-11.8845
▁consolidat	-11.8846
▁jams	-11.8848
eval	-11.8854
due	-11.8856
▁veer	-11.8858
ky	-11.8872
ecd	-11.8883
uart	-11.8885
▁devote	-11.8888
▁independents	-11.889
▁archbishop	-11.89
▁archipelag	-11.89
▁azerbaijan	-11.89
▁centrifuge	-11.89
▁diarrhea	-11.89
▁fragment	-11.89
▁mosquito	-11.89
▁nutrient	-11.89
▁sanctuar	-11.89
▁temblor	-11.89
▁wizard	-11.89
▁corridor	-11.89
▁exaggerat	-11.89
▁sculpture	-11.89
▁vendor	-11.89
▁firearm	-11.89
▁mogul	-11.89
▁paramilitar	-11.89
▁resurgen	-11.89
▁standstill	-11.89
▁abnormal	-11.89
▁pandemic	-11.89
▁inherit	-11.89
▁oxford	-11.89
▁gloom	-11.89
▁blackmail	-11.89
▁clown	-11.89
▁chemist	-11.89
▁rooftop	-11.8901
▁lehman	-11.8901
▁roadblock	-11.8901
▁rhythm	-11.8901
▁elegan	-11.8901
▁overshadow	-11.8901
▁stump	-11.8901
▁heavyweight	-11.8901
▁abram	-11.8901
▁slaying	-11.8901
▁enron	-11.8901
▁overdose	-11.8901
▁darling	-11.8901
atero	-11.8901
▁description	-11.8901
▁feather	-11.8902
▁robinson	-11.8902
▁estrange	-11.8902
▁courageous	-11.8902
▁forthcoming	-11.8903
▁jacket	-11.8903
▁conner	-11.8903
▁gangster	-11.8904
croft	-11.8904
▁cigar	-11.8904
▁blacksburg	-11.8904
▁squeez	-11.8906
▁newborn	-11.8906
▁intentional	-11.8906
▁litter	-11.8907
▁alvar	-11.8907
▁waiver	-11.8908
▁coloss	-11.8908
▁referee	-11.8908
▁foul	-11.891
▁checkup	-11.891
▁reef	-11.891
▁dismissal	-11.891
▁moroccan	-11.8911
▁nile	-11.8912
▁gripp	-11.8912
▁dax	-11.8913
▁hardship	-11.8913
▁rever	-11.8914
▁carriage	-11.8914
▁zambia	-11.8916
zvo	-11.8916
▁portrayal	-11.8917
▁roland	-11.8919
▁yemeni	-11.8919
▁scorch	-11.8922
▁detector	-11.8923
▁algerian	-11.8923
▁fisheries	-11.8928
▁vera	-11.8932
▁kook	-11.8933
bye	-11.8933
▁cake	-11.8936
▁patch	-11.8944
▁plantation	-11.8945
▁mineral	-11.8945
▁vanish	-11.895
▁126	-11.8952
▁wishes	-11.8953
rada	-11.8954
▁bund	-11.8955
▁capitalist	-11.8955
▁valentin	-11.8955
▁bounc	-11.8956
enna	-11.8957
▁moss	-11.8957
▁qara	-11.8958
shmi	-11.8967
▁buyout	-11.8968
▁maul	-11.8969
diaz	-11.8974
▁gue	-11.8984
▁tortur	-11.8985
ahn	-11.899
▁320	-11.8992
vian	-11.8994
▁perch	-11.8995
pate	-11.9002
rimp	-11.9008
▁particles	-11.9011
▁hol	-11.9013
ix	-11.9015
▁forbidd	-11.9018
▁mari	-11.9031
▁charm	-11.9032
formed	-11.9041
ink	-11.9042
▁nano	-11.9044
▁penguins	-11.9045
▁inflammat	-11.9047
▁sabotage	-11.9051
ize	-11.9059
▁inhal	-11.906
▁unifi	-11.906
▁merit	-11.9061
ac	-11.9062
law	-11.9063
▁leaning	-11.9082
▁stre	-11.9082
errill	-11.909
▁naf	-11.909
▁congratulate	-11.9096
riza	-11.9098
▁aut	-11.911
▁emergenc	-11.9111
▁invad	-11.9114
▁spat	-11.9131
asha	-11.9132
wi	-11.9134
▁credibl	-11.9146
▁clan	-11.917
ica	-11.9184
fax	-11.9187
▁mates	-11.9189
▁serv	-11.9191
▁118	-11.9191
▁cott	-11.9203
anda	-11.9204
mun	-11.9206
ylan	-11.9212
▁funn	-11.9213
teau	-11.9213
▁sau	-11.9219
▁lighter	-11.9225
▁todd	-11.9226
italia	-11.9228
▁bash	-11.9229
▁pap	-11.9233
▁scholar	-11.9234
▁pill	-11.9239
nam	-11.924
▁arl	-11.9244
▁maure	-11.9249
▁lap	-11.9253
eparation	-11.9259
▁pod	-11.9261
▁naga	-11.9264
ken	-11.9271
▁holm	-11.9273
ife	-11.9279
▁hano	-11.9279
ague	-11.9289
▁robbe	-11.929
▁undermin	-11.9292
▁repli	-11.93
take	-11.9301
▁rage	-11.9304
▁pak	-11.9317
▁lett	-11.9322
▁crumbl	-11.9328
▁reinforce	-11.9331
zemi	-11.9333
▁extradit	-11.9333
▁deer	-11.9351
▁hy	-11.9352
▁tur	-11.9364
▁dependenc	-11.9367
▁192	-11.9369
▁deb	-11.9371
▁cle	-11.9376
▁correction	-11.9381
▁tan	-11.9382
ji	-11.9386
▁relocate	-11.9398
aria	-11.9399
▁wilder	-11.9399
ik	-11.94
related	-11.9401
zawa	-11.9404
ovic	-11.9404
ue	-11.9417
mble	-11.9418
are	-11.9427
▁persuad	-11.9427
▁kn	-11.9429
▁stabb	-11.9431
▁wie	-11.9435
45	-11.944
ires	-11.9442
▁balk	-11.9443
pping	-11.9449
▁suz	-11.9449
▁motivate	-11.9456
constitutional	-11.947
pisco	-11.9471
▁killers	-11.9474
▁dip	-11.9479
▁raz	-11.948
▁sensation	-11.9485
▁eva	-11.9486
▁reassure	-11.9488
▁arch	-11.9489
ngue	-11.9491
▁zo	-11.9497
▁blues	-11.9498
▁emm	-11.9507
▁neuro	-11.9507
▁feli	-11.951
▁soak	-11.9521
▁listing	-11.9524
ngdu	-11.9524
▁hawkin	-11.9529
▁ruth	-11.9534
aron	-11.954
▁bless	-11.9541
▁polit	-11.9541
▁assembl	-11.9542
▁renounce	-11.9545
▁fundrais	-11.9547
▁bulgaria	-11.9549
▁mario	-11.955
bert	-11.9553
jeon	-11.9554
▁capita	-11.9555
▁bruis	-11.9555
▁clemen	-11.9556
hansa	-11.9557
▁heath	-11.9564
iquit	-11.9564
▁facto	-11.9564
lihood	-11.9565
▁charisma	-11.9567
▁affidavit	-11.9567
▁albatross	-11.9567
▁charlotte	-11.9567
▁defensive	-11.9567
▁eagle	-11.9567
▁reconsider	-11.9567
▁unleash	-11.9567
▁unnecessar	-11.9567
▁bystander	-11.9567
▁explicit	-11.9567
▁paraguay	-11.9567
▁surname	-11.9567
▁overheat	-11.9567
▁vomit	-11.9567
▁gorge	-11.9567
▁vinci	-11.9567
▁sherpa	-11.9567
▁filipino	-11.9567
▁johansson	-11.9567
▁justify	-11.9567
▁adjourn	-11.9567
▁warlord	-11.9567
▁dynamic	-11.9567
▁provocation	-11.9567
▁wholesale	-11.9567
▁memoir	-11.9567
▁adj	-11.9567
▁skeleton	-11.9567
▁grocer	-11.9567
▁excellent	-11.9567
▁siberia	-11.9567
▁rebuke	-11.9568
▁theatre	-11.9568
▁coffin	-11.9568
▁meltdown	-11.9568
▁email	-11.9568
▁falter	-11.9568
▁hanaro	-11.9568
▁clamp	-11.9568
▁stroll	-11.9568
▁disband	-11.9568
▁orphanage	-11.9568
▁spacewalk	-11.9568
▁roam	-11.9569
▁gerald	-11.9569
▁disturbance	-11.9569
▁adolescent	-11.957
▁bennett	-11.957
▁scout	-11.957
▁swamp	-11.9571
▁interactive	-11.9571
▁shortfall	-11.9572
▁deterrent	-11.9572
▁absorb	-11.9572
▁peel	-11.9572
▁regiment	-11.9572
▁dignitar	-11.9572
▁cramp	-11.9573
▁martial	-11.9573
ilo	-11.9574
▁battlefield	-11.9575
▁kirk	-11.9575
▁2030	-11.9576
dysse	-11.9576
▁benoi	-11.9577
anana	-11.9578
▁defiant	-11.9579
diac	-11.9581
acent	-11.9581
▁farmland	-11.9582
▁transformation	-11.9583
▁backward	-11.9584
▁cruz	-11.9586
▁classmate	-11.9586
▁reap	-11.9587
▁rental	-11.9587
▁inevitabl	-11.9589
▁anymore	-11.959
▁budd	-11.9591
▁220	-11.9593
▁amber	-11.9594
▁hugh	-11.9596
luster	-11.9596
▁cana	-11.9596
▁slapp	-11.9596
▁brewer	-11.9598
▁horribl	-11.9603
▁swarm	-11.9606
▁buffet	-11.9608
▁mint	-11.9612
▁thorn	-11.9613
▁pleasure	-11.9615
▁fledg	-11.9615
▁swam	-11.9616
glasses	-11.9618
▁teach	-11.9619
▁reminder	-11.962
▁doming	-11.9621
▁reminiscen	-11.9621
▁cox	-11.9621
▁ameli	-11.9622
▁devot	-11.9623
▁ghan	-11.9624
bes	-11.9625
▁eco	-11.9631
▁stray	-11.9633
▁max	-11.9634
▁xi	-11.9638
▁rupe	-11.9642
▁showcase	-11.9643
▁motivation	-11.9645
▁freezer	-11.9647
▁mul	-11.9651
▁pesh	-11.9652
▁reel	-11.9654
▁walkout	-11.9655
▁reproducti	-11.9655
▁valeri	-11.9657
▁fog	-11.9657
crates	-11.9659
agen	-11.9663
maker	-11.9663
▁nabi	-11.9664
irming	-11.9666
▁nett	-11.9667
▁blackout	-11.9668
▁tackl	-11.967
▁gere	-11.9683
▁reviews	-11.9686
rc	-11.9693
▁tide	-11.9696
ram	-11.9696
▁vip	-11.97
▁refiner	-11.9703
▁dodg	-11.9713
hwa	-11.9725
ano	-11.9725
▁compile	-11.9727
▁merc	-11.9727
ew	-11.9729
▁quota	-11.9731
▁hijacker	-11.9734
▁ger	-11.9735
acks	-11.9736
▁complicate	-11.9737
▁accommodate	-11.9737
▁cam	-11.9743
▁pas	-11.975
ference	-11.9752
▁receiver	-11.9756
▁vaccines	-11.9764
▁nap	-11.9766
▁hend	-11.9774
▁resistan	-11.9777
battle	-11.9784
▁butter	-11.9788
has	-11.9799
▁gum	-11.981
▁pra	-11.9813
▁char	-11.9818
aiss	-11.9823
▁mandel	-11.9823
▁sword	-11.9823
sule	-11.9826
▁barb	-11.983
eba	-11.9835
trick	-11.9836
lula	-11.9839
▁pale	-11.9852
▁disciplin	-11.9864
▁casp	-11.9865
▁cheon	-11.9869
▁lago	-11.9869
sif	-11.9872
▁reiterate	-11.9876
▁desir	-11.9889
▁kha	-11.9894
nin	-11.9896
▁reliev	-11.99
eigh	-11.9902
▁fascinat	-11.9905
▁rand	-11.9908
abel	-11.9909
▁enabl	-11.9917
▁waterway	-11.9919
▁closet	-11.9922
▁zhu	-11.9927
▁shre	-11.9932
▁bernie	-11.9932
▁marco	-11.9936
dson	-11.9937
▁tier	-11.9942
▁crossings	-11.9947
▁roo	-11.9955
▁reliabl	-11.9955
▁122	-11.9958
iffe	-11.9959
▁gotte	-11.9962
cent	-11.9969
▁forth	-11.9969
▁outlet	-11.9971
▁dav	-11.9977
▁spect	-11.9981
ti	-11.9983
▁periodic	-11.9985
▁cris	-11.9988
▁quantit	-11.9989
ci	-11.9991
▁burk	-11.9994
▁sanit	-11.9996
tana	-11.9998
alkati	-11.9998
pi	-12.0013
inal	-12.0015
▁hen	-12.0018
▁casual	-12.0019
▁tian	-12.0019
ark	-12.0028
▁recogniz	-12.0033
nnie	-12.0034
▁sag	-12.0035
▁wil	-12.0037
chen	-12.0038
▁belly	-12.0042
▁lan	-12.0046
thur	-12.0049
▁initiat	-12.005
▁bri	-12.0052
sibility	-12.0052
▁morale	-12.0052
▁lunche	-12.0056
una	-12.0065
▁tran	-12.0075
▁jess	-12.0075
▁insider	-12.0076
onso	-12.0076
▁embezzl	-12.0078
▁manufacture	-12.0078
▁cal	-12.0079
ali	-12.0081
▁gunfi	-12.0085
▁accessor	-12.0094
gue	-12.0097
▁espi	-12.0101
▁calculate	-12.0106
▁yama	-12.0109
oval	-12.0111
▁revers	-12.0126
reva	-12.013
lain	-12.0131
▁esta	-12.0133
▁trapp	-12.0133
trophy	-12.0135
▁anticipate	-12.0139
96	-12.0142
fan	-12.0156
lis	-12.0161
hk	-12.0165
▁translate	-12.0167
kin	-12.0168
▁maid	-12.017
▁compensate	-12.0172
▁timo	-12.0173
▁oz	-12.0176
drop	-12.0177
▁duja	-12.0179
frame	-12.0184
model	-12.0185
secretary	-12.0185
morning	-12.0185
morgan	-12.0188
▁jav	-12.0198
▁von	-12.02
▁260	-12.0201
gomer	-12.0203
▁default	-12.0206
▁hoon	-12.0206
stair	-12.0215
stability	-12.0219
▁integrate	-12.0224
▁domini	-12.0228
roads	-12.0231
awar	-12.0235
▁deserves	-12.024
▁shau	-12.025
heim	-12.0251
ffen	-12.026
▁tele	-12.0261
▁reluctan	-12.0265
sman	-12.0266
rek	-12.0267
▁interven	-12.0268
▁scho	-12.0269
▁cy	-12.027
▁laund	-12.0274
▁squeeze	-12.0275
▁envelope	-12.0276
▁spawn	-12.0277
▁evacu	-12.0277
▁corrupt	-12.0278
▁conspir	-12.0278
▁orphan	-12.028
▁pediatric	-12.028
▁bro	-12.0281
▁acclaim	-12.0281
▁barclay	-12.0281
▁fugitive	-12.0281
▁gondola	-12.0281
▁jaguar	-12.0281
▁jurisdiction	-12.0281
▁lithuania	-12.0281
▁malfunction	-12.0281
▁motorbike	-12.0281
▁nephew	-12.0281
▁ossuar	-12.0281
▁rainforest	-12.0281
▁rendition	-12.0281
▁ritchie	-12.0281
▁specify	-12.0281
▁unearth	-12.0281
▁evident	-12.0281
▁fortunate	-12.0281
▁reshuffl	-12.0281
▁curtain	-12.0281
▁relegat	-12.0281
▁lawrence	-12.0281
▁tariff	-12.0281
▁telegraph	-12.0281
▁pneum	-12.0281
▁thumb	-12.0281
▁submarine	-12.0281
▁superstar	-12.0281
▁dupre	-12.0281
▁eduard	-12.0281
▁foreclosure	-12.0281
▁muhammad	-12.0281
▁gilbert	-12.0281
▁enlist	-12.0281
▁freud	-12.0281
▁hajj	-12.0281
▁minimal	-12.0281
▁envision	-12.0281
▁textile	-12.0281
▁emmanuel	-12.0281
▁cyberspace	-12.0281
▁throng	-12.0282
▁expulsion	-12.0282
▁tread	-12.0282
▁redeployment	-12.0282
▁hoop	-12.0282
▁blacklist	-12.0282
▁felon	-12.0282
▁crab	-12.0282
▁annoy	-12.0282
▁physicist	-12.0283
▁orientation	-12.0283
▁exert	-12.0283
▁imagination	-12.0283
▁notify	-12.0283
▁perpetrator	-12.0283
▁footprint	-12.0283
▁frantic	-12.0283
▁nickel	-12.0283
▁malign	-12.0284
▁leverage	-12.0284
▁zebra	-12.0284
▁imam	-12.0284
▁yoko	-12.0284
▁rejoin	-12.0284
▁thigh	-12.0284
▁ideological	-12.0285
▁invention	-12.0285
▁systematic	-12.0285
▁verbal	-12.0285
▁derby	-12.0285
▁phrase	-12.0285
▁jihadist	-12.0286
▁pilgrimage	-12.0286
fo	-12.0286
▁fundamentalist	-12.0287
▁adaptation	-12.0287
▁swimmer	-12.0287
▁lenient	-12.0289
▁peek	-12.0289
▁nightmare	-12.029
▁deaf	-12.029
▁billboard	-12.029
▁emitt	-12.029
▁luther	-12.029
▁racist	-12.0291
▁zeb	-12.0291
▁migration	-12.0291
▁chopper	-12.0292
▁hideout	-12.0294
▁hinder	-12.0295
▁sulli	-12.0296
▁foment	-12.0296
▁matchup	-12.0296
▁crest	-12.0297
▁homeowner	-12.0298
▁steelers	-12.0298
▁trench	-12.0298
▁juli	-12.0299
▁wrestler	-12.03
ritis	-12.0301
text	-12.0304
▁jamaican	-12.0306
▁ryo	-12.0306
fraction	-12.0309
▁masse	-12.0309
▁humane	-12.031
nction	-12.0312
▁everton	-12.0313
▁combatant	-12.0313
▁jogg	-12.0315
▁crane	-12.0316
14	-12.0316
▁incit	-12.0319
▁conductor	-12.0319
▁mason	-12.032
▁meyer	-12.0326
iko	-12.0328
tte	-12.0329
▁stil	-12.0329
▁ridge	-12.0331
▁tenth	-12.0333
▁olive	-12.0343
thic	-12.0344
▁dipped	-12.0351
uez	-12.0352
▁interviewer	-12.0357
▁impressed	-12.0359
▁destructi	-12.0359
ery	-12.036
▁philipp	-12.0362
▁zay	-12.0368
▁irra	-12.0369
▁enthusiastic	-12.037
▁hal	-12.0375
▁vil	-12.0376
safe	-12.0382
▁wrestl	-12.0389
▁124	-12.0389
▁gra	-12.0394
yev	-12.0395
▁alme	-12.0396
▁hik	-12.0402
▁enforc	-12.0406
▁salam	-12.0409
▁pir	-12.0409
▁stam	-12.0412
▁paradi	-12.0414
▁fosse	-12.0419
▁communicat	-12.0422
▁exceptional	-12.0423
▁slice	-12.0423
xis	-12.0427
▁decorat	-12.0431
▁fend	-12.0436
▁secretari	-12.0441
toff	-12.0443
▁adel	-12.0447
▁offset	-12.0449
nants	-12.0451
▁rug	-12.0452
▁dancer	-12.0461
op	-12.0463
▁underline	-12.0464
▁stoke	-12.0465
reze	-12.0466
▁tile	-12.047
▁dash	-12.0473
▁lah	-12.0479
▁bir	-12.0485
▁gard	-12.0485
▁kas	-12.049
▁audiences	-12.0491
▁yun	-12.05
▁defuse	-12.051
▁regrett	-12.0518
▁exhaust	-12.0525
istic	-12.0527
▁rode	-12.0527
▁prosecut	-12.0535
anxi	-12.0544
▁claudi	-12.0555
irna	-12.0556
▁paw	-12.0561
pl	-12.0565
▁fam	-12.0575
▁mona	-12.0578
▁retaliat	-12.0582
hita	-12.0594
▁stockhol	-12.0598
▁deplor	-12.0601
▁pizz	-12.0607
uz	-12.0609
▁qua	-12.0612
ehan	-12.0613
ore	-12.0613
▁precedent	-12.0619
▁integrati	-12.0626
▁robin	-12.0631
▁elde	-12.0634
unt	-12.0638
▁rout	-12.0638
▁kati	-12.0647
▁colli	-12.065
lb	-12.0663
▁vent	-12.0664
▁pul	-12.068
▁daw	-12.0681
▁gamble	-12.0684
▁hatch	-12.0687
thy	-12.0701
▁relian	-12.0701
bola	-12.0702
▁viag	-12.071
ge	-12.0714
13	-12.0716
▁relation	-12.0726
ersen	-12.073
diane	-12.0739
uci	-12.0745
▁finn	-12.0746
▁jitter	-12.0748
▁strapp	-12.0753
▁burt	-12.0759
aire	-12.0762
▁rocker	-12.0786
▁coaster	-12.0789
▁gag	-12.0789
yu	-12.0791
▁kan	-12.0794
▁mediate	-12.0806
▁zi	-12.0812
egas	-12.0818
earby	-12.082
▁harle	-12.0821
▁forge	-12.0821
illy	-12.0832
sang	-12.0833
▁mcc	-12.0844
zone	-12.0852
▁exo	-12.0854
hang	-12.0864
illa	-12.0869
▁06	-12.0872
▁dora	-12.0874
niya	-12.0876
▁territori	-12.088
▁seasons	-12.089
voi	-12.0892
▁undern	-12.0893
▁censor	-12.0897
▁114	-12.0905
errez	-12.0906
horn	-12.0911
▁vacan	-12.092
nbar	-12.0924
▁suite	-12.0925
▁render	-12.0926
oc	-12.0929
▁associates	-12.0932
▁ann	-12.0935
▁jab	-12.0935
uso	-12.0937
kind	-12.0938
▁cro	-12.094
▁stirr	-12.0943
▁firefight	-12.0953
look	-12.0953
▁dai	-12.0953
together	-12.0954
around	-12.0955
four	-12.0961
▁boni	-12.0961
▁charl	-12.0963
▁proportion	-12.0967
▁laborer	-12.0967
80	-12.097
▁disclos	-12.097
▁deter	-12.0973
hurt	-12.0975
roll	-12.0982
▁cite	-12.0983
▁boundar	-12.0983
▁galax	-12.0986
▁seeds	-12.0986
▁bun	-12.0991
▁graves	-12.0994
▁heel	-12.0995
▁drinker	-12.0995
erber	-12.0996
life	-12.0998
▁continuous	-12.1002
▁logg	-12.1003
▁alg	-12.1005
▁ump	-12.1008
▁freight	-12.1008
▁bibl	-12.1009
▁reut	-12.1013
▁clutch	-12.1014
kins	-12.1014
▁extinguish	-12.1017
gate	-12.1018
▁beak	-12.1023
▁blend	-12.1031
▁bite	-12.1031
reau	-12.1032
aved	-12.1036
▁builder	-12.1036
▁cull	-12.1037
▁darre	-12.1041
▁emphasi	-12.1042
▁mathematic	-12.105
▁accumulate	-12.105
▁aggregate	-12.105
▁chimpanzee	-12.105
▁clarify	-12.105
▁convenience	-12.105
▁dissatisf	-12.105
▁eyewitness	-12.105
▁frequenc	-12.105
▁insufficient	-12.105
▁neglect	-12.105
▁plaintiff	-12.105
▁resurrect	-12.105
▁salvador	-12.105
▁sanchez	-12.105
▁scooter	-12.105
▁sporadic	-12.105
▁administer	-12.105
▁comrade	-12.105
▁warrior	-12.105
▁barroso	-12.105
▁mauritania	-12.105
misunderstanding	-12.1051
▁erotic	-12.1051
▁ecosystem	-12.1051
▁minimiz	-12.1051
▁leopard	-12.1051
▁polanski	-12.1051
▁knox	-12.1051
▁blanchett	-12.1051
▁reunion	-12.1051
▁smurf	-12.1051
▁sermon	-12.1051
▁bimbo	-12.1051
▁delaware	-12.1051
▁anglican	-12.1051
▁annul	-12.1051
▁ceasefire	-12.1051
▁cedar	-12.1051
▁rope	-12.1051
▁surrogate	-12.1052
▁celtic	-12.1052
▁bachelor	-12.1052
▁volley	-12.1052
▁garrison	-12.1052
▁discard	-12.1052
▁elbow	-12.1052
▁salute	-12.1053
▁spotlight	-12.1053
▁collaborator	-12.1053
▁ginger	-12.1053
▁insight	-12.1053
▁rabbit	-12.1054
▁compell	-12.1054
▁marble	-12.1054
▁elvi	-12.1054
▁fool	-12.1054
▁quinn	-12.1054
▁legitima	-12.1054
▁unfold	-12.1055
▁reptile	-12.1055
▁characteristic	-12.1055
▁gown	-12.1056
▁canister	-12.1056
ussain	-12.1056
ukov	-12.1056
ines	-12.1056
▁purse	-12.1058
▁pupp	-12.1058
▁normalization	-12.1058
▁za	-12.1058
▁intimate	-12.1058
▁interpretation	-12.1059
▁frenz	-12.1059
▁breakdown	-12.106
▁heroic	-12.106
▁dresse	-12.106
▁kennel	-12.1061
▁roche	-12.1061
▁shotgun	-12.1062
▁credi	-12.1062
▁baptist	-12.1063
▁feast	-12.1064
▁qin	-12.1064
▁authoritarian	-12.1064
▁disneyland	-12.1064
▁refineries	-12.1065
kanit	-12.1065
▁prohibition	-12.1065
▁chef	-12.1066
▁plagu	-12.1066
▁barney	-12.1067
guet	-12.1067
▁collector	-12.1067
▁wagon	-12.1069
▁liberia	-12.1069
▁assignment	-12.107
▁calder	-12.107
▁cypr	-12.1071
▁shootout	-12.1071
▁rip	-12.1071
▁spaceship	-12.1074
▁102	-12.1076
▁downer	-12.1077
heddin	-12.1078
▁molest	-12.1078
▁hillside	-12.1078
▁hogan	-12.1083
enza	-12.1086
▁entertainer	-12.1086
dah	-12.1086
▁versa	-12.1087
▁coward	-12.1087
▁libi	-12.1089
▁balco	-12.1089
▁affection	-12.109
▁flies	-12.109
cry	-12.1091
▁reconn	-12.1091
rgency	-12.1092
▁skidd	-12.1093
▁jem	-12.1094
▁adventurer	-12.1095
▁degrad	-12.1096
▁cultivat	-12.11
▁clone	-12.1102
▁meal	-12.1102
▁trev	-12.1102
▁nutrition	-12.1105
▁dogged	-12.1106
▁evaluate	-12.1108
▁stack	-12.1109
▁lime	-12.1109
rov	-12.1109
▁stark	-12.1109
res	-12.1113
▁wong	-12.1114
caul	-12.1114
▁stimulate	-12.1114
▁hallway	-12.1119
▁lat	-12.112
▁montrea	-12.1123
▁defy	-12.1123
▁shall	-12.1124
▁cove	-12.113
▁packs	-12.1134
▁proportional	-12.1134
atus	-12.1134
▁lari	-12.1135
22	-12.1136
▁buff	-12.1136
immer	-12.114
▁exercis	-12.1142
▁berl	-12.1143
▁grove	-12.1146
▁lexi	-12.1146
▁papa	-12.1149
asso	-12.1153
▁schult	-12.1153
▁pot	-12.1155
▁provisional	-12.1155
▁industrializ	-12.1157
▁fried	-12.116
▁lai	-12.1163
▁raft	-12.1166
aewoo	-12.1168
ied	-12.1175
▁ounces	-12.1176
▁fax	-12.1176
▁creditor	-12.118
▁meteorolog	-12.1182
▁bureaucrat	-12.1189
▁stirring	-12.119
served	-12.119
▁pier	-12.1194
▁armis	-12.1197
▁orient	-12.1198
▁para	-12.1198
▁disapprov	-12.12
ake	-12.1203
▁gam	-12.1212
53	-12.1219
emory	-12.1237
▁aggravate	-12.1238
ph	-12.1249
▁sake	-12.1256
▁hans	-12.1258
▁shaky	-12.1263
▁influen	-12.1263
ussi	-12.1264
eb	-12.1265
▁sup	-12.1267
▁stevens	-12.1271
▁bucking	-12.1281
▁cling	-12.1283
▁munition	-12.1283
▁participati	-12.1284
▁hindus	-12.129
ncy	-12.1292
▁concentrat	-12.1293
▁watt	-12.1293
▁oman	-12.1298
rose	-12.1298
▁mock	-12.13
▁confus	-12.131
▁dori	-12.1311
▁pools	-12.1311
▁mono	-12.1314
▁185	-12.1317
▁litera	-12.1319
nian	-12.1322
▁uphold	-12.1331
ologist	-12.1332
▁seon	-12.1336
▁qui	-12.1338
bul	-12.1339
clara	-12.134
▁380	-12.1344
▁toshi	-12.1344
▁crist	-12.1351
bur	-12.1353
▁myth	-12.1356
kee	-12.1359
nsu	-12.1362
▁transmitt	-12.1363
iband	-12.1365
eaten	-12.1368
▁kb	-12.1371
riel	-12.1371
▁governors	-12.1376
elhof	-12.1379
▁geo	-12.138
ria	-12.1383
▁freeway	-12.1384
grow	-12.1384
▁outlin	-12.1389
dell	-12.1393
▁finaliz	-12.1394
▁murd	-12.1394
▁interrogat	-12.1397
40	-12.14
ski	-12.1403
▁collide	-12.1404
dida	-12.1409
ears	-12.1409
▁fetch	-12.141
▁lal	-12.1411
achi	-12.1421
▁nim	-12.1427
▁leno	-12.1427
▁sights	-12.1432
▁astonish	-12.1438
workers	-12.1439
▁rec	-12.1452
ouf	-12.1457
iz	-12.1457
nstein	-12.1471
▁advisors	-12.1476
▁biograph	-12.1483
▁highland	-12.1487
wp	-12.1489
▁pett	-12.1494
▁dive	-12.1495
saw	-12.1495
libu	-12.1495
▁lips	-12.1496
▁hungar	-12.1496
▁stat	-12.15
▁appreciat	-12.1507
rjee	-12.151
oke	-12.1518
saki	-12.1523
▁opener	-12.1523
▁webb	-12.1524
▁discipline	-12.1526
era	-12.1526
▁leve	-12.154
▁shells	-12.154
▁abn	-12.1541
▁dh	-12.1544
▁preach	-12.1548
▁arrangement	-12.1557
▁resource	-12.1558
ru	-12.1559
▁tumble	-12.1561
tun	-12.1562
▁compuls	-12.1564
▁albums	-12.1566
▁tangib	-12.1568
▁mili	-12.1572
▁sour	-12.1577
▁lang	-12.1579
▁prosecute	-12.1583
▁schum	-12.1593
▁gabriel	-12.1594
▁shout	-12.1595
acio	-12.1599
than	-12.1608
▁braun	-12.1617
▁popul	-12.1626
▁wei	-12.1628
▁rafi	-12.1633
zak	-12.1633
unting	-12.1638
▁mobiliz	-12.1638
39	-12.1639
ging	-12.166
dian	-12.1661
▁seas	-12.1661
action	-12.1663
▁sting	-12.1665
▁def	-12.1669
▁prest	-12.1672
pt	-12.1674
umn	-12.1682
▁pol	-12.1684
sville	-12.1693
▁seale	-12.1696
▁compris	-12.1703
▁bra	-12.1715
wn	-12.1716
▁patt	-12.1716
▁integrat	-12.1717
▁flavor	-12.1732
iji	-12.1738
▁dill	-12.1745
▁log	-12.1747
▁silic	-12.1753
▁josh	-12.1756
liga	-12.1756
▁defian	-12.176
cb	-12.1771
ating	-12.1783
nutrition	-12.1784
sleep	-12.1788
foot	-12.179
▁viewing	-12.1791
uster	-12.1792
61	-12.1792
▁fr	-12.1792
decent	-12.18
ven	-12.1805
eads	-12.1809
▁saga	-12.1812
marked	-12.1822
▁estra	-12.1822
▁norm	-12.1823
zio	-12.1828
▁advoca	-12.1835
ite	-12.1843
▁messag	-12.1848
▁betray	-12.1849
▁biting	-12.1856
lender	-12.1861
▁albania	-12.1867
▁chatt	-12.1867
▁bike	-12.1872
▁roth	-12.1873
▁viru	-12.1874
▁clint	-12.1877
▁flip	-12.1877
▁petrol	-12.1877
rup	-12.188
mpact	-12.1881
▁abdulla	-12.1882
▁happi	-12.1882
▁worship	-12.1883
▁palestin	-12.1884
▁alejandr	-12.1884
▁avalanche	-12.1884
▁awkward	-12.1884
▁cantaloupe	-12.1884
▁carnival	-12.1884
▁cockpit	-12.1884
▁constituenc	-12.1884
▁juventu	-12.1884
▁outnumber	-12.1884
▁overflow	-12.1884
▁pavilion	-12.1884
▁precondition	-12.1884
▁rockefeller	-12.1884
▁skyrocket	-12.1884
▁tarmac	-12.1884
▁trinidad	-12.1884
▁upheaval	-12.1884
▁adolf	-12.1884
▁caesar	-12.1884
▁aurora	-12.1884
▁thymus	-12.1884
▁voyage	-12.1884
▁specimen	-12.1884
▁namdaemu	-12.1884
▁cheetah	-12.1884
▁sindh	-12.1884
▁blackberr	-12.1884
▁jalal	-12.1884
▁superjumbo	-12.1884
▁mujah	-12.1884
▁quadruple	-12.1884
▁flank	-12.1884
▁embroi	-12.1884
▁desktop	-12.1884
▁identical	-12.1884
▁creek	-12.1884
▁suitcase	-12.1884
▁prevail	-12.1884
▁patern	-12.1884
▁thieves	-12.1884
▁intoxicat	-12.1884
▁abdom	-12.1884
▁vague	-12.1884
▁faint	-12.1884
omaha	-12.1884
▁crouch	-12.1884
▁forehand	-12.1885
▁cesar	-12.1885
▁complicit	-12.1885
▁unify	-12.1885
▁mixture	-12.1885
▁analog	-12.1885
▁gym	-12.1885
▁ricard	-12.1885
▁muddy	-12.1885
▁workshop	-12.1886
▁enrollment	-12.1887
▁boulo	-12.1887
▁headphone	-12.1887
▁flatten	-12.1887
▁bulldozer	-12.1887
▁shunn	-12.1887
▁guti	-12.1887
▁architecture	-12.1888
▁bradley	-12.1888
▁abdomen	-12.1888
▁feline	-12.1889
▁2020	-12.1889
▁thaw	-12.1889
▁fabrication	-12.1889
▁marshall	-12.189
▁calculation	-12.189
oir	-12.189
▁odi	-12.1891
▁aisle	-12.1891
▁iceberg	-12.1892
▁innovation	-12.1892
▁cement	-12.1895
▁hopkin	-12.1895
▁downgrade	-12.1896
▁depiction	-12.1896
▁lava	-12.1897
▁multimillion	-12.1897
▁weightless	-12.1897
▁windsor	-12.1897
▁compatible	-12.1897
▁balkan	-12.1898
▁colorful	-12.1898
▁turkmen	-12.1898
▁deliberation	-12.1898
dic	-12.1899
▁barber	-12.1899
▁dimensional	-12.19
▁sniper	-12.1902
▁counselor	-12.1902
▁mountainside	-12.1904
▁void	-12.1904
▁downward	-12.1906
▁woodland	-12.1906
▁kwan	-12.1906
▁clement	-12.1908
wadd	-12.191
▁motorist	-12.1911
▁pegg	-12.1912
▁diwa	-12.1913
▁temper	-12.1914
▁hoff	-12.1914
enberg	-12.1915
▁modifie	-12.1917
▁escalator	-12.1917
clusion	-12.1917
▁sunny	-12.1918
ob	-12.1918
▁hospitalization	-12.1922
▁overture	-12.1923
▁startup	-12.1924
▁allocat	-12.1925
▁hernan	-12.193
▁flexibilit	-12.1934
▁worm	-12.1935
cheema	-12.1935
▁arche	-12.1936
worth	-12.1938
▁nia	-12.1943
ehr	-12.1944
lept	-12.1947
▁realistic	-12.1948
▁lament	-12.1949
▁cp	-12.1949
▁gon	-12.1954
chon	-12.1955
▁indirect	-12.196
▁nuts	-12.1962
▁dim	-12.1963
rei	-12.1963
ttle	-12.1964
▁camill	-12.1967
pot	-12.1968
▁128	-12.1969
▁candid	-12.1973
▁processor	-12.1973
▁decent	-12.1975
▁ascend	-12.1977
▁cald	-12.1982
chemical	-12.1986
▁gaul	-12.1991
▁xiao	-12.1991
▁prob	-12.1994
sour	-12.1995
moto	-12.1996
eem	-12.1997
▁skeptical	-12.1998
ipped	-12.2
▁heft	-12.2001
▁123	-12.2002
▁thriv	-12.2003
bee	-12.2003
▁cr	-12.2011
▁bidder	-12.2011
lett	-12.2013
ane	-12.2015
pache	-12.2016
▁booster	-12.2021
of	-12.2022
▁tsa	-12.2024
▁finalists	-12.2026
nnah	-12.203
▁mot	-12.203
15	-12.2032
abad	-12.2032
mother	-12.2033
▁hugg	-12.2037
cini	-12.204
▁controller	-12.2043
▁porter	-12.2045
▁exchang	-12.2048
▁kenne	-12.2052
ring	-12.2053
▁shorten	-12.2061
▁commando	-12.2069
wau	-12.2073
▁yass	-12.2078
bol	-12.208
fest	-12.2083
say	-12.2085
▁attendants	-12.2085
▁exhausted	-12.209
zan	-12.2094
▁programme	-12.2095
tty	-12.2097
▁alexandr	-12.2097
▁wade	-12.2099
ahab	-12.2102
▁vai	-12.2105
yah	-12.2108
▁dare	-12.2111
▁saba	-12.2116
▁shank	-12.2119
▁consolidate	-12.2127
▁readi	-12.2128
▁machi	-12.2129
▁slashing	-12.2138
▁georgian	-12.2139
▁justifi	-12.2142
▁consume	-12.2156
▁hilar	-12.2158
▁kc	-12.2158
▁flo	-12.2163
environmentalist	-12.2164
▁levee	-12.2165
ico	-12.217
riq	-12.2174
trust	-12.2179
▁notion	-12.2193
▁lis	-12.2194
▁generators	-12.2206
▁fabr	-12.2206
▁solt	-12.2211
▁egg	-12.2212
93	-12.2218
▁interfa	-12.2218
mm	-12.2219
▁ana	-12.2222
▁educate	-12.2227
cla	-12.2228
▁usage	-12.2238
▁naha	-12.2247
ites	-12.225
▁obstruct	-12.2257
▁clause	-12.2261
tu	-12.2267
▁quant	-12.2269
▁cater	-12.2271
tikh	-12.2271
▁dedicate	-12.2288
ili	-12.2292
nso	-12.23
mill	-12.2302
oppo	-12.2307
▁admir	-12.2314
▁excavat	-12.2322
▁eisen	-12.233
igat	-12.2337
rap	-12.234
▁kerch	-12.2342
abo	-12.2344
▁mirr	-12.2345
▁arabs	-12.2346
ctic	-12.235
yar	-12.2358
▁camel	-12.2358
▁136	-12.2359
▁taj	-12.2363
▁prescrib	-12.2364
ii	-12.2369
▁preced	-12.2371
▁grad	-12.2375
vani	-12.2375
▁lip	-12.2376
▁alba	-12.2384
▁lars	-12.2386
▁roos	-12.2401
▁armi	-12.2402
▁ent	-12.2408
▁champ	-12.241
▁bearer	-12.2411
bal	-12.242
▁bong	-12.2423
▁disma	-12.2433
matic	-12.2435
▁supervisi	-12.2441
▁trends	-12.2442
▁eurosta	-12.2444
▁reads	-12.2445
lumin	-12.2452
▁generator	-12.2454
▁03	-12.2456
eur	-12.2457
330	-12.2458
▁ruba	-12.2466
▁lash	-12.2466
▁athlete	-12.2467
▁scal	-12.2473
bury	-12.2486
▁intrigu	-12.2492
▁optim	-12.2496
▁whiske	-12.25
lynn	-12.2501
▁employer	-12.2508
pinning	-12.2508
sch	-12.2511
▁fey	-12.2511
▁jen	-12.2523
▁ic	-12.2532
vo	-12.2532
▁fuji	-12.2537
ndell	-12.2539
▁maps	-12.254
▁dece	-12.2541
▁minded	-12.2544
▁agrees	-12.2546
lamin	-12.2547
▁bru	-12.255
▁riches	-12.2555
▁kana	-12.2558
vac	-12.2563
▁origins	-12.2574
harmonic	-12.2574
yeh	-12.2575
cak	-12.2577
▁recorder	-12.2591
▁beg	-12.2599
anga	-12.26
▁convict	-12.2601
▁shatter	-12.2606
▁gal	-12.2612
itu	-12.2615
retz	-12.2622
log	-12.2624
▁vill	-12.2624
▁settlements	-12.2635
▁uncla	-12.2639
ork	-12.2646
▁kat	-12.2651
▁esp	-12.2658
lley	-12.266
▁gentle	-12.2661
▁commute	-12.2662
▁yeon	-12.2662
▁cate	-12.2662
▁thrive	-12.2664
▁collud	-12.2666
▁nova	-12.2667
▁ele	-12.2671
lines	-12.2673
▁hur	-12.2675
hold	-12.2677
▁forgive	-12.2683
phone	-12.2685
fayette	-12.2686
▁ironic	-12.2687
▁revel	-12.2688
conduct	-12.2697
smith	-12.2699
media	-12.2699
league	-12.2701
▁boon	-12.2702
▁intra	-12.2707
▁xia	-12.2708
chai	-12.2709
hallow	-12.2713
lusive	-12.2716
cker	-12.2726
▁blu	-12.2729
▁incorporat	-12.273
awful	-12.2733
▁server	-12.2739
smo	-12.2747
▁invent	-12.2752
▁hadn	-12.2753
moon	-12.2758
rgis	-12.276
▁105	-12.276
325	-12.276
uck	-12.2764
▁suf	-12.2768
roy	-12.2769
▁profession	-12.2771
▁kad	-12.2773
▁protester	-12.2776
▁xian	-12.2779
▁mechanic	-12.2781
steps	-12.2781
▁strategi	-12.2784
▁divisi	-12.2785
▁wacho	-12.2785
▁interact	-12.2786
▁ansa	-12.2788
▁innovati	-12.2789
▁tribun	-12.2789
▁obsess	-12.2792
tner	-12.2792
▁buoy	-12.2793
▁kazakh	-12.2793
▁demographic	-12.2793
▁panmunj	-12.2793
▁accomplice	-12.2793
▁appetite	-12.2793
▁audiotape	-12.2793
▁ayurved	-12.2793
▁berezovsky	-12.2793
▁bodlander	-12.2793
▁brawl	-12.2793
▁clergy	-12.2793
▁crawl	-12.2793
▁culprit	-12.2793
▁demolish	-12.2793
▁disqualifi	-12.2793
▁djamena	-12.2793
▁enclave	-12.2793
▁erratic	-12.2793
▁gwen	-12.2793
▁jetliner	-12.2793
▁leisure	-12.2793
▁memorandum	-12.2793
▁namibia	-12.2793
▁ordinance	-12.2793
▁portfolio	-12.2793
▁swirl	-12.2793
▁tanzania	-12.2793
▁ultimatum	-12.2793
▁yugoslav	-12.2793
▁dreamliner	-12.2793
▁rethink	-12.2793
▁souvenir	-12.2793
▁unhcr	-12.2793
▁abstain	-12.2793
▁backpack	-12.2793
▁futurist	-12.2793
▁connor	-12.2793
▁glory	-12.2793
▁mistreat	-12.2793
▁snapshot	-12.2793
▁steadfast	-12.2793
▁contagio	-12.2793
▁fraudulent	-12.2793
▁trunk	-12.2793
▁antenna	-12.2793
▁curtail	-12.2793
▁seismic	-12.2793
▁biometric	-12.2793
▁paleontologist	-12.2793
▁unwilling	-12.2793
▁encrypt	-12.2793
▁grape	-12.2793
▁minivan	-12.2793
▁ericsson	-12.2793
▁empower	-12.2793
▁preview	-12.2793
▁refund	-12.2793
▁charismatic	-12.2793
▁resemblance	-12.2793
▁mafia	-12.2793
▁categorical	-12.2793
▁diaries	-12.2793
▁unreasonabl	-12.2793
▁qualification	-12.2793
▁goddess	-12.2794
▁bras	-12.2794
▁fertilizer	-12.2794
▁infra	-12.2794
▁crescent	-12.2794
▁mcqu	-12.2794
▁breez	-12.2794
▁ecsta	-12.2794
▁hedge	-12.2794
▁edmund	-12.2794
▁evict	-12.2794
▁refrigerator	-12.2794
▁fetus	-12.2794
atorium	-12.2794
▁cubic	-12.2794
▁hosseini	-12.2795
▁yuko	-12.2795
▁patent	-12.2795
▁luke	-12.2795
▁revoke	-12.2795
▁motel	-12.2795
▁racket	-12.2795
▁tusk	-12.2795
▁latitude	-12.2795
▁snowfall	-12.2795
▁churn	-12.2796
▁stalk	-12.2796
▁airlift	-12.2796
▁lieber	-12.2796
▁juice	-12.2796
▁primate	-12.2796
▁elliot	-12.2797
▁dynamit	-12.2797
eille	-12.2797
▁straw	-12.2797
▁anthropolog	-12.2797
▁freak	-12.2797
▁zhe	-12.2797
▁stoppage	-12.2797
▁module	-12.2798
▁gins	-12.2798
▁psychiatrist	-12.2798
▁meadow	-12.2798
▁scow	-12.2799
▁thankful	-12.2799
▁educator	-12.28
aah	-12.2801
▁artwork	-12.2801
▁jorge	-12.2801
▁cogniti	-12.2802
▁valve	-12.2802
▁interruption	-12.2803
▁adjustment	-12.2803
▁chew	-12.2804
▁pew	-12.2804
▁elisa	-12.2804
▁stiff	-12.2804
ollea	-12.2805
▁electorate	-12.2807
▁pierce	-12.2808
▁lame	-12.2809
▁burri	-12.2809
▁crusader	-12.281
▁sniff	-12.2812
▁perez	-12.2813
je	-12.2813
▁parliamentarian	-12.2814
▁specialize	-12.2815
▁1940	-12.2816
▁terrifi	-12.2816
▁tab	-12.2816
▁imp	-12.2817
▁flush	-12.2817
▁banana	-12.2817
dullah	-12.2817
▁299	-12.2818
▁fein	-12.2818
▁kraus	-12.282
▁fundraiser	-12.2821
etcher	-12.2823
▁groom	-12.2823
▁condon	-12.2826
▁airship	-12.2829
velt	-12.2831
▁retriev	-12.2834
▁normaliz	-12.2836
▁pinn	-12.2836
▁ngo	-12.2837
▁carat	-12.2837
▁equalise	-12.2839
▁deflect	-12.2839
▁burre	-12.284
▁clever	-12.2842
▁lapse	-12.2844
▁scann	-12.2845
▁solicit	-12.2846
▁endeavor	-12.2847
▁upward	-12.2848
▁flagg	-12.2849
▁aaa	-12.2849
▁maldiv	-12.2849
▁loosen	-12.2851
▁129	-12.2852
all	-12.2852
▁mortal	-12.2854
▁indicator	-12.2854
▁induce	-12.2857
▁capitalism	-12.2858
▁lagg	-12.2859
▁eras	-12.2862
▁fist	-12.2864
▁ratifi	-12.2865
▁seinfeld	-12.287
noble	-12.2871
ych	-12.2872
▁iq	-12.2872
▁zane	-12.2874
▁helms	-12.2876
lana	-12.2877
▁mcnam	-12.2878
▁cram	-12.2878
▁blanc	-12.2879
emptive	-12.288
kka	-12.2881
oda	-12.2882
▁reno	-12.2882
▁fabric	-12.2887
▁messi	-12.2898
ovi	-12.2898
▁mistaken	-12.2899
ieu	-12.2902
zuma	-12.2903
▁saber	-12.2904
▁enroll	-12.2904
▁tablet	-12.2905
▁sreb	-12.2907
▁casa	-12.2909
▁frig	-12.291
alban	-12.291
1948	-12.2912
▁eli	-12.2921
▁oliver	-12.2922
tze	-12.2922
▁gwang	-12.2927
▁syndicate	-12.2933
▁jas	-12.2933
▁rajas	-12.2933
soon	-12.2934
▁affiliat	-12.2941
▁lynd	-12.2941
estero	-12.2941
choles	-12.2942
65	-12.2948
▁sham	-12.2951
rai	-12.296
▁borg	-12.2964
▁soli	-12.2964
wf	-12.2965
▁simulate	-12.2966
▁wis	-12.2967
leban	-12.2968
ruz	-12.2979
ama	-12.2981
▁jeon	-12.2991
▁publicize	-12.2996
▁garr	-12.3001
▁hydra	-12.3004
ntana	-12.301
rat	-12.3012
▁icr	-12.3016
▁gall	-12.3026
▁relocat	-12.3027
▁header	-12.3027
yak	-12.303
▁calculat	-12.3032
▁predicts	-12.3033
ame	-12.304
hiko	-12.3043
▁sto	-12.3045
▁heroin	-12.3046
▁certifi	-12.3047
▁giro	-12.3051
▁giz	-12.3053
vi	-12.3056
▁shand	-12.306
stable	-12.306
▁gunn	-12.3061
▁withstand	-12.3063
cer	-12.3064
trapped	-12.3064
▁pitcher	-12.3064
stra	-12.3078
▁infring	-12.3082
▁pessimist	-12.3086
jaf	-12.3087
elli	-12.3087
▁intimidati	-12.3088
▁verge	-12.3093
▁incorporate	-12.3102
1966	-12.3109
▁supplements	-12.3113
dis	-12.3114
▁repressi	-12.3118
llan	-12.3126
▁perish	-12.3138
▁lav	-12.3138
▁vet	-12.3138
▁expir	-12.3143
▁jessi	-12.3147
▁rile	-12.3149
dero	-12.3151
▁footballer	-12.3152
hu	-12.3154
▁sund	-12.3155
▁remed	-12.3155
33	-12.3158
▁sla	-12.3161
▁stri	-12.317
▁divin	-12.3172
pon	-12.3178
▁conciliat	-12.3188
sche	-12.3194
▁covert	-12.3196
mb	-12.3198
nate	-12.3202
▁pont	-12.3209
▁liberate	-12.3211
▁notable	-12.3217
bbie	-12.3218
▁julian	-12.322
ddy	-12.3223
▁tro	-12.3226
▁flourish	-12.3226
▁pi	-12.3232
▁cosmo	-12.3234
▁fen	-12.3236
▁fri	-12.3236
▁tri	-12.3238
▁zealander	-12.3239
▁jamm	-12.3242
▁prai	-12.3244
▁mao	-12.3244
▁186	-12.3247
▁gome	-12.3249
▁grill	-12.3253
▁poke	-12.3253
▁181	-12.3255
▁ripple	-12.3255
▁printer	-12.3264
▁joan	-12.328
▁birdie	-12.3282
▁chungchon	-12.3285
omi	-12.3286
lar	-12.3302
▁tit	-12.3302
hart	-12.3302
▁mobilize	-12.3308
▁bait	-12.3312
▁adventures	-12.3319
▁gir	-12.332
▁snipe	-12.3323
cin	-12.3326
▁gia	-12.3338
▁mae	-12.3341
▁mesh	-12.3355
▁flowing	-12.3356
▁commun	-12.3359
ghi	-12.3359
▁ferri	-12.336
▁sik	-12.3361
pat	-12.3367
▁eun	-12.3368
ott	-12.3373
metric	-12.3377
▁verse	-12.338
▁attitudes	-12.3383
▁pg	-12.3384
ain	-12.3391
▁smuggl	-12.3392
▁attache	-12.3399
▁preference	-12.34
▁taka	-12.3401
▁jonat	-12.3403
▁regulat	-12.3404
erous	-12.3414
▁mubar	-12.3414
▁schu	-12.3419
▁af	-12.3419
ammar	-12.3421
ically	-12.3433
▁dott	-12.3434
▁forci	-12.3438
oom	-12.344
▁jeopardize	-12.3441
ast	-12.3441
pc	-12.3449
▁diver	-12.3449
▁supplement	-12.345
▁tract	-12.3453
▁approache	-12.3455
▁ramm	-12.3458
▁jee	-12.3458
▁foray	-12.3467
▁dera	-12.3468
asia	-12.3468
▁germ	-12.3472
news	-12.3479
oni	-12.348
▁banda	-12.349
▁chic	-12.3494
▁shan	-12.3497
▁abilit	-12.35
▁earl	-12.3504
▁reserv	-12.3506
▁relat	-12.351
hafi	-12.3515
ngal	-12.3518
ure	-12.3518
believ	-12.352
▁replica	-12.3522
▁greeting	-12.3525
nica	-12.3525
▁escalate	-12.3528
▁downsiz	-12.3529
▁advocat	-12.3534
▁disguis	-12.3535
aux	-12.355
▁aggravat	-12.3551
▁banker	-12.3553
99	-12.3557
▁bald	-12.3567
veh	-12.3572
▁capitaliz	-12.3573
▁plen	-12.3585
▁geographic	-12.3587
dler	-12.3593
ert	-12.3593
▁deng	-12.3601
▁ober	-12.3602
bun	-12.3602
▁beta	-12.3608
▁embrac	-12.3611
etz	-12.3635
29	-12.3642
▁nasir	-12.3644
▁garri	-12.3644
▁unfit	-12.3647
▁nikol	-12.3649
▁dissolv	-12.365
onian	-12.3657
jord	-12.3658
tract	-12.3659
▁belts	-12.3659
▁grind	-12.3663
▁gong	-12.3666
▁sar	-12.3667
▁wonders	-12.3683
▁shaha	-12.3685
stands	-12.3688
pine	-12.3689
rel	-12.3689
sphere	-12.369
schle	-12.369
taek	-12.3692
▁enthusiast	-12.3692
▁zai	-12.3693
week	-12.3693
parents	-12.3697
technology	-12.3702
mat	-12.3703
▁fonda	-12.3704
inos	-12.3706
sense	-12.3706
watch	-12.3706
taka	-12.3706
jean	-12.3709
visibl	-12.3714
avoid	-12.3715
shot	-12.3717
▁mali	-12.372
uted	-12.372
▁rebuil	-12.3722
▁physiolog	-12.3725
▁fayya	-12.3744
ashi	-12.3748
vp	-12.375
▁astronom	-12.3752
▁purge	-12.3756
89	-12.3764
▁jud	-12.3766
▁doug	-12.3769
▁wrangl	-12.3769
▁magnet	-12.377
26	-12.3771
▁jeopard	-12.3775
▁patron	-12.3776
▁ensu	-12.3776
▁prominen	-12.3778
▁pardo	-12.3779
▁yin	-12.3786
▁bankrupt	-12.3787
▁distract	-12.3788
▁pharmac	-12.379
▁luz	-12.3793
▁abolition	-12.3793
▁absurd	-12.3793
▁autobiograph	-12.3793
▁complement	-12.3793
▁deforest	-12.3793
▁disadvantage	-12.3793
▁discontent	-12.3793
▁disregard	-12.3793
▁dysfunction	-12.3793
▁fowler	-12.3793
▁loophole	-12.3793
▁madagascar	-12.3793
▁matthew	-12.3793
▁netscape	-12.3793
▁rebuff	-12.3793
▁recharge	-12.3793
▁revamp	-12.3793
▁surcharge	-12.3793
▁alligator	-12.3793
▁tgv	-12.3793
▁cuisine	-12.3793
▁delinquent	-12.3793
▁detach	-12.3793
▁indiscriminate	-12.3793
▁inviting	-12.3793
▁rupture	-12.3793
▁senegal	-12.3793
▁telecast	-12.3793
▁zhao	-12.3793
▁solemn	-12.3793
▁anorexi	-12.3793
▁cosmetic	-12.3793
▁rutger	-12.3793
▁wrinkle	-12.3793
▁itinerar	-12.3793
▁shrunk	-12.3793
▁turbine	-12.3793
▁kashiwa	-12.3793
▁sleeve	-12.3793
▁pharaoh	-12.3793
▁purple	-12.3793
▁mitch	-12.3793
▁jockey	-12.3793
▁osbourne	-12.3793
eutic	-12.3793
▁dispel	-12.3793
▁relentless	-12.3793
▁cowboy	-12.3793
▁pinpoint	-12.3793
▁vigorous	-12.3793
▁disconnect	-12.3793
▁malicious	-12.3793
▁commend	-12.3793
▁grasp	-12.3793
▁arrowhead	-12.3793
▁stymie	-12.3793
▁kirch	-12.3793
▁newcomer	-12.3793
▁bourse	-12.3793
▁affirm	-12.3793
▁mudslide	-12.3793
▁taunt	-12.3793
▁ravine	-12.3793
▁triang	-12.3793
▁furious	-12.3793
▁effig	-12.3794
▁meghani	-12.3794
▁spew	-12.3794
▁humid	-12.3794
▁tigr	-12.3794
▁bulb	-12.3794
▁sitcom	-12.3794
▁bolivia	-12.3794
▁screenplay	-12.3794
▁pleasant	-12.3794
▁resent	-12.3794
▁mimic	-12.3794
▁sidewalk	-12.3795
▁czar	-12.3795
▁hamza	-12.3795
▁realign	-12.3795
▁arsen	-12.3795
▁ghost	-12.3795
▁katz	-12.3795
▁paek	-12.3795
▁columnist	-12.3796
▁drummer	-12.3796
▁reneg	-12.3796
▁condom	-12.3796
▁shrugg	-12.3796
▁haq	-12.3796
▁unlock	-12.3797
▁recit	-12.3797
▁bandit	-12.3798
▁pinch	-12.3798
▁touchdown	-12.3798
▁thoms	-12.3798
▁tyrann	-12.3798
▁scoop	-12.3799
▁narco	-12.3799
▁marketplace	-12.3799
▁interceptor	-12.3799
▁abductee	-12.38
▁derive	-12.38
▁rhe	-12.3801
▁fluid	-12.3801
▁waive	-12.3801
▁jelly	-12.3801
▁compass	-12.3802
▁amass	-12.3802
▁generous	-12.3802
▁decoration	-12.3802
▁jamestown	-12.3803
▁arrow	-12.3803
▁feminin	-12.3804
▁booth	-12.3804
▁surgical	-12.3804
▁blazers	-12.3804
▁submerg	-12.3805
▁elysee	-12.3805
werp	-12.3806
▁laurent	-12.3807
▁riddle	-12.3808
▁ayres	-12.3808
▁mansion	-12.3808
▁marx	-12.3809
▁krug	-12.3809
▁handset	-12.381
▁slovakia	-12.3811
▁tasmania	-12.3811
quille	-12.3811
▁feedback	-12.3812
▁housekeeper	-12.3812
▁totalitarian	-12.3814
▁ritz	-12.3815
▁mauric	-12.3816
▁cardiov	-12.3817
▁relate	-12.3819
▁intestin	-12.382
tilin	-12.382
▁prevalen	-12.3822
▁loung	-12.3822
leet	-12.3823
▁hotte	-12.3823
▁albe	-12.3824
▁newsroom	-12.3824
tious	-12.3828
quet	-12.3828
▁vonn	-12.3829
▁fab	-12.3829
culty	-12.3829
▁taji	-12.383
▁spectacle	-12.383
▁wax	-12.383
cm	-12.383
▁heather	-12.3833
▁mold	-12.3833
uman	-12.3835
▁dweller	-12.3835
▁estonian	-12.3836
iff	-12.3837
nsei	-12.3838
▁claw	-12.384
bouc	-12.3841
fold	-12.3842
gon	-12.3843
▁chiap	-12.3843
▁candles	-12.3847
▁kinne	-12.3851
▁offence	-12.3852
▁abundan	-12.3857
▁directive	-12.3858
▁violator	-12.3858
▁mit	-12.3858
▁haa	-12.3859
▁fluctuat	-12.3863
▁alban	-12.3864
▁dismay	-12.3865
▁forceful	-12.3866
fann	-12.3872
▁preside	-12.3874
dog	-12.3879
▁189	-12.3881
▁subsidi	-12.3881
▁biti	-12.3882
riyad	-12.3886
▁merv	-12.3888
▁nan	-12.389
▁stoning	-12.3893
▁sneaker	-12.3893
▁shade	-12.3895
▁shutter	-12.3895
habi	-12.3895
▁tal	-12.3896
▁tsuyo	-12.3897
▁unsur	-12.39
stice	-12.3901
▁insurer	-12.3901
▁ev	-12.3903
▁khalil	-12.3904
▁kiku	-12.3905
andel	-12.3907
richt	-12.3909
▁113	-12.3909
▁pluck	-12.391
▁navigat	-12.3913
rdin	-12.3917
▁shaw	-12.3918
▁swelling	-12.3922
▁camer	-12.3924
▁beast	-12.3924
▁boob	-12.3925
▁timeline	-12.3925
riano	-12.3927
▁brod	-12.3929
▁singaporean	-12.3929
▁lek	-12.393
tractor	-12.3931
▁salvage	-12.3932
▁perceiv	-12.3935
▁lemon	-12.3938
86	-12.3939
▁missionar	-12.3943
▁suck	-12.3945
18	-12.3954
▁fond	-12.3955
▁verifiabl	-12.3956
▁som	-12.3969
▁rama	-12.397
pb	-12.3971
▁porch	-12.3971
▁gregor	-12.3972
▁endless	-12.3972
▁shui	-12.3975
▁outsider	-12.3977
ker	-12.3979
▁lied	-12.3979
▁schn	-12.3979
lam	-12.3981
▁celesti	-12.3982
▁fractur	-12.3987
▁couri	-12.3991
bly	-12.3992
mert	-12.3994
▁painter	-12.3998
effer	-12.3998
▁deliberat	-12.401
▁directions	-12.4016
nger	-12.4026
▁108	-12.4032
dam	-12.4032
wich	-12.4034
dez	-12.4035
book	-12.4039
▁marlboro	-12.4039
thura	-12.4044
ched	-12.4051
▁shaun	-12.4057
dental	-12.4062
▁wend	-12.4065
▁baba	-12.4066
gne	-12.4067
use	-12.4067
▁scarce	-12.4068
shu	-12.407
▁anton	-12.407
▁parkin	-12.4076
▁assumption	-12.4077
▁ull	-12.4093
▁mend	-12.4099
▁geno	-12.4121
▁natali	-12.4125
949	-12.413
▁initiate	-12.4137
▁behave	-12.414
▁barn	-12.4143
95	-12.4144
▁mut	-12.4145
wall	-12.415
▁mri	-12.4151
▁sunda	-12.4152
tics	-12.4154
▁baa	-12.4154
vara	-12.4154
pun	-12.4155
chu	-12.4155
▁tutori	-12.4157
▁espan	-12.4157
▁asha	-12.4163
▁electro	-12.417
▁stampede	-12.4182
bas	-12.4186
nson	-12.4188
▁mosle	-12.4188
▁thu	-12.4189
▁hijacking	-12.4192
▁exceeding	-12.4192
oros	-12.4194
▁sara	-12.4202
eij	-12.4202
▁tzi	-12.4203
▁admire	-12.4205
oul	-12.4218
▁appreciati	-12.4227
▁uneas	-12.4231
▁smithson	-12.4232
▁abd	-12.4234
ryl	-12.4234
igan	-12.4238
▁moderniz	-12.4238
▁brace	-12.4242
▁conscript	-12.4243
evic	-12.4252
amba	-12.4253
pal	-12.4254
▁bully	-12.4256
lov	-12.4261
▁loser	-12.4261
▁fle	-12.4262
▁turki	-12.4262
▁sacking	-12.4264
▁gallu	-12.4265
rock	-12.4268
oven	-12.427
▁moussa	-12.4273
ika	-12.4279
▁masha	-12.428
mps	-12.4285
▁pie	-12.4286
▁dishe	-12.429
▁robbi	-12.4297
hoe	-12.4298
▁allerg	-12.43
drome	-12.4301
ice	-12.4303
zad	-12.4307
24	-12.431
▁ryd	-12.4311
▁confiscat	-12.4314
▁hyde	-12.4316
▁destroyer	-12.4322
▁qual	-12.4325
▁tira	-12.4331
mara	-12.4332
ducat	-12.4333
▁resettle	-12.4339
▁spar	-12.434
owed	-12.434
ole	-12.4343
▁equalize	-12.4344
▁distincti	-12.4345
enne	-12.435
▁confiscate	-12.4352
nie	-12.4357
unker	-12.4357
▁thre	-12.4367
position	-12.437
avaro	-12.4373
▁casting	-12.4377
▁bain	-12.4378
mate	-12.438
▁joo	-12.4386
elo	-12.4386
025	-12.4392
▁adrian	-12.4394
rne	-12.4398
tice	-12.4402
▁sel	-12.4416
▁gem	-12.4417
kova	-12.4418
▁dri	-12.4422
▁fabricat	-12.4424
▁refin	-12.4427
▁lou	-12.4428
nz	-12.4429
▁conceiv	-12.4431
▁drawings	-12.4434
▁graduat	-12.4452
▁sands	-12.4453
▁lac	-12.4457
▁sequel	-12.4462
▁wald	-12.4463
▁licens	-12.4466
glio	-12.4468
tia	-12.4471
▁venet	-12.4479
▁adulter	-12.4482
egan	-12.4483
track	-12.4488
▁lar	-12.4502
bre	-12.4514
▁claud	-12.4516
▁emb	-12.4518
shin	-12.4521
gaz	-12.4526
▁nat	-12.4529
▁ira	-12.4535
▁vit	-12.4551
▁blacks	-12.4554
gay	-12.4559
▁stipulate	-12.4561
▁skier	-12.4561
issan	-12.4567
▁159	-12.4571
umi	-12.4576
▁toddlers	-12.4577
▁duch	-12.4578
▁syn	-12.4578
▁frankl	-12.4579
▁retiree	-12.4582
▁sca	-12.4585
▁una	-12.4586
▁complian	-12.459
▁abba	-12.4591
tian	-12.4599
▁barre	-12.4603
agar	-12.4604
▁lid	-12.4605
▁fade	-12.4605
▁lonely	-12.4609
▁gat	-12.4611
osa	-12.4629
▁tel	-12.4637
▁unfor	-12.4638
badi	-12.464
gh	-12.4643
now	-12.4646
asahi	-12.4654
▁kampu	-12.4655
▁fruits	-12.4656
imon	-12.4657
ff	-12.4662
mosh	-12.4665
boy	-12.4684
ouad	-12.4689
garve	-12.469
▁fracture	-12.4692
▁jian	-12.4692
word	-12.4694
mes	-12.4696
▁underscor	-12.4699
▁alga	-12.4704
▁parr	-12.4711
▁tame	-12.4711
▁cripple	-12.4711
▁caffe	-12.4718
▁imagin	-12.4723
lf	-12.473
▁activate	-12.4732
▁natal	-12.4733
▁scarf	-12.4735
▁lonel	-12.4735
▁mun	-12.4735
▁beneficia	-12.4737
▁nois	-12.4739
▁boo	-12.4749
▁satisfy	-12.4752
cu	-12.4753
lift	-12.4753
▁berg	-12.4759
54	-12.4761
cat	-12.4761
tsuo	-12.4764
ariya	-12.4765
▁vir	-12.4769
▁elevat	-12.4776
paste	-12.4778
▁milita	-12.4778
▁frustrate	-12.4779
▁lens	-12.4786
▁piro	-12.4793
▁sneak	-12.4794
diari	-12.4796
ready	-12.4798
cube	-12.4799
▁sali	-12.4801
convenient	-12.4802
walk	-12.4804
blaze	-12.4806
accurate	-12.4806
adequate	-12.4806
ameter	-12.4807
effective	-12.4808
committee	-12.4808
government	-12.4808
affected	-12.4808
mitag	-12.4808
daughter	-12.4809
season	-12.4809
rief	-12.481
yub	-12.4811
▁conceive	-12.4811
fox	-12.4813
spring	-12.4813
help	-12.4816
▁satisfact	-12.4816
lein	-12.482
wanted	-12.4821
match	-12.4821
roar	-12.4822
accessib	-12.4823
ax	-12.4825
▁circu	-12.4828
doo	-12.483
brew	-12.4831
▁atom	-12.4837
kong	-12.4842
320	-12.4842
gu	-12.4844
▁131	-12.4847
terrestrial	-12.4849
▁entertain	-12.4849
20	-12.4849
▁residenc	-12.4853
▁dian	-12.4858
35	-12.4859
▁equ	-12.486
▁vik	-12.4861
▁164	-12.4863
▁glamo	-12.4864
lab	-12.4869
▁psycho	-12.4873
▁enthusias	-12.4877
heard	-12.488
▁plague	-12.4881
pick	-12.4882
▁sweat	-12.4883
span	-12.4886
▁americ	-12.4887
bei	-12.4888
▁numb	-12.4891
▁horm	-12.4894
▁hardline	-12.4896
nix	-12.4898
wire	-12.4898
▁eavesdropp	-12.4902
▁distr	-12.4904
▁precarious	-12.4904
▁susceptib	-12.4904
▁thirteen	-12.4904
▁aeronautic	-12.4904
▁apprehend	-12.4904
▁blizzard	-12.4904
▁boulevard	-12.4904
▁consequent	-12.4904
▁demolition	-12.4904
▁entrepreneur	-12.4904
▁grizzl	-12.4904
▁grylls	-12.4904
▁handcuff	-12.4904
▁kilowatt	-12.4904
▁liechtenstein	-12.4904
▁microwave	-12.4904
▁pacify	-12.4904
▁recipient	-12.4904
▁spontaneous	-12.4904
▁unravel	-12.4904
▁uruguay	-12.4904
▁banteng	-12.4904
▁detergent	-12.4904
▁avatar	-12.4904
▁belarus	-12.4904
▁manhunt	-12.4904
▁mcclinto	-12.4904
▁transgender	-12.4904
▁whirl	-12.4904
▁classify	-12.4904
▁daimler	-12.4904
▁basilica	-12.4904
▁octopus	-12.4904
▁theoretical	-12.4904
▁cambridge	-12.4904
▁gymnast	-12.4904
▁smear	-12.4904
▁wrack	-12.4904
▁hemorrhag	-12.4904
▁pelvi	-12.4904
▁wilkins	-12.4904
hygien	-12.4904
▁indigen	-12.4904
▁nonviolen	-12.4904
▁turtle	-12.4904
▁dissent	-12.4904
▁twitter	-12.4904
▁pupil	-12.4904
▁morici	-12.4904
nthia	-12.4904
▁scour	-12.4904
▁emphatic	-12.4904
▁essay	-12.4904
▁polygam	-12.4904
▁cadet	-12.4904
▁screw	-12.4904
▁arraignment	-12.4904
▁gharial	-12.4904
▁snowstorm	-12.4905
▁masterpiece	-12.4905
▁idris	-12.4905
▁grievance	-12.4905
▁reclaim	-12.4905
▁lizard	-12.4905
▁minibus	-12.4905
▁nongovernment	-12.4905
▁accommodation	-12.4905
▁chipmaker	-12.4905
▁tanner	-12.4905
▁yoshi	-12.4905
▁overreact	-12.4905
▁butterfl	-12.4905
▁graff	-12.4905
orrow	-12.4905
▁intermedia	-12.4906
▁clover	-12.4906
▁luxurious	-12.4906
▁holi	-12.4906
▁entice	-12.4906
▁mound	-12.4906
▁barbour	-12.4906
▁temptation	-12.4906
rogba	-12.4907
▁curricul	-12.4907
▁termination	-12.4907
▁wiretapp	-12.4907
ilja	-12.4907
▁toxin	-12.4907
▁commemoration	-12.4907
▁hague	-12.4907
▁kau	-12.4907
gram	-12.4907
▁graduation	-12.4908
imeter	-12.4908
erno	-12.4908
▁flawless	-12.4908
▁exemption	-12.4908
▁rainbow	-12.4908
▁corral	-12.4908
▁dumpling	-12.4908
▁sift	-12.4908
▁fringe	-12.4908
▁tamper	-12.4908
▁dangl	-12.4909
▁aspiration	-12.4909
▁marvel	-12.4909
▁funnel	-12.491
▁birthrate	-12.491
▁downpour	-12.491
▁distraction	-12.491
▁novelist	-12.491
▁sunlight	-12.491
▁carving	-12.491
▁depot	-12.491
▁wolfe	-12.491
▁gigabyte	-12.4911
▁organism	-12.4911
▁doctrine	-12.4911
▁milos	-12.4911
▁newsweek	-12.4911
▁gartner	-12.4911
choa	-12.4911
▁vander	-12.4912
▁1920	-12.4912
▁subscriber	-12.4912
▁solace	-12.4912
eller	-12.4912
▁summar	-12.4913
▁yuri	-12.4913
▁holz	-12.4914
▁carli	-12.4914
midt	-12.4915
nova	-12.4915
▁discourage	-12.4915
okou	-12.4915
▁tenet	-12.4916
▁chinook	-12.4917
▁injustice	-12.4917
▁adversari	-12.4917
▁jabal	-12.4918
▁mccle	-12.4919
▁filter	-12.4919
▁adorn	-12.4919
▁baek	-12.4919
kistan	-12.492
eu	-12.4921
▁hoard	-12.4921
▁walt	-12.4922
▁contributor	-12.4923
▁py	-12.4924
▁mongolia	-12.4924
▁fioren	-12.4925
▁galv	-12.4925
▁composition	-12.4926
▁obeid	-12.4926
▁sixteen	-12.4927
▁indecen	-12.4928
▁secularist	-12.4928
▁zahar	-12.4929
▁playground	-12.4929
▁prim	-12.4929
▁weiss	-12.493
▁maggi	-12.493
▁corona	-12.493
▁cache	-12.4931
▁560	-12.4932
▁nye	-12.4934
▁worthless	-12.4934
▁overpower	-12.4935
▁lax	-12.4935
▁worshipper	-12.4936
▁siren	-12.4937
otherap	-12.4938
▁congregation	-12.4938
▁inability	-12.494
▁oba	-12.494
▁kisses	-12.4942
▁stain	-12.4942
▁appa	-12.4942
▁hammon	-12.4942
▁smol	-12.4944
lp	-12.4946
▁mwan	-12.4949
▁snu	-12.4949
▁exclude	-12.4949
▁veil	-12.495
▁vulnerabilit	-12.495
▁bells	-12.4952
▁lux	-12.4952
▁earnest	-12.4953
▁nouri	-12.4955
▁satan	-12.4956
▁shann	-12.4956
▁necessity	-12.4957
▁institutional	-12.4959
suit	-12.496
▁lombard	-12.496
▁ashes	-12.4963
iena	-12.4964
▁latino	-12.4964
▁characterize	-12.4968
▁bolsh	-12.4969
▁deteriorate	-12.4971
▁borough	-12.4971
▁rightful	-12.4972
▁alessandr	-12.4973
▁examples	-12.4973
▁gravitation	-12.4973
▁rightist	-12.4976
hni	-12.4976
▁bab	-12.4977
▁mok	-12.4977
▁citation	-12.4978
▁scanner	-12.4978
▁widower	-12.4979
▁runaway	-12.4981
▁designation	-12.4981
▁tao	-12.4982
▁trinit	-12.4985
guel	-12.4988
▁reper	-12.4989
▁sharpen	-12.4992
▁homer	-12.4993
▁jia	-12.5
raged	-12.5001
▁meddl	-12.5002
▁unha	-12.5015
▁emitter	-12.5017
▁lankan	-12.5018
▁cio	-12.5019
▁vigilant	-12.502
▁satisfactor	-12.5023
niels	-12.5025
varna	-12.5029
▁shine	-12.5031
▁lauren	-12.5032
▁tactical	-12.5033
▁normalize	-12.5034
slaughter	-12.5036
napping	-12.5036
▁llc	-12.5037
ased	-12.5039
▁kristin	-12.5042
▁qing	-12.5048
▁santos	-12.5053
▁nts	-12.506
nberg	-12.5061
480	-12.5062
▁bashir	-12.5063
▁matri	-12.507
▁scarlet	-12.507
gie	-12.5071
▁yuca	-12.5075
▁cruiser	-12.5076
▁drac	-12.5077
▁tee	-12.508
▁penetrat	-12.5086
▁bonsa	-12.5093
▁embed	-12.5095
▁corte	-12.5098
aimi	-12.5102
roz	-12.5102
▁wow	-12.5103
▁brew	-12.5107
▁tani	-12.5107
▁hyo	-12.5111
▁pressur	-12.5112
▁arter	-12.5113
▁curv	-12.5114
▁kup	-12.5114
▁visitation	-12.5119
▁legg	-12.5119
▁downside	-12.5119
▁hashim	-12.5121
heng	-12.5126
rough	-12.5129
88	-12.5131
lastic	-12.5132
▁maur	-12.5133
▁glea	-12.5134
▁parish	-12.5135
afsha	-12.5136
▁kua	-12.5139
▁deco	-12.5143
▁goul	-12.5144
▁dictate	-12.5146
▁slate	-12.5147
slow	-12.5149
▁comprise	-12.5153
▁dayton	-12.5159
nch	-12.516
etsk	-12.5161
rage	-12.5165
▁reveren	-12.5165
▁wink	-12.5168
▁jaip	-12.5174
ska	-12.5177
▁sander	-12.5179
81	-12.5187
enay	-12.5194
hor	-12.5195
▁rotte	-12.5197
▁rok	-12.5202
rani	-12.5203
▁ancest	-12.5203
tenberg	-12.5204
vision	-12.5205
▁moai	-12.5207
▁burge	-12.5212
▁campo	-12.5212
uro	-12.5212
▁meg	-12.5216
▁coupons	-12.5219
prk	-12.5221
▁hil	-12.5233
▁yush	-12.5235
▁fest	-12.524
az	-12.5243
▁robes	-12.5249
▁damp	-12.5253
cable	-12.5255
onym	-12.5259
▁nie	-12.526
▁barad	-12.5264
▁merchandise	-12.5265
▁confuse	-12.5265
▁brisk	-12.5267
wage	-12.5267
▁pontif	-12.5269
thle	-12.5271
▁branc	-12.5272
▁poet	-12.5273
lem	-12.5273
alai	-12.5275
ving	-12.5276
▁judd	-12.5279
dolph	-12.5282
▁hum	-12.5283
▁spik	-12.5284
▁samuel	-12.5286
shan	-12.5287
lissa	-12.5287
▁activat	-12.5294
▁fig	-12.5299
▁skirt	-12.5301
dka	-12.5303
▁sarco	-12.5313
▁jar	-12.5314
zhn	-12.5324
▁ichi	-12.5324
cchi	-12.5327
▁frederic	-12.5331
▁wh	-12.5332
▁wol	-12.5333
poly	-12.5334
▁bah	-12.5334
zine	-12.5336
lm	-12.5337
▁oral	-12.5339
▁stretche	-12.534
▁ec	-12.534
▁gila	-12.534
▁perk	-12.5347
hard	-12.5347
ellen	-12.535
pulsion	-12.5353
oslo	-12.5353
▁coo	-12.5355
▁defamat	-12.5361
▁dart	-12.5362
▁shu	-12.5365
▁avian	-12.5367
joy	-12.5371
▁servers	-12.5374
ema	-12.5384
ollen	-12.5384
▁devi	-12.5386
▁angle	-12.5387
▁flyer	-12.5394
▁humble	-12.5397
▁tallie	-12.5401
▁misus	-12.5412
fe	-12.5413
▁tat	-12.5413
▁equaliz	-12.5414
mas	-12.5424
▁marul	-12.5424
▁russ	-12.5424
▁cristi	-12.5426
souf	-12.5427
elipe	-12.5434
▁breeder	-12.5436
▁abide	-12.544
▁bois	-12.5441
▁abound	-12.5448
▁renam	-12.545
glo	-12.5451
▁stitche	-12.5473
▁rational	-12.5474
▁gert	-12.5476
▁toast	-12.5477
▁wealthie	-12.549
▁unnerv	-12.5494
tri	-12.5496
rshad	-12.5503
tai	-12.5504
▁sock	-12.5509
▁washing	-12.5513
▁toleran	-12.5525
▁trafficker	-12.5525
▁wastes	-12.5526
afe	-12.5528
arat	-12.5529
iar	-12.553
▁ung	-12.553
▁aston	-12.5533
gery	-12.5536
▁unt	-12.5557
▁mani	-12.5557
▁fume	-12.5575
▁attende	-12.5575
ex	-12.5576
aq	-12.5576
▁colo	-12.5581
▁cosm	-12.5581
oise	-12.5585
▁carre	-12.5586
▁qualifie	-12.5587
eston	-12.5592
▁prag	-12.5596
rome	-12.5606
▁ignite	-12.5608
pears	-12.561
▁stranding	-12.5615
tc	-12.5615
poon	-12.5617
keeper	-12.5621
▁yul	-12.5621
▁marker	-12.5624
44	-12.5624
▁kal	-12.5626
▁intern	-12.5633
low	-12.5637
elman	-12.5642
mmunity	-12.5643
▁oppress	-12.565
▁pause	-12.5652
▁rena	-12.5652
apolis	-12.5655
▁marian	-12.5655
▁blockbusters	-12.5656
▁insur	-12.5659
omo	-12.5662
mise	-12.5665
▁mutilat	-12.5667
▁mute	-12.5669
▁zub	-12.5674
▁christo	-12.5674
▁meri	-12.5688
▁lange	-12.5689
mega	-12.5693
▁erode	-12.5704
▁dail	-12.571
▁jenn	-12.5721
fusion	-12.5736
closure	-12.5737
▁lind	-12.5745
▁wm	-12.5751
▁relie	-12.5752
▁ruben	-12.5753
▁pits	-12.5758
▁structur	-12.5759
rou	-12.5762
▁solan	-12.5763
▁insert	-12.5766
▁defus	-12.5771
▁atta	-12.5776
▁duran	-12.5776
science	-12.5778
▁levin	-12.5788
▁desp	-12.5792
▁dj	-12.5796
▁dair	-12.5797
▁hurdle	-12.5802
▁coma	-12.5802
▁roadway	-12.5804
▁yacht	-12.5805
oxid	-12.5806
▁accomplishment	-12.5806
comm	-12.5809
dder	-12.5823
▁idi	-12.5829
▁detainee	-12.583
rail	-12.5831
▁proteins	-12.5834
▁disabilit	-12.5834
▁arc	-12.5837
▁pillar	-12.5837
▁mariner	-12.5847
achel	-12.5852
▁facilitat	-12.5854
kaya	-12.5855
▁chil	-12.5857
nne	-12.586
▁cas	-12.5862
kham	-12.5864
▁aq	-12.5866
▁manipulate	-12.5866
ohn	-12.5867
fia	-12.5868
▁terminate	-12.5875
ps	-12.5876
▁eclipse	-12.5876
▁robb	-12.5883
▁cheese	-12.5887
oriented	-12.5889
pur	-12.5896
▁kab	-12.5914
▁coupon	-12.5915
▁forbid	-12.5927
comfortabl	-12.5933
▁aspir	-12.5936
tent	-12.5937
16	-12.5939
lee	-12.5943
onic	-12.5952
ech	-12.5956
▁guse	-12.5956
▁corpora	-12.5963
ep	-12.5967
cock	-12.5969
▁mara	-12.5971
▁emer	-12.5972
ender	-12.5973
wha	-12.5974
▁samp	-12.5974
▁perceive	-12.5977
▁lik	-12.598
▁hono	-12.5981
▁tub	-12.5982
ecker	-12.5982
▁yasuhi	-12.5986
▁victori	-12.5988
tiana	-12.5992
▁destruct	-12.5996
ppe	-12.5998
▁stereo	-12.6003
idge	-12.6005
fu	-12.6008
uchov	-12.601
▁encircl	-12.6014
du	-12.6016
load	-12.6024
▁accessib	-12.6025
yud	-12.6025
yung	-12.6026
anbar	-12.6027
▁dominan	-12.6029
112	-12.6031
▁flore	-12.6034
nourishe	-12.6038
post	-12.6038
▁whaler	-12.6048
embe	-12.6049
predictabl	-12.6052
case	-12.6054
bridge	-12.6055
tooth	-12.6056
stroke	-12.6057
hawk	-12.6057
historic	-12.6058
economic	-12.6058
graduate	-12.6058
style	-12.6061
pour	-12.6061
swam	-12.6063
fried	-12.6065
▁269	-12.6067
reason	-12.6068
▁154	-12.6069
▁mau	-12.607
▁godd	-12.6071
uddin	-12.6073
asco	-12.6074
▁thrust	-12.6075
gher	-12.6075
▁compromis	-12.6089
▁assemble	-12.6091
▁limon	-12.6092
▁baile	-12.6095
▁bac	-12.6096
▁logic	-12.6097
▁euthan	-12.6098
money	-12.6098
▁demo	-12.6099
▁zhi	-12.6101
▁secre	-12.6101
▁kum	-12.6102
▁spoil	-12.6103
▁euph	-12.6103
▁nativ	-12.6108
▁suicid	-12.611
▁paralysi	-12.6111
▁piled	-12.6121
▁restructure	-12.6122
▁repatriat	-12.6127
▁duo	-12.6127
▁precis	-12.6129
kar	-12.6129
▁beau	-12.6131
ttered	-12.6131
▁emir	-12.6131
guide	-12.6132
▁olympia	-12.6133
iti	-12.6134
▁disast	-12.6134
max	-12.6139
▁snub	-12.6141
▁bug	-12.6143
▁scrub	-12.6143
▁eject	-12.6147
▁homo	-12.6148
gia	-12.6149
tter	-12.615
▁flour	-12.615
▁reconstruct	-12.615
slaught	-12.6151
▁bjor	-12.6152
▁derelict	-12.6154
▁montenegr	-12.6154
▁bikini	-12.6154
▁brazen	-12.6154
▁chechnya	-12.6154
▁dharams	-12.6154
▁dilemma	-12.6154
▁encroach	-12.6154
▁fountain	-12.6154
▁immoral	-12.6154
▁incorrect	-12.6154
▁involuntar	-12.6154
▁kiosk	-12.6154
▁modify	-12.6154
▁orangutan	-12.6154
▁outflow	-12.6154
▁pablo	-12.6154
▁permafrost	-12.6154
▁pesticide	-12.6154
▁prejudice	-12.6154
▁rheumato	-12.6154
▁scapegoat	-12.6154
▁scully	-12.6154
▁semiconductor	-12.6154
▁soprano	-12.6154
▁stupid	-12.6154
▁subtitle	-12.6154
▁uninhabit	-12.6154
▁vicinity	-12.6154
▁blatant	-12.6154
▁friction	-12.6154
▁mishandl	-12.6154
▁occupy	-12.6154
▁arrogan	-12.6154
▁nullify	-12.6154
funct	-12.6154
▁conspirator	-12.6154
▁entrench	-12.6154
▁pundit	-12.6154
▁qantas	-12.6154
▁glitch	-12.6154
▁oleg	-12.6154
▁sapien	-12.6154
▁graveyard	-12.6154
▁tweak	-12.6154
▁archeologist	-12.6154
▁landlord	-12.6154
▁shroud	-12.6154
▁conversion	-12.6154
▁162	-12.6154
▁acquaintance	-12.6154
▁horizontal	-12.6154
▁lodging	-12.6154
▁piercing	-12.6154
▁magoni	-12.6154
▁thirst	-12.6154
▁ernest	-12.6154
▁imbalance	-12.6154
▁scourge	-12.6154
▁vivid	-12.6154
▁outsourc	-12.6154
▁snoop	-12.6154
▁aviv	-12.6154
▁discord	-12.6154
▁electrocut	-12.6154
▁halper	-12.6154
▁quirk	-12.6154
▁bookstore	-12.6154
▁entail	-12.6154
▁gaffe	-12.6154
▁ivanko	-12.6154
▁organisation	-12.6154
▁tirade	-12.6154
▁blunder	-12.6155
▁assailant	-12.6155
▁sandbag	-12.6155
▁roast	-12.6155
▁humbert	-12.6155
▁chechen	-12.6155
▁preemptive	-12.6155
▁bombardier	-12.6155
▁timber	-12.6155
▁ovation	-12.6155
▁postcard	-12.6155
▁unfreez	-12.6155
▁gunbattle	-12.6155
▁perennial	-12.6156
▁grue	-12.6156
▁attire	-12.6156
emic	-12.6156
▁pervasive	-12.6156
▁sophi	-12.6156
rash	-12.6156
▁mulia	-12.6156
▁regroup	-12.6156
▁spam	-12.6157
raped	-12.6157
▁payroll	-12.6157
▁playboy	-12.6157
▁dealership	-12.6157
▁pharmacist	-12.6157
▁rehearsal	-12.6157
ternate	-12.6158
▁neural	-12.6158
▁appliance	-12.6158
▁bancroft	-12.6158
▁cremation	-12.6158
▁livelihood	-12.6158
▁tailor	-12.6158
▁cair	-12.6159
▁elevation	-12.6159
osexual	-12.6159
▁trumpet	-12.6159
usnes	-12.6159
lobo	-12.6159
▁mountaineer	-12.616
▁eros	-12.616
▁deception	-12.616
▁cylinder	-12.616
▁mattress	-12.616
nda	-12.6161
▁excavation	-12.6161
▁realtor	-12.6161
▁socialite	-12.6162
▁francesc	-12.6162
▁lauder	-12.6162
▁sitter	-12.6162
▁microbe	-12.6163
▁fabian	-12.6164
tisa	-12.6164
▁admiral	-12.6164
▁snagg	-12.6164
▁chick	-12.6164
▁niece	-12.6165
▁partition	-12.6165
▁lurk	-12.6165
▁plow	-12.6165
▁reversal	-12.6166
▁contamination	-12.6166
▁audi	-12.6168
▁keyboard	-12.6168
▁unsc	-12.6168
▁fiance	-12.6168
ourage	-12.6168
▁cynical	-12.6168
▁cjd	-12.6169
▁audition	-12.6169
▁alternate	-12.617
mela	-12.617
▁bachel	-12.617
▁respectful	-12.6171
sha	-12.6172
▁sauer	-12.6172
▁walton	-12.6173
ile	-12.6173
▁jolt	-12.6174
▁huang	-12.6174
▁premeditat	-12.6175
▁hoist	-12.6175
▁slap	-12.6176
▁stave	-12.6177
▁backhand	-12.6177
▁pedophile	-12.6177
▁liar	-12.6179
▁stride	-12.6179
▁surre	-12.618
▁reeves	-12.618
bach	-12.6181
▁tasting	-12.6182
▁ventilat	-12.6183
▁schoolgirl	-12.6184
thma	-12.6185
▁evangelist	-12.6185
▁cutback	-12.6186
▁wobble	-12.6187
▁heller	-12.6188
nott	-12.6188
▁drops	-12.6189
▁clogg	-12.6189
▁astro	-12.6191
▁yank	-12.6192
▁fiji	-12.6192
▁protestant	-12.6193
▁nobu	-12.6193
▁kaz	-12.6194
▁parma	-12.6195
iman	-12.6196
▁cellar	-12.6198
▁alta	-12.6198
▁beekeeper	-12.6199
▁transformers	-12.6199
▁bundle	-12.62
▁spillway	-12.6201
hall	-12.6202
▁520	-12.6204
▁covet	-12.6205
▁polk	-12.6205
▁rhon	-12.6205
▁marty	-12.6206
▁lobbie	-12.6209
▁makeover	-12.6211
▁polite	-12.6211
suke	-12.6211
▁euthanize	-12.6212
▁kiln	-12.6213
▁pil	-12.6214
▁kilo	-12.6215
lic	-12.6216
▁recreation	-12.6216
extraterrestrial	-12.6217
▁angri	-12.6217
▁torri	-12.6219
▁curti	-12.6219
aikon	-12.6221
▁reput	-12.6221
▁1800	-12.6222
▁stutt	-12.6223
▁tama	-12.6223
▁132	-12.6223
ingles	-12.6223
▁iz	-12.6225
▁tempt	-12.6226
▁etc	-12.6227
▁ponder	-12.6228
▁mello	-12.6229
trayal	-12.6229
▁bestsell	-12.6231
▁bombard	-12.6234
▁smog	-12.6234
▁prudent	-12.6236
▁cabo	-12.6236
▁mcle	-12.6239
▁grader	-12.6239
▁okay	-12.624
▁chamb	-12.624
gam	-12.6244
nmen	-12.6246
▁bugg	-12.6251
▁siddiq	-12.6251
▁111	-12.6251
▁leon	-12.6252
▁subversi	-12.6259
▁midland	-12.6263
▁duc	-12.6266
izing	-12.6267
▁molecul	-12.6269
▁bloodie	-12.6271
▁illustrate	-12.6271
▁patter	-12.6272
▁honduras	-12.6274
▁eyebrows	-12.6274
▁lent	-12.6278
cott	-12.628
▁alegr	-12.6281
▁shum	-12.6281
▁calib	-12.6283
▁hendri	-12.6283
cyclist	-12.6284
▁sphere	-12.6286
▁mama	-12.6287
cotte	-12.6289
▁merck	-12.6293
▁taek	-12.6294
▁conrad	-12.6296
jid	-12.6299
▁glid	-12.6301
▁suff	-12.6301
ucinic	-12.6302
▁roan	-12.6304
▁afl	-12.6304
ehead	-12.6305
pinal	-12.6307
▁suffocat	-12.631
▁extradite	-12.631
▁salad	-12.631
▁rubin	-12.6311
for	-12.6312
▁bam	-12.6312
net	-12.6314
▁nico	-12.6322
wind	-12.6325
weight	-12.6326
agong	-12.6328
▁nou	-12.6328
▁krist	-12.6333
▁lick	-12.6336
▁spru	-12.6337
▁ww	-12.6339
▁pag	-12.6342
andra	-12.6342
▁cheng	-12.6343
▁beneficiar	-12.6347
▁shuk	-12.6352
tui	-12.6358
▁knot	-12.6359
usch	-12.6361
▁consultati	-12.6361
▁slick	-12.6361
▁countrymen	-12.6362
▁adhere	-12.6364
▁balanc	-12.6368
▁curl	-12.637
▁hiker	-12.6372
table	-12.6373
69	-12.6374
▁distinguish	-12.6374
▁amir	-12.6377
▁fury	-12.6378
▁143	-12.6379
▁reunite	-12.6382
▁hayd	-12.6382
zer	-12.6383
▁huddle	-12.6383
▁twister	-12.6386
yongsan	-12.6388
agliar	-12.6392
▁zem	-12.6393
▁dipp	-12.6398
▁haas	-12.64
▁matur	-12.64
▁sheer	-12.6404
eppel	-12.6404
▁fc	-12.6406
▁qata	-12.6411
▁implicat	-12.6412
▁ego	-12.6416
▁bao	-12.6417
▁glue	-12.6419
▁gonu	-12.642
rie	-12.6421
gura	-12.6421
ption	-12.6428
▁registr	-12.6431
▁labe	-12.6437
roid	-12.644
▁santor	-12.6441
▁neutralize	-12.6449
ality	-12.6453
qi	-12.6453
passionate	-12.6456
nar	-12.6457
knesse	-12.6458
▁sura	-12.6459
▁maximize	-12.6461
▁billow	-12.6463
▁functional	-12.6468
list	-12.6477
▁locke	-12.6478
pr	-12.6481
iah	-12.6482
▁kins	-12.6484
▁median	-12.6489
fm	-12.6491
▁disguise	-12.6491
▁frightening	-12.6492
▁hemi	-12.6496
▁commons	-12.6496
▁consula	-12.6502
▁hasten	-12.6507
▁exploitati	-12.651
haria	-12.6512
▁cav	-12.6512
user	-12.6514
▁yachts	-12.6515
▁jett	-12.6519
lix	-12.6525
▁inju	-12.6528
▁chilling	-12.6528
▁converter	-12.6529
▁hush	-12.653
▁pear	-12.6531
▁ike	-12.6532
oto	-12.6536
▁ellis	-12.6538
ifa	-12.6542
▁alp	-12.6542
▁councilor	-12.6543
▁fraz	-12.6546
▁wit	-12.6551
▁hubb	-12.6553
▁outfield	-12.6555
▁hale	-12.6568
▁tas	-12.658
▁wada	-12.658
▁hoy	-12.6583
▁sule	-12.6585
▁whisk	-12.6589
isch	-12.6608
▁illuminat	-12.6611
▁strat	-12.6611
mur	-12.6611
▁chery	-12.6612
▁extort	-12.6616
▁lookout	-12.6619
▁kost	-12.6621
nage	-12.6628
uto	-12.6634
▁ventur	-12.6634
slav	-12.6639
▁qur	-12.6642
▁eld	-12.6642
▁murderer	-12.6646
▁stab	-12.6649
▁rin	-12.6649
▁nong	-12.6652
▁seb	-12.6656
▁trooper	-12.666
▁dor	-12.6674
▁isabell	-12.6675
▁riche	-12.668
▁skylin	-12.668
rus	-12.6686
▁grapple	-12.6687
uku	-12.6689
▁crand	-12.6695
eef	-12.6696
iku	-12.6696
uni	-12.6699
▁151	-12.6706
▁divulge	-12.6715
▁eater	-12.6718
▁chon	-12.6724
▁glamor	-12.6728
▁swede	-12.6728
▁spotte	-12.674
▁tep	-12.6747
▁tripp	-12.6751
▁pains	-12.6752
▁jol	-12.6752
link	-12.676
rance	-12.6772
▁vern	-12.6775
▁tracker	-12.6778
▁idle	-12.6781
ians	-12.6788
▁grani	-12.6788
isse	-12.6794
ere	-12.6801
fid	-12.6807
ough	-12.6807
gues	-12.6819
▁foresee	-12.6821
▁chai	-12.6828
▁revitaliz	-12.6828
ichi	-12.6829
icker	-12.6838
▁yasa	-12.684
▁pha	-12.6842
▁benit	-12.6846
bagh	-12.6846
ib	-12.6852
▁shahr	-12.6853
raging	-12.6855
▁shir	-12.6856
▁marcos	-12.6856
▁infuriat	-12.6857
▁hp	-12.6857
▁clai	-12.6865
▁culminate	-12.6869
▁tow	-12.687
iba	-12.6871
▁malt	-12.6885
▁teres	-12.689
▁tenzin	-12.6892
▁unsee	-12.6896
▁politicize	-12.6897
▁rewrit	-12.6902
▁askari	-12.6909
▁tarnish	-12.6913
▁hay	-12.6914
▁hashem	-12.6918
▁corners	-12.6918
▁rah	-12.6923
▁busi	-12.6928
▁cau	-12.6934
mir	-12.6938
▁naka	-12.6939
▁sac	-12.6951
▁hos	-12.696
▁prof	-12.6962
robe	-12.6967
▁tyle	-12.6969
cuz	-12.6973
aj	-12.6976
▁caste	-12.6978
▁skid	-12.698
▁impersonat	-12.6986
ien	-12.6986
▁swell	-12.6988
lli	-12.6989
▁kazu	-12.699
▁fluor	-12.6992
utt	-12.6998
usted	-12.7002
▁afar	-12.7005
rang	-12.7006
▁hab	-12.7012
▁alto	-12.7013
▁ador	-12.7019
ushi	-12.7022
▁hiroshi	-12.7026
▁lamb	-12.7032
▁gha	-12.7038
▁rb	-12.7045
oya	-12.7056
▁salvati	-12.7059
▁underse	-12.7061
▁robe	-12.7062
▁spite	-12.7064
▁dp	-12.707
▁mod	-12.7074
illo	-12.7079
▁worrying	-12.7095
▁gravel	-12.7097
lson	-12.7097
▁zaina	-12.7099
young	-12.7103
▁chul	-12.7113
▁socio	-12.7115
▁muha	-12.7116
itzer	-12.7118
▁hamm	-12.7124
gas	-12.7125
kill	-12.7128
▁roberts	-12.713
▁kla	-12.7134
▁semiti	-12.7136
▁menac	-12.7137
▁legislat	-12.7137
▁compassion	-12.715
▁lau	-12.7154
▁carol	-12.7163
▁hander	-12.7167
tour	-12.7168
420	-12.7178
magh	-12.7179
▁akh	-12.7181
▁petra	-12.7186
rgen	-12.7189
enez	-12.719
halifa	-12.7193
▁expo	-12.7196
▁undertake	-12.7201
▁163	-12.7206
▁variation	-12.721
eiffe	-12.7215
uchi	-12.7219
▁insect	-12.7231
▁stephan	-12.7233
▁dou	-12.7245
▁penguin	-12.7245
▁awe	-12.7245
460	-12.7246
▁gorilla	-12.7247
reach	-12.7248
▁antibiotic	-12.7249
▁unrel	-12.7252
▁migrat	-12.7253
terres	-12.7254
iyad	-12.7256
▁decreas	-12.7257
▁attendant	-12.7259
athan	-12.7266
▁baku	-12.7267
▁116	-12.7275
lion	-12.7275
▁tang	-12.7278
▁incur	-12.7279
▁helsin	-12.7281
conception	-12.7282
▁consolidati	-12.7292
ellwe	-12.7293
efe	-12.7295
▁jok	-12.7316
▁piz	-12.7319
▁yeo	-12.7319
▁stok	-12.7321
▁huddl	-12.7327
iyan	-12.7328
▁inflat	-12.7328
acher	-12.7331
▁gur	-12.7332
▁berger	-12.7349
xi	-12.7362
lude	-12.7363
may	-12.7363
▁overtake	-12.7366
▁gwa	-12.7369
mu	-12.7375
▁clu	-12.7375
▁utilize	-12.7377
▁evacuat	-12.7377
zing	-12.7379
▁reset	-12.7379
▁kuo	-12.738
▁hoe	-12.7385
speak	-12.7385
▁spi	-12.7387
gel	-12.7389
▁slavi	-12.7392
jax	-12.7397
orum	-12.7398
bard	-12.7413
mitt	-12.7414
ratify	-12.742
doubted	-12.7424
▁halle	-12.7431
▁pino	-12.7432
osis	-12.7434
▁upgrad	-12.7438
▁paddle	-12.7441
▁transmit	-12.7447
ip	-12.7453
illionaire	-12.7455
announc	-12.7457
▁yam	-12.7458
▁advers	-12.7461
68	-12.7464
otti	-12.7468
▁dine	-12.7471
lund	-12.7479
▁confe	-12.748
aries	-12.748
realistic	-12.7482
pleasure	-12.7483
▁trim	-12.7483
girls	-12.7484
blood	-12.7486
brook	-12.7486
account	-12.7486
electric	-12.7486
proof	-12.7486
first	-12.7487
hamel	-12.7487
chrys	-12.7487
fair	-12.7487
billion	-12.7488
complete	-12.7488
storm	-12.7489
boat	-12.749
broken	-12.7491
famous	-12.7494
oga	-12.7498
stage	-12.75
siege	-12.7501
▁terroriz	-12.7506
▁imag	-12.7508
mund	-12.7509
tle	-12.751
zar	-12.751
dine	-12.7511
▁necessit	-12.7513
linda	-12.7515
▁exclusi	-12.752
finger	-12.7523
ratchet	-12.7527
▁destin	-12.7535
wenge	-12.7535
gawa	-12.7537
▁bolivar	-12.754
master	-12.7542
found	-12.7545
▁wrest	-12.7546
tical	-12.7547
assa	-12.755
einfeld	-12.7554
endo	-12.7556
wan	-12.7557
▁const	-12.756
▁stori	-12.756
▁dimension	-12.7562
▁lenien	-12.7567
▁pix	-12.7569
▁seren	-12.757
mulate	-12.7572
▁hunke	-12.7572
▁morris	-12.7574
▁snag	-12.7576
agh	-12.7577
▁galler	-12.7577
▁exempt	-12.7578
pena	-12.7579
▁manifest	-12.7579
shep	-12.758
▁surroga	-12.758
▁disgr	-12.7582
▁clarifi	-12.7582
nuptial	-12.7582
▁allegiance	-12.7582
▁anaconda	-12.7582
▁ascertain	-12.7582
▁avocado	-12.7582
▁blasphem	-12.7582
▁caricature	-12.7582
▁constituent	-12.7582
▁curiosit	-12.7582
▁dungeon	-12.7582
▁embolden	-12.7582
▁etiquette	-12.7582
▁expenditure	-12.7582
▁geopolitic	-12.7582
▁greyhound	-12.7582
▁imperative	-12.7582
▁incarcerat	-12.7582
▁insomnia	-12.7582
▁instinct	-12.7582
▁limousine	-12.7582
▁maverick	-12.7582
▁mothball	-12.7582
▁nostalgi	-12.7582
▁pamphlet	-12.7582
▁piccolo	-12.7582
▁redistribute	-12.7582
▁remorse	-12.7582
▁reprimand	-12.7582
▁succumb	-12.7582
▁torchbearer	-12.7582
▁unfavorabl	-12.7582
▁unpleasant	-12.7582
▁unwelcome	-12.7582
▁uproot	-12.7582
▁vegetarian	-12.7582
▁vegetation	-12.7582
▁vehement	-12.7582
▁cochran	-12.7582
▁dwarf	-12.7582
▁leicester	-12.7582
▁python	-12.7582
▁straddl	-12.7582
▁blissitt	-12.7582
▁culver	-12.7582
▁necklace	-12.7582
▁neighbour	-12.7582
▁overcrowd	-12.7582
▁schwartz	-12.7582
▁trespass	-12.7582
▁tumult	-12.7582
▁whisper	-12.7582
▁mahmud	-12.7582
▁newsletter	-12.7582
▁anguish	-12.7583
▁disgust	-12.7583
▁glorify	-12.7583
▁wreak	-12.7583
▁wreath	-12.7583
▁astrophysic	-12.7583
▁inherent	-12.7583
▁commence	-12.7583
▁songwriter	-12.7583
▁diagnosis	-12.7583
▁futile	-12.7583
▁thunderstorm	-12.7583
▁xavi	-12.7583
▁galile	-12.7583
▁siphon	-12.7583
▁homepage	-12.7583
▁mortem	-12.7583
▁shantytown	-12.7583
▁marriot	-12.7583
▁horizon	-12.7583
▁hotspot	-12.7583
▁minaret	-12.7583
▁waheed	-12.7583
▁ardent	-12.7583
▁habitual	-12.7583
▁rookie	-12.7583
▁procure	-12.7583
▁boutique	-12.7583
▁sororit	-12.7583
▁zogb	-12.7583
▁conquer	-12.7583
▁franz	-12.7583
▁intersection	-12.7583
▁discredit	-12.7583
▁hippo	-12.7583
▁kindergarten	-12.7583
▁picnic	-12.7583
▁lafa	-12.7583
▁ransack	-12.7583
▁silk	-12.7583
▁macedonia	-12.7583
▁enslav	-12.7583
▁headscar	-12.7583
▁eradicat	-12.7583
▁hinck	-12.7583
▁texture	-12.7583
▁peddl	-12.7583
▁irreversibl	-12.7583
▁arbitrat	-12.7583
▁exonerat	-12.7583
▁reschedul	-12.7583
▁drench	-12.7583
▁auctioneer	-12.7583
▁sparse	-12.7584
▁fissi	-12.7584
▁notebook	-12.7584
▁simmon	-12.7584
▁mujahid	-12.7584
▁stockhausen	-12.7584
venir	-12.7584
▁schill	-12.7584
▁slaughterhouse	-12.7584
▁oxf	-12.7584
▁irving	-12.7584
▁mcew	-12.7584
▁undervalue	-12.7584
▁anthropologist	-12.7584
▁backyard	-12.7584
▁ferment	-12.7584
▁pediatrician	-12.7584
▁cereal	-12.7585
▁roberson	-12.7585
▁calif	-12.7585
▁horde	-12.7585
▁crusade	-12.7585
▁clump	-12.7585
▁subdue	-12.7585
▁hungarian	-12.7585
▁limitations	-12.7585
▁poetry	-12.7585
ngchon	-12.7585
▁adamant	-12.7585
▁slur	-12.7586
▁wig	-12.7586
▁sunset	-12.7586
▁outburst	-12.7586
▁koala	-12.7586
▁spearhead	-12.7586
▁haircut	-12.7586
▁ventilator	-12.7586
▁stringent	-12.7586
▁coax	-12.7586
▁orchard	-12.7586
▁spacesuit	-12.7586
▁platini	-12.7586
▁angola	-12.7586
▁eldor	-12.7587
▁guitarist	-12.7587
▁subtle	-12.7587
▁marque	-12.7587
▁exhaustive	-12.7587
▁financier	-12.7587
▁streamline	-12.7587
kma	-12.7587
▁lace	-12.7587
▁repay	-12.7587
▁censure	-12.7588
▁vertical	-12.7588
▁quail	-12.7588
▁seafar	-12.7588
▁magdalen	-12.7588
▁turbulence	-12.7588
▁foam	-12.7588
tacean	-12.7588
▁dampen	-12.7588
▁dividend	-12.7588
▁niche	-12.7589
▁impatient	-12.7589
▁paranoi	-12.7589
▁swee	-12.7589
▁flagship	-12.759
▁rapper	-12.759
ui	-12.759
▁rhy	-12.759
▁unload	-12.759
▁wolve	-12.759
▁meditation	-12.7591
▁pristin	-12.7591
▁imperialist	-12.7591
▁rapist	-12.7591
▁baham	-12.7591
▁loch	-12.7591
▁zhong	-12.7592
rick	-12.7592
kagi	-12.7592
▁morrison	-12.7592
▁neat	-12.7592
▁accura	-12.7593
▁latif	-12.7593
▁medina	-12.7593
▁lexus	-12.7593
▁occurrence	-12.7593
▁pelt	-12.7594
▁poach	-12.7594
▁reposition	-12.7594
▁myeong	-12.7595
▁appointee	-12.7595
▁potts	-12.7595
▁breathtaking	-12.7595
▁blockade	-12.7596
▁kolk	-12.7596
▁kurt	-12.7596
▁monro	-12.7597
▁distortion	-12.7597
▁feasibl	-12.7597
▁holling	-12.7598
▁equator	-12.7598
▁trimm	-12.7598
▁vaccinat	-12.7599
▁demi	-12.7599
▁intruder	-12.7599
▁trampled	-12.76
▁flopp	-12.76
tsb	-12.76
▁aguil	-12.76
▁wrongful	-12.7601
▁hypothes	-12.7601
▁harmless	-12.7601
▁grassland	-12.7601
tomed	-12.7601
▁upload	-12.7602
▁whip	-12.7602
▁zombie	-12.7603
▁saucer	-12.7604
▁gadda	-12.7604
cken	-12.7604
▁waterboard	-12.7604
▁cramm	-12.7605
▁relic	-12.7606
▁chronicle	-12.7606
▁selloff	-12.7606
ktra	-12.7606
▁efp	-12.7607
▁acquittal	-12.7607
▁saeed	-12.7607
▁ghana	-12.7609
xter	-12.761
▁bruise	-12.761
▁trio	-12.761
▁christen	-12.7612
▁anthr	-12.7612
ynov	-12.7613
▁mukh	-12.7613
▁sober	-12.7613
▁tilt	-12.7613
▁cavaliers	-12.7613
▁haunt	-12.7614
alph	-12.7614
▁loft	-12.7615
▁decry	-12.7616
▁optical	-12.7616
▁adm	-12.7617
▁align	-12.7618
ratt	-12.7618
irelessly	-12.7619
ulsan	-12.7621
▁dumb	-12.7623
nant	-12.7624
▁witch	-12.7625
▁knockout	-12.7625
▁bolivarian	-12.7625
▁sagg	-12.7628
▁bono	-12.7629
▁svet	-12.7631
▁640	-12.7631
epp	-12.7633
▁brighten	-12.7635
▁boj	-12.7635
▁cervi	-12.7638
▁mcde	-12.7639
guo	-12.7639
istani	-12.7641
▁bode	-12.7644
▁deka	-12.7645
▁tril	-12.7645
▁mukas	-12.7646
▁abductor	-12.7646
▁kuwaiti	-12.7647
▁ecolog	-12.7647
▁mayo	-12.7648
pag	-12.7648
▁gand	-12.7648
acle	-12.7648
▁validate	-12.7649
▁colom	-12.765
▁kiri	-12.7652
▁sesh	-12.7653
▁reggi	-12.7659
▁loath	-12.766
▁hurried	-12.7661
ugh	-12.7661
▁bumper	-12.7661
cesc	-12.7663
▁haze	-12.7663
annie	-12.7664
▁nutritional	-12.7666
▁communiqu	-12.7666
▁spurt	-12.7667
▁scribe	-12.7667
▁146	-12.7669
▁yaki	-12.767
▁refuel	-12.767
▁withhold	-12.7672
▁kap	-12.7672
▁parasite	-12.7673
▁freighter	-12.7673
▁jali	-12.7675
▁toughen	-12.7677
▁brandish	-12.7677
▁rework	-12.7681
▁bangladeshi	-12.7682
▁290	-12.7688
baz	-12.7688
hat	-12.7689
▁showroom	-12.769
▁imply	-12.7692
▁wesley	-12.7694
▁cola	-12.7697
▁133	-12.7697
▁continuously	-12.77
▁hopeless	-12.77
▁commut	-12.7702
▁tram	-12.7702
▁billionaires	-12.7702
babil	-12.7703
▁durham	-12.7704
▁burger	-12.7709
▁villain	-12.771
▁shortcoming	-12.7711
▁allowance	-12.7713
▁allergi	-12.7715
▁acr	-12.7717
▁convenient	-12.7718
desta	-12.7718
▁540	-12.7718
▁arlen	-12.7719
▁digest	-12.772
▁legalize	-12.7723
nts	-12.7724
▁lyn	-12.7726
▁soba	-12.7731
▁atkins	-12.7734
▁poise	-12.7736
cragg	-12.7738
▁defaulter	-12.774
▁keller	-12.774
▁repress	-12.7744
▁idiot	-12.7744
▁elevate	-12.7744
▁sellout	-12.7746
▁propeller	-12.7746
gara	-12.7747
▁peni	-12.7747
▁kingsto	-12.7754
▁yah	-12.7755
▁sprinter	-12.7762
▁postur	-12.7762
tive	-12.7764
▁pian	-12.7765
zburg	-12.7768
tick	-12.777
▁salem	-12.7771
▁inscription	-12.7771
▁rene	-12.7772
▁khu	-12.7772
allest	-12.7773
opoul	-12.7776
▁carne	-12.7782
oui	-12.7787
vuit	-12.7789
face	-12.779
▁mast	-12.7795
▁fink	-12.7795
▁184	-12.7796
dou	-12.78
▁padd	-12.7801
▁khaz	-12.7801
otto	-12.7803
▁unionist	-12.7809
▁narrat	-12.781
▁stra	-12.781
▁lebr	-12.7811
▁caul	-12.7812
▁strick	-12.7814
▁hacke	-12.7818
▁slipper	-12.7822
▁airb	-12.7823
▁porto	-12.7825
untle	-12.7828
▁payout	-12.783
▁zal	-12.7836
▁coral	-12.7839
▁gasp	-12.7843
▁rex	-12.7843
▁lith	-12.7848
▁puzzl	-12.7848
ides	-12.7853
▁alaskan	-12.7856
▁homi	-12.7857
rkus	-12.7866
zhu	-12.7866
▁allah	-12.7873
mission	-12.788
assi	-12.7882
▁shrive	-12.7884
erner	-12.7889
▁tremors	-12.7891
▁harden	-12.7892
▁smiley	-12.7894
▁getty	-12.7894
▁ral	-12.7895
zzy	-12.7902
▁refine	-12.7903
shiro	-12.7905
▁specifi	-12.791
▁terminat	-12.7913
leak	-12.7918
usa	-12.7919
▁belated	-12.7922
▁shave	-12.7924
kfa	-12.7926
▁polariz	-12.7926
pression	-12.7933
▁zur	-12.7943
pin	-12.7943
▁replie	-12.7946
▁glance	-12.7947
▁insects	-12.7947
yk	-12.7953
▁whi	-12.7955
tale	-12.7959
yanni	-12.7959
▁tata	-12.7959
▁inconvenience	-12.7962
▁jima	-12.7966
38	-12.7969
▁volk	-12.7969
63	-12.7973
mposition	-12.7973
▁favorabl	-12.7978
▁alerts	-12.798
▁cer	-12.7984
ashkar	-12.7988
▁aches	-12.7989
▁liner	-12.7994
lice	-12.8004
▁pillars	-12.8004
▁hurdles	-12.8005
▁moderat	-12.8005
▁rancher	-12.8005
▁clima	-12.8006
byl	-12.8008
ridge	-12.8012
gro	-12.8017
▁stephens	-12.8023
▁pow	-12.8024
▁subsidiz	-12.8027
▁gaill	-12.8027
oper	-12.8028
▁likeness	-12.8033
▁info	-12.8035
▁bai	-12.8038
moud	-12.8039
▁importer	-12.8043
mphan	-12.8043
uil	-12.8047
23	-12.8051
np	-12.8053
▁cruis	-12.8053
▁rott	-12.8059
▁herman	-12.8076
▁bach	-12.8081
▁tar	-12.8082
▁intrigue	-12.8088
▁ponte	-12.809
▁sol	-12.8094
yong	-12.8095
dahn	-12.8095
▁oppressi	-12.8105
▁chal	-12.8107
▁bustl	-12.8111
stick	-12.8121
▁originat	-12.8122
pper	-12.8122
▁circl	-12.813
▁batt	-12.8132
▁stein	-12.8136
▁bragg	-12.8139
83	-12.8142
iable	-12.8142
▁riv	-12.8147
▁shard	-12.8147
lom	-12.815
rdr	-12.8161
▁gloss	-12.8173
▁weave	-12.8175
arro	-12.8181
▁crisscross	-12.8182
▁shear	-12.8185
ters	-12.8187
▁hosh	-12.8192
▁hyp	-12.8192
erman	-12.8197
iki	-12.8198
▁beds	-12.8203
▁sig	-12.8205
uli	-12.8207
▁vindicat	-12.8208
▁choke	-12.821
lla	-12.8212
▁graf	-12.822
xa	-12.822
▁kah	-12.8222
▁rai	-12.8223
59	-12.8225
▁hive	-12.8227
lage	-12.8232
▁loren	-12.8233
▁cube	-12.8234
▁vari	-12.8234
▁marti	-12.8235
iera	-12.8243
▁promoter	-12.8246
▁calve	-12.825
took	-12.8252
jong	-12.8258
▁fah	-12.826
sco	-12.826
▁ib	-12.8261
▁nai	-12.8267
ssi	-12.8267
car	-12.8272
▁amal	-12.8277
shop	-12.8282
▁baron	-12.8282
▁chem	-12.8286
▁hats	-12.8287
▁brass	-12.8293
▁workout	-12.8296
▁wali	-12.8296
▁kl	-12.8302
▁arr	-12.8303
scription	-12.8303
▁rive	-12.8309
▁kings	-12.833
glia	-12.8332
hel	-12.8334
▁harrie	-12.8335
85	-12.8337
▁depress	-12.8341
ency	-12.8342
▁gut	-12.8344
izzed	-12.8344
erick	-12.8349
▁spal	-12.8349
git	-12.8351
▁spra	-12.8361
▁infuriate	-12.8365
logy	-12.8365
▁benze	-12.8368
▁congest	-12.8369
brant	-12.8369
▁focuse	-12.837
tie	-12.8373
▁gale	-12.8375
chiba	-12.8381
richo	-12.8383
▁marginal	-12.8393
▁202	-12.8397
osu	-12.8398
▁revitalize	-12.8398
▁denis	-12.8398
rw	-12.84
feld	-12.8407
▁marcia	-12.8413
▁mum	-12.8418
▁ble	-12.842
▁vene	-12.8423
hbo	-12.8424
▁basa	-12.8431
▁sedan	-12.8432
pho	-12.8433
▁incon	-12.8433
▁beards	-12.8434
▁cliffs	-12.8439
▁ter	-12.8439
nzo	-12.845
▁mach	-12.8454
▁gua	-12.8458
heir	-12.8458
esha	-12.8458
[...]
