<pad>	0
<s>	0
</s>	0
<unk>	0
▁.	-3.24786
을	-3.62982
는	-3.77265
의	-3.8007
▁	-3.97482
은	-4.0858
를	-4.104
가	-4.41071
에	-4.47189
이	-4.49946
▁,	-4.51829
고	-4.73714
에서	-5.17628
한	-5.18093
로	-5.2249
▁이	-5.26914
인	-5.30416
일	-5.32117
▁그	-5.33707
으로	-5.45756
▁있다	-5.47913
과	-5.51786
▁고	-5.59649
와	-5.64532
▁수	-5.66013
도	-5.68923
▁밝혔다	-5.7366
▁말했다	-5.75044
할	-5.84465
년	-5.86563
▁있는	-5.93912
하고	-6.02379
지	-6.05307
▁2	-6.07202
▁1	-6.10227
다	-6.14865
▁전	-6.21584
으며	-6.23066
▁대한	-6.24992
▁위해	-6.26089
했다	-6.29159
▁이번	-6.30684
하는	-6.31117
▁3	-6.31511
▁전했다	-6.3284
월	-6.33718
▁한	-6.34181
▁미국	-6.36411
만	-6.39561
▁지난	-6.40479
던	-6.41056
▁현지시간	-6.44005
며	-6.45021
▁대해	-6.51897
▁며	-6.54417
▁중	-6.57362
▁미	-6.57951
기	-6.59769
▁것으로	-6.59892
▁것	-6.60211
된	-6.60623
해	-6.60734
나	-6.60743
명	-6.60974
에게	-6.6358
▁것이라고	-6.65108
▁4	-6.6564
명이	-6.67536
▁5	-6.71168
▁있다고	-6.71251
▁정부	-6.71513
▁그러나	-6.71962
자	-6.73834
▁것을	-6.74071
▁6	-6.74458
히	-6.76506
▁더	-6.78645
▁이라크	-6.80923
들은	-6.84477
▁다른	-6.86209
스	-6.86435
▁10	-6.8993
게	-6.90425
운	-6.93776
하게	-6.93963
▁대통령	-6.96204
▁중국	-6.96579
▁한편	-6.97503
이다	-6.9942
▁이라고	-7.00641
▁또	-7.00677
▁약	-7.00875
지만	-7.03009
▁경찰	-7.04843
▁오바마	-7.05835
들이	-7.06254
▁북한	-7.06613
▁등	-7.08042
▁대변인	-7.08654
▁후	-7.09596
▁총리	-7.10725
명의	-7.11451
▁7	-7.11719
▁8	-7.122
시	-7.12475
▁많은	-7.12926
▁우리	-7.13205
▁에	-7.14531
▁통해	-7.14957
하기	-7.15125
▁이후	-7.1586
▁부시	-7.16969
▁위한	-7.17503
▁대통령은	-7.17968
▁주	-7.18477
s	-7.19067
하지	-7.20056
하며	-7.2098
▁가장	-7.2106
리	-7.21337
▁내	-7.21885
▁동안	-7.21922
▁두	-7.22257
▁같은	-7.22365
적인	-7.22879
까지	-7.23008
▁영국	-7.23246
▁것이다	-7.24387
▁않았다	-7.25846
될	-7.26824
했	-7.27511
▁9	-7.29869
▁12	-7.33551
▁주장했다	-7.35097
▁말	-7.35213
▁한국	-7.35437
▁한다	-7.37306
▁될	-7.37753
▁할	-7.37817
▁세계	-7.38322
▁현재	-7.38394
▁것은	-7.38783
▁문제	-7.39659
대	-7.40214
▁또한	-7.40289
▁때	-7.40494
▁11	-7.40837
▁가	-7.40984
▁있	-7.41579
주	-7.41748
▁관련	-7.41767
▁바	-7.42688
트	-7.42821
라	-7.43776
▁일부	-7.44452
▁알	-7.44576
으나	-7.45053
▁했다	-7.45574
▁이상	-7.45589
▁덧붙였다	-7.45994
▁보도했다	-7.47903
▁지역	-7.48102
▁최근	-7.48142
▁있었다	-7.48314
▁경우	-7.49275
▁영화	-7.49295
및	-7.4934
드	-7.49793
어	-7.50141
세	-7.50867
서	-7.50901
▁이들	-7.50931
▁자신의	-7.51816
▁모든	-7.51979
면	-7.52247
상	-7.52272
▁20	-7.52664
개	-7.53222
▁것이	-7.53327
사	-7.54057
▁후보	-7.54348
▁새로	-7.56112
▁함께	-7.56204
▁당시	-7.56905
수	-7.57226
▁라고	-7.57752
했다고	-7.59091
했던	-7.59325
▁그리고	-7.60807
▁미군	-7.61731
거	-7.61857
야	-7.62445
됐다	-7.63944
▁뒤	-7.64279
▁일본	-7.64959
▁30	-7.65502
▁계획	-7.66193
▁경제	-7.66731
▁설명했다	-7.67398
▁예정이다	-7.68189
▁있습니다	-7.68378
▁결과	-7.68703
▁수도	-7.68843
▁모두	-7.69021
▁몇	-7.69308
▁the	-7.69751
▁있으며	-7.7007
에따르면	-7.7059
들을	-7.70698
▁처음	-7.71104
하	-7.71425
라고	-7.7145
▁러시아	-7.71695
▁조사	-7.72119
▁프랑스	-7.72268
성	-7.73225
도록	-7.73539
▁아직	-7.73923
▁당국	-7.74808
▁유엔	-7.75298
보다	-7.75772
▁일	-7.75827
▁사실	-7.75982
▁19	-7.76507
▁큰	-7.76604
▁하는	-7.76701
▁없다	-7.76854
진	-7.76893
▁파키스탄	-7.77081
▁이란	-7.77382
▁에서	-7.77714
▁나	-7.7862
▁공격	-7.7906
▁이스라엘	-7.79266
▁계속	-7.79283
▁사고	-7.81191
▁그녀	-7.81301
▁cnn	-7.81404
▁15	-7.81515
▁제	-7.81599
해야	-7.81603
▁지난해	-7.8171
르	-7.82557
▁라	-7.83088
▁국가	-7.83542
위	-7.83672
억	-7.83754
비	-7.83866
▁지	-7.84182
아	-7.84239
간	-7.84278
▁대통령이	-7.84296
▁올해	-7.84341
▁사건	-7.84691
▁회담	-7.85178
▁2005	-7.85779
▁민주당	-7.85997
▁않을	-7.86473
▁로	-7.86487
이라고	-7.86551
▁열린	-7.8674
▁이날	-7.86788
▁클린턴	-7.86801
때문에	-7.8795
▁성명	-7.88107
원	-7.88924
▁경기	-7.89354
한다	-7.90201
▁비	-7.9023
▁사람들	-7.90446
▁시	-7.90817
니	-7.91548
▁s	-7.91654
▁발생한	-7.91997
▁하고	-7.92156
▁발표했다	-7.92299
분	-7.92426
에는	-7.92709
차	-7.93047
크	-7.93202
▁받았다	-7.93282
▁받고	-7.93749
했습니다	-7.9378
면서	-7.93847
▁사	-7.94081
▁달러	-7.94397
▁16	-7.94619
▁관계자	-7.94623
▁존	-7.96601
▁여성	-7.96603
▁테러	-7.97166
선	-7.97403
▁다시	-7.97534
▁된다	-7.97684
적	-7.97756
▁지원	-7.97764
▁미국의	-7.98805
▁이라	-7.9889
부	-7.99128
▁가운데	-7.99204
▁18	-7.9943
▁사망했다	-7.99435
▁사람들이	-7.99553
▁08	-8.00584
었다	-8.01108
즈	-8.01116
▁있을	-8.01255
▁이에	-8.01866
▁오	-8.02336
▁의해	-8.02507
▁주요	-8.02543
치	-8.02599
▁됐다	-8.03032
▁반	-8.03114
▁핵	-8.03125
에도	-8.03479
부터	-8.03571
▁사람	-8.038
▁발표	-8.04121
화	-8.04278
입니다	-8.04377
적으로	-8.04463
당	-8.04679
▁25	-8.04724
▁to	-8.05078
▁정부가	-8.0522
하여	-8.05229
▁데	-8.05387
습니다	-8.05432
▁국제	-8.05672
▁13	-8.05871
▁대부분	-8.06337
▁인해	-8.0636
▁선거	-8.06858
▁아	-8.07014
▁장관	-8.07111
이나	-8.0806
▁조치	-8.0866
▁않은	-8.08862
▁첫	-8.09237
▁a	-8.09543
▁보고	-8.09741
에따라	-8.09898
▁있었	-8.10738
▁14	-8.1096
▁관계	-8.11138
처럼	-8.1127
소	-8.11968
▁달	-8.12225
▁tv	-8.12901
▁시위	-8.12947
▁지금	-8.12963
▁이미	-8.13075
▁마	-8.13253
▁거	-8.13288
▁해	-8.13494
▁아프간	-8.13503
▁50	-8.14085
▁혐의로	-8.14339
에서는	-8.14387
용	-8.1447
▁22	-8.14523
하지만	-8.15311
전	-8.15354
길	-8.15758
달러	-8.159
▁위치한	-8.16014
타	-8.16073
le	-8.16403
▁매우	-8.16409
▁군	-8.16822
▁대	-8.16857
하면서	-8.17238
km	-8.17337
▁연구	-8.1754
▁시간	-8.17658
이며	-8.17782
▁승리	-8.18398
시간	-8.18473
▁하	-8.18995
▁이슬람	-8.192
▁17	-8.19777
▁유럽	-8.19999
▁기록	-8.20126
▁채	-8.20152
▁안	-8.20324
하다	-8.20436
e	-8.20478
였	-8.20939
로부터	-8.21053
▁줄	-8.21149
▁의원	-8.21212
▁노	-8.21231
레	-8.21355
▁팔레스타인	-8.2172
▁기자	-8.21991
▁회사	-8.22346
▁총	-8.22356
▁추가	-8.22408
▁초	-8.2252
▁정보	-8.22678
▁오늘	-8.22712
▁없는	-8.22923
여	-8.23007
▁피해	-8.23057
m	-8.23078
들	-8.23161
▁않고	-8.23162
보	-8.23245
▁아이	-8.23404
마	-8.23414
식	-8.23472
▁때문	-8.23475
되어	-8.23659
▁있다는	-8.2391
▁of	-8.2404
▁뉴욕	-8.24571
프	-8.24803
▁한다고	-8.24914
됐	-8.25206
▁하지	-8.25285
장	-8.25469
제	-8.2585
돼	-8.25907
▁조지	-8.25921
▁어떤	-8.25951
▁탈레반	-8.26199
▁인도	-8.26451
였다	-8.26515
▁지적했다	-8.26569
▁방문	-8.26633
▁24	-8.26683
▁잘	-8.26718
▁2006	-8.26799
▁대표	-8.2746
▁부	-8.2749
▁대선	-8.27751
▁세	-8.27816
▁결정	-8.28112
▁호주	-8.28171
▁정도	-8.2857
▁소속	-8.28595
▁비난	-8.28748
▁간	-8.28932
▁활동	-8.2894
▁21	-8.29087
번	-8.29129
▁100	-8.29236
▁포함	-8.29299
▁강	-8.29478
▁혐의	-8.2949
바	-8.29612
▁감독	-8.29623
▁명의	-8.29664
라는	-8.29929
▁27	-8.30258
▁독일	-8.30267
▁시장	-8.30485
▁내용	-8.30582
▁지지	-8.30704
▁?	-8.31503
티	-8.31755
▁없다고	-8.32019
디	-8.32118
▁40	-8.32202
▁프로그램	-8.32304
우	-8.32551
▁우려	-8.32748
코	-8.32901
▁다	-8.32974
▁최고	-8.33144
▁새	-8.33198
▁대학	-8.33255
▁23	-8.33505
▁않는다	-8.33676
▁발생했다	-8.33712
미	-8.34007
▁상원의원	-8.34032
▁여러	-8.34253
했지만	-8.343
▁못했다	-8.34434
▁관리	-8.35018
▁카	-8.351
구	-8.35638
파	-8.35686
▁보고서	-8.3569
▁받은	-8.35964
질	-8.36027
▁인터넷	-8.36364
합니다	-8.36477
함	-8.36485
년간	-8.36682
▁상	-8.36825
▁입장	-8.37081
조	-8.37739
▁많	-8.38129
오	-8.38196
▁조	-8.3826
▁차	-8.38289
되었다	-8.38451
▁올림픽	-8.38584
▁26	-8.38633
▁오후	-8.38702
▁협상	-8.38736
호	-8.38811
러	-8.3883
린	-8.38906
▁의회	-8.38988
▁0	-8.3914
▁언론	-8.39226
▁매케인	-8.39227
▁성	-8.39552
▁부상	-8.39716
▁예정	-8.40198
d	-8.40287
개월	-8.40375
▁w	-8.40385
▁불	-8.40618
▁폭탄	-8.4071
들의	-8.40899
회	-8.41002
▁판매	-8.41147
▁모습	-8.41395
▁주장	-8.41546
려	-8.41738
안	-8.41895
▁보도	-8.42131
되는	-8.42133
▁단체	-8.42389
산	-8.42659
▁된	-8.43146
▁기	-8.43187
▁남자	-8.43404
▁구	-8.43472
▁사용	-8.43523
▁북한이	-8.43622
▁인터뷰에서	-8.43624
들에게	-8.43641
▁생각	-8.43649
토	-8.43925
▁전쟁	-8.43929
▁자동차	-8.44204
▁컴퓨터	-8.44551
▁것에	-8.44708
▁나는	-8.45001
▁앞으로	-8.45099
▁있어	-8.45204
▁교수	-8.45595
▁터키	-8.45862
▁이러	-8.46058
내	-8.46297
▁마지막	-8.46426
▁준비	-8.46429
▁강조했다	-8.4648
▁2008	-8.46689
▁원	-8.467
▁갖고	-8.46737
▁병원	-8.46755
▁미얀마	-8.46923
▁시작	-8.47218
▁떨어진	-8.47251
▁차량	-8.47382
▁피	-8.47443
관	-8.47524
▁현지	-8.47723
▁경찰이	-8.4773
권	-8.47744
▁기술	-8.47806
▁요구	-8.47818
되지	-8.47828
이었다	-8.47863
1	-8.48452
▁보	-8.48556
국	-8.48722
카	-8.48871
▁않았	-8.48932
개의	-8.48932
▁무	-8.49453
▁상황	-8.49529
▁오전	-8.49613
▁힐러리	-8.49783
되고	-8.49801
▁개발	-8.49899
▁가진	-8.50061
▁남부	-8.50076
▁사이	-8.50278
하는데	-8.50278
▁공화당	-8.50307
▁비난했다	-8.50347
▁앞서	-8.50473
▁오는	-8.50506
▁지도자	-8.50525
▁29	-8.50727
모	-8.50833
▁석방	-8.50989
▁반대	-8.51049
▁노력	-8.51153
▁의사	-8.51396
▁자	-8.51447
▁폭발	-8.51527
는데	-8.51599
▁자신이	-8.51727
▁방송	-8.51822
▁사망	-8.51851
▁미국과	-8.52097
▁스페인	-8.52275
▁합의	-8.52307
▁변화	-8.5231
릴	-8.52468
▁우주	-8.52956
▁평화	-8.53087
▁주지사	-8.53152
▁점	-8.53499
▁정책	-8.53592
▁물	-8.53998
▁도시	-8.54198
▁28	-8.54312
▁지난달	-8.54381
▁상태	-8.54603
▁이어	-8.54612
▁규모	-8.54763
▁검찰	-8.54979
▁버락	-8.55077
노	-8.55551
▁없었다	-8.55634
y	-8.55664
법	-8.55867
▁김	-8.55884
▁미국이	-8.55936
정	-8.56034
▁정	-8.56039
▁무샤라프	-8.56111
▁아시아	-8.56158
▁백악관	-8.56334
브	-8.56335
▁지역에서	-8.56539
▁인근	-8.56823
▁볼	-8.56853
▁좋은	-8.56897
▁있지만	-8.56992
▁이를	-8.57321
ed	-8.57428
2	-8.57742
▁이용	-8.57764
▁않	-8.57884
▁개	-8.58057
▁joins	-8.5822
직	-8.58272
▁관한	-8.58669
▁이런	-8.589
▁아무	-8.59039
▁가족	-8.59263
▁연방	-8.5943
▁명	-8.59786
▁다음	-8.60003
▁영향	-8.60287
▁도	-8.60292
▁안전	-8.60377
▁리	-8.60395
점	-8.6073
데	-8.60829
▁발생	-8.60843
▁보인다	-8.60883
▁없이	-8.60946
▁해결	-8.61082
▁치료	-8.61087
▁이름	-8.61103
살	-8.61125
▁증가	-8.61614
온	-8.61685
▁양	-8.61688
물	-8.61715
▁전문가들	-8.61752
으로부터	-8.61755
▁날	-8.6191
▁in	-8.61975
▁이탈리아	-8.62008
▁미국은	-8.62015
▁모	-8.62401
중	-8.62583
▁ap	-8.62613
▁사망자	-8.627
▁최소	-8.62817
난	-8.6283
▁여행	-8.62834
▁않다	-8.62976
ing	-8.63068
▁만에	-8.63082
▁저	-8.63284
▁파	-8.63317
년에	-8.63427
▁투표	-8.63485
▁와	-8.63609
▁재	-8.6363
▁artic	-8.63693
▁하나	-8.64256
▁밤	-8.64343
▁검사	-8.64349
2005	-8.64368
▁공식	-8.64532
▁생산	-8.646
번째	-8.6473
▁산	-8.64749
▁가능성	-8.64978
▁매	-8.64981
▁알카에다	-8.65004
▁금융	-8.65181
▁중요한	-8.65245
단	-8.65585
▁행사	-8.65724
▁야당	-8.65812
▁신	-8.65874
루	-8.65976
신	-8.66095
들과	-8.66138
▁박사는	-8.66143
▁보다	-8.66243
▁미사일	-8.66653
▁없	-8.6687
▁알려졌다	-8.67142
▁이전	-8.67175
▁불법	-8.67407
▁그들	-8.67416
▁역사	-8.67951
▁최초	-8.68006
하기로	-8.68104
▁까지	-8.68387
▁사태	-8.68402
▁발	-8.68605
▁주둔	-8.68867
▁000	-8.68889
▁위협	-8.68902
▁연기	-8.69003
▁논의	-8.69027
▁말했습니다	-8.69032
▁60	-8.6907
▁대통령과	-8.69076
▁이야기	-8.69189
▁용의자	-8.6919
박	-8.69248
▁적	-8.69307
▁것입니다	-8.69446
▁관심	-8.6955
▁정치적	-8.69574
▁법원	-8.69593
▁유	-8.69619
씨	-8.69765
▁외	-8.69809
발	-8.6994
▁부토	-8.70115
▁은행	-8.70179
▁필요	-8.70255
▁반면	-8.70488
터	-8.7053
▁가격	-8.70649
▁원문기사보기	-8.70683
▁대해서	-8.70749
▁씨	-8.70764
▁반군	-8.71034
▁비행기	-8.71118
▁사망한	-8.71225
▁주민들	-8.71699
▁불구하	-8.71821
피	-8.71848
▁상승	-8.72012
▁타	-8.72061
계	-8.7211
al	-8.72148
▁돈	-8.72353
▁자신	-8.72401
▁무기	-8.72558
▁벌이	-8.72607
▁자신들	-8.72887
하도록	-8.72908
▁팀	-8.73057
▁런던	-8.7315
형	-8.73151
▁위험	-8.7335
▁방법	-8.73403
했었다	-8.73461
체	-8.73629
와의	-8.73726
▁당	-8.73784
임	-8.74098
석	-8.74203
▁회장	-8.74224
▁서비스	-8.74287
▁조직	-8.74471
▁자금	-8.74619
▁학교	-8.74706
▁e	-8.74973
▁소	-8.75075
요	-8.75119
측	-8.75124
▁전에	-8.75134
▁장	-8.75206
더	-8.75258
▁지난주	-8.75324
▁최대	-8.75336
▁올	-8.75376
▁바그다드	-8.7538
▁열	-8.75449
▁건물	-8.75507
군	-8.75563
▁높은	-8.7563
▁살해	-8.75706
▁군사	-8.75913
▁공	-8.76073
▁공급	-8.76419
▁심	-8.76425
▁출신	-8.76578
▁것이라는	-8.76581
▁의하면	-8.76622
▁북부	-8.76741
▁가능성이	-8.76762
종	-8.76811
▁역할	-8.77074
방	-8.77078
▁발언	-8.77285
츠	-8.77301
▁소식	-8.77604
▁집	-8.7783
▁인쇄	-8.77873
▁강력	-8.77896
▁배	-8.77909
▁위	-8.78012
▁더욱	-8.78202
▁지역에	-8.78504
동	-8.7872
▁국경	-8.78835
해서	-8.78882
▁수사	-8.79008
▁것이며	-8.79018
▁왔다	-8.7908
▁알고	-8.79284
▁특	-8.79326
▁뜻	-8.79523
▁게임	-8.79559
▁언급	-8.79567
▁인용	-8.7969
만달러	-8.79805
배	-8.80001
됐다고	-8.80091
▁지구	-8.80094
마리	-8.80117
▁기업	-8.80131
▁코	-8.80289
▁인질	-8.80313
▁정치	-8.80352
세의	-8.80358
▁아니다	-8.80368
▁아버지	-8.805
▁선수	-8.8053
▁이와	-8.80637
포	-8.80655
▁고위	-8.80956
▁그것	-8.80975
천	-8.81032
▁2004	-8.81175
▁선	-8.81504
▁시위대	-8.818
▁31	-8.81803
▁특별	-8.81826
▁사르코지	-8.81841
시킬	-8.81883
▁곳	-8.81909
▁앞	-8.81982
▁번째	-8.82145
▁병력	-8.82185
▁c	-8.82358
▁부인	-8.8248
▁공동	-8.82517
▁우승	-8.82707
▁필요한	-8.82815
▁코리아	-8.82864
▁결국	-8.82867
▁폭탄테러	-8.82924
▁어	-8.82927
▁시작했다	-8.82961
▁운동	-8.83017
키	-8.83294
▁관계자들	-8.83322
▁한나라당	-8.83541
▁하루	-8.83765
▁기자회견에서	-8.83768
설명	-8.83847
▁라이스	-8.83916
▁아이들	-8.83958
▁되는	-8.84048
▁하마스	-8.84165
▁아침	-8.84236
▁나라	-8.84415
3	-8.84527
▁독립	-8.84568
든	-8.84569
▁콜롬비아	-8.84576
런	-8.84609
▁동영상	-8.84651
▁이제	-8.84773
▁법안	-8.84829
▁거래	-8.84886
이자	-8.84938
▁부족	-8.85028
▁뉴스	-8.85031
▁않는	-8.85051
▁서울	-8.85056
▁스	-8.85221
력	-8.85388
▁아니라	-8.85491
▁충돌	-8.85578
▁투자	-8.85593
▁핵무기	-8.85621
▁브라운	-8.85631
▁원문	-8.85643
실	-8.85701
▁각	-8.85711
▁보였다	-8.85785
▁관련된	-8.85842
▁티베트	-8.85856
문	-8.85873
▁자살	-8.85934
▁보호	-8.86125
▁레	-8.86181
▁법	-8.86269
▁전화	-8.86324
▁200	-8.86353
▁독해	-8.86363
억원	-8.86405
다고	-8.8643
위원회	-8.86431
▁행동	-8.86562
▁직접	-8.86713
▁어제	-8.8672
▁워싱턴	-8.86878
학	-8.87082
▁사람이	-8.87093
이라는	-8.87257
▁타고	-8.87376
하겠다고	-8.87425
시켰다	-8.87452
▁이같	-8.87458
▁건강	-8.87545
▁아들	-8.87825
▁공항	-8.87878
▁있고	-8.8798
차례	-8.88005
▁위해서	-8.88087
▁위기	-8.88097
▁여부	-8.88311
▁행위	-8.88385
하면	-8.88524
▁eu	-8.88871
▁캘리포니아	-8.88882
▁비행	-8.8911
▁금지	-8.89124
▁서	-8.89215
▁받을	-8.89537
▁2003	-8.89565
▁포	-8.896
5	-8.89922
▁손	-8.90273
친	-8.90332
된다	-8.90392
▁자유	-8.90514
▁신문	-8.90549
▁문	-8.90583
▁역시	-8.90681
▁감소	-8.90738
▁보안	-8.90918
▁드	-8.90997
▁국방부	-8.91024
년까지	-8.91153
▁주택	-8.91188
▁중단	-8.91191
▁받았	-8.91352
▁시신	-8.91442
유	-8.91522
▁인	-8.91557
▁2007	-8.91609
란	-8.91654
n	-8.91788
▁대화	-8.91831
▁어떻게	-8.92133
▁확인	-8.92171
날	-8.92296
▁이유	-8.92502
▁노무현	-8.92508
▁열리는	-8.92579
▁협력	-8.92834
▁베이징	-8.92857
▁현	-8.92959
▁음악	-8.93025
▁기간	-8.93083
▁la	-8.931
급	-8.93103
▁숨졌다	-8.93129
▁회의	-8.9317
▁빌	-8.93308
▁for	-8.93331
▁우	-8.93351
▁이유로	-8.93504
▁국무부	-8.93644
네	-8.93674
▁폐쇄	-8.93847
▁실	-8.9389
▁건설	-8.93988
▁곧	-8.94075
▁판결	-8.94133
▁사건에	-8.94417
▁에너지	-8.94483
년대	-8.94545
▁문제에	-8.94606
▁500	-8.9476
▁못	-8.94942
▁연설	-8.94963
울	-8.95027
경	-8.95101
월에	-8.95113
▁철수	-8.95197
▁폴	-8.95358
설	-8.95371
재	-8.95403
▁온	-8.95469
▁일이	-8.95536
p	-8.95548
▁주변	-8.95585
긴	-8.95585
포인트	-8.95611
▁석유	-8.95614
병	-8.96062
▁변호사	-8.96138
▁데이비드	-8.96333
한다고	-8.96395
▁호텔	-8.96509
▁있게	-8.96525
▁아프가니스탄	-8.9656
▁범죄	-8.97041
▁친구	-8.97149
일간	-8.97159
▁같다	-8.97186
▁기회	-8.97562
초	-8.97564
▁생활	-8.97766
▁살	-8.97879
▁승인	-8.97884
▁방	-8.9803
▁진행	-8.98119
감	-8.98124
만명	-8.98134
▁골	-8.98161
o	-8.98272
▁과학자들	-8.98289
▁대사	-8.98338
▁수술	-8.98339
▁2000	-8.98606
▁눈	-8.98697
▁전세계	-8.98701
▁발견했다	-8.98738
▁있기	-8.98774
▁못하	-8.9884
▁너무	-8.98964
▁양국	-8.99168
하자	-8.99205
▁교육	-8.99279
▁공개	-8.99286
▁요구했다	-8.99314
▁증거	-8.99325
er	-8.99372
▁인구	-8.99375
▁사회	-8.99398
▁아니	-8.9941
▁멕시코	-8.99499
그	-8.99554
▁납치	-8.99656
민	-8.99727
만원	-8.99842
져	-8.99843
▁상원	-8.99848
▁길	-8.99934
▁힘	-8.99942
▁한국인	-9.00029
▁생각한다	-9.00044
공	-9.00116
▁정상	-9.00156
▁대선후보	-9.00312
▁비디오	-9.00313
교	-9.00367
▁남	-9.00591
▁요청	-9.00745
▁개인	-9.00828
▁남성	-9.00941
반	-9.0103
버	-9.01177
▁했다고	-9.01272
▁수준	-9.01468
▁동물	-9.01529
▁전망	-9.01531
▁com	-9.01617
▁어린이	-9.01626
▁전투	-9.01816
▁로버트	-9.01953
▁도로	-9.01967
▁발사	-9.02032
a	-9.02073
▁민간인	-9.02122
▁포함한	-9.02165
▁성공	-9.02267
u	-9.02285
▁화재	-9.02328
▁사진	-9.02514
▁대사관	-9.02555
심	-9.02651
행	-9.02711
▁예정이라	-9.02737
▁사업	-9.02782
▁훈련	-9.02896
▁관할	-9.0292
▁내년	-9.03071
▁판사	-9.03204
▁박	-9.03241
하려는	-9.03271
▁딸	-9.03515
▁레바논	-9.03578
▁하락	-9.03582
▁앞두고	-9.0361
▁안에	-9.03704
강	-9.03822
억달러	-9.03881
▁비롯	-9.04032
▁당신	-9.04033
▁재판	-9.04399
▁경고	-9.04403
▁목표	-9.04456
▁폭력	-9.04457
▁성장	-9.04478
▁나타났다	-9.04496
g	-9.04525
명과	-9.0455
▁출전	-9.04571
▁결혼	-9.04577
판	-9.04687
▁입	-9.04769
▁그들의	-9.04854
▁전체	-9.04881
으로써	-9.04885
▁위원회	-9.05046
되었	-9.05068
▁것이라	-9.05184
▁대규모	-9.05305
▁and	-9.05314
▁의견	-9.055
▁아닌	-9.05733
▁인간	-9.05816
▁일을	-9.05871
▁방안	-9.05954
▁시설	-9.06096
▁구조	-9.06149
c	-9.06463
▁이동	-9.06565
▁가지	-9.06626
▁들	-9.06664
▁통	-9.06732
층	-9.06735
b	-9.06753
▁심각한	-9.068
▁난	-9.06824
▁경선	-9.06829
▁2002	-9.07043
▁여전	-9.07047
▁가지고	-9.07066
▁재개	-9.07106
역	-9.07294
▁유지	-9.07364
혀	-9.07432
▁입은	-9.07447
▁작은	-9.07481
지는	-9.07529
속	-9.07677
▁통신	-9.07753
▁해외	-9.07772
▁경기에서	-9.0781
▁대신	-9.07843
▁타임즈	-9.0787
하려	-9.08018
▁예	-9.0812
▁작전	-9.0821
워	-9.08214
슨	-9.08265
▁발견	-9.08355
▁이상이	-9.08469
▁만	-9.08473
스트	-9.08537
▁국민	-9.08573
▁태국	-9.08618
건	-9.08778
▁사망하	-9.08859
로서	-9.08926
t	-9.08932
▁수입	-9.09036
▁수치	-9.09174
▁인도네시아	-9.09183
▁여객기	-9.09235
▁체포	-9.09278
연	-9.09297
▁임무	-9.09409
▁항	-9.09605
▁밝혀졌다	-9.09684
▁규정	-9.09741
▁애	-9.09837
▁부부	-9.09878
▁대회	-9.09886
▁속	-9.09923
▁푸틴	-9.10105
▁마이클	-9.10105
퍼센트	-9.10121
▁제안	-9.10536
▁입었다	-9.10582
▁열차	-9.10604
▁바로	-9.10633
▁그들이	-9.10689
▁온라인	-9.10939
▁살고	-9.10964
▁마을	-9.11092
▁인정	-9.11241
▁배우	-9.11294
▁선택	-9.11429
청	-9.11433
▁네	-9.11522
▁명이	-9.11691
론	-9.11724
▁행정부	-9.11758
▁예상	-9.11829
▁얼마	-9.11869
▁담	-9.11906
▁제재	-9.11954
▁아기	-9.12027
▁받아	-9.12071
▁촉구했다	-9.12079
▁여자	-9.1222
▁메시지	-9.12383
▁이것	-9.12489
▁경쟁	-9.12613
▁말한다	-9.12703
▁최종	-9.12829
▁막	-9.13017
▁안보	-9.131
▁국민들	-9.13169
▁본	-9.13303
▁환경	-9.13405
하라	-9.1355
▁경고했다	-9.13653
▁만약	-9.1376
▁시도	-9.13813
▁팔	-9.13817
▁이라크에서	-9.13919
표	-9.13974
▁연합	-9.1398
▁그런	-9.14058
▁지도자들	-9.14103
▁서로	-9.14129
후	-9.142
▁증시	-9.1424
▁미국인	-9.14405
▁p	-9.14428
▁f	-9.14485
너	-9.14593
▁인권	-9.14664
있는	-9.14723
▁종	-9.14756
▁아프리카	-9.14955
▁밝힌	-9.15151
▁n	-9.15169
자들	-9.15189
▁필요하다	-9.15197
▁무장	-9.15203
▁발표한	-9.15241
▁산업	-9.15461
▁운영	-9.15619
▁돌	-9.15756
▁벌였다	-9.1582
▁원인	-9.15866
▁도움	-9.15875
▁비해	-9.16035
▁부대	-9.16063
▁밝혔	-9.16315
▁화요일	-9.16327
▁힐	-9.16418
▁대의원	-9.16583
▁대만	-9.16604
▁계약	-9.16621
▁책임	-9.16649
▁남편	-9.16674
▁수단	-9.16711
▁확보	-9.16794
▁즉	-9.16958
▁보내	-9.17291
▁개선	-9.17315
▁시스템	-9.17432
▁작품	-9.1748
▁짐바브웨	-9.17532
▁세금	-9.17557
▁홍콩	-9.17666
▁중인	-9.17762
▁없을	-9.17784
▁광고	-9.17812
▁알리	-9.17955
▁스타	-9.17982
었다고	-9.17988
▁b	-9.18047
▁의장	-9.18089
▁항공	-9.18093
▁브라질	-9.18217
장은	-9.18233
▁기록했다	-9.1826
▁같이	-9.18471
▁측	-9.18503
▁외국인	-9.18541
▁외국	-9.18587
년부터	-9.18648
▁가치	-9.18652
▁얻	-9.18696
통	-9.18698
▁일정	-9.18748
▁호	-9.18788
▁관계자가	-9.18831
▁스미스	-9.18989
▁중동	-9.19108
▁내렸다	-9.19179
▁빈	-9.1939
▁베	-9.19401
▁시아파	-9.19479
▁지방	-9.19488
▁헬기	-9.19536
▁단	-9.19616
▁거리	-9.19633
래	-9.19677
▁시즌	-9.19777
▁과거	-9.19846
▁암	-9.20063
▁라디오	-9.20075
▁차례	-9.20092
▁낮	-9.20094
졌다	-9.20113
▁걸	-9.20122
복	-9.20158
▁총선	-9.20208
▁여	-9.20281
▁했	-9.20339
▁80	-9.20344
▁치	-9.20373
▁각각	-9.20478
엔	-9.20555
▁소송	-9.2059
▁공연	-9.20622
▁연	-9.2083
▁밖에	-9.20902
▁소식통	-9.21051
▁디	-9.21063
▁맞	-9.21133
▁사무총장	-9.21464
▁합의했다	-9.21529
▁파업	-9.21558
▁제작	-9.21617
▁만나	-9.21715
▁앤	-9.21716
▁환자	-9.21744
▁번	-9.21821
▁관리들	-9.21843
▁상당	-9.21854
▁시험	-9.21971
▁권리	-9.22011
▁일본의	-9.22161
▁해군	-9.22161
무	-9.22184
▁웹사이트	-9.222
▁다양	-9.22327
음	-9.22334
▁사건이	-9.22553
i	-9.22669
▁주식	-9.22725
▁친	-9.22744
▁사이에	-9.22791
▁d	-9.22892
▁내무부	-9.22979
▁평균	-9.2298
▁여름	-9.22981
▁연료	-9.2304
▁과정에서	-9.23058
▁사임	-9.23192
▁미국에서	-9.23258
▁가스	-9.2332
▁발견됐다	-9.23356
▁국영	-9.23578
이었던	-9.23615
▁담당	-9.23722
출	-9.23887
▁출연	-9.24122
▁나오	-9.24152
▁주민	-9.24267
▁텍사스	-9.24282
▁메	-9.24328
▁비용	-9.24436
▁완전	-9.24474
금	-9.24534
▁부상했다	-9.24706
▁감시	-9.2472
품	-9.24879
▁걸쳐	-9.2505
▁반응	-9.25196
▁항공사	-9.25231
앞서	-9.25249
▁개최	-9.25339
▁것과	-9.25532
▁위원장	-9.2554
▁않아	-9.25558
▁키	-9.25594
▁주말	-9.25619
▁정권	-9.2571
▁학생	-9.25855
▁35	-9.2592
▁이곳	-9.25966
▁몸	-9.26047
▁동	-9.26265
▁기대	-9.26351
▁상황이	-9.26414
일까지	-9.26417
▁선고	-9.26442
▁케냐	-9.26446
▁갈	-9.26486
▁강제	-9.26675
▁부통령	-9.26687
▁경	-9.26687
▁인상	-9.2674
작	-9.26861
▁동부	-9.2713
▁90	-9.27445
▁주재	-9.27608
기도	-9.27699
인한	-9.27737
▁표	-9.27911
▁korea	-9.27961
▁유일	-9.28021
▁추	-9.28086
▁베네수엘라	-9.28202
▁그룹	-9.28223
▁후세인	-9.28235
▁바이러스	-9.2825
팀	-9.28333
▁하기	-9.28356
▁어머니	-9.2836
▁사망했	-9.2864
줄	-9.28874
▁결정했다	-9.29127
▁상대로	-9.29178
▁발견된	-9.29228
▁차베스	-9.29284
▁야후	-9.2929
▁익명	-9.29294
▁알려진	-9.29298
해왔다	-9.29377
▁놓	-9.29563
두	-9.2958
▁캐나다	-9.29648
▁국내	-9.29655
달	-9.29702
▁무장세력	-9.29734
여명	-9.29784
시켜	-9.2979
▁페	-9.29809
▁약속	-9.29886
▁구성	-9.29944
r	-9.30062
▁누	-9.30072
▁인기	-9.30075
▁서부	-9.30304
▁un	-9.30305
증	-9.30358
▁경찰에	-9.30372
▁바란다	-9.30377
처	-9.30397
▁되었다	-9.30488
▁해안	-9.30501
▁대상으로	-9.30577
▁분	-9.30853
▁민주주의	-9.30993
▁자료	-9.31359
▁마치	-9.31436
기구	-9.31464
▁처리	-9.31475
▁이래	-9.31521
▁제공	-9.31566
대로	-9.3166
▁대변인이	-9.31712
▁받는	-9.31761
▁왕자	-9.31814
▁버스	-9.31948
▁압력	-9.32035
▁다리	-9.32052
▁요청했다	-9.32093
es	-9.322
었습니다	-9.32334
▁플로리다	-9.32336
2006	-9.32392
▁h	-9.32408
▁받지	-9.32447
▁300	-9.32465
▁변호사는	-9.3255
▁책	-9.32582
▁밝혔습니다	-9.32624
▁예상된다	-9.32654
▁크게	-9.32673
▁편	-9.32732
록	-9.32839
▁때까지	-9.32905
▁70	-9.32935
▁제품	-9.32943
▁직원	-9.32991
▁토	-9.33039
저	-9.33147
▁통제	-9.33256
▁총격	-9.33357
▁거대	-9.33358
▁희망	-9.33405
영	-9.33453
▁사는	-9.33474
▁진압	-9.33721
▁루	-9.33737
▁쿠바	-9.33759
▁벌	-9.3401
▁유권자들	-9.34057
케	-9.34129
▁되고	-9.34179
▁파병	-9.34277
f	-9.34503
▁남한	-9.3451
많은	-9.34697
▁중국은	-9.34716
▁최악	-9.34854
▁인터뷰	-9.34857
▁무장단체	-9.3487
한다는	-9.34936
본	-9.34996
골	-9.35182
▁사령관	-9.35197
▁아니라고	-9.35232
▁적이	-9.35499
▁통과	-9.35615
▁차이	-9.35653
▁집단	-9.35658
▁병	-9.3568
▁촬영	-9.35753
▁한다는	-9.35923
▁접근	-9.35935
일부터	-9.35967
▁전국	-9.35995
▁나온	-9.36074
업체	-9.36284
▁수색	-9.3632
▁도움이	-9.36335
▁머리	-9.36345
▁밝히	-9.36424
▁세력	-9.36464
▁강한	-9.36498
▁사실이	-9.36507
▁성폭행	-9.36582
▁탑승	-9.36585
▁따른	-9.36593
료	-9.36617
▁실험	-9.36774
하겠다	-9.36921
▁장면	-9.36981
▁음식	-9.37029
▁암살	-9.37054
▁k	-9.37058
▁평가	-9.37082
▁발전	-9.3715
▁별	-9.37166
▁흑인	-9.37172
▁있지	-9.37288
▁2001	-9.37297
▁사과	-9.37473
▁마크	-9.37481
▁헌법	-9.37689
색	-9.37701
▁확인했다	-9.37712
▁하원	-9.37749
힌	-9.37758
▁의료	-9.37759
장을	-9.37873
▁임기	-9.37954
▁수출	-9.38074
▁상원의원이	-9.38205
▁국회	-9.3821
테	-9.38243
▁제한	-9.38305
▁논쟁	-9.38344
▁달리	-9.38348
▁사우디	-9.38355
다면	-9.38403
생	-9.38445
▁지명	-9.38514
▁죽음	-9.38599
중인	-9.38636
았다	-9.3871
▁수상	-9.38731
k	-9.38832
▁질문	-9.3884
▁가자지구	-9.38896
▁감염	-9.38899
▁동료	-9.38933
▁사람들을	-9.38936
▁북핵	-9.38948
하였다	-9.38984
▁위성	-9.39084
▁부상자	-9.39197
▁가졌다	-9.39239
량	-9.39242
승	-9.39285
▁들어	-9.39407
▁필리핀	-9.39546
▁매년	-9.39548
▁어느	-9.39549
등	-9.39587
▁있음	-9.39617
▁못한	-9.39711
▁보냈다	-9.39753
▁사퇴	-9.39941
▁이집트	-9.39948
▁정부와	-9.40132
▁이끄는	-9.4015
▁시리아	-9.40246
▁받게	-9.40248
▁되어	-9.40298
▁나왔다	-9.40329
▁자세	-9.40387
▁밝히지	-9.40409
되기	-9.40435
▁파리	-9.40439
▁공격으로	-9.40439
▁명령	-9.40544
▁후에	-9.40562
8	-9.40584
▁항공기	-9.4064
들에	-9.40659
▁주도	-9.40777
▁찾아	-9.40937
▁회복	-9.40959
▁여론조사	-9.41007
탄	-9.41054
가지	-9.41157
▁병사	-9.41157
▁t	-9.41172
▁가능한	-9.41188
▁월요일	-9.41199
동안	-9.4128
락	-9.4132
▁기사	-9.41328
▁파괴	-9.415
7	-9.41527
▁사람들에게	-9.41556
▁선수들	-9.41571
▁비밀	-9.41612
▁지진	-9.41635
▁두고	-9.41676
▁천	-9.41678
▁로마	-9.41811
톤	-9.41838
▁받	-9.41862
▁칸	-9.4191
▁고통	-9.41929
▁언급했다	-9.41941
▁희생자	-9.41983
▁뇌	-9.42008
▁중에	-9.42011
▁향해	-9.42068
▁긴장	-9.42121
▁올랐다	-9.42184
▁45	-9.42305
양	-9.42374
▁안정	-9.4241
▁nasa	-9.42595
▁사형	-9.42664
▁무역	-9.42764
▁인수	-9.42773
▁개혁	-9.42832
▁의미	-9.42839
▁관해	-9.43172
▁제임스	-9.43214
▁권력	-9.43235
▁us	-9.43273
▁인물	-9.43313
류	-9.4334
▁고용	-9.43375
약	-9.4348
▁군대	-9.43522
▁사랑	-9.43524
▁32	-9.43796
▁식량	-9.43834
▁신고	-9.4384
▁나머지	-9.43841
▁잘못	-9.43842
▁다음달	-9.43862
▁공습	-9.43909
▁업체	-9.43911
▁여론	-9.43933
▁커	-9.44104
▁부모	-9.44164
곳	-9.44245
▁기관	-9.44254
▁되지	-9.44295
개국	-9.44325
▁구체적	-9.44475
▁소재	-9.44497
센터	-9.44588
▁막기	-9.44628
▁외교	-9.44662
▁허가	-9.44708
▁인질들	-9.44887
▁지나	-9.44946
▁목숨	-9.45103
▁싶다	-9.45103
▁북한에	-9.45146
▁질문에	-9.45266
▁설치	-9.45283
▁미군이	-9.45289
▁만들어	-9.45326
자회담	-9.4539
▁센터	-9.45455
▁해야	-9.45531
지역	-9.45582
▁모델	-9.45609
갈	-9.45622
▁나이	-9.45675
커	-9.4569
▁허리케인	-9.4574
▁오른	-9.45754
▁전기	-9.45879
l	-9.45979
▁건	-9.45979
만한	-9.46012
각	-9.46102
▁불만	-9.46235
▁일자리	-9.46394
했을	-9.464
▁학생들	-9.46416
▁마음	-9.46419
▁중앙	-9.46455
▁숨지고	-9.46502
▁아내	-9.46731
▁위반	-9.46752
▁만큼	-9.46766
▁살인	-9.46912
▁1000	-9.46966
회사	-9.47024
▁적어도	-9.47059
▁주장하고	-9.47072
▁g	-9.47232
▁질	-9.47308
시키는	-9.47407
▁기소	-9.47688
▁자체	-9.47689
▁물론	-9.47704
▁야	-9.47766
▁맥	-9.47878
▁전시	-9.47878
▁강화	-9.47925
▁끝에	-9.47988
▁섬	-9.48005
▁곳에서	-9.48138
▁계획이	-9.48237
▁마련	-9.48252
튼	-9.4828
▁팬들	-9.48286
▁be	-9.48318
업	-9.4832
▁소리	-9.48376
▁넘는	-9.48377
▁일반	-9.48447
▁뿐	-9.4848
▁선정	-9.48601
하기도	-9.48606
으로서	-9.48644
▁정부에	-9.48656
른	-9.48662
▁지수	-9.48737
▁사원	-9.48806
▁칼	-9.48823
▁쇼	-9.48832
▁파견	-9.48841
▁따라	-9.4888
▁시카고	-9.48944
▁어떠한	-9.48987
기로	-9.49108
▁제기	-9.49272
▁쿠	-9.49401
▁400	-9.49446
메	-9.49503
▁국무장관	-9.49522
쳐	-9.49612
▁예측	-9.49615
▁삶	-9.49649
▁국방장관	-9.49652
▁전문가	-9.4971
▁임시	-9.49745
▁re	-9.49818
었	-9.49899
▁이란이	-9.49987
명으로	-9.50062
▁u	-9.50086
▁거부	-9.50089
▁국가들	-9.50263
▁작업을	-9.50337
▁여성이	-9.50369
▁입고	-9.50374
▁접촉	-9.504
▁움직임	-9.50415
▁기지	-9.50538
▁자리	-9.50541
on	-9.50551
▁설명	-9.50576
여명이	-9.50589
▁금	-9.50637
▁시민	-9.50755
▁갖	-9.50884
▁종교	-9.50972
▁베컴	-9.50988
▁찰스	-9.50998
▁출마	-9.51004
▁직원들	-9.51074
▁양측	-9.51132
▁사장	-9.51165
▁패	-9.51265
▁문화	-9.51325
▁실시	-9.51335
▁수천명	-9.51476
▁유명한	-9.51489
거리	-9.51611
▁마약	-9.51689
▁외무부	-9.51689
근	-9.51714
▁경제적	-9.51877
▁심장	-9.51879
▁교전	-9.51882
었던	-9.519
▁비판	-9.51938
▁시기	-9.51956
▁수익	-9.51962
▁수요일	-9.52031
▁목적	-9.52041
▁해리	-9.52079
tal	-9.52154
6	-9.5216
▁참가	-9.52174
망	-9.52176
▁귀	-9.52224
▁이라크에	-9.52318
▁제조	-9.52323
▁fbi	-9.52345
▁선출	-9.52355
st	-9.5243
퍼	-9.52445
▁자국	-9.52515
▁09	-9.52531
▁발생해	-9.52537
▁존스	-9.52549
▁유권자	-9.52612
▁진	-9.52723
▁시간이	-9.52737
▁내려	-9.52913
▁수천	-9.52916
▁이달	-9.53019
▁외무장관	-9.53028
▁어려움	-9.5303
쉬	-9.53076
남	-9.53248
▁샤	-9.53424
▁승객	-9.53477
▁비슷	-9.53524
▁시상식	-9.53717
▁구매	-9.53734
▁지도자인	-9.5374
마다	-9.53858
5000	-9.53919
편	-9.53931
▁추락	-9.53934
▁사진을	-9.54006
▁결의안	-9.54013
▁피해자	-9.54034
▁사상	-9.54094
▁교회	-9.54125
▁잠	-9.54153
▁혼란	-9.54198
▁선언	-9.54215
▁아주	-9.54215
리자	-9.54246
▁아베	-9.54488
▁최고의	-9.54498
베	-9.54539
▁진출	-9.54587
▁경험	-9.54627
▁나가	-9.54796
▁누구	-9.54803
▁부분	-9.54922
▁사항	-9.54991
▁그리스	-9.55091
▁신원	-9.55096
▁주민들이	-9.55104
▁좀	-9.55111
▁확대	-9.55111
▁긴급	-9.55115
▁착륙	-9.5523
▁공군	-9.55245
림	-9.55254
▁복귀	-9.55264
▁상대	-9.55345
▁대중	-9.5538
▁쉬	-9.55443
▁붕괴	-9.55526
▁체포됐다	-9.55712
▁소말리아	-9.55731
▁병원에	-9.55779
▁정당	-9.55809
▁게이츠	-9.55818
▁일요일	-9.55858
▁미래	-9.55885
▁가질	-9.56093
▁폭력사태	-9.56151
▁되	-9.56289
▁과	-9.56354
▁충격	-9.56374
▁국제사회	-9.56535
▁총재	-9.56574
▁영어	-9.56613
▁카운티	-9.56624
▁현장	-9.56634
▁작년	-9.56653
▁것인지	-9.56679
▁전력	-9.56741
▁대법원	-9.56893
▁감	-9.56957
▁크	-9.57082
▁목표로	-9.5714
▁추진	-9.57142
▁관련해	-9.57151
▁고문	-9.57162
▁젊은	-9.57189
▁위치	-9.57237
▁선두	-9.57256
▁숨진	-9.57272
▁빨	-9.57308
▁당선인	-9.57344
자인	-9.57375
▁목요일	-9.57438
만이	-9.57638
▁엘	-9.57759
▁단지	-9.5785
▁참석	-9.57901
▁국립	-9.57942
▁코소보	-9.57958
▁로켓	-9.57962
▁절차	-9.5798
▁마리	-9.58073
▁이전에	-9.58159
▁보여주	-9.58182
▁정상회담	-9.58234
렸다	-9.58395
단체	-9.5852
▁여사	-9.5859
▁선거에서	-9.58704
▁on	-9.58924
▁해제	-9.5893
시키고	-9.58933
2007	-9.58998
▁군인	-9.5902
▁있는지	-9.59049
▁인사	-9.59182
▁수석	-9.59499
세기	-9.59556
▁정말	-9.59611
있다	-9.59676
주의	-9.59739
▁현대	-9.59842
▁노조	-9.59908
▁반대하는	-9.59951
▁교통	-9.60008
▁배치	-9.60018
렌	-9.60056
▁잉글랜드	-9.60148
▁방문한	-9.60166
▁들고	-9.60251
▁북	-9.60254
▁표현	-9.60256
집	-9.60258
월부터	-9.6026
▁가까	-9.60401
쿠	-9.60474
▁시행	-9.60491
▁전달	-9.60598
▁개의	-9.60609
▁올라	-9.60626
▁집중	-9.60644
▁작업	-9.60828
▁주의	-9.60848
▁총기	-9.60875
▁bbc	-9.60891
▁고양이	-9.60897
▁도중	-9.6099
▁id	-9.61024
▁이라크전	-9.61046
▁듯	-9.61166
▁2009	-9.61178
▁변	-9.61277
▁전략	-9.61285
협회	-9.61299
▁추정	-9.61383
▁약간	-9.61422
▁36	-9.61469
▁구속	-9.61535
▁당했다	-9.61562
▁사이트	-9.616
싼	-9.61635
▁나타나	-9.61635
되	-9.61635
▁몇몇	-9.61636
▁회담에서	-9.61646
▁임명	-9.61671
▁밝혀지지	-9.61675
▁대형	-9.61706
▁나토	-9.61721
▁카메라	-9.61723
이었	-9.61818
▁수십	-9.6184
스러운	-9.61854
▁항의	-9.61882
되었습니다	-9.61917
▁의원들	-9.61939
▁넘	-9.62047
▁생	-9.62067
▁매일	-9.62183
▁수백	-9.62237
▁윌리엄	-9.6225
▁신화통신	-9.62388
▁지지자들	-9.62492
▁연합군	-9.62566
아니라	-9.62785
▁약물	-9.62801
▁판	-9.62828
채	-9.62984
▁대비	-9.6299
▁잡	-9.62993
턴	-9.63004
▁걱정	-9.63042
▁유명	-9.63066
▁전까지	-9.63082
▁다이애나	-9.63104
▁스스로	-9.63146
▁도쿄	-9.63151
▁동결	-9.63156
▁판단	-9.63167
▁스포츠	-9.63225
▁연구소	-9.63258
▁가량	-9.63425
▁휴대폰	-9.63466
▁보이는	-9.6349
▁제거	-9.63505
자들이	-9.63523
▁자녀	-9.6355
▁병원에서	-9.63595
▁패배	-9.63602
투	-9.63616
en	-9.63701
4	-9.63734
▁오래	-9.6377
▁불리	-9.63857
▁블레어	-9.63908
▁오랫동안	-9.63908
▁허용	-9.63919
정부	-9.63959
▁연속	-9.6405
▁체포했다	-9.64134
▁효과	-9.64147
w	-9.64234
▁극	-9.643
v	-9.64345
▁됐	-9.64418
▁작성	-9.64469
▁만든	-9.64597
▁검토	-9.64599
▁따	-9.64621
▁올메르트	-9.64677
▁직후	-9.64685
▁이수지	-9.64687
▁노래	-9.6472
▁결	-9.64725
▁유죄	-9.64726
▁확실히	-9.64735
▁감사	-9.64847
▁압박	-9.65015
▁유세	-9.65024
▁취소	-9.65141
▁여당	-9.65214
▁관광	-9.65219
▁연설에서	-9.65239
▁성적	-9.6529
▁발생했	-9.65344
▁아마	-9.65345
▁겪고	-9.65452
▁그렇게	-9.65452
▁왜	-9.65487
▁관광객	-9.65497
tp	-9.65515
▁구호	-9.65516
로써	-9.65592
▁옷	-9.65594
▁실수	-9.65599
담	-9.65616
▁자주	-9.65662
▁도전	-9.65671
▁공장	-9.65686
▁퍼	-9.65731
▁곳에	-9.65739
▁영국의	-9.65838
만명이	-9.65935
▁문서	-9.65963
▁테	-9.65978
▁j	-9.66177
▁06	-9.66223
▁비상사태	-9.66236
외	-9.66247
▁co	-9.6625
▁조건	-9.66292
▁분석	-9.66302
▁집회	-9.6633
▁기억	-9.66343
▁내부	-9.66401
대가	-9.66412
▁높이	-9.66546
액	-9.66651
▁이와같	-9.66698
▁투입	-9.66718
▁백	-9.66773
▁가능	-9.66976
▁운행	-9.66978
▁전통	-9.66997
▁이밖에	-9.67021
▁글	-9.67041
회의	-9.67051
▁담배	-9.67053
▁ms	-9.67073
▁핵심	-9.67083
▁장기	-9.67086
절	-9.67172
태	-9.67175
▁소녀	-9.67221
▁뉴	-9.67351
▁없었	-9.67352
시키기	-9.67371
빌	-9.67414
센	-9.67434
하다고	-9.67487
▁프로젝트	-9.67511
▁한반도	-9.6754
▁게	-9.67606
▁애플	-9.6764
▁집에서	-9.67746
▁우크라이나	-9.67815
▁할리우드	-9.67815
▁샤리프	-9.67818
▁산불	-9.67829
▁마무리	-9.67848
▁군부	-9.6785
▁남북	-9.67937
▁동시	-9.6794
▁윌리엄스	-9.6796
▁cat	-9.67964
장관	-9.68064
▁37	-9.68119
▁실제	-9.68128
▁탄	-9.68142
▁끝	-9.68225
▁굴	-9.68235
▁주가	-9.68315
▁출발	-9.68333
▁실시된	-9.68418
▁증가했다	-9.68515
▁폭풍	-9.68592
▁홍보	-9.68601
▁보기	-9.68602
▁빠른	-9.68615
▁오랜	-9.68633
▁나타냈다	-9.68675
▁노동	-9.68691
▁넘어	-9.68918
대의	-9.69002
▁둔	-9.69083
했는데	-9.69177
니다	-9.69243
▁고래	-9.69249
▁높다	-9.69421
▁일어난	-9.69424
▁개봉	-9.69435
리아	-9.69441
▁스피어스	-9.69444
▁알게	-9.69568
▁받기	-9.69589
▁목사	-9.69624
▁보이지	-9.69647
▁지배	-9.69694
▁능력	-9.69734
▁소장	-9.69747
▁하며	-9.6979
▁넣	-9.69794
▁차지했다	-9.69875
▁집행	-9.69898
▁발생할	-9.69931
▁차기	-9.69946
▁사무실	-9.69962
매	-9.69978
▁한국은	-9.70007
▁부인했다	-9.70064
▁연장	-9.70084
냐	-9.70096
▁여성들	-9.70096
▁버지니아	-9.70109
▁보이고	-9.70201
▁네덜란드	-9.70234
▁탁신	-9.70234
▁보건	-9.70234
▁크리스토퍼	-9.70234
▁원자로	-9.70252
▁조작	-9.7027
▁알려지	-9.70302
▁시작된	-9.7032
▁빠르	-9.70361
▁그러	-9.70452
▁맞아	-9.70458
▁150	-9.70474
▁분쟁	-9.70543
▁나무	-9.70562
▁보안관	-9.70603
▁상황에서	-9.70612
▁유로	-9.70621
▁말하고	-9.70671
왔다	-9.70691
링	-9.70725
자가	-9.70754
▁완화	-9.70766
▁속에	-9.71005
▁찾기	-9.71054
▁무가베	-9.71054
백	-9.71054
▁협의	-9.71073
▁영상	-9.71083
월까지	-9.71097
▁날씨	-9.71104
▁중심	-9.7112
▁내각	-9.71149
▁버	-9.712
▁소비자	-9.71314
▁캐	-9.71317
▁대가	-9.71512
▁대응	-9.71658
▁후보에	-9.71659
▁약속했다	-9.71674
▁이미지	-9.71727
인지	-9.71762
▁여왕	-9.71767
▁위기에	-9.71773
▁북한과	-9.71794
▁말레이시아	-9.71862
▁엄마	-9.71887
▁하워드	-9.71888
▁cia	-9.71893
▁ht	-9.71902
▁의원이	-9.71912
▁조금	-9.71918
하길	-9.71968
▁스위스	-9.72015
▁단어	-9.72018
h	-9.72034
▁중이다	-9.7205
▁수정	-9.72087
▁작가	-9.72276
▁경찰과	-9.72349
▁그에게	-9.72397
▁망명	-9.72399
페	-9.72476
▁그중	-9.72493
▁주에서	-9.72558
▁위험한	-9.72564
▁없어	-9.72569
▁중국이	-9.72588
▁수백명	-9.72653
▁사기	-9.72655
▁난민	-9.7267
50	-9.72675
▁크리스마스	-9.7271
▁iaea	-9.72713
▁처벌	-9.72716
▁스티브	-9.72719
▁성인	-9.72722
▁asp	-9.72722
다른	-9.72785
▁고든	-9.72816
▁않겠다	-9.72929
▁프라이머리	-9.7293
▁이용해	-9.73001
▁수니파	-9.73148
▁긴	-9.73194
▁보낸	-9.7323
▁장소	-9.73316
▁도착	-9.73373
랑	-9.73415
추	-9.73431
▁감축	-9.73559
▁사례	-9.73573
▁대표팀	-9.7361
▁마드리드	-9.73692
▁전문	-9.73777
▁다쳤다	-9.73813
▁못했	-9.73895
▁i	-9.73992
▁청와대	-9.74354
▁법률	-9.74363
겠다	-9.7437
▁수가	-9.74378
▁대책	-9.74439
▁기후	-9.74445
▁치안	-9.74452
마일	-9.74455
▁어려	-9.74456
▁확산	-9.74523
▁밀	-9.74559
▁의심	-9.74707
▁크기	-9.74772
▁의한	-9.74858
▁사상자	-9.74908
▁실패	-9.74929
하였	-9.7494
▁돼	-9.74962
▁법적	-9.74986
주년	-9.74994
▁사용하는	-9.74995
입	-9.75004
현	-9.75056
▁술	-9.7511
▁순간	-9.75142
▁등록	-9.75197
준	-9.75235
▁찾는	-9.75256
▁배럴	-9.75262
▁찬성	-9.75278
▁대단	-9.75344
▁지급	-9.75356
▁고려	-9.75358
▁근무	-9.75383
▁과학	-9.75475
▁떨어져	-9.75486
▁보좌관	-9.75776
▁보장	-9.75781
▁현장에	-9.75861
▁시작됐다	-9.75983
▁후보로	-9.76007
▁세르비아	-9.76032
▁폐	-9.76075
▁민병대	-9.76087
기간	-9.76103
▁쿠르드	-9.76113
▁1999	-9.76132
▁전자	-9.76155
▁역사적	-9.76176
국가	-9.76188
▁웹사이트에	-9.76251
▁있는데	-9.76306
▁남성이	-9.76331
▁경찰관	-9.76333
▁기자회견	-9.7642
▁니콜라	-9.76572
열	-9.76582
책	-9.76646
▁투	-9.76708
▁가수	-9.76751
족	-9.76767
▁떠나	-9.76775
▁소지	-9.76836
▁인정했다	-9.76951
▁과정	-9.76983
▁farc	-9.76988
▁나섰다	-9.76988
▁정확한	-9.76988
▁모하메드	-9.76988
▁규제	-9.76989
▁태풍	-9.76991
▁진입	-9.76996
ion	-9.76998
▁최소한	-9.7701
▁아바스	-9.77021
▁축구	-9.77022
시킨	-9.77057
▁최신	-9.7708
▁근	-9.77089
▁체	-9.77127
▁영향력	-9.77153
▁연구진	-9.77197
▁목소리	-9.77317
▁하락했다	-9.77318
▁의혹	-9.77335
▁구성된	-9.77367
▁태	-9.77402
▁홍수	-9.77484
▁박물관	-9.77488
▁임	-9.77497
▁실시한	-9.77533
▁실제로	-9.7758
▁얼굴	-9.77589
▁당한	-9.77631
▁못할	-9.77633
볼	-9.77743
▁머물	-9.77856
▁피터	-9.77863
▁캠프	-9.77865
▁먼저	-9.7787
▁관	-9.77984
경기	-9.78031
▁시리즈	-9.78178
an	-9.78179
▁집권	-9.78194
▁슈	-9.78198
▁비상	-9.78222
▁나와	-9.78249
▁미국인들	-9.78366
▁도착했다	-9.78444
▁만들	-9.7845
▁가족들	-9.78452
지도	-9.78479
▁들었다	-9.78549
샤	-9.78555
▁증언	-9.78564
ar	-9.78574
방송	-9.78632
▁말한	-9.78747
▁저녁	-9.7875
결	-9.7875
▁네팔	-9.78754
▁분노	-9.78755
▁알려져	-9.78763
▁구글	-9.78763
▁박사	-9.78816
▁토니	-9.78819
▁부정	-9.78892
으면	-9.79078
▁얻었다	-9.79179
▁헤	-9.79247
▁집계	-9.79546
▁자신들이	-9.79554
▁말리키	-9.79643
▁장난감	-9.79645
이지만	-9.79667
▁왕	-9.79731
▁42	-9.79767
▁아부	-9.79838
▁추정되	-9.79925
합	-9.79962
백만	-9.80073
▁대통령에게	-9.80083
▁요	-9.80133
▁강도	-9.80288
지수	-9.80375
▁특사	-9.80377
▁깊	-9.80433
▁경계	-9.80511
▁등이	-9.80526
▁아르헨티나	-9.80544
▁분위기	-9.80544
▁테이프	-9.80544
▁수행	-9.80554
이라	-9.80555
▁38	-9.80556
겠다고	-9.80564
▁가격이	-9.80684
▁미국에	-9.80688
▁중요하다	-9.80722
▁후반	-9.80724
▁쉽게	-9.80756
▁시민들	-9.80806
▁떨어졌다	-9.80832
▁당선자	-9.80906
분기	-9.80996
당국	-9.81
▁급	-9.8103
▁프리	-9.81102
▁소비	-9.81246
▁문제로	-9.81374
▁화성	-9.81437
씬	-9.81453
▁침체	-9.81456
▁노대통령	-9.81457
센트	-9.81509
▁대체	-9.81539
▁상황에	-9.81555
▁환영	-9.81623
▁놀라	-9.81625
▁소년	-9.81642
▁주로	-9.81662
▁비자	-9.81721
▁만들었다	-9.818
▁민간	-9.81805
것	-9.81849
▁테러로	-9.81983
▁향	-9.82026
▁48	-9.82077
kg	-9.82166
▁시위자들	-9.82219
▁운전	-9.82246
▁제출	-9.82273
▁한미	-9.82273
▁46	-9.82288
해졌다	-9.82289
▁콘돌	-9.82373
▁조정	-9.824
▁휴가	-9.82423
▁원조	-9.82452
개월간	-9.82551
되면서	-9.82575
▁무사	-9.82584
▁폭	-9.82649
▁장치	-9.82673
▁이끌	-9.82717
▁태도	-9.82736
▁요구한	-9.82761
▁본부	-9.82876
▁승무원	-9.83104
▁영국에서	-9.83153
▁참석한	-9.83199
▁연루	-9.83223
하려고	-9.83274
2008	-9.83284
▁토요일	-9.83296
▁활용	-9.83302
▁페르베	-9.83306
▁우주선	-9.83464
▁마감	-9.83572
▁참여	-9.83634
▁힐튼	-9.83636
▁범인	-9.83661
▁자산	-9.8369
▁교체	-9.83714
▁숨	-9.83717
▁어린	-9.83865
▁제외	-9.83865
▁살해한	-9.83881
▁is	-9.83913
▁이곳에서	-9.83924
▁시대	-9.83932
언	-9.83994
▁유사	-9.84104
▁진행되	-9.84131
▁축하	-9.84163
▁징역	-9.84214
▁엘리자베스	-9.84231
▁타격	-9.84246
▁유럽연합	-9.84255
▁침해	-9.84255
▁신속	-9.84269
목	-9.84272
▁기타	-9.84359
▁초기	-9.84443
▁허	-9.84466
졌	-9.84515
렸	-9.84614
▁속에서	-9.84651
주간	-9.84668
▁없다는	-9.84728
▁요구하는	-9.84766
먼	-9.84782
말	-9.84815
▁인식	-9.84867
▁대처	-9.85031
▁부동산	-9.85079
빈	-9.85087
▁소프트웨어	-9.85174
▁싱가포르	-9.85174
▁드라마	-9.85175
▁적용	-9.85198
▁맺	-9.85214
▁모른다	-9.85231
▁반발	-9.85278
▁않으면	-9.85285
▁웹	-9.85309
▁한국과	-9.85339
▁지적	-9.85422
▁사용할	-9.85422
▁클럽	-9.85547
▁임신	-9.85572
▁수반	-9.85577
은행	-9.85664
▁이웃	-9.85714
▁기구	-9.85749
▁해고	-9.85793
블	-9.85808
달하는	-9.85865
라도	-9.85941
▁개정	-9.86017
▁개입	-9.86071
▁현장에서	-9.86076
▁이들이	-9.86106
▁언제	-9.86119
▁매들린	-9.86126
▁벌금	-9.86126
▁협조	-9.86127
▁사이클론	-9.86131
▁1997	-9.86133
▁결론	-9.86139
▁연락	-9.86142
▁대출	-9.86181
▁절반	-9.86223
▁결혼식	-9.8623
▁지불	-9.86256
▁국장	-9.86374
▁상품	-9.8651
령	-9.8663
▁평	-9.86637
▁물질	-9.86737
▁75	-9.86798
스타	-9.86834
▁토론	-9.87052
▁자살폭탄테러	-9.87085
▁긍정적	-9.87088
▁리버풀	-9.87088
▁루이스	-9.87119
▁일환	-9.87119
▁일반적	-9.8715
▁통화	-9.87161
▁성화	-9.87234
술	-9.87279
시설	-9.87333
▁복제	-9.87429
리스	-9.87475
▁조종사	-9.87481
▁아파트	-9.8749
in	-9.87504
▁korean	-9.87524
▁공화당의	-9.87529
했는지	-9.87551
▁외교부	-9.87561
광	-9.87695
▁들어가	-9.87703
▁월드컵	-9.87726
▁보이	-9.87811
▁오픈	-9.8791
▁재정	-9.87914
한다면	-9.87915
▁오하이오	-9.8792
위로	-9.88037
▁보여	-9.88042
▁울	-9.88046
▁뉴질랜드	-9.88059
▁잭슨	-9.88059
▁끝난	-9.88081
▁이것이	-9.88092
▁신경	-9.88104
▁원유	-9.88113
▁의료진	-9.88129
▁길이	-9.8816
▁당선	-9.88201
▁방어	-9.88209
▁트럭	-9.88238
씩	-9.88268
▁영국군	-9.88279
▁총선에서	-9.88315
름	-9.88326
▁자격	-9.8833
▁자연	-9.88369
▁조사하고	-9.88386
▁이틀	-9.88387
▁수감	-9.88396
▁고속도로	-9.88444
▁불안	-9.88455
or	-9.88533
▁되면	-9.88578
▁투자자들	-9.88606
▁역	-9.88634
re	-9.88677
▁형	-9.88709
▁수용	-9.88725
▁저장	-9.88743
변	-9.88834
▁대표단	-9.88873
▁r	-9.88879
불	-9.88918
▁빠져	-9.89038
▁1998	-9.89039
▁론스타	-9.89042
▁케네디	-9.89043
▁ceo	-9.89046
▁갖추	-9.8908
활동	-9.89085
▁걸어	-9.89114
▁이르는	-9.89114
▁입국	-9.89121
▁지출	-9.89123
30	-9.89187
▁성공했다	-9.89246
▁예방	-9.89289
▁속도	-9.89315
▁체포된	-9.89342
▁선포	-9.89417
▁해당	-9.89429
▁터키군	-9.89445
▁주고	-9.89512
ia	-9.89536
▁풀	-9.89625
▁영	-9.89693
율	-9.8973
▁지지자	-9.89769
▁포함되어	-9.89861
있	-9.89873
▁펜실베이니아	-9.89905
▁600	-9.89967
▁민주화	-9.90051
▁1980	-9.90051
▁실행	-9.90061
▁1990	-9.90064
▁진정	-9.90068
▁나달	-9.9011
▁공식적으로	-9.90142
20	-9.90166
▁소유	-9.90213
▁동의	-9.9026
▁안보리	-9.90306
▁대피	-9.90499
▁재산	-9.90598
▁l	-9.90598
▁쥐	-9.90665
▁삼	-9.90667
▁목	-9.90729
▁국	-9.90827
▁동원	-9.90876
▁집에	-9.90927
격	-9.90966
춘	-9.90985
▁좋지	-9.91029
▁캠페인	-9.91029
▁휘발유	-9.91029
▁경기에	-9.9103
▁김정일	-9.9103
▁cbs	-9.91032
▁하다	-9.91042
▁방식	-9.91044
▁변경	-9.91047
▁육군	-9.91055
▁확신	-9.9108
▁저지	-9.91125
▁올렸다	-9.91148
▁일본은	-9.91149
▁심리	-9.91164
▁지진으로	-9.91208
▁포드	-9.91256
▁충분	-9.91305
▁행진	-9.91325
▁신뢰	-9.91386
▁방해	-9.91403
▁정신	-9.91508
▁동맹	-9.9153
ce	-9.91531
▁시드	-9.91626
▁향하	-9.91653
▁중국과	-9.91663
▁왔	-9.91664
▁그린	-9.91744
▁창	-9.91786
▁33	-9.91873
▁일어나	-9.91908
▁지지하는	-9.91939
범	-9.91985
▁조사에서	-9.9199
▁우라늄	-9.92039
▁얘기	-9.92039
▁포르투갈	-9.9204
▁첼시	-9.92041
▁ppp	-9.92043
▁로봇	-9.92045
▁에이즈	-9.92047
▁주인공	-9.92049
▁나쁜	-9.92051
▁차관보	-9.92059
▁드러났다	-9.92067
▁힘든	-9.92076
흐	-9.92112
수가	-9.92151
▁통치	-9.9217
▁설립	-9.92184
▁중국에서	-9.92184
▁소개	-9.92218
▁회담에	-9.92295
▁250	-9.92341
▁벨	-9.92368
▁예정이	-9.9239
서는	-9.92489
▁이해	-9.92491
▁점령	-9.92497
▁테러가	-9.92498
▁단계	-9.92529
▁부패	-9.92578
▁이혼	-9.9264
▁지지율	-9.92737
레이	-9.92747
▁한번	-9.9275
▁아랍	-9.92803
규	-9.92959
▁믿고	-9.9306
▁해리포터	-9.9306
▁국제유가	-9.93061
▁답변	-9.93063
▁내린	-9.93067
▁입양	-9.93079
▁리비아	-9.9309
▁만드는	-9.93099
▁압둘라	-9.93128
▁오르	-9.93147
맨	-9.93159
▁중이라고	-9.93168
x	-9.9319
▁학생들이	-9.9321
▁용의자들	-9.93362
▁진술	-9.93451
▁준	-9.93539
습	-9.93634
▁포함해	-9.93696
▁정부군	-9.93753
▁총리와	-9.93754
▁민	-9.93881
▁장식	-9.93966
랜드	-9.93989
훨	-9.94091
▁필	-9.94091
▁new	-9.94106
▁벌어진	-9.94106
▁축제	-9.94118
▁귀국	-9.94144
▁강경	-9.94159
▁아카데미	-9.94165
▁외부	-9.94243
▁협정	-9.9425
▁예산	-9.94286
▁손실	-9.94334
▁경선에서	-9.94504
▁곳으로	-9.94546
▁중에는	-9.94621
▁취임	-9.94622
▁주는	-9.94631
▁협회	-9.94632
▁01	-9.94716
▁지도부	-9.94801
스터	-9.94824
▁바다	-9.9484
시장	-9.94908
▁여기	-9.94921
킬	-9.94927
▁권	-9.94975
▁해결하기	-9.95015
▁워싱턴에서	-9.95024
us	-9.95085
▁진행된	-9.95094
창	-9.95132
▁페일린	-9.95133
▁학대	-9.95144
▁음모	-9.95146
▁불참	-9.95146
▁가득	-9.95152
▁선물	-9.95214
▁레이스	-9.9529
▁앨범	-9.95327
▁형성	-9.95352
▁44	-9.95403
▁공개했다	-9.95503
▁교황	-9.95587
▁수집	-9.95631
통신	-9.95715
▁참	-9.95731
▁ac	-9.95853
▁철회	-9.95901
▁짐	-9.9596
▁남북한	-9.95977
▁o	-9.95986
▁포인트	-9.96036
머	-9.96075
▁내에	-9.96114
▁맨체스터	-9.96183
▁맨유	-9.96194
▁화산	-9.96194
▁향후	-9.96197
▁기능	-9.96201
▁선거운동	-9.96204
▁편지	-9.96239
▁며칠	-9.96272
▁잔해	-9.96278
둔	-9.96284
시아	-9.9631
▁질환	-9.96342
▁통합	-9.96345
▁것보다	-9.96366
▁52	-9.96373
▁당선인은	-9.96572
▁가정	-9.96596
▁연결	-9.96617
▁유리	-9.9663
▁평화적	-9.96631
▁회담이	-9.96728
▁충분한	-9.9678
▁킹	-9.96805
▁언급하지	-9.96805
▁벌인	-9.96941
겠	-9.96988
들도	-9.9704
립	-9.97142
▁뛰어	-9.97225
▁노동자	-9.97246
▁열린우리당	-9.97249
▁검색	-9.97251
▁반기문	-9.97251
▁핵실험	-9.97252
▁요구하고	-9.97256
▁dna	-9.97257
▁접속	-9.9726
▁신용	-9.97285
▁머	-9.97285
▁51	-9.97304
예	-9.97314
연합	-9.97337
▁바그다드에서	-9.97388
▁콜	-9.97437
▁밀란	-9.97461
▁성향	-9.97499
었고	-9.97522
▁이스라엘과	-9.9761
▁방법으로	-9.97662
클	-9.97676
▁방문할	-9.97783
필드	-9.97797
▁대통령에	-9.97832
▁생존자	-9.9793
ri	-9.97936
▁회사들	-9.97995
▁목격자들	-9.97998
ment	-9.98012
▁잡지	-9.98023
▁장군	-9.98024
ra	-9.98127
▁직	-9.98252
ode	-9.9826
▁의도	-9.983
▁사드르	-9.98322
▁north	-9.98324
▁밖으로	-9.98324
▁콘서트	-9.98324
▁페더러	-9.98324
▁다르푸르	-9.98325
▁우선	-9.98343
▁영토	-9.98349
▁특정	-9.98387
▁체니	-9.98389
▁거절	-9.98436
▁송	-9.9844
▁신청	-9.9846
▁거주하는	-9.98478
▁죽	-9.98506
▁랭킹	-9.98667
▁시절	-9.98717
▁기자들	-9.98738
▁관광객들	-9.98759
지에	-9.98891
▁목격자	-9.98954
▁바람	-9.99055
▁소니	-9.99063
▁레이	-9.99082
▁계획에	-9.99158
▁제시	-9.99163
▁아이들이	-9.99165
▁원하는	-9.99181
▁기념	-9.99203
▁모습이	-9.99215
놓고	-9.99308
▁지키	-9.99368
▁니	-9.99407
▁멸종	-9.99411
▁온난화	-9.99411
▁헤즈볼라	-9.99411
▁휴전	-9.99411
▁접	-9.99413
▁대다수	-9.99413
▁학살	-9.99414
므로	-9.99416
▁방침	-9.99419
▁수백만	-9.99419
▁야생	-9.99425
▁크리스	-9.99446
▁생각하고	-9.99464
앙	-9.99499
▁밖에서	-9.99547
▁다이아몬드	-9.99547
▁유가	-9.99557
▁잃었다	-9.99725
정책	-9.9974
▁응	-9.99842
위에	-9.99906
▁케	-9.99926
명에	-9.99944
▁방지	-10.0012
▁격	-10.0012
▁주장하는	-10.0012
▁터	-10.0016
▁방문했다	-10.0018
▁스티븐	-10.0026
▁내용이	-10.0028
ly	-10.0028
으	-10.003
▁밝혀	-10.0035
▁매장	-10.0038
▁다니	-10.0044
만에	-10.0048
▁현지시각	-10.0051
▁이메일	-10.0051
▁영변	-10.0052
▁폭행	-10.0052
▁웨스트	-10.0054
▁가입	-10.0055
▁출시	-10.0055
▁발표된	-10.0063
▁잠시	-10.0064
▁기도	-10.007
▁분야	-10.0073
낼	-10.0074
▁보상	-10.0075
▁힘들	-10.0076
▁성과	-10.0082
▁말합니다	-10.0084
쇼	-10.0084
힐	-10.0085
▁차드	-10.0094
▁파타	-10.0105
탈	-10.0107
▁마이크	-10.0109
레스	-10.0119
▁태평양	-10.0137
▁이스라엘군	-10.0138
▁억류	-10.0146
▁세계대전	-10.0162
▁nbc	-10.0163
cm	-10.0164
▁공공	-10.0165
▁폭우	-10.0165
▁반정부	-10.0167
▁바라고	-10.0171
▁원한다	-10.018
▁색	-10.0183
달러에	-10.0189
▁혹	-10.019
▁폐지	-10.0194
▁대결	-10.0195
번째로	-10.0197
▁이번주	-10.0198
▁존슨	-10.0199
▁이익	-10.02
▁생명	-10.0201
▁34	-10.0203
▁평양	-10.0206
▁기업들	-10.0207
▁협상이	-10.0213
▁지하	-10.0215
▁돌아가	-10.022
▁예상했다	-10.0222
de	-10.0226
이어	-10.023
▁둘	-10.0247
▁수요	-10.0251
▁자기	-10.0252
▁보면	-10.0256
▁전망이	-10.0258
▁공격이	-10.0259
▁한국군	-10.0263
▁리콜	-10.0275
어야	-10.0276
▁보였	-10.0276
▁마틴	-10.0277
▁진실	-10.0277
▁사건과	-10.0293
패	-10.0298
▁빅	-10.0299
기가	-10.03
▁프로	-10.0301
▁경찰서장	-10.0306
▁적절한	-10.0309
▁아래	-10.031
겐	-10.031
쯤	-10.0317
▁모양	-10.032
▁고객	-10.0325
해지	-10.0328
▁at	-10.0328
▁말라	-10.0332
들로	-10.0332
▁800	-10.0358
독	-10.0358
장이	-10.0362
▁입었	-10.0376
▁현재까지	-10.0377
▁내전	-10.0379
플	-10.0386
웰	-10.0386
▁무릎	-10.0388
▁이렇게	-10.0388
▁찾고	-10.0388
▁쿠데타	-10.0388
▁훌륭	-10.0388
▁갑자	-10.0388
▁장비	-10.0389
▁사건으로	-10.0391
▁심문	-10.0393
▁경보	-10.0394
▁베트남	-10.0395
▁의무	-10.0396
▁요원	-10.0399
▁대상	-10.0404
▁장관이	-10.0405
▁취할	-10.0407
총	-10.041
▁심각	-10.042
손	-10.0426
▁보수	-10.0429
섬	-10.0429
▁생존	-10.043
리는	-10.0432
▁선박	-10.0433
지르	-10.0442
조치	-10.0444
▁사실상	-10.0449
▁보고했다	-10.0451
때	-10.0453
▁엔	-10.047
장에서	-10.0492
▁서명	-10.0495
▁질병	-10.0497
항	-10.0499
▁존재	-10.0503
▁격차	-10.0507
▁핵시설	-10.0507
▁서방	-10.0508
▁일리노이주	-10.051
▁헤럴드	-10.0511
▁밑	-10.0513
▁신호	-10.0518
관리	-10.052
▁아일랜드	-10.0522
▁심슨	-10.0524
▁43	-10.0531
▁기준	-10.0532
돌	-10.054
▁된다고	-10.054
봉	-10.054
▁대부분이	-10.0547
▁지도	-10.0553
▁화	-10.0559
▁실시되	-10.056
▁가까이	-10.0562
▁담당자	-10.0567
자로	-10.0569
▁올랐	-10.058
▁강조	-10.0584
▁일주일	-10.0585
▁스테	-10.06
았	-10.0608
죠	-10.0619
▁카르자이	-10.0619
▁치러진	-10.0627
▁53	-10.0632
th	-10.0633
9	-10.0644
▁벤	-10.0648
▁an	-10.0653
만큼	-10.0666
ic	-10.0671
불어	-10.0672
▁상점	-10.0686
▁사인	-10.0695
▁브	-10.07
▁시작한	-10.0709
차전	-10.0709
▁광산	-10.0713
▁국제적	-10.0714
▁일본에서	-10.072
려는	-10.0723
▁일간	-10.0728
▁사용되	-10.0729
▁나이지리아	-10.0737
▁달라이라마	-10.0737
▁에드워즈	-10.0737
▁오스트리아	-10.0737
▁흡연	-10.0737
▁덴마크	-10.0737
▁교환	-10.0737
▁동반	-10.074
▁버마	-10.0741
▁걸릴	-10.0742
▁보통	-10.0742
▁사전	-10.0745
킨	-10.0745
▁티	-10.0754
▁인하	-10.0756
▁가자	-10.0758
▁포기	-10.0761
▁국왕	-10.0767
들어	-10.0773
▁노출	-10.0779
찬	-10.078
▁중요	-10.0781
▁의식	-10.08
▁되기	-10.0804
▁전투기	-10.0806
▁남아	-10.0808
▁논란	-10.0822
▁대기	-10.0822
문제	-10.0825
▁일본이	-10.0826
사건	-10.0833
▁지휘	-10.0839
▁제도	-10.0841
▁다우존스	-10.0856
▁fta	-10.0857
▁who	-10.0858
▁55	-10.0858
▁전면	-10.0859
▁커피	-10.0859
▁매각	-10.0859
it	-10.086
▁만날	-10.0861
▁묻	-10.0863
▁공중	-10.0863
▁전반	-10.0867
▁제안했다	-10.0868
▁원제	-10.087
▁구제	-10.087
▁각국	-10.0881
▁회원	-10.0884
▁이사	-10.0885
▁중대	-10.0885
▁맞서	-10.0888
려고	-10.0891
▁책임자	-10.0891
▁팬	-10.0898
엘	-10.0903
▁폐기	-10.0908
▁다우	-10.0915
▁본사	-10.0915
▁환자들	-10.0917
▁차지	-10.0921
▁결정은	-10.0925
▁투어	-10.0934
▁느끼	-10.0937
▁깨	-10.0944
▁지진이	-10.0946
▁교	-10.0948
▁감정	-10.0951
▁모인	-10.0956
▁조사에	-10.0957
후드	-10.096
▁업계	-10.096
▁시장에서	-10.0961
슈	-10.0963
▁노력하고	-10.0974
▁south	-10.0976
▁방글라데시	-10.0976
▁설득	-10.0977
▁마카오	-10.0977
▁칠레	-10.0977
▁단순	-10.0978
▁기존	-10.0978
▁영화제	-10.0986
▁그와	-10.0997
▁소수	-10.0999
▁웃	-10.1006
▁행	-10.1013
▁나서	-10.1014
▁부문	-10.1025
90	-10.103
▁부르	-10.1038
▁철도	-10.1039
▁연구원	-10.1045
스키	-10.1046
▁청소년	-10.1047
▁마르	-10.1048
▁외교적	-10.1049
▁동물원	-10.1049
▁하게	-10.1051
▁상승했다	-10.1054
사를	-10.1056
▁이하	-10.1064
▁소환	-10.1067
▁근거	-10.108
▁됩니다	-10.1085
자와	-10.109
▁시위에	-10.1096
▁스웨덴	-10.1098
▁누군가	-10.1098
▁복잡	-10.1099
주일	-10.1099
▁남아공	-10.11
▁새끼	-10.11
▁소설	-10.1104
▁당신이	-10.1104
▁신임	-10.1105
▁따라서	-10.111
▁테러리스트	-10.1119
칠	-10.1121
▁ba	-10.1125
▁의지	-10.1128
시키	-10.1134
▁내릴	-10.1135
취	-10.1145
▁있어서	-10.1146
▁64	-10.1164
▁식	-10.1166
▁악화	-10.1169
▁승리했다	-10.1171
▁행성	-10.1178
▁그림	-10.1183
▁66	-10.1188
조원	-10.1195
▁공항에서	-10.1201
되면	-10.1204
▁달라	-10.1218
▁iraq	-10.1222
▁고등학교	-10.1222
▁56	-10.1222
▁농축	-10.1222
▁다니엘	-10.1222
▁봄	-10.1223
▁복구	-10.1224
▁체결	-10.1224
▁공산당	-10.1224
▁성관계	-10.1224
▁그래서	-10.1226
순	-10.1227
▁상처	-10.1227
▁사담	-10.1228
▁대북	-10.1231
▁그것이	-10.1231
▁군인들	-10.1235
▁이뤄지	-10.1236
▁보관	-10.1239
축	-10.1241
▁경기장	-10.1244
▁복용	-10.1247
▁수상자	-10.1255
웠다	-10.1255
▁대답	-10.1269
▁부근에서	-10.127
▁주간	-10.1273
▁기다리고	-10.1288
▁수용소	-10.1295
▁목적으로	-10.1305
▁as	-10.1308
▁손상	-10.1314
▁절	-10.1318
▁계속되고	-10.1326
▁구입	-10.1331
▁자리에서	-10.1335
성이	-10.1339
▁즉각적	-10.1342
셔	-10.1343
▁네트워크	-10.1347
▁카스트로	-10.1347
▁폭동	-10.1349
▁가옥	-10.1349
▁최선	-10.1349
▁카드	-10.135
▁페루	-10.1351
▁독	-10.1352
빠진	-10.1352
▁이중	-10.1354
▁분명히	-10.1358
▁예비	-10.1358
▁세우	-10.1363
▁시내	-10.1367
▁추적	-10.1375
▁공원	-10.1378
▁면	-10.1383
▁의회에	-10.1396
▁늘	-10.1405
▁피트	-10.1406
▁수감자	-10.1413
렛	-10.1415
▁반군이	-10.1422
기관	-10.1431
▁벌였	-10.1433
▁기반	-10.1437
▁표시	-10.144
▁운영하	-10.1444
▁서울에서	-10.1446
▁의회에서	-10.1454
ch	-10.1454
했음	-10.1465
랄	-10.1467
▁왕세자	-10.147
▁내놓	-10.147
▁습격	-10.1474
▁재무장관	-10.1474
▁겨울	-10.1474
▁순방	-10.1475
▁탐사	-10.1476
▁도입	-10.1477
▁부담	-10.1478
▁치명적	-10.1478
▁휴	-10.1479
▁발병	-10.1479
▁개방	-10.1481
▁북측	-10.1484
▁열대	-10.1498
▁올린	-10.15
▁촉구	-10.1501
▁de	-10.1506
▁많다	-10.1513
▁전반적	-10.1516
▁49	-10.1518
▁합동	-10.154
숙	-10.1541
▁전날	-10.1542
쳤다	-10.1548
▁있다면	-10.1549
▁허락	-10.155
시켰	-10.1551
왔	-10.1553
▁바이	-10.1554
▁기본	-10.1555
▁pa	-10.1557
▁소식이	-10.1565
▁공격에	-10.157
▁장애	-10.1573
▁그동안	-10.1575
▁둘러	-10.1587
텔	-10.1589
▁m	-10.159
▁권한	-10.1596
▁수감자들	-10.1596
▁알래스카	-10.1601
▁붉은	-10.1601
▁정확히	-10.1602
▁챔피언스리그	-10.1602
▁with	-10.1602
▁완벽	-10.1602
▁검거	-10.1603
▁2010	-10.1607
▁삼성	-10.1611
선수	-10.1616
▁회원국	-10.1619
▁말까지	-10.1619
▁유전자	-10.162
관계	-10.1623
▁제공하는	-10.1629
▁주지	-10.1629
▁교도소	-10.163
▁조성	-10.163
대에	-10.1647
▁샌프란시스코	-10.1649
▁수영	-10.1663
▁모여	-10.1671
▁오브	-10.1671
▁경매	-10.1679
▁말했	-10.1681
ational	-10.1682
▁의회의	-10.1684
▁선언했다	-10.1685
▁어린이들	-10.1688
북	-10.1694
▁유치	-10.1696
영화	-10.1697
▁지연	-10.171
▁증가하고	-10.1715
사는	-10.1716
▁주석	-10.1719
▁실패했다	-10.1722
▁희생자들	-10.173
▁블랙	-10.1731
▁nato	-10.1732
▁파예드	-10.1732
▁혜택	-10.1732
▁숫자	-10.1732
▁폴란드	-10.1732
▁frb	-10.1732
▁노예	-10.1735
▁will	-10.1741
▁파산	-10.1742
▁거부했다	-10.1751
라운드	-10.1753
▁실종	-10.1754
년이	-10.1768
▁군정	-10.177
▁줄어들	-10.1771
▁공화국	-10.1771
▁지시	-10.1773
▁말하는	-10.1775
▁사살	-10.1783
▁체계	-10.1783
▁하면	-10.1792
▁빙하	-10.1795
악	-10.1797
애	-10.1799
▁명단	-10.18
▁지켜	-10.18
벌	-10.1802
컵	-10.1802
딘	-10.1805
▁베이징에서	-10.1806
사가	-10.1812
드시	-10.1813
▁국회의원	-10.1816
분의	-10.182
▁분명	-10.182
▁나갈	-10.182
항공	-10.1824
로운	-10.1826
▁안에서	-10.1827
상태	-10.1836
▁타이	-10.1836
▁54	-10.184
is	-10.1843
▁보고서에서	-10.1853
▁스리랑카	-10.1856
▁낸	-10.1858
▁사우디아라비아	-10.1863
▁ioc	-10.1863
▁심지어	-10.1863
▁북동부	-10.1864
▁크루즈	-10.1864
▁커플	-10.1864
▁레알	-10.1864
▁서신	-10.187
▁거뒀다	-10.1871
▁가졌	-10.1876
▁무대	-10.1881
▁워	-10.1881
▁끝나	-10.1883
▁호세	-10.1883
▁대선에서	-10.1892
▁고향	-10.1893
▁고대	-10.1897
ation	-10.1904
▁운항	-10.1912
▁못하는	-10.1916
▁뉴욕에서	-10.1916
▁시작했	-10.193
▁경영	-10.1933
▁살아	-10.1935
▁기독교	-10.1937
▁가는	-10.1944
▁절대	-10.1946
▁처	-10.1946
드는	-10.1949
▁음반	-10.1975
▁폭격	-10.1976
▁저항	-10.1977
▁계속되	-10.1982
▁얻어	-10.1985
▁마찬가지	-10.1996
▁잃은	-10.1996
▁취재	-10.1997
▁민감	-10.1998
▁소요	-10.2003
▁만난	-10.2004
▁현금	-10.2005
▁합	-10.2007
▁폭탄이	-10.2009
10	-10.2013
▁pc	-10.2015
▁뼈	-10.2016
▁초점	-10.2025
▁런던에서	-10.2025
▁베이	-10.2032
▁식품	-10.2032
해줄	-10.2034
▁형태	-10.2037
▁린	-10.2038
▁혁명	-10.2041
▁탈출	-10.2052
▁대회에서	-10.2053
▁얻기	-10.2054
▁만일	-10.2055
행위	-10.2059
▁사라	-10.2066
▁피해가	-10.2069
▁41	-10.2077
계획	-10.2077
▁유나이티드	-10.2081
▁주기	-10.2089
▁이곳에	-10.2092
▁달성	-10.2093
▁발생하지	-10.2095
▁태양	-10.2131
▁타이틀	-10.2132
▁철저	-10.2132
▁아이디어	-10.2133
▁생긴	-10.2134
▁인생	-10.2137
▁무력	-10.214
▁결정에	-10.2145
j	-10.2152
▁늘어	-10.2156
▁싸움	-10.2159
▁공유	-10.2174
▁이사회	-10.2175
▁고립	-10.2181
▁보안군	-10.2183
▁기대하고	-10.2194
▁39	-10.2198
▁좋아	-10.2199
▁수업	-10.2205
분간	-10.2206
▁현상	-10.2207
▁여자친구	-10.2216
2009	-10.2218
▁중지	-10.2218
▁한국에서	-10.2222
▁강요	-10.2222
▁중독	-10.2247
▁해병대	-10.2247
까	-10.2252
▁방향	-10.2255
▁성화봉송	-10.2259
▁중부	-10.2261
▁외교관	-10.2268
▁uefa	-10.2269
▁주한미군	-10.2269
▁크라이슬러	-10.2269
▁토마스	-10.2269
▁자극	-10.2271
▁입증	-10.2272
▁보여줬다	-10.2273
▁돌아오	-10.2274
▁유감	-10.2275
▁공포	-10.228
▁과학자	-10.2281
▁실종된	-10.2283
▁총격전	-10.2284
밀	-10.2285
▁발간	-10.2289
▁주인	-10.2295
▁캘리포니아주	-10.2295
▁누리	-10.2296
▁찬	-10.23
▁콩고	-10.2303
▁130	-10.2303
▁보인다고	-10.2303
▁시장에	-10.2315
▁근처	-10.2316
▁부정적	-10.2329
▁증권	-10.2329
▁차관	-10.2335
▁신체	-10.2337
뿐	-10.2338
▁납치된	-10.234
▁재단	-10.2343
올	-10.2352
na	-10.2357
▁체제	-10.236
▁세상	-10.2367
▁해변	-10.2371
0	-10.2371
▁값	-10.2382
▁사용한	-10.239
▁야기	-10.2393
더라	-10.2394
▁챔피언	-10.2394
▁거두	-10.2396
▁넓	-10.2398
▁클린턴이	-10.24
40	-10.24
▁president	-10.2407
▁라스베이거스	-10.2407
▁맞춰	-10.2407
▁외교통상부	-10.2407
▁리조트	-10.2407
▁활주로	-10.2407
▁1994	-10.2409
▁은퇴	-10.2409
▁데이터	-10.2409
▁디자인	-10.241
▁성공적	-10.241
▁철군	-10.2411
▁헨리	-10.2412
▁무료	-10.2412
▁모기지	-10.2414
▁바르셀로나	-10.2414
람	-10.2415
▁기계	-10.2419
▁지역으로	-10.242
▁이스라엘이	-10.242
틀	-10.2422
▁받아야	-10.2423
▁무선	-10.2428
▁난사	-10.243
▁한때	-10.243
▁첫번째	-10.2441
▁하와이	-10.2441
▁보낼	-10.2444
▁잇	-10.2444
▁경제에	-10.2444
수록	-10.2444
▁앞에	-10.2446
누	-10.2448
▁61	-10.2459
낸	-10.2461
▁니콜	-10.2463
▁방송국	-10.2474
▁라이트	-10.2477
▁호텔에서	-10.2493
▁보트	-10.2495
▁전개	-10.2496
▁주제	-10.2496
▁도시에서	-10.2497
▁오염	-10.2499
▁3000	-10.2502
▁여성의	-10.2504
▁출석	-10.2508
▁이주	-10.2513
▁부여	-10.2513
▁법정	-10.2519
시키려	-10.2523
▁데이	-10.2523
▁펜	-10.2525
▁달러에	-10.2529
▁이양	-10.253
▁거쳐	-10.253
▁리그	-10.2536
션	-10.2536
▁나누	-10.2539
▁아이오와	-10.2539
▁노벨	-10.2545
▁동티모르	-10.2548
▁앓고	-10.2548
▁태어난	-10.2548
▁삭제	-10.2548
▁47	-10.2548
▁섹스	-10.2548
▁논평	-10.2549
▁관찰	-10.2549
▁두바이	-10.2549
▁강타	-10.255
▁분열	-10.255
ir	-10.255
▁단속	-10.2552
명에게	-10.2553
▁개표	-10.2554
▁쓰	-10.2555
▁항소	-10.2556
▁신발	-10.2557
▁쓰나미	-10.2558
▁예전	-10.2558
▁세계은행	-10.2558
▁본선	-10.2559
▁높아지	-10.256
▁안전한	-10.256
▁케이블	-10.2561
▁견해	-10.2561
▁아메리칸	-10.2563
▁중순	-10.2564
▁금요일	-10.2566
▁진화	-10.2569
▁보유하고	-10.2571
▁기상	-10.2578
▁신부	-10.2588
▁고어	-10.2594
▁승리한	-10.2601
▁시청	-10.2605
▁가했다	-10.261
▁수상했다	-10.2611
▁사회적	-10.2617
랜	-10.2621
▁죽은	-10.2626
조차	-10.2635
드라	-10.2636
▁봤다	-10.2638
▁mo	-10.264
▁생각하는	-10.2642
젠	-10.2643
▁위로	-10.2645
▁선거에	-10.2648
ve	-10.2663
▁것이고	-10.2663
▁인류	-10.2667
▁빛	-10.2669
▁에도	-10.2674
▁참석했다	-10.2679
▁플레이	-10.2686
▁떠	-10.2689
희	-10.2689
▁요르단	-10.269
▁하원의원	-10.2693
▁채택	-10.2693
▁2012	-10.2694
▁이라크와	-10.2699
▁오늘날	-10.2702
▁마쳤다	-10.2702
▁대량	-10.2703
▁물건	-10.2705
▁크리스티	-10.2708
▁케리	-10.2712
▁만들어진	-10.2715
▁지시했다	-10.2719
▁예수	-10.2724
▁불길	-10.2725
▁아동	-10.2726
▁교사	-10.2726
▁못한다	-10.2741
▁점차	-10.2741
해주	-10.2746
▁gm	-10.275
▁감독이	-10.2756
▁혐의에	-10.2758
▁발생하는	-10.2766
▁뿐만	-10.2774
▁의미한다	-10.2781
li	-10.2786
세인	-10.2787
▁훼손	-10.2802
▁중국에	-10.2814
▁65	-10.2817
ca	-10.2818
▁법원에	-10.2819
▁it	-10.2829
릭	-10.2831
닝	-10.2832
▁운송	-10.2835
▁와인하우스	-10.2836
▁격렬	-10.2836
▁측근	-10.2838
▁추방	-10.2839
▁1970	-10.284
▁구금	-10.2842
▁불편	-10.2843
▁빚	-10.2843
▁신중	-10.2845
▁요소	-10.2846
▁위조	-10.2847
우스	-10.2848
▁펼쳤다	-10.2849
▁의석	-10.2856
▁갖게	-10.2858
▁방영	-10.2858
▁추정된다	-10.2859
▁몰	-10.2862
▁전역	-10.2862
▁탈	-10.2866
▁보지	-10.2867
▁분석가	-10.2878
▁것이었다	-10.2878
극	-10.2882
▁업무	-10.2895
▁증명	-10.2897
▁비용이	-10.2898
▁분리	-10.2901
▁이후로	-10.2902
▁돌아	-10.2903
잔	-10.2906
▁62	-10.2912
▁이끌어	-10.2922
쳤	-10.2933
▁기금	-10.2937
▁비교	-10.2942
▁표했다	-10.2948
▁상태에	-10.2952
기에	-10.2954
se	-10.2956
스톤	-10.2958
뿐만	-10.2964
ur	-10.2966
없이	-10.297
▁전쟁에	-10.2972
▁책임이	-10.2975
▁가슴	-10.2983
▁곤잘레스	-10.2983
▁불능화	-10.2983
▁협박	-10.2983
대학	-10.2983
▁엄격	-10.2983
▁외환은행	-10.2984
글	-10.2984
▁면담	-10.2984
▁급등	-10.2985
▁회동	-10.2985
▁임금	-10.2985
▁abc	-10.2985
▁종류	-10.2986
▁해결책	-10.2986
▁나올	-10.2988
▁무죄	-10.2989
▁여권	-10.299
▁다수	-10.2992
▁홀	-10.2999
▁민주	-10.3001
▁대학교	-10.3001
▁폭스	-10.3003
▁획득	-10.3011
▁순찰	-10.3023
겨	-10.3024
▁상어	-10.3028
▁국민들에게	-10.3034
▁당수	-10.3037
▁명예	-10.3038
▁59	-10.304
▁보유	-10.3041
▁주문	-10.3048
▁공간	-10.3049
▁구출	-10.305
▁사용자	-10.3056
자들에게	-10.3063
▁얼음	-10.3067
▁않기	-10.3068
▁제대	-10.307
▁식당	-10.3073
안에	-10.3075
▁회	-10.3079
▁폭발물	-10.308
폭	-10.3083
덴	-10.3085
▁프로그램에	-10.3089
▁백인	-10.3089
▁바꾸	-10.309
▁광	-10.3099
▁사망자수	-10.31
▁견	-10.3104
▁곳이	-10.3104
▁나타내	-10.3106
▁끼	-10.3107
산업	-10.3108
▁에어버스	-10.311
했기	-10.3114
▁동성애자	-10.3115
▁경쟁자	-10.3115
▁진전	-10.3121
▁일리노이	-10.3123
혜	-10.3126
틴	-10.3132
짝	-10.3132
▁블라디미	-10.3132
▁선거캠프	-10.3132
▁찾을	-10.3132
▁휴대전화	-10.3132
▁합병	-10.3133
▁화장실	-10.3133
▁적극적	-10.3134
▁고위관리	-10.3134
▁그리	-10.3135
▁유력	-10.314
▁낸시	-10.3142
▁쓴	-10.3145
▁벗어나	-10.3146
▁시점	-10.3146
z	-10.3148
▁이행	-10.3151
▁회의에서	-10.316
▁의문	-10.3161
▁청	-10.3163
▁만났다	-10.3164
▁델	-10.3171
▁부과	-10.3176
▁코트	-10.3177
▁고발	-10.3178
▁집으로	-10.3183
▁파악	-10.3185
▁봉쇄	-10.3198
▁마감했다	-10.3205
▁비판했다	-10.3207
▁전원	-10.321
▁수퍼	-10.321
▁우리당	-10.321
건의	-10.3211
▁하늘	-10.3212
▁우주비행사	-10.3214
▁프레스	-10.322
▁행복	-10.3225
▁이라크군	-10.3238
▁세포	-10.3239
▁지속	-10.3249
▁미국측	-10.325
▁지목	-10.3253
▁방법이	-10.3256
전에	-10.3257
▁가구	-10.326
▁못해	-10.3263
▁국방	-10.3272
▁중재	-10.3274
▁명확	-10.3276
▁리처드	-10.3279
▁건축	-10.328
▁오사마빈라덴	-10.3284
▁김대중	-10.3284
▁패트릭	-10.3284
▁북서부	-10.3285
▁핵프로그램	-10.3285
▁저지른	-10.3285
▁숀	-10.3286
▁다윈	-10.3286
▁배경	-10.329
▁노동당	-10.329
▁위에	-10.3296
▁방화	-10.3296
▁발전소	-10.3299
▁들어갔다	-10.3304
▁아니었다	-10.3313
천만	-10.3314
▁120	-10.3325
도시	-10.3327
▁이내	-10.3327
▁개장	-10.3334
히려	-10.334
▁재건	-10.3343
▁스키	-10.3348
세력	-10.3352
▁초대	-10.3356
▁아프가니스탄에서	-10.3364
▁합류	-10.3365
▁자사	-10.3368
▁윌	-10.3375
▁지속적	-10.3377
드리	-10.3381
▁주한	-10.3392
▁생각했다	-10.3393
▁공개된	-10.3396
▁몰아	-10.3398
▁인종	-10.3402
▁주장에	-10.3407
▁시티	-10.3413
▁해양	-10.3415
▁계획은	-10.3417
세로	-10.3417
▁악	-10.3417
당한	-10.3417
▁헌	-10.3419
▁그렇지	-10.342
▁주목	-10.3421
아야	-10.3425
▁압둘	-10.3428
▁곡	-10.3429
▁덮	-10.3432
▁자유롭	-10.3432
▁시기에	-10.3433
이기	-10.3433
피트	-10.3434
▁코미디	-10.3437
▁디즈니	-10.3437
▁나스닥	-10.3438
▁샤라포바	-10.3438
▁일으킨	-10.3438
▁남서부	-10.3438
▁복무	-10.3438
▁송환	-10.3438
▁케빈	-10.3439
▁직업	-10.3439
▁진영	-10.344
▁강풍	-10.344
▁스타일	-10.3442
▁언어	-10.3445
▁상공	-10.3447
▁자원	-10.3449
▁전세계적으로	-10.345
▁직전	-10.3452
▁해임	-10.3454
25	-10.347
경제	-10.3471
▁정신적	-10.3474
움	-10.3474
▁열어	-10.3479
▁논란이	-10.3483
▁의학	-10.3496
▁유럽의	-10.35
냈다	-10.3507
▁자신에게	-10.351
▁환	-10.3514
▁입원	-10.3516
개발	-10.3523
▁시드니	-10.3523
▁상징	-10.3527
▁진술했다	-10.3527
▁리드	-10.3531
인들이	-10.3533
▁회사가	-10.3533
▁숨졌	-10.3533
▁농	-10.354
▁콘	-10.3547
왕	-10.3555
▁제기했다	-10.3555
▁불가능	-10.3561
달라고	-10.3562
▁보는	-10.3563
▁짓	-10.3565
▁블	-10.3571
▁물가	-10.3571
▁700	-10.3572
▁확실	-10.358
▁엄청	-10.3581
▁죄	-10.3584
펠	-10.3585
▁이루	-10.3586
▁비타민	-10.3594
▁알코올	-10.3594
▁리차드	-10.3594
▁호랑이	-10.3594
▁가택연금	-10.3594
▁받아들일	-10.3594
▁만들고	-10.3594
▁활약	-10.3594
▁라이벌	-10.3594
▁테스트	-10.3596
세가	-10.3597
▁우리나라	-10.3599
▁이루어졌다	-10.3604
운동	-10.3604
▁차단	-10.3607
▁전해	-10.3608
세트	-10.3609
▁시민들이	-10.3609
▁응답자	-10.3609
▁논의하기	-10.3614
▁맥주	-10.3614
짜리	-10.3614
▁떠났다	-10.3614
하고자	-10.3615
el	-10.3616
▁행정	-10.3618
▁유대인	-10.3619
▁잡고	-10.3621
▁잔	-10.3622
▁답했다	-10.3625
▁보호하기	-10.3626
▁법안이	-10.3628
명도	-10.3631
▁영장	-10.3631
▁대치	-10.3635
▁자제	-10.3635
▁가능하다	-10.3642
▁57	-10.3654
▁한국에	-10.3655
견	-10.3656
염	-10.3659
▁평가했다	-10.3666
슬	-10.3682
▁인근에	-10.3696
▁라이	-10.3704
▁했었다	-10.3706
▁백악관에서	-10.3712
▁트리	-10.3713
▁골프	-10.3713
▁총장은	-10.3719
▁불러	-10.372
sa	-10.3729
▁근로자	-10.3729
률	-10.3731
▁형제	-10.3735
▁부서	-10.3745
▁발굴	-10.3748
▁블라고예비치	-10.3753
▁스코틀랜드	-10.3753
▁일찍	-10.3753
▁천연가스	-10.3753
▁감염된	-10.3753
▁둘러싸	-10.3753
▁겨냥	-10.3753
▁거듭	-10.3753
▁해적	-10.3754
▁산사태	-10.3754
▁산림	-10.3755
▁사생활	-10.3755
▁새벽	-10.3755
▁왕실	-10.3755
▁사막	-10.3756
▁무엇보다	-10.3757
▁폭파	-10.3757
▁다우지수	-10.3757
▁벨기에	-10.3757
▁봉사	-10.3758
▁보복	-10.3759
▁주었다	-10.3759
▁오바마와	-10.3761
▁즉각	-10.3761
▁발언에	-10.3762
▁법무부	-10.3762
▁공모	-10.3763
▁초반	-10.3763
▁극복	-10.3763
▁완전한	-10.3768
▁형사	-10.3772
▁달려	-10.3773
▁화해	-10.3774
▁북쪽	-10.3775
▁우리에게	-10.3776
척	-10.3778
▁조합	-10.3785
▁연구팀	-10.3789
▁호수	-10.379
▁소문	-10.3791
▁작동	-10.3796
익	-10.3797
▁싶어	-10.3798
▁순	-10.3799
▁시장이	-10.38
▁연금	-10.3803
▁전부터	-10.3804
▁지내	-10.3806
ro	-10.3809
장에	-10.3809
▁불과	-10.381
▁국민들이	-10.3811
▁이재민	-10.3811
제를	-10.3823
같은	-10.3833
▁58	-10.3836
시에	-10.3837
젤	-10.3837
▁추산	-10.3838
▁거리에	-10.3845
▁답	-10.3846
▁공항에	-10.3849
▁모스크바	-10.3849
▁품	-10.385
▁조기	-10.386
례	-10.3865
▁맡은	-10.3875
▁나왔	-10.388
▁전역에	-10.3881
능	-10.3884
▁문제들	-10.3885
▁에드	-10.3895
▁부근	-10.3896
켓	-10.3903
환	-10.3911
▁패션	-10.3913
▁마이애미	-10.3914
▁쌍둥이	-10.3914
▁아메리카	-10.3914
▁보스턴	-10.3914
▁은신처	-10.3914
▁자치정부	-10.3914
▁로이터	-10.3915
▁위안부	-10.3916
▁사찰단	-10.3916
▁마무	-10.3916
▁간단	-10.3917
▁이송	-10.3918
▁엔진	-10.392
▁들여	-10.3925
▁아프간에서	-10.3927
▁공개적으로	-10.3927
▁카터	-10.3927
미터	-10.3928
▁노인	-10.3928
스와	-10.393
▁쌀	-10.3931
▁타임스	-10.3932
▁미칠	-10.3933
▁치열한	-10.3933
▁전환	-10.3934
▁표명	-10.3939
▁것인가	-10.3941
▁채널	-10.3942
▁나에게	-10.3943
▁이론	-10.3945
▁세워	-10.3948
▁측정	-10.3949
▁독도	-10.3959
▁탐	-10.396
▁투표에서	-10.3968
▁95	-10.3968
▁시한	-10.3969
▁노스캐롤라이나	-10.3972
▁키스	-10.3976
▁로비	-10.3976
il	-10.3978
▁걸린	-10.3982
▁올리	-10.3987
주의자	-10.3989
▁영국인	-10.3996
▁동쪽	-10.3997
돼야	-10.4
▁계	-10.4001
▁예루살렘	-10.4005
▁세대	-10.4006
▁붙	-10.4008
철	-10.4014
▁상승세	-10.4016
▁거주	-10.4022
▁생일	-10.4024
70	-10.4024
▁병사들	-10.4025
다시	-10.403
▁철	-10.4031
▁보내는	-10.4032
적이	-10.4035
▁연관	-10.4037
▁대상이	-10.4037
▁감행	-10.4042
▁년간	-10.4047
막	-10.4047
la	-10.405
▁데에	-10.405
▁참여한	-10.4051
경찰	-10.4054
암	-10.4054
카운티	-10.4055
▁연주	-10.4058
▁물이	-10.406
조직	-10.4063
▁세계적	-10.4065
갑	-10.4068
▁연구에	-10.4072
▁경영진	-10.4075
딩	-10.4076
▁pkk	-10.4078
▁늦게	-10.4078
▁뿌리	-10.4078
▁쓰촨성	-10.4078
▁알렉산더	-10.4078
▁왼쪽	-10.4078
▁키바키	-10.4078
▁토네이도	-10.4078
▁디지털	-10.4078
▁오딩가	-10.4078
▁결선투표	-10.4078
▁파트너	-10.4078
▁법무장관	-10.4078
▁영웅	-10.4078
▁원칙	-10.4079
▁황금	-10.4079
▁1996	-10.4079
▁남극	-10.4079
▁분류	-10.4081
▁출동	-10.4082
국인	-10.4082
▁조류	-10.4084
▁선발	-10.4089
부대	-10.409
송	-10.4091
▁차량이	-10.4092
▁눈에	-10.4092
▁경력	-10.4093
▁보험	-10.4098
▁선전	-10.4098
▁상태로	-10.4098
▁앨	-10.4099
▁로한	-10.4102
▁현실	-10.4109
▁증가한	-10.411
▁위대	-10.4111
▁ma	-10.4117
▁장례식	-10.4123
▁총상	-10.4128
베나	-10.4135
▁알카에다와	-10.4139
▁딕	-10.4143
▁바라	-10.4147
▁이란과	-10.4148
▁폭락	-10.4155
▁기다리	-10.4156
▁파티	-10.4159
▁장면이	-10.4161
▁가족과	-10.4162
▁월드	-10.4163
▁언론에	-10.4173
▁내리	-10.4174
▁떨어지	-10.4177
▁당국자	-10.4183
▁지점	-10.4189
▁경험이	-10.4193
▁정의	-10.4212
▁보석	-10.4213
▁인디애나	-10.4221
되어야	-10.4225
닷컴	-10.4245
▁택시	-10.4245
▁거짓말	-10.4245
▁탄압	-10.4245
▁슈퍼	-10.4246
▁급격	-10.4246
▁영업	-10.4246
▁포경	-10.4246
▁사냥	-10.4247
▁할머니	-10.4247
▁만남	-10.4248
▁체중	-10.4248
▁체코	-10.425
▁취임식	-10.4251
▁악어	-10.4253
됐었다	-10.4255
▁재난	-10.4255
▁든	-10.4257
▁리히터	-10.4259
▁들어오	-10.4263
▁해산	-10.4265
▁날짜	-10.4266
▁흔들	-10.427
▁양국간	-10.4271
▁홈	-10.4272
▁재무부	-10.4275
▁공사	-10.4287
▁작	-10.4289
▁리치	-10.429
▁일제	-10.429
▁급속	-10.429
▁예상되	-10.4295
ti	-10.4297
▁음	-10.43
▁중간	-10.4302
▁록	-10.4305
▁불구	-10.4309
받	-10.4313
▁밴드	-10.4317
ol	-10.4319
▁제조업체	-10.4323
해질	-10.4327
▁수리	-10.4327
▁했습니다	-10.4328
▁사람에게	-10.4334
▁구조대	-10.4342
▁치러	-10.4347
▁가족들이	-10.4349
▁동기	-10.4355
▁여행객	-10.436
▁푸	-10.436
트리	-10.4364
▁구조대원들	-10.4369
이드	-10.4371
▁조약	-10.4373
착	-10.438
존	-10.4381
▁뒤에	-10.4382
▁출판	-10.4384
풍	-10.4389
베이	-10.4389
찰	-10.4396
걸	-10.4397
상황	-10.4398
▁그대로	-10.4398
▁nu	-10.4401
▁쇼핑	-10.441
▁천주교	-10.4412
▁옮겨	-10.4413
▁japan	-10.4414
▁골키퍼	-10.4414
▁마이크로소프트	-10.4414
▁비핵화	-10.4414
▁좋다	-10.4414
▁캄보디아	-10.4414
▁필라델피아	-10.4414
▁남자친구	-10.4414
▁침몰	-10.4414
▁구멍	-10.4414
▁다섯	-10.4414
▁아이폰	-10.4416
▁축소	-10.4417
▁주최측	-10.4418
▁소집	-10.4418
▁미군과	-10.4418
▁대립	-10.4419
▁진단	-10.4419
▁차량에	-10.4421
▁다음날	-10.4423
▁자문	-10.4424
된다고	-10.4425
▁이뤄졌다	-10.4434
▁기록한	-10.4434
니아	-10.4435
▁한국이	-10.4436
▁정치인	-10.4439
▁금리	-10.444
▁근로자들	-10.444
▁밥	-10.4442
▁나오지	-10.4445
▁공기	-10.4453
▁가동	-10.4458
▁예를들	-10.4459
▁일간지	-10.446
제도	-10.4461
▁부총리	-10.4461
▁의사들	-10.4461
▁날개	-10.4467
▁여론조사에서	-10.4469
▁만들기	-10.4477
▁투쟁	-10.4479
▁방식으로	-10.4488
▁것임	-10.4489
▁얻을	-10.4498
웨이	-10.4507
위인	-10.4511
▁하락세	-10.4515
녀	-10.4516
▁남동부	-10.4528
웠	-10.4528
▁극장	-10.4534
▁카페	-10.4541
놓	-10.4542
몬	-10.455
▁무엇	-10.4553
향	-10.4556
▁먼	-10.4558
▁이식	-10.4564
참	-10.4565
공격	-10.4568
받았다	-10.457
새	-10.457
분에	-10.4572
사항	-10.4578
▁여학생	-10.458
법원	-10.4581
ate	-10.4583
▁화학	-10.4583
▁이루어지	-10.4585
정도	-10.4586
▁사우스캐롤라이나	-10.4587
▁인플레이션	-10.4587
됨	-10.4587
▁plan	-10.4587
립니다	-10.4588
자금	-10.4588
▁1995	-10.4588
▁폭설	-10.4589
▁브랜드	-10.459
▁성격	-10.459
마자	-10.4593
작전	-10.4593
▁반영	-10.4597
▁초청	-10.4597
▁확인됐다	-10.4599
▁화재로	-10.4602
▁기온	-10.4602
▁마리아	-10.4603
▁인사들	-10.4603
▁비교적	-10.4605
▁사람들과	-10.4605
▁특수	-10.4614
▁갔다	-10.4615
▁진행자	-10.4619
▁회견	-10.4627
▁자신과	-10.4642
▁돼지	-10.4646
▁사법	-10.4649
▁테러와	-10.4651
▁주장한	-10.4651
▁만화	-10.4652
▁일하	-10.4658
▁움직이	-10.4662
버그	-10.4666
▁미국인들이	-10.4668
슨은	-10.4671
▁홍수로	-10.4672
▁생기	-10.4673
▁폭발이	-10.4673
▁최	-10.4674
▁일치	-10.4676
▁세력이	-10.4678
▁기소됐다	-10.4693
▁수상한	-10.47
▁가게	-10.4709
▁받는다	-10.4716
▁실망	-10.4716
▁끌어	-10.4718
검	-10.4725
델	-10.4726
▁중이었다	-10.4727
협	-10.473
▁제작한	-10.4736
▁시각	-10.4736
te	-10.4737
조사	-10.4743
연맹	-10.4744
▁기대한다	-10.4746
▁조명	-10.4746
▁치르	-10.4747
알	-10.4747
▁모르	-10.4749
얼	-10.475
▁제공할	-10.475
탕	-10.475
▁트	-10.4756
▁위협이	-10.4756
사태	-10.4759
ers	-10.476
멸	-10.476
▁이산화탄소	-10.4762
▁코끼리	-10.4762
▁테일러	-10.4762
▁hiv	-10.4762
▁수석대표	-10.4763
▁포럼	-10.4763
▁징역형	-10.4765
▁스턴	-10.4766
▁결과에	-10.477
▁전통적	-10.4771
▁취	-10.4771
▁화상	-10.4772
ine	-10.4772
지역에서	-10.4774
▁마시	-10.4775
▁실적	-10.4778
▁벽	-10.4779
▁상호	-10.4782
▁용기	-10.4782
▁아난	-10.4782
▁사태에	-10.4789
허	-10.4804
▁파도	-10.4806
▁도착한	-10.4809
82	-10.481
▁73	-10.481
lo	-10.4813
▁입을	-10.4814
▁일어났다	-10.4815
비치	-10.4815
력이	-10.4817
▁자본	-10.4818
▁예술	-10.4819
▁소위	-10.4819
▁이란에	-10.4824
▁군은	-10.4827
니스	-10.4831
▁군사적	-10.4838
택	-10.4848
▁한국인들	-10.4859
주는	-10.4867
▁최근에	-10.487
스가	-10.4874
▁자택	-10.4886
▁고객들	-10.4887
▁낼	-10.4887
▁사용했다	-10.4889
▁물에	-10.489
▁올라가	-10.4892
장치	-10.4896
▁부상으로	-10.4897
▁올려	-10.4898
▁문제의	-10.4899
▁방송사	-10.4911
▁일본과	-10.4916
▁보잉	-10.492
완	-10.4928
▁존중	-10.493
테러	-10.4931
▁토론회	-10.4931
싱	-10.4931
뉴스	-10.4933
▁사용해	-10.494
▁에콰도르	-10.4941
▁쿠웨이트	-10.4941
▁펠로시	-10.4941
▁후진타오	-10.4941
▁돌고래	-10.4941
▁스트레스	-10.4941
▁전당대회	-10.4941
▁교통사고	-10.4941
▁예멘	-10.4941
▁지붕	-10.4941
▁소규모	-10.4942
▁관영	-10.4942
▁국제공항	-10.4942
▁1993	-10.4942
▁보존	-10.4943
▁줄리아니	-10.4943
▁화려	-10.4945
▁라덴	-10.4946
▁관계당국	-10.4947
▁배후	-10.4947
▁감바리	-10.4947
▁기쁘다	-10.4947
▁묘사	-10.4952
▁성장률	-10.4963
▁보여준다	-10.4963
▁경호원	-10.4967
▁일으켰다	-10.4969
▁국적	-10.497
▁해도	-10.4973
▁손에	-10.4981
▁정지	-10.5005
▁초안	-10.5014
▁무게	-10.5016
▁공대	-10.5018
▁출연한	-10.5019
▁근처에서	-10.5022
▁하나로	-10.5027
▁마비	-10.5032
ta	-10.5032
▁멀	-10.5033
되며	-10.5036
▁수사관	-10.5038
▁순위	-10.5038
ver	-10.5042
▁이용하는	-10.5045
라스	-10.505
▁대피했다	-10.506
▁세계적으로	-10.5061
혈	-10.5075
▁남부에서	-10.5079
▁구역	-10.508
▁가족이	-10.5087
들로부터	-10.5088
▁비난하는	-10.5091
그룹	-10.5092
▁중단했다	-10.5093
▁수십명	-10.5098
▁다가	-10.5099
▁경찰서	-10.5105
압	-10.5105
닥	-10.5109
▁북극	-10.5109
▁북미	-10.511
▁충돌이	-10.5111
▁최저	-10.5112
▁ch	-10.5112
연구소	-10.512
▁근육	-10.512
켈	-10.5122
▁05	-10.5122
▁감금	-10.5122
▁화이트	-10.5122
▁dvd	-10.5122
▁다큐멘터리	-10.5122
▁샌디에이고	-10.5122
▁선관위	-10.5122
▁식료품	-10.5122
▁탱크	-10.5122
▁봉송	-10.5123
▁가벼	-10.5123
▁일어날	-10.5123
▁nba	-10.5123
▁범행	-10.5124
▁소련	-10.5124
▁종결	-10.5125
▁동생	-10.5125
ter	-10.5126
▁1960	-10.5127
거래	-10.5127
▁07	-10.5129
▁미디어	-10.5129
▁제목	-10.513
▁음주	-10.5131
▁숲	-10.5131
▁예정인	-10.5138
▁보일	-10.5138
▁정식	-10.5142
▁가상	-10.5142
▁유럽에서	-10.5142
ent	-10.5142
▁반박	-10.5143
▁조용	-10.5147
학교	-10.515
▁협약	-10.5156
▁67	-10.5156
치를	-10.5157
▁차지하고	-10.516
▁보고서에	-10.5162
▁해안에서	-10.5164
▁보여주고	-10.5164
▁노선	-10.5166
▁md	-10.5167
▁월요일에	-10.5172
▁북쪽으로	-10.5172
▁직장	-10.5176
▁이에따라	-10.5176
▁표명했다	-10.5177
▁조각	-10.5182
▁숙	-10.5186
▁요리	-10.5186
▁필요성	-10.5188
▁지점에서	-10.5195
▁맡고	-10.5196
▁수위	-10.5201
▁관계에	-10.5202
▁신사	-10.5205
▁지정	-10.5208
업자	-10.5227
380	-10.5238
▁쓰고	-10.5238
▁놀	-10.5245
▁수사관들	-10.5247
▁보냈	-10.5247
▁청문회	-10.5249
▁희생	-10.525
▁적절	-10.5255
▁애도	-10.5264
▁내렸	-10.5269
▁단체들	-10.5273
▁여성들이	-10.5277
▁선포했다	-10.5281
▁발생하고	-10.5286
침	-10.5287
▁사용하지	-10.5288
▁브리	-10.5289
▁침입	-10.5289
▁적십자	-10.5291
▁지상	-10.5291
▁하나인	-10.5293
▁그래	-10.5293
필	-10.5297
곤	-10.5299
삼	-10.5301
놀	-10.5306
▁1991	-10.5308
▁광범위	-10.5308
▁돕기	-10.5308
▁듣고	-10.5308
▁재검토	-10.5308
▁캐릭터	-10.5308
▁롬니	-10.5308
▁지하철	-10.5308
▁침공	-10.5308
▁특징	-10.5309
▁영화배우	-10.5309
▁저희	-10.531
사인	-10.5313
▁government	-10.5313
▁조지아주	-10.5317
▁발견한	-10.5318
▁수배	-10.532
▁마친	-10.5323
▁이륙	-10.5323
▁말해	-10.5325
▁늘어나	-10.5326
ies	-10.5327
▁76	-10.5329
▁시체	-10.5331
만개	-10.5333
▁통신이	-10.5333
▁하미	-10.5333
▁기차	-10.5339
▁파손	-10.5342
▁계좌	-10.5342
점으로	-10.5343
해왔	-10.5343
▁생산량	-10.5345
▁피부	-10.5345
▁88	-10.5348
▁기부	-10.5349
▁진행되는	-10.5349
▁운영하고	-10.5349
주에서	-10.5354
▁혼	-10.5359
평	-10.536
60	-10.5362
▁냈다	-10.5363
▁스톤	-10.5364
▁2500	-10.5367
▁선원	-10.5368
▁검은	-10.537
해진	-10.5371
▁달린	-10.5376
▁69	-10.5376
위원장	-10.5383
▁주장한다	-10.5386
▁미스	-10.5386
▁투르	-10.5387
▁원숭이	-10.5391
▁행사에	-10.5396
▁신조	-10.5397
▁제출했다	-10.5402
▁정책에	-10.5403
▁상태에서	-10.5404
▁토지	-10.5407
사의	-10.5407
▁운명	-10.5412
▁계속될	-10.5417
▁국가에서	-10.5418
▁친구들	-10.5418
▁맞는	-10.5431
▁서장	-10.5433
▁셀	-10.5442
▁목격	-10.5443
▁중단할	-10.5456
▁이르	-10.5463
내내	-10.5467
대표	-10.547
un	-10.5478
▁무슬림	-10.5482
▁데일리	-10.5487
▁생물	-10.5487
넬	-10.5493
▁탄핵	-10.5495
갔다	-10.5495
▁연쇄	-10.5496
▁과반수	-10.5496
▁마라톤	-10.5496
▁매니저	-10.5496
▁안전보장이사회	-10.5496
▁중앙일보	-10.5496
▁난민촌	-10.5497
▁과도	-10.5497
▁균형	-10.5497
▁녹음	-10.5497
▁구축	-10.5497
▁케이트	-10.5499
▁신규	-10.55
▁일련	-10.55
▁판정	-10.5501
▁레이건	-10.5501
▁개정안	-10.5504
▁경관	-10.5504
▁원래	-10.5505
▁1950	-10.5506
▁소형	-10.5506
▁인민	-10.5507
▁모임	-10.5507
▁항구	-10.5508
▁붙잡	-10.5508
▁공산주의	-10.5508
분만에	-10.5519
▁재판관	-10.5522
▁원화	-10.5523
▁론	-10.5524
량이	-10.5526
▁영화에	-10.5531
▁통일부	-10.5535
비아	-10.5536
▁누르	-10.5542
▁일본에	-10.5546
▁있어야	-10.5547
▁회원국들	-10.5548
▁다르다	-10.5548
스타인	-10.555
▁이름이	-10.5553
▁수립	-10.5559
▁어렵다	-10.5562
▁추세	-10.5562
▁황	-10.5568
▁무리	-10.557
80	-10.5571
▁참석할	-10.5574
▁팀이	-10.5577
포드	-10.5581
▁근거로	-10.5581
▁와인	-10.5586
▁블로그에	-10.5588
▁펼치	-10.5598
▁확신한다	-10.56
벨	-10.5601
ma	-10.5602
▁여지	-10.5605
▁주식시장	-10.5608
▁레스토랑	-10.5613
▁합의한	-10.5615
▁페이지	-10.5617
▁생각이	-10.5619
▁운전자	-10.5625
적이고	-10.5625
▁알아	-10.5626
▁fa	-10.5627
▁do	-10.5628
▁일어났	-10.563
▁십	-10.563
▁총회	-10.563
기지	-10.5653
롭	-10.5678
치는	-10.5678
▁배출	-10.5681
▁신문사	-10.5682
▁만족	-10.5683
▁72	-10.5684
▁생각하지	-10.5686
▁미시시피	-10.5687
픽	-10.5688
▁마흐디	-10.5689
▁프랭크	-10.5689
▁확장	-10.5689
▁침략	-10.5689
▁펀드	-10.5689
▁메르켈	-10.5689
▁샘플	-10.5689
▁어깨	-10.5689
▁옐친	-10.5689
▁앤드류	-10.5689
▁득표율	-10.5689
▁솔직	-10.569
▁복역	-10.569
귀	-10.569
▁지원할	-10.5691
▁쿠퍼	-10.5691
▁기밀	-10.5692
곡	-10.5692
▁다국적군	-10.5693
햄	-10.5693
▁거부권	-10.5695
▁졸리	-10.5695
시스템	-10.5695
▁뇌물	-10.5696
▁래리	-10.5697
▁키우	-10.5698
▁매체	-10.57
▁68	-10.5704
▁진보	-10.5705
▁bo	-10.5709
▁1500	-10.5709
▁world	-10.5709
▁오하이오주	-10.5716
▁맞추	-10.5717
▁정전	-10.5723
▁승려들	-10.5723
▁스타디움에서	-10.5724
▁낮추	-10.5724
▁옆에	-10.5727
▁운전사	-10.5728
니는	-10.5731
▁발견되었다	-10.5733
▁텍사스주	-10.5733
▁무어	-10.5733
▁전복	-10.5734
▁깊이	-10.5736
▁개시	-10.574
▁공개됐다	-10.5742
▁테니스	-10.5743
▁성직자	-10.5744
어로	-10.5744
▁즐	-10.5745
▁하루에	-10.5749
▁나이트	-10.5751
▁실종자	-10.5752
▁건물이	-10.5753
▁던지	-10.5754
▁촬영한	-10.5755
▁흥분	-10.576
▁부모들	-10.5761
해야만	-10.5762
▁치러지	-10.5762
▁노동자들	-10.5764
▁딸이	-10.5769
et	-10.5769
▁아르	-10.5772
▁보게	-10.5772
▁동맹국	-10.5779
▁작업에	-10.5793
▁육	-10.5798
간에	-10.5799
드로	-10.5805
이션	-10.5812
▁후보인	-10.5818
▁무고	-10.582
▁특파원	-10.582
▁추측	-10.5822
▁않았던	-10.5823
▁하락한	-10.5824
한번	-10.5826
▁처해	-10.5827
▁최고치	-10.5827
▁미치는	-10.5837
타르	-10.5838
▁포로	-10.5841
▁월가	-10.5848
▁no	-10.5872
▁빈곤	-10.5873
▁유출	-10.5877
▁메일	-10.5879
좌	-10.588
▁레드	-10.588
▁경호	-10.5883
▁먹이	-10.5885
▁뭄바이	-10.5885
▁윔블던	-10.5885
▁퍼거슨	-10.5885
clear	-10.5885
▁항공우주국	-10.5885
▁노르웨이	-10.5885
▁얼	-10.5885
▁상륙	-10.5885
▁귀환	-10.5886
▁제정	-10.5886
▁빌딩	-10.5886
▁로딕	-10.5887
▁탄생	-10.5887
▁오마르	-10.5887
▁끝날	-10.5888
▁창문	-10.5888
▁서양	-10.5889
▁지켜보	-10.589
▁드러냈다	-10.5891
▁리처드슨	-10.5891
6000	-10.5892
▁이뤄진	-10.5892
에이커	-10.5893
▁당초	-10.5893
▁여겨지	-10.5894
7000	-10.5894
▁동의했다	-10.5895
▁밝혀진	-10.5896
ck	-10.59
▁해병	-10.5902
정보	-10.5903
▁물품	-10.5903
▁청사	-10.5906
▁녹	-10.5906
▁부산	-10.5908
▁경비	-10.5912
보호	-10.5915
▁감소했다	-10.5916
▁동일한	-10.5917
▁비율	-10.5919
측이	-10.592
▁지지한다	-10.5921
▁협상에	-10.5926
▁식사	-10.5926
▁베르	-10.593
▁학교에	-10.5932
▁con	-10.5933
에게서	-10.5935
▁겨	-10.5936
▁취해	-10.5941
▁자택에서	-10.5948
▁전달했다	-10.5952
▁증세	-10.5957
▁인근에서	-10.596
▁가해	-10.5969
▁쉽지	-10.5969
트라	-10.5982
▁조건으로	-10.5994
▁망	-10.5997
ry	-10.5998
국이	-10.5999
▁교황은	-10.6007
▁무장대원	-10.6007
▁모색	-10.6015
▁권고	-10.6016
▁확정	-10.6021
▁카불	-10.6026
기업	-10.603
▁연안	-10.6032
▁파운드	-10.6033
▁지지자들이	-10.6034
▁자리에	-10.6035
▁래	-10.6037
▁실질적	-10.6042
▁얻고	-10.605
▁옆	-10.6051
▁받아들이	-10.6053
um	-10.6054
▁교도소에	-10.6056
▁소식통이	-10.6058
▁결과로	-10.606
린다	-10.6061
▁국가로	-10.6063
▁포기하	-10.6064
▁메이	-10.6065
▁게재	-10.607
▁상원의원과	-10.6072
▁지원하는	-10.6073
▁통계	-10.6074
▁법원에서	-10.6076
시킨다	-10.6077
▁따르	-10.6081
▁대륙	-10.6081
릿	-10.6084
▁국제원자력기구	-10.6085
▁뮤지컬	-10.6085
▁오토바이	-10.6085
▁일으킬	-10.6085
▁카트리나	-10.6085
▁횡령	-10.6085
▁느낄	-10.6085
▁배터리	-10.6085
▁프리미어리그	-10.6085
▁애완견	-10.6085
▁from	-10.6085
▁데이빗	-10.6085
▁줄기세포	-10.6085
▁보이콧	-10.6085
▁정거장	-10.6085
▁세트	-10.6085
▁예비선거	-10.6085
▁암컷	-10.6085
▁낙태	-10.6085
▁롤링	-10.6085
▁라이언	-10.6085
▁생방송	-10.6086
▁오른쪽	-10.6089
▁방출	-10.609
▁매달	-10.6091
헌	-10.6093
▁버리	-10.6093
듯	-10.6094
▁본토	-10.6094
충	-10.6095
▁발포	-10.6095
▁최저치	-10.6097
쪽으로	-10.6097
▁알지	-10.6099
▁유산	-10.61
▁수송	-10.6102
▁비행사	-10.6105
혔다	-10.6106
▁제리	-10.6107
▁분량	-10.6109
600	-10.611
▁알렸다	-10.611
입어	-10.6111
▁투표에	-10.6117
▁유도	-10.6117
▁인원	-10.612
▁윤	-10.612
▁정권이	-10.6121
▁해당하는	-10.6122
▁소득	-10.6123
▁잡스	-10.6124
▁승무원들	-10.6126
▁정원	-10.6126
▁플로리다주	-10.6127
▁분석가들은	-10.6129
▁즐기	-10.6129
▁달러화	-10.6132
▁소유하고	-10.6134
▁해서	-10.6136
▁일에	-10.6137
▁앉아	-10.6137
▁아들이	-10.615
500	-10.615
▁레바논군	-10.615
▁외치	-10.6154
▁환호	-10.6164
▁않기로	-10.6165
▁연구원들	-10.6165
금지	-10.6167
▁요금	-10.6167
▁후보와	-10.6169
단계	-10.6169
▁실시할	-10.6172
▁다이	-10.6173
십	-10.6173
리에	-10.6175
▁함	-10.6176
오는	-10.6178
▁63	-10.6185
▁지분	-10.6185
▁고소	-10.6186
째	-10.6192
▁국기	-10.6194
ts	-10.6206
▁취한	-10.6206
스럽게	-10.6217
▁상하이	-10.6221
▁발표됐다	-10.6222
▁코커스	-10.6222
세이	-10.6223
▁대항	-10.6228
▁테러범	-10.6233
▁웨	-10.6234
▁이민	-10.6237
at	-10.6238
▁개인적	-10.624
▁일으키	-10.6245
측에	-10.625
줬다	-10.6253
▁하면서	-10.6259
으면서	-10.626
▁방문하는	-10.626
▁잡아	-10.6262
▁잠재적	-10.6265
▁온도	-10.627
▁거절했다	-10.6275
as	-10.6276
▁일본인	-10.6277
▁애리조나	-10.6279
징	-10.6284
▁지대	-10.6284
넷	-10.6285
id	-10.6286
차량	-10.6286
▁마돈나	-10.6289
▁파바로티	-10.6289
▁객실	-10.6289
▁징계	-10.6289
▁유혈사태	-10.6289
▁브리핑	-10.6289
▁검증	-10.6289
▁fda	-10.629
▁응급	-10.629
▁창출	-10.6291
▁회의에	-10.6292
▁종료	-10.6293
▁테러조직	-10.6293
▁통증	-10.6293
▁상대방	-10.6293
▁백신	-10.6293
▁차별	-10.6295
▁모금	-10.6296
▁음성	-10.6297
▁빠지	-10.6299
▁재임	-10.63
▁보급	-10.63
▁도심	-10.6301
헤	-10.6302
▁발행	-10.6302
벽	-10.6303
▁부실	-10.6304
▁부채	-10.6305
꺼	-10.6305
▁범인이	-10.6305
▁산타	-10.631
pa	-10.6312
▁리비	-10.6317
▁서울시	-10.6319
▁않는다면	-10.632
▁정상화	-10.6321
▁에어	-10.6322
▁싸	-10.6323
▁140	-10.6326
▁인력	-10.6326
로스	-10.6328
▁쓸	-10.6328
▁포함돼	-10.6342
▁조지아	-10.6344
▁요인	-10.6353
▁군인들이	-10.6354
▁늘리	-10.6355
비용	-10.636
▁모건	-10.636
▁없게	-10.6361
▁예정이었다	-10.6363
▁후원	-10.6366
▁전해지	-10.6367
co	-10.6371
▁화물	-10.6374
웨	-10.638
▁해주	-10.6383
▁전부	-10.6385
리스트	-10.6387
었는지	-10.639
▁중심가	-10.6395
▁02	-10.6402
▁마을에서	-10.6402
스코	-10.6414
▁여러분	-10.6418
▁주위	-10.6419
ff	-10.642
▁부당	-10.642
▁상승한	-10.6422
▁직원이	-10.6425
▁71	-10.6426
▁용	-10.6432
▁조사한	-10.6447
속도로	-10.6448
▁단체인	-10.6457
▁로스	-10.6458
▁공약	-10.6458
됐을	-10.6461
▁맨	-10.6462
▁물러나	-10.6468
으려	-10.6476
▁4000	-10.6476
ap	-10.6477
▁콜로라도	-10.6485
장인	-10.6487
▁대학에서	-10.6491
▁남편이	-10.6493
▁농장	-10.6493
잉	-10.6493
▁항의하	-10.6494
▁두번째	-10.6496
▁al	-10.6497
▁1992	-10.6497
▁끔찍	-10.6497
▁아테네	-10.6497
▁피라미드	-10.6497
▁중남미	-10.6497
▁자유무역협정	-10.6497
▁서식지	-10.6497
▁여섯	-10.6497
▁라파엘	-10.6497
▁mbc	-10.6497
▁뉴욕주	-10.6497
▁벽돌	-10.6498
▁show	-10.6498
▁화합	-10.6498
▁his	-10.6499
▁알렉스	-10.6502
▁플레이어	-10.6505
▁동료들	-10.6506
▁이틀간	-10.6507
▁접수	-10.6507
▁아마디	-10.6509
▁전국적으로	-10.6509
▁탄소	-10.6511
▁인형	-10.6513
칸	-10.6515
엄	-10.6515
됩니다	-10.6519
▁촉구하	-10.6519
▁없습니다	-10.652
1000	-10.6521
4000	-10.6521
▁국민의	-10.6525
▁세웠다	-10.6527
▁160	-10.6528
▁최대의	-10.653
▁심의	-10.6531
▁겸	-10.6531
ho	-10.6537
▁다음주	-10.6544
▁광장	-10.6546
▁미니	-10.6551
▁원인이	-10.6554
▁범	-10.6554
▁국가들이	-10.6557
시오	-10.6558
▁바라는	-10.656
▁유튜브	-10.656
▁득점	-10.656
물이	-10.6562
▁실시했다	-10.6563
▁참여할	-10.6563
▁화면	-10.6564
없는	-10.6567
군이	-10.6569
▁해상	-10.6571
기록	-10.6575
▁각자	-10.6582
▁승객들	-10.6587
▁노리	-10.6592
▁제출한	-10.6595
▁동물들	-10.66
▁플라	-10.6602
▁커지	-10.6603
▁화요일에	-10.6606
소를	-10.6609
▁크레	-10.6613
▁로브	-10.6624
▁몰고	-10.6627
▁포함됐다	-10.6628
▁제시했다	-10.6628
▁지휘관	-10.6633
ity	-10.6636
별	-10.6642
니까	-10.6644
▁사용하고	-10.6645
▁잃었	-10.6648
시대	-10.6654
▁프라이머리에서	-10.6654
▁이용한	-10.6668
검사	-10.6673
▁위원	-10.6673
▁x	-10.6674
▁82	-10.6675
▁악화되	-10.6678
▁완	-10.6679
육	-10.6684
▁저자	-10.6686
▁살해했다	-10.6688
▁7000	-10.67
욕	-10.6701
▁감지	-10.6702
▁있을지	-10.6703
▁마이	-10.6704
푸	-10.6707
▁아름다	-10.6709
▁관타나모	-10.671
▁에넹	-10.671
▁울포위츠	-10.671
▁히틀러	-10.671
▁징후	-10.671
▁불가리아	-10.671
▁막대한	-10.671
▁관람	-10.671
▁파나마	-10.6711
▁시라크	-10.6711
▁비틀즈	-10.6711
▁드러내	-10.6711
▁탄광	-10.6711
▁돌파	-10.6711
▁술집	-10.6712
▁디스크	-10.6713
▁통과시켰다	-10.6715
▁로저	-10.6716
▁형식	-10.6718
황	-10.6719
▁접전	-10.6719
▁국방성	-10.6721
▁준수	-10.6721
▁자동	-10.6721
▁st	-10.6722
▁실린	-10.6723
64	-10.6724
▁멀리	-10.6724
▁재직	-10.6725
폰	-10.6725
▁내려졌다	-10.6725
▁중요성	-10.6727
지역에	-10.6727
▁존경	-10.6729
sh	-10.673
▁얼마전	-10.6731
▁표면	-10.6732
겠습니다	-10.6735
▁곰	-10.6737
▁열렸다	-10.6738
▁후보자	-10.6738
▁좋아하는	-10.6739
▁군함	-10.6739
▁호소했다	-10.6744
▁포함하여	-10.6745
▁포장	-10.6756
▁내려진	-10.6757
▁처한	-10.6763
▁유발	-10.6767
▁있었습니다	-10.6775
▁방향으로	-10.6778
▁승인했다	-10.6782
네스	-10.6783
▁털	-10.6785
▁문제와	-10.6795
▁소식에	-10.6799
▁테러에	-10.6806
▁호소	-10.6809
▁전역에서	-10.6816
▁계기	-10.6826
▁입수	-10.6827
▁부족하다	-10.6828
▁북부에	-10.6828
팅	-10.683
ml	-10.683
▁미국으로	-10.683
▁건강이	-10.6837
▁기소된	-10.6839
▁여기에	-10.6844
▁베를린	-10.6849
▁맛	-10.6856
▁시인	-10.6858
▁출산	-10.6862
리그	-10.6867
▁기분	-10.6876
▁제공한	-10.688
장으로	-10.688
▁필요로	-10.6886
▁열고	-10.6891
업계	-10.6892
▁관여	-10.6899
다란	-10.69
사회	-10.6903
▁취했다	-10.6908
브라	-10.6909
▁정상들	-10.6913
▁르	-10.6915
▁당국에	-10.6918
괴	-10.6923
웅	-10.6923
▁계속된	-10.6923
▁소탕	-10.6924
▁쓰레기	-10.6926
▁루아얄	-10.6927
▁먹는	-10.6927
▁우주왕복선	-10.6927
▁지지선언	-10.6927
▁플라스틱	-10.6927
▁허커비	-10.6927
▁imf	-10.6927
▁포르노	-10.6927
▁본격적	-10.6927
▁민족	-10.6928
▁경향	-10.6928
▁외무성	-10.6929
▁1989	-10.6929
▁함유	-10.6929
▁영양	-10.6929
▁자선단체	-10.6929
▁금액	-10.6929
▁거짓	-10.693
▁정착	-10.693
▁점검	-10.693
▁실업률	-10.6932
베르토	-10.6932
▁벗어	-10.6932
▁서류	-10.6932
▁소행성	-10.6934
▁연계	-10.6935
▁고급	-10.6935
▁외곽	-10.6936
▁자신감	-10.6936
▁승부	-10.6938
▁범위	-10.6938
▁에릭	-10.6939
▁청구	-10.6941
▁물체	-10.6941
분께	-10.6943
▁연간	-10.6945
년만	-10.6946
겼다	-10.6947
▁사설	-10.6948
▁급증	-10.6949
균	-10.6954
▁노력이	-10.6955
▁신분	-10.6955
▁뿐이다	-10.6959
협상	-10.6962
▁직면	-10.6964
▁나토군	-10.6966
▁서서	-10.6966
700	-10.6968
학자	-10.6968
▁라이브	-10.6969
ll	-10.697
진다	-10.6972
▁도시인	-10.6973
▁피해자들	-10.6974
▁슬	-10.6982
▁갖는	-10.6994
▁nation	-10.7005
객	-10.7007
본부	-10.7008
▁손해	-10.701
▁설	-10.701
▁탑승객	-10.7014
총리	-10.7022
대회	-10.7028
전에서	-10.7028
버스	-10.7032
▁돌려	-10.7033
▁대법원장	-10.7038
▁독일인	-10.7038
가격	-10.7038
▁가족들과	-10.7043
▁게리	-10.7047
▁지불하	-10.7048
▁ra	-10.705
▁공격했다	-10.7055
▁추구하	-10.7056
▁조사할	-10.7061
▁본다	-10.7067
▁촉발	-10.7067
▁건강에	-10.707
▁바스라	-10.7076
▁흔	-10.7088
▁프	-10.7088
▁맡	-10.7095
▁대통령직	-10.7096
ard	-10.7098
이란	-10.7099
▁용의자로	-10.7111
ci	-10.7113
▁학생이	-10.7113
▁향상	-10.7113
국의	-10.7115
▁달간	-10.7117
갔	-10.712
리고	-10.7121
▁바위	-10.7121
▁건너	-10.7126
▁되찾	-10.7129
▁되었	-10.713
▁다루	-10.7139
닌	-10.7142
▁매춘	-10.7147
▁개막	-10.7148
랭	-10.7149
▁뉴올리언스	-10.7149
▁쇠고기	-10.7149
▁싶지	-10.7149
▁아닙니다	-10.7149
▁조승희	-10.7149
▁따뜻	-10.7149
▁스크린	-10.7149
▁벌써	-10.715
▁온실가스	-10.715
▁경기부양책	-10.715
▁부사장	-10.715
▁멈추	-10.715
▁center	-10.715
▁cdc	-10.715
▁탈락	-10.7151
▁연례	-10.7151
▁떠날	-10.7152
▁풍부	-10.7152
▁사이클	-10.7153
▁계산	-10.7153
▁오프라	-10.7154
▁핵개발	-10.7154
▁부분이	-10.7156
▁왕세자비	-10.7156
▁몸에	-10.7157
po	-10.7157
▁집권당	-10.7158
▁열심	-10.7158
▁미첼	-10.7159
▁대대적	-10.7159
▁기증	-10.7159
▁테러단체	-10.716
▁싱	-10.7161
▁야구	-10.7161
▁통보	-10.7164
▁개편	-10.7164
▁보건부	-10.7165
▁내일	-10.7168
위원	-10.717
▁거부하	-10.717
▁참석하지	-10.7173
▁사체	-10.7176
끼	-10.7176
기자	-10.7177
▁벌어졌다	-10.718
쓰	-10.7181
투표	-10.7182
강전에서	-10.7184
킬로미터	-10.7184
▁불이	-10.719
▁점거	-10.7194
▁여부에	-10.7196
▁재미있	-10.7201
▁기상청	-10.7206
로우	-10.7206
▁되며	-10.7206
▁반대로	-10.7207
▁모자	-10.7207
장의	-10.721
▁척	-10.7219
▁해소	-10.722
▁모르는	-10.7222
▁고장	-10.7233
▁대전	-10.7235
▁77	-10.7237
▁무시	-10.724
▁정보부	-10.7243
▁약세	-10.7244
▁걸리	-10.7246
▁착수	-10.7246
화된	-10.725
▁이어지	-10.7256
▁퇴임	-10.7256
19	-10.7257
▁유전	-10.7258
▁포함된	-10.7262
▁not	-10.7262
▁증상	-10.7266
▁경사	-10.7269
국으로	-10.7274
▁복	-10.7276
스런	-10.7279
▁보도에	-10.7282
da	-10.7283
▁타임	-10.7284
▁당국자들	-10.7291
▁테리	-10.7292
▁사진이	-10.7293
어서	-10.7299
▁법안에	-10.7301
▁입지	-10.7306
해달라	-10.7313
렉	-10.7313
▁대학생	-10.7316
▁강세	-10.7316
▁5000	-10.7316
▁바르	-10.7319
▁주에	-10.7319
▁약화	-10.7322
▁반지	-10.7325
▁묵	-10.7325
럴	-10.7326
▁거주하	-10.7334
▁언론과	-10.7341
▁하자	-10.7344
디아	-10.7349
▁남부에	-10.7349
▁직접적	-10.7354
▁불어	-10.7355
▁뉴햄프셔	-10.7356
▁들어간	-10.7358
쪽	-10.7359
▁소매	-10.7363
▁도달	-10.7365
▁브라이언	-10.7371
▁출입	-10.7374
▁85	-10.7374
▁에베레스트	-10.7374
▁opec	-10.7377
▁경기침체	-10.7377
▁고이즈미	-10.7377
▁그렇다	-10.7377
▁두려움	-10.7377
▁디자이너	-10.7377
▁로드리게스	-10.7377
▁옮기	-10.7377
▁톰슨	-10.7377
▁평화유지군	-10.7377
▁대서양	-10.7377
톨	-10.7377
▁무너지	-10.7377
▁윈도우	-10.7377
▁party	-10.7377
▁아마디네자드	-10.7377
▁글로벌	-10.7377
▁인터폴	-10.7377
▁빅토리아	-10.7377
▁야생동물	-10.7377
▁농업	-10.7377
▁의약품	-10.7377
▁저항세력	-10.7377
▁우간다	-10.7378
▁우울증	-10.7378
▁다룬	-10.7379
▁타밀	-10.738
▁고유가	-10.738
▁들어갈	-10.738
사와	-10.738
▁예약	-10.7381
▁이루어진	-10.7381
▁관측	-10.7382
▁완성	-10.7382
▁밀려	-10.7383
▁지역사회	-10.7383
▁준비하고	-10.7383
▁상담	-10.7384
▁파리에서	-10.7384
▁농민들	-10.7384
▁포터	-10.7388
▁무슨	-10.7388
▁발발	-10.739
▁파키스탄군	-10.7395
▁서안	-10.7401
▁빠졌다	-10.7402
▁신화	-10.7403
▁남측	-10.7403
▁남용	-10.7405
▁경쟁력	-10.7407
몰	-10.7408
빙	-10.7411
짓	-10.7415
팔	-10.7416
▁촉진	-10.7416
값	-10.7416
▁나타내는	-10.7417
▁미래에	-10.7419
▁챔피언십	-10.7419
▁반전	-10.7421
▁보인	-10.7422
▁행위에	-10.7423
▁결승전에서	-10.7424
▁문구	-10.7426
▁사용자들	-10.743
▁코치	-10.7431
▁학교에서	-10.7438
▁러드	-10.744
공사	-10.7442
▁고려하고	-10.7443
mp	-10.7443
▁해적들	-10.7446
▁나선	-10.7447
▁턱	-10.7455
▁너무나	-10.7456
▁완료	-10.7458
mm	-10.7466
상의	-10.7478
▁me	-10.7479
▁총장	-10.748
▁시인했다	-10.7482
▁연구에서	-10.7483
▁제작사	-10.7485
않게	-10.7486
▁정기적	-10.7486
▁스캔들	-10.7492
▁se	-10.7504
▁공무원	-10.7505
▁참가자들	-10.752
▁지위	-10.7527
▁인권단체	-10.7537
되자	-10.755
▁정리	-10.7551
혔	-10.7552
▁명백	-10.7558
▁맞고	-10.7559
▁파키스탄에서	-10.7572
▁살았	-10.7573
▁발휘	-10.7576
▁경매에	-10.7582
확실한	-10.7586
▁상영	-10.7587
▁착수했다	-10.7588
▁반복	-10.7598
▁클	-10.7599
▁새롭	-10.7602
▁요원들	-10.7608
데이	-10.7609
▁나눴다	-10.7609
▁노트북	-10.7609
▁베네딕	-10.7609
▁브래드	-10.7609
▁성추행	-10.7609
▁압바스	-10.7609
▁이브라힘	-10.7609
▁자르다리	-10.7609
▁찾지	-10.7609
▁토크쇼	-10.7609
▁펼친	-10.7609
▁확률	-10.7609
▁도요타	-10.7609
▁삭감	-10.7609
▁남아프리카	-10.7609
▁에드워드	-10.761
▁터널	-10.761
▁헌법재판소	-10.761
▁조절	-10.761
▁품목	-10.761
▁체포됐	-10.761
▁긴밀	-10.761
▁남학생	-10.761
▁가짜	-10.7611
▁외환	-10.7611
▁물고기	-10.7611
▁추격	-10.7612
▁체류	-10.7612
▁붙여	-10.7613
▁매매	-10.7614
▁채취	-10.7615
▁구름	-10.7615
▁american	-10.7615
▁단행	-10.7615
▁포스트	-10.7617
▁유통	-10.7618
▁받아왔다	-10.7618
▁발급	-10.762
▁배제	-10.7621
▁선임	-10.7621
▁양쪽	-10.7622
▁경로	-10.7622
▁군이	-10.7623
▁말이	-10.7623
▁희망한다	-10.7623
▁정계	-10.7624
▁인터	-10.7627
▁많아	-10.7627
▁당부했다	-10.7628
▁졸업	-10.7628
▁저질렀다	-10.7633
▁사라졌다	-10.7635
▁차질	-10.7636
▁회장이	-10.7637
▁주연	-10.7641
셀	-10.7642
▁등에	-10.7644
▁선수로	-10.7645
▁74	-10.7651
짐	-10.7652
▁도살	-10.7652
▁아프	-10.7653
규모	-10.7655
▁조항	-10.7657
▁승	-10.7658
▁화가	-10.7659
▁go	-10.7659
▁확산되고	-10.7659
▁게릴라	-10.766
▁탈레반이	-10.7664
▁제공했다	-10.7669
am	-10.7669
▁작업이	-10.7669
▁벌여	-10.7671
▁착용	-10.7672
▁상세	-10.7673
▁기본적	-10.7675
▁개인적으로	-10.7678
▁일어나는	-10.768
세계	-10.7681
▁센	-10.7681
▁합의에	-10.7683
▁지식	-10.7691
▁진지	-10.77
▁적발	-10.7704
▁법정에서	-10.7709
▁성공한	-10.7715
▁결정적인	-10.7716
▁의상	-10.7718
▁넘기	-10.7719
▁운동가들	-10.7723
▁공룡	-10.7724
▁보조	-10.7725
▁소비자들	-10.7727
▁풀어	-10.7728
fi	-10.773
▁등장	-10.7731
▁멤버	-10.7734
▁장관과	-10.774
▁힘들다	-10.7742
▁위험성	-10.7743
▁명성	-10.7749
▁출연했다	-10.7751
▁달한다	-10.7759
▁가방	-10.7761
▁브로	-10.7762
▁은행에	-10.7762
ke	-10.7763
▁궤도	-10.7763
▁어렵	-10.7765
▁논	-10.7766
▁뿐이라	-10.7771
▁패스	-10.7784
▁몰려	-10.7787
▁뉴욕시	-10.7788
겼	-10.7789
▁신도들	-10.779
▁부지	-10.7794
om	-10.7802
▁진전이	-10.7802
스티	-10.7806
▁출생	-10.7807
ld	-10.7808
▁동성애	-10.7809
혼	-10.7818
to	-10.7819
시위	-10.7829
▁묻는	-10.7834
러스	-10.7838
▁블루	-10.7838
▁날아	-10.7841
둘	-10.7844
라드	-10.7845
했었	-10.7846
콤	-10.7847
▁높게	-10.7847
▁느낌	-10.7847
▁망원경	-10.7847
▁메드베데프	-10.7847
▁서브프라임	-10.7847
▁시나리오	-10.7847
▁아웅산수치	-10.7847
▁유죄판결	-10.7847
▁최첨단	-10.7847
▁허드슨	-10.7847
▁빼앗	-10.7847
▁적합한	-10.7847
▁해수면	-10.7847
▁금융위기	-10.7848
▁맥캔	-10.7848
▁교섭	-10.7848
▁이자율	-10.7848
▁포셋	-10.7848
▁활발	-10.7848
▁남자아이	-10.7848
▁카를로스	-10.785
▁실현	-10.7851
▁하원의장	-10.7851
연패	-10.7852
▁비서실장	-10.7855
▁증	-10.7856
▁구류	-10.7856
▁고위급	-10.7857
▁출구조사	-10.7859
▁상금	-10.7859
▁소동	-10.786
▁부품	-10.786
▁해저	-10.7861
▁정기	-10.7864
▁군사력	-10.7867
12	-10.7868
▁경비대	-10.7869
▁베리	-10.7869
▁우즈	-10.787
▁해체	-10.7872
▁my	-10.7874
▁건물에	-10.7874
▁루니	-10.7876
▁도디	-10.7877
▁맡았다	-10.7877
▁상업	-10.788
▁임대	-10.788
▁선거법	-10.7883
▁하에	-10.7885
▁방송에	-10.7886
▁가난한	-10.7887
▁내정	-10.7888
폐	-10.7892
▁남아있다	-10.7894
콜	-10.7899
▁향한	-10.7899
폴	-10.7901
감독	-10.7905
▁사실에	-10.7906
▁도구	-10.7908
▁웨인	-10.7908
63	-10.7912
▁관객	-10.7914
버렸다	-10.7915
▁상당수	-10.7923
▁정치인들	-10.7924
▁국가에	-10.7926
리안	-10.7929
▁행동에	-10.7931
▁도착할	-10.7932
▁막아	-10.7935
▁so	-10.7949
▁기아	-10.7951
▁하이	-10.7951
▁딘	-10.7953
▁당해	-10.7956
▁중이	-10.7967
과정	-10.7972
▁결심	-10.7975
▁곳곳	-10.7976
▁압수	-10.7981
관련	-10.7981
결과	-10.7982
▁자라	-10.7983
▁분야에서	-10.7986
에르	-10.7986
▁이후에	-10.7986
련	-10.7987
▁인터넷에	-10.7996
▁석방됐다	-10.7996
▁목격했다	-10.8003
▁칭	-10.8006
▁크다	-10.801
ac	-10.8012
▁바뀌	-10.8016
어스	-10.8019
▁업체들	-10.802
▁81	-10.802
▁관객들	-10.8025
▁주최	-10.8026
▁의심되	-10.8028
▁윈	-10.803
▁활동에	-10.803
▁검문소	-10.8036
소리	-10.8036
▁매케인이	-10.8041
▁남아있는	-10.8042
▁수면	-10.8043
식이	-10.8044
▁기각	-10.8056
▁영국과	-10.8062
▁받아들여	-10.8063
났다	-10.8065
▁사과했다	-10.8066
▁소년이	-10.8067
▁성당	-10.807
▁모른다고	-10.8077
▁의견이	-10.8077
▁사용된	-10.8077
▁99	-10.8077
▁발견됐	-10.8078
▁다르	-10.8085
▁햄	-10.8085
▁후보들	-10.8088
▁일원	-10.8089
▁ibm	-10.8091
▁minister	-10.8091
▁똑같	-10.8091
▁먹고	-10.8091
▁선거관리위원회	-10.8091
▁심장마비	-10.8091
▁아라비아	-10.8091
▁앞섰다	-10.8091
▁최우선	-10.8091
▁무승부	-10.8091
▁수류탄	-10.8091
▁주유소	-10.8091
▁원문기사	-10.8091
▁윈프리	-10.8091
▁최루탄	-10.8091
▁국립공원	-10.8092
▁china	-10.8092
▁권총	-10.8092
▁1987	-10.8092
▁교외	-10.8093
▁mdc	-10.8093
▁돌아갈	-10.8093
▁무덤	-10.8093
▁중앙은행	-10.8093
▁앨런	-10.8093
▁연구결과	-10.8094
▁서식하	-10.8095
▁종교적	-10.8096
▁복원	-10.8096
▁데리고	-10.8096
▁연출	-10.8096
▁남성들	-10.8097
널리	-10.8097
▁are	-10.8099
▁심판	-10.8101
▁휴대	-10.8103
▁유인	-10.8103
▁수색작업	-10.8104
▁총통	-10.8105
▁피난	-10.8108
회담	-10.811
▁간주	-10.811
치고	-10.8112
▁한국은행	-10.8112
▁위하여	-10.8117
▁미성년자	-10.812
▁여러번	-10.8121
▁꽃	-10.8122
기술	-10.8124
▁않았습니다	-10.8124
▁맡았	-10.8132
▁셰	-10.8132
▁국회에서	-10.8137
▁공개하지	-10.8138
▁선고했다	-10.8141
me	-10.8141
접	-10.8143
▁드레스	-10.8144
▁목록	-10.8144
홀	-10.8149
벤	-10.8151
행사	-10.8152
▁q	-10.8153
2000	-10.8154
300	-10.8155
▁입법	-10.8156
▁위원장이	-10.8157
▁점수	-10.8162
▁공격한	-10.8168
▁has	-10.8169
윈	-10.8169
▁78	-10.817
▁사면	-10.8171
▁메리	-10.8171
▁피하기	-10.8174
▁거부한	-10.8177
▁부검	-10.8185
▁떠난	-10.8189
▁거리에서	-10.819
▁기분이	-10.82
▁이슈	-10.8202
▁지구에	-10.8204
▁판매량	-10.8208
▁열었다	-10.821
▁의존	-10.8213
나무	-10.8217
▁제시한	-10.8217
데스	-10.822
국장	-10.8224
▁신장	-10.8224
▁ro	-10.8228
▁의원들이	-10.8231
▁방문해	-10.8232
▁리버	-10.8235
▁대로	-10.8238
▁수행할	-10.8238
▁인정하지	-10.8246
▁테러리스트들	-10.825
▁파월	-10.8254
▁때문이라	-10.8258
▁강진이	-10.8258
▁떨어졌	-10.8258
▁출신으로	-10.8259
년전	-10.8259
▁cd	-10.826
ice	-10.8264
▁의제	-10.8269
▁폴리	-10.827
▁고안	-10.8273
▁가리	-10.8276
▁두려워	-10.8279
▁암시	-10.828
▁행동이	-10.8281
▁군과	-10.8289
▁조언	-10.8292
▁동영상에서	-10.8298
▁맞이	-10.8298
▁서쪽	-10.8299
▁시사	-10.8324
▁제작자	-10.8324
▁판다	-10.8327
▁네바다	-10.8331
넨	-10.8336
▁담고	-10.8337
▁상관	-10.8339
훈	-10.834
▁국가비상사태	-10.834
▁데이비스	-10.8341
▁무렵	-10.8341
▁믿을	-10.8341
▁스탈린	-10.8341
▁유람선	-10.8341
▁하이브리드	-10.8341
▁호나우두	-10.8341
▁맨해튼	-10.8341
▁플루토늄	-10.8341
▁깨끗	-10.8341
▁좌석	-10.8341
▁언덕	-10.8341
▁행렬	-10.8341
▁요즘	-10.8342
▁시티그룹	-10.8342
▁aig	-10.8342
▁bda	-10.8342
▁국민투표	-10.8343
▁급습	-10.8343
▁동참	-10.8343
▁증강	-10.8343
▁이뤄질	-10.8343
▁유괴	-10.8343
▁존스턴	-10.8344
▁갈등	-10.8345
▁가끔	-10.8346
▁환율	-10.8346
▁불안정	-10.8346
▁모집	-10.8348
▁di	-10.8348
▁위생	-10.8348
▁통행	-10.8349
▁줄이기	-10.835
▁개체수	-10.8352
▁뛰	-10.8353
▁일하고	-10.8354
▁윌슨	-10.8355
▁출장	-10.8355
▁서브	-10.8356
▁상병	-10.8357
▁수컷	-10.8359
▁전형적	-10.836
▁지나가	-10.836
▁간에	-10.836
▁골드	-10.8361
▁코스	-10.8362
▁일대	-10.8364
▁도난	-10.8364
▁연행	-10.837
▁카리	-10.8371
▁안내	-10.8371
▁대우	-10.8378
▁공정한	-10.838
▁화장	-10.8382
▁젊은이들	-10.8383
파운드	-10.8385
▁옹호	-10.8385
됐는지	-10.8385
▁우세	-10.8393
▁산하	-10.8394
▁얻게	-10.8394
▁매력	-10.8395
▁불가능하다	-10.8395
닉	-10.8396
ial	-10.8397
▁매수	-10.8397
▁권고했다	-10.84
▁축	-10.8401
롱	-10.8401
동맹	-10.8403
않	-10.8404
덕	-10.8404
서비스	-10.8409
▁사라지	-10.841
▁섭취	-10.8413
▁중심지	-10.842
수술	-10.8422
▁영화에서	-10.8427
▁김치	-10.8429
▁종이	-10.8429
사업	-10.8431
의원	-10.8431
▁취하고	-10.8434
▁생각해	-10.8436
▁휴일	-10.8441
▁분석했다	-10.8441
호가	-10.8445
▁발견되지	-10.8445
▁지역인	-10.8448
카르	-10.8452
▁공주	-10.8453
▁러	-10.8454
▁사안	-10.8454
라면	-10.8458
교육	-10.8458
▁유해	-10.8459
▁이라크내	-10.8462
▁민주당이	-10.8463
▁홍	-10.8467
▁병력이	-10.8472
구가	-10.8473
▁초에	-10.8474
▁이적	-10.8477
▁광부	-10.848
▁남성의	-10.8481
ha	-10.8484
용으로	-10.8486
▁이름으로	-10.8489
▁전사	-10.849
▁준다	-10.849
▁별도	-10.8491
▁아는	-10.8493
▁참가한	-10.8502
버리	-10.8508
자리	-10.851
▁하락했	-10.8511
▁갔	-10.8513
어질	-10.8522
▁사무	-10.8529
▁모두에게	-10.8531
▁고조되	-10.8532
▁재정적	-10.8533
▁방콕	-10.8535
▁미라	-10.8545
800	-10.8546
업자들	-10.8546
▁이씨	-10.855
▁예정이었	-10.8551
스케	-10.8552
▁수여	-10.8564
노조	-10.8567
▁열리	-10.8572
▁후임	-10.8577
▁실패한	-10.8584
▁y	-10.8585
▁모아	-10.8585
라데	-10.8585
75	-10.8586
▁용납	-10.859
▁금리를	-10.8592
흘	-10.8594
렐	-10.8594
룰	-10.8595
▁발표했	-10.8597
▁fifa	-10.8598
▁가즈프롬	-10.8598
▁내무장관	-10.8598
▁마이스페이스	-10.8598
▁믿는다	-10.8598
▁음주운전	-10.8598
▁인명피해	-10.8598
▁저렴	-10.8598
▁창기라이	-10.8598
▁활성화	-10.8598
▁후지모리	-10.8598
▁라호르	-10.8598
▁코카인	-10.8598
▁켈리	-10.8598
▁가져올	-10.8598
▁알제리	-10.8598
▁아스날	-10.8598
▁바꿀	-10.8598
▁부활	-10.8598
▁왜곡	-10.8599
▁보조금	-10.8599
▁1986	-10.8599
학과	-10.86
▁송금	-10.86
▁단독	-10.86
▁독감	-10.86
▁굿	-10.86
▁클라크	-10.8601
▁창설	-10.8601
▁치매	-10.8601
▁단장	-10.8602
▁발령	-10.8602
▁매입	-10.8603
▁로켓포	-10.8603
▁재배치	-10.8603
▁연임	-10.8606
▁제치	-10.8608
▁피랍된	-10.861
▁여파	-10.8611
▁구조작업	-10.8612
▁도청	-10.8612
▁합의문	-10.8613
▁던진	-10.8613
▁부속	-10.8613
▁지원금	-10.8615
▁미리	-10.8618
▁낮아	-10.8619
대사	-10.862
▁걸렸다	-10.8621
분경	-10.8622
▁재활용	-10.8622
▁스파이	-10.8623
▁양보	-10.8623
안보	-10.8624
▁해석	-10.8625
▁던졌다	-10.8625
▁체포되었다	-10.8626
▁눈물	-10.8627
▁클린턴과	-10.8628
▁돌아왔다	-10.8629
▁않습니다	-10.8629
▁이득	-10.863
연승	-10.8632
▁퀸	-10.8635
▁아미	-10.8638
이라면	-10.8638
▁조선	-10.864
▁공개한	-10.8643
▁안으로	-10.8643
▁진행될	-10.8644
▁출전하지	-10.8644
▁대리인	-10.8648
▁불과하다	-10.8651
▁발매	-10.8654
▁경주	-10.8656
▁업적	-10.8657
▁돌아와	-10.8661
납	-10.8665
8000	-10.8669
▁상상	-10.8671
▁전용	-10.8674
조약	-10.868
▁것이기	-10.868
▁나치	-10.869
▁북부에서	-10.869
▁시작됐	-10.8695
▁양자	-10.8696
▁인공	-10.8698
▁본드	-10.871
▁수감된	-10.8711
구역	-10.8711
▁느	-10.8716
대와	-10.8719
▁유기	-10.872
▁교도소에서	-10.8721
▁그랜드	-10.8721
▁틀	-10.8722
▁프랑스에서	-10.8723
▁찾아내	-10.8726
ty	-10.8731
▁준장	-10.8732
▁세운	-10.8734
▁판결이	-10.8739
▁가르	-10.874
▁궁	-10.8747
▁확인되	-10.8747
▁차지하는	-10.8748
▁출신인	-10.8749
▁현상이	-10.8752
▁상자	-10.8759
tv	-10.8761
▁원장	-10.8768
▁79	-10.8777
▁사살했다	-10.8785
▁과격	-10.8787
▁변호	-10.8789
▁지방에서	-10.879
▁이슬라마바드	-10.879
▁이들에게	-10.881
▁ai	-10.8814
▁베어	-10.8814
▁달러가	-10.883
▁방송에서	-10.8831
국은	-10.8832
▁남겨	-10.8833
▁아프간에	-10.8833
▁전체가	-10.8836
▁에티오피아	-10.884
담당	-10.8841
▁석방된	-10.8848
▁뉴저지	-10.885
핑	-10.8851
학생	-10.8853
병원	-10.8854
냥	-10.8857
▁석	-10.8858
둥	-10.8858
▁아기들	-10.886
넌	-10.8861
▁갤런	-10.8861
▁디트로이트	-10.8861
▁바티칸	-10.8861
▁스타벅스	-10.8861
껏	-10.8861
▁하버드	-10.8861
▁자전거	-10.8861
▁섹시	-10.8861
▁라모스	-10.8861
▁피츠버그	-10.8861
▁남아프리카공화국	-10.8861
▁부양책	-10.8861
▁미셸	-10.8861
▁돌아올	-10.8861
▁머레이	-10.8862
▁산맥	-10.8863
▁설정	-10.8863
▁회계	-10.8864
▁추모	-10.8865
▁마찰	-10.8866
▁밀러	-10.8868
▁파커	-10.8869
▁시민권	-10.8869
▁진행중	-10.887
▁보증	-10.8871
▁던져	-10.8874
▁재배	-10.8875
▁사이버	-10.8875
시에서	-10.8876
점이	-10.8876
▁고조	-10.8879
▁혼자	-10.888
▁사회당	-10.8882
▁약탈	-10.8883
▁선택했다	-10.8886
▁사라진	-10.8887
▁납치한	-10.8888
▁찾았다	-10.8889
▁호텔에	-10.8889
▁넣었다	-10.8889
100	-10.8894
▁투표율	-10.8896
▁주장했	-10.8897
▁변화에	-10.8897
안토니오	-10.8899
▁업무를	-10.8899
▁파편	-10.89
▁칼리	-10.89
▁전파	-10.8901
▁유물	-10.8903
▁해안에	-10.8905
▁일단	-10.8909
▁강간	-10.8915
▁재고	-10.8917
▁결정이	-10.8918
▁평화상	-10.8919
▁기원	-10.892
주가	-10.8922
느	-10.8923
뉴	-10.8924
▁열기	-10.8924
궁	-10.8926
▁명백한	-10.8926
▁테러범들	-10.8926
▁전시회	-10.8928
▁방법에	-10.8931
논	-10.8935
스테	-10.8937
콘	-10.8938
훈련	-10.8942
▁개성	-10.8944
▁주권	-10.8948
신문	-10.8949
▁휘	-10.895
▁빌리	-10.8954
▁86	-10.8954
▁확인하기	-10.8954
▁출	-10.8955
▁이스라엘에	-10.8957
▁당했	-10.8957
분야	-10.8962
포트	-10.8963
▁탈레반측	-10.8963
럽	-10.8965
스크	-10.8965
▁봉	-10.8966
▁맞은	-10.8972
▁롤	-10.8972
▁계속할	-10.8975
▁정부군과	-10.8975
▁수사에	-10.898
쟁	-10.8986
내용	-10.899
▁바지	-10.8993
시장에서	-10.8993
▁파크	-10.8996
▁보유한	-10.9003
▁치를	-10.901
▁그들에게	-10.901
▁전쟁이	-10.9021
▁모리	-10.9027
▁출두	-10.9028
▁회사에	-10.904
▁유지할	-10.9041
▁상사	-10.9042
▁서한	-10.9045
더스	-10.9055
편의	-10.9056
▁au	-10.906
키로	-10.9061
▁연대	-10.907
버트	-10.9072
▁만났	-10.9077
률이	-10.9081
유로	-10.9093
▁간부	-10.9095
▁중상	-10.9099
▁응답	-10.9105
달러로	-10.9107
▁소비자들이	-10.9107
▁가즈니	-10.9108
▁대원들	-10.911
▁토대	-10.911
년형	-10.9111
야드	-10.9112
▁위치해	-10.9117
▁한달	-10.9121
▁은행들	-10.9123
▁밴	-10.9124
▁900	-10.9126
▁잇따	-10.9127
▁오스카	-10.9128
▁금메달	-10.9131
▁associat	-10.9131
▁foreign	-10.9131
▁그린피스	-10.9131
▁럼스펠드	-10.9131
▁박격포	-10.9131
▁브루니	-10.9131
▁최고경영자	-10.9131
▁러닝메이트	-10.9131
▁애완동물	-10.9131
▁북극곰	-10.9131
▁흘러	-10.9131
▁카지노	-10.9131
▁돌아다니	-10.9131
▁좌파	-10.9131
▁넬슨	-10.9131
▁교착	-10.9131
▁브레이크	-10.9131
▁아빠	-10.9132
▁intern	-10.9132
▁포획	-10.9132
▁동굴	-10.9132
▁오늘밤	-10.9132
▁워렌	-10.9133
▁절약	-10.9133
▁결합	-10.9133
▁장벽	-10.9133
▁설계	-10.9133
▁텐트	-10.9134
▁국가인	-10.9134
▁호주에서	-10.9134
▁퇴진	-10.9134
▁lg	-10.9135
▁위축	-10.9135
▁외쳤다	-10.9135
▁배심원단	-10.9135
▁진료	-10.9135
▁생명체	-10.9135
▁승점	-10.9136
▁금속	-10.9136
▁교내	-10.9136
▁실무	-10.9137
▁연방정부	-10.9138
▁포경선	-10.9139
▁보수당	-10.9139
▁분야에	-10.9139
▁부결	-10.9139
▁유골	-10.9139
▁휴식	-10.914
▁예선	-10.9141
▁네바다주	-10.9143
지원	-10.9143
▁느낀다	-10.9144
▁배포	-10.9144
▁부처	-10.9144
▁반등	-10.9146
▁단식	-10.9147
▁시골	-10.915
▁아민	-10.9153
▁남미	-10.9153
▁화제	-10.9155
▁풍	-10.9155
▁무산	-10.9156
▁구단	-10.9156
▁소화	-10.916
▁침대	-10.9165
▁받아들이지	-10.9167
▁맞았다	-10.917
400	-10.9172
▁버지니아주	-10.9173
▁170	-10.9174
▁오바마에	-10.9174
▁남쪽으로	-10.9176
▁중점	-10.9176
▁민간인들	-10.9177
▁자치	-10.9178
▁대안	-10.918
▁대비해	-10.918
▁인도분	-10.9183
▁외상	-10.9191
▁덜	-10.9192
▁하비	-10.9194
때까지	-10.9195
▁얻었	-10.9198
▁거래됐다	-10.9202
칭	-10.9206
멜	-10.9211
▁언급한	-10.9213
칼	-10.9217
▁내지	-10.9218
▁그곳에서	-10.9218
연구	-10.9221
▁약속한	-10.9224
▁내리는	-10.9226
▁발견했	-10.9229
▁학생들에게	-10.9245
▁v	-10.9248
▁입수한	-10.9253
▁te	-10.9257
▁원주민	-10.9258
▁ge	-10.9259
▁신원이	-10.926
부를	-10.9261
▁표시했다	-10.9262
▁군중들	-10.9263
▁차지한	-10.9264
▁걸려	-10.9265
▁83	-10.9267
▁재해	-10.9267
▁표준	-10.9271
▁남쪽	-10.9273
▁배심원	-10.9276
▁폭력사태로	-10.9278
▁의자	-10.9279
사고	-10.928
▁충	-10.9282
▁이른	-10.9283
13	-10.9284
▁조국	-10.9286
▁경비원	-10.929
▁수락	-10.9291
▁명단에	-10.9294
▁폭로	-10.9296
▁위협에	-10.9299
소한	-10.9301
되었는데	-10.9304
▁군중	-10.9304
▁장교	-10.9307
▁상원에서	-10.9311
자르	-10.9321
▁변호인	-10.9321
▁리오	-10.9335
▁취소했다	-10.9336
▁인정받	-10.9338
사이트	-10.9346
▁전쟁에서	-10.9346
룬	-10.9351
▁벌어지	-10.9352
인데	-10.936
▁웨이	-10.936
▁당황	-10.9363
84	-10.9366
조사에따르면	-10.9366
▁밝히기	-10.9367
▁일어나지	-10.9368
▁압	-10.937
▁아시아에서	-10.9371
▁민주적	-10.9379
▁소유한	-10.9379
▁부위	-10.9382
▁구호단체	-10.9388
▁병사들이	-10.9388
▁느끼는	-10.9391
▁연구가	-10.9396
탁	-10.9399
▁농민	-10.9402
▁am	-10.9404
▁휩쓸	-10.9407
▁듣지	-10.9409
▁슬픔	-10.9409
▁억만장자	-10.9409
▁원자바오	-10.9409
▁크로아티아	-10.9409
▁호날두	-10.9409
▁크레이그	-10.9409
▁감바	-10.9409
▁고등법원	-10.9409
▁바바라	-10.9409
▁휴스턴	-10.9409
▁처방	-10.9409
▁면접	-10.9409
▁놀랄	-10.941
▁밝혀냈다	-10.941
▁대선주자	-10.941
▁요르단강	-10.9411
▁근무하	-10.9411
▁도핑	-10.9412
▁반체제	-10.9412
▁돌아온	-10.9412
▁구호품	-10.9412
▁계속하고	-10.9413
▁정밀	-10.9413
▁03	-10.9413
무라	-10.9414
▁중단됐다	-10.9414
▁경찰청	-10.9415
▁다행히	-10.9415
▁창조	-10.9415
▁참배	-10.9417
▁04	-10.9418
▁입력	-10.9419
▁방문에	-10.9419
▁기념식	-10.942
▁들었	-10.9421
▁김씨	-10.9427
▁시카고에서	-10.9428
▁헐	-10.9428
▁제보	-10.9429
▁조씨	-10.9431
▁출연해	-10.9432
▁첫날	-10.9432
▁소유주	-10.9438
▁탈레반과	-10.9439
▁lo	-10.9439
코프	-10.9441
44	-10.9441
▁이르기	-10.9443
▁장기적	-10.9446
인치	-10.9449
▁먼지	-10.9453
▁당일	-10.9455
냈	-10.9455
▁장성	-10.9459
▁카르	-10.9469
▁지지자들에게	-10.947
▁근처에	-10.9471
▁낙	-10.9471
▁캔	-10.9472
▁이어졌다	-10.9474
▁가족들에게	-10.9475
▁알라	-10.9478
▁절도	-10.9488
▁과정에	-10.9497
▁day	-10.9498
캐	-10.9505
3000	-10.9505
▁중반	-10.9507
▁이라크인	-10.9511
▁조직원	-10.9512
▁써	-10.9514
타운	-10.9515
▁국경지역	-10.9518
▁강타한	-10.9523
▁클린턴에	-10.9523
▁총리직	-10.9524
타임	-10.9531
▁부상자들	-10.9536
▁우승자	-10.9536
▁집회에	-10.9538
▁멜	-10.9546
▁바닥에	-10.9546
▁선박이	-10.9547
▁전하고	-10.9552
▁차지했	-10.9554
▁기울	-10.9559
▁성명서	-10.9565
▁thi	-10.9567
▁입어	-10.9567
▁탐험	-10.9569
15	-10.9571
▁ha	-10.9571
pp	-10.9576
▁들어와	-10.958
장비	-10.9593
▁피랍	-10.9593
텐	-10.9598
▁조치로	-10.9602
▁부리	-10.9603
▁형태로	-10.961
▁목적이	-10.9611
연대	-10.9614
▁방문했	-10.9617
▁장소에서	-10.9619
룸	-10.9625
▁안나	-10.9627
▁자카르타	-10.9629
시티	-10.963
하겠	-10.9631
바르	-10.9636
▁주말에	-10.9642
▁회원들	-10.9643
벨트	-10.9653
▁쳐	-10.9653
▁러시아와	-10.9671
마르	-10.9671
▁주소	-10.9676
▁위장	-10.9677
▁벗	-10.9684
▁물어	-10.9687
▁음료	-10.9688
▁개발한	-10.9689
▁선원들	-10.969
▁알려	-10.969
▁괴한	-10.9691
▁피고인	-10.9691
덤	-10.9693
▁ex	-10.9693
▁티벳	-10.9693
▁알바니아	-10.9693
▁남성과	-10.9695
▁apec	-10.9695
▁기준금리	-10.9695
▁버냉키	-10.9695
▁산타클로스	-10.9695
▁엘리베이터	-10.9695
▁텔레비전	-10.9695
닛	-10.9695
▁국제우주정거장	-10.9695
▁규칙	-10.9695
▁식민지	-10.9695
▁애틀랜타	-10.9695
▁침묵	-10.9695
▁칸다하르	-10.9695
▁바하마	-10.9695
▁스튜디오	-10.9695
▁대한민국	-10.9695
▁국무총리	-10.9695
▁마사지	-10.9695
▁히드로	-10.9695
▁스콧	-10.9695
▁over	-10.9695
▁자발적	-10.9696
▁논문	-10.9696
▁군사작전	-10.9697
▁절감	-10.9698
▁처형	-10.9698
▁소총	-10.9699
▁마침	-10.9699
▁새겨	-10.9699
▁대테러	-10.9699
▁금융시장	-10.97
▁대폭	-10.97
▁반환	-10.9701
▁대기업	-10.9701
▁냉	-10.9701
▁시청자들	-10.9702
▁추천	-10.9703
▁처분	-10.9703
▁펄	-10.9703
▁매출	-10.9704
▁나와즈	-10.9706
▁다가오	-10.9706
▁가택	-10.9708
▁코피	-10.971
▁개설	-10.971
▁its	-10.9711
▁이민자들	-10.9711
▁지나치	-10.9711
▁밀어	-10.9714
▁주주들	-10.9715
▁모으	-10.9716
기때문에	-10.9717
▁난민들	-10.9718
▁끝났다	-10.9718
▁편집	-10.9718
▁거친	-10.9719
▁통해서	-10.9719
▁여아	-10.9719
어요	-10.972
▁외국인들	-10.9721
▁폴슨	-10.9722
받은	-10.9724
사이	-10.9725
▁라울	-10.9726
▁유명하다	-10.9728
▁예정되어	-10.9729
▁포트	-10.9731
tic	-10.9731
▁시계	-10.9731
같이	-10.9732
▁케이시	-10.9732
▁태우고	-10.9735
하러	-10.9737
▁차원에서	-10.9738
▁녹화	-10.974
▁참사	-10.974
▁원치	-10.9744
14	-10.9745
▁대선에	-10.9746
99	-10.9756
▁증언했다	-10.9756
▁out	-10.9758
▁예술가	-10.9762
▁성분	-10.9764
▁선적	-10.9768
▁독재자	-10.9768
슬리	-10.9769
▁데비	-10.9769
▁제외하고	-10.9771
▁이른다	-10.9772
▁클로	-10.9772
▁비극	-10.9775
▁칼라	-10.9779
디스	-10.978
▁시작될	-10.9781
▁대회에	-10.9784
▁쪽	-10.9787
▁참여했다	-10.9787
▁판결에	-10.9788
맥	-10.9795
▁살아남	-10.9796
▁그곳에	-10.9796
▁내용에	-10.9798
김	-10.98
구조	-10.9809
▁프라	-10.9811
▁피어	-10.9811
▁결승전	-10.9816
▁이송됐다	-10.9816
▁요청한	-10.982
▁vi	-10.9821
▁원하지	-10.9822
▁복장	-10.9824
▁180	-10.9828
▁탈북자	-10.9828
▁기울이	-10.9829
▁월스트리트	-10.9836
▁압도적	-10.9841
▁내게	-10.9842
베리	-10.9842
▁취하지	-10.9844
▁ga	-10.9851
▁다수의	-10.9851
▁활동이	-10.9853
▁정치적으로	-10.9855
▁어린이들이	-10.986
▁평양에서	-10.9865
▁명령했다	-10.9866
▁줄리	-10.9866
▁분쟁이	-10.9867
▁해왔다	-10.9874
▁소속의	-10.9875
▁강화하고	-10.9875
기금	-10.9877
▁최고위	-10.9885
▁있으	-10.9885
▁남아있	-10.9887
▁축출	-10.9888
▁목요일에	-10.9906
▁교전이	-10.9908
주전	-10.9914
▁엘리	-10.9916
하에	-10.9917
▁즐기는	-10.9918
▁프로그램이	-10.9926
▁금년	-10.9927
▁일시적	-10.9928
세포	-10.9929
▁였다	-10.9931
▁파키스탄에	-10.9932
▁제작된	-10.9933
ist	-10.994
▁급락	-10.9942
▁연말	-10.9942
bc	-10.9944
▁위협하	-10.9949
세트에서	-10.995
▁재활	-10.9961
시경	-10.9962
▁열렸	-10.9962
▁넘겨	-10.9973
▁재선	-10.9975
▁주당	-10.9977
치료	-10.9978
▁구제금융	-10.9979
▁남기	-10.9982
▁세탁	-10.9982
▁세속주의	-10.9987
▁세이	-10.9988
▁high	-10.9989
▁굉장	-10.9989
▁떨어질	-10.9989
▁머리카락	-10.9989
▁베어스턴스	-10.9989
▁베탕쿠르	-10.9989
▁부적절	-10.9989
▁브리트니	-10.9989
▁시애틀	-10.9989
▁아칸소	-10.9989
▁에르도간	-10.9989
▁에스토니아	-10.9989
▁유수프	-10.9989
▁캔자스	-10.9989
▁오렌지	-10.9989
▁멸종위기	-10.9989
▁take	-10.9989
▁맥도날드	-10.9989
▁소탕작전	-10.9989
▁신용카드	-10.9989
▁press	-10.9989
▁talks	-10.999
▁숨겨	-10.999
▁적응	-10.999
축구연맹	-10.999
▁모험	-10.999
▁낭비	-10.999
▁영광	-10.999
▁호송	-10.999
▁로드	-10.9991
▁남녀	-10.9991
▁집필	-10.9991
▁가죽	-10.9992
▁영감	-10.9993
▁치른	-10.9994
▁번역	-10.9996
9000	-10.9996
▁탐사선	-10.9997
▁들어온	-10.9998
▁복수	-11
▁편안	-11.0001
▁제이	-11.0002
군은	-11.0002
▁식수	-11.0003
▁풀려났다	-11.0003
▁환수	-11.0004
▁다이애나비	-11.0004
▁불교	-11.0005
▁미셀	-11.0007
▁가져다	-11.0008
▁줬다	-11.0008
▁모았다	-11.0009
▁연방준비제도이사회	-11.0009
▁갈라	-11.001
▁공조	-11.0011
▁역대	-11.0011
▁갖기	-11.0012
▁여유	-11.0012
▁알렌	-11.0013
▁자정	-11.0015
▁겪었다	-11.0015
▁할지	-11.0016
▁관점에서	-11.0017
▁잡았다	-11.0021
▁복지	-11.0023
▁하산	-11.0027
▁헬	-11.0029
▁슛	-11.0032
▁날이	-11.0035
▁과제	-11.0036
▁이끌었	-11.0041
▁좋아한다	-11.0041
▁약품	-11.0042
▁청년	-11.0043
▁공안	-11.0043
▁염	-11.0044
▁투명	-11.0045
▁장악	-11.0046
▁인도네시아에서	-11.0047
▁붕괴된	-11.0047
▁전격	-11.0049
▁지원하기	-11.0056
▁하더라	-11.0058
▁국회에	-11.0059
▁말에	-11.0061
▁보호하고	-11.0062
▁결함	-11.0064
age	-11.0064
농	-11.0064
▁레이더	-11.0067
▁발달	-11.0069
▁자금이	-11.0071
▁논의했다	-11.0073
▁싶어한다	-11.0074
▁제공하기	-11.0082
im	-11.0086
▁확신했다	-11.0088
▁중심에	-11.0088
▁투기	-11.0088
▁도주	-11.0092
▁경제학자들	-11.0098
홍	-11.0099
앤	-11.0102
자동차	-11.0102
▁확인된	-11.0103
베르	-11.0111
▁탄도	-11.0121
▁공무원들	-11.0123
▁비치	-11.0126
ese	-11.0127
▁세부	-11.0128
▁기술자	-11.0129
▁움직임이	-11.0129
▁주차	-11.0131
원인	-11.0132
▁파손됐다	-11.0133
회견에서	-11.0135
▁오리	-11.0146
▁킨	-11.0147
르게	-11.0155
▁제공하고	-11.0159
▁죽었다	-11.0161
곳에서	-11.0161
▁내리고	-11.0163
▁손자	-11.0165
▁법적으로	-11.017
▁사임했다	-11.0173
▁기술이	-11.0175
▁대답했다	-11.0178
▁달러로	-11.018
▁사람과	-11.018
▁쓰는	-11.0181
▁선출된	-11.0182
▁앙	-11.0192
▁돌입	-11.0193
당했다	-11.0197
▁종식	-11.0212
▁89	-11.0215
카드	-11.0216
▁독재	-11.0217
량의	-11.0219
▁경우에	-11.0221
▁보좌관들	-11.0222
▁물었다	-11.0222
▁입원했다	-11.0223
▁자녀들	-11.0223
▁있었기	-11.0224
만년	-11.0225
전쟁	-11.0227
▁방문객들	-11.0228
▁세기	-11.0236
원으로	-11.0237
▁추락한	-11.0237
▁강화할	-11.0238
달간	-11.0241
▁가중	-11.0249
▁한다면	-11.0253
▁무시하	-11.0254
▁인접	-11.0255
있었다	-11.026
해준	-11.0262
▁투자자	-11.0263
▁금연	-11.0266
▁친척	-11.0268
▁좌절	-11.0268
▁필립	-11.0269
▁지도자들과	-11.0276
▁안된다	-11.0277
▁이슬람교	-11.0278
▁강행	-11.0281
렘	-11.0285
▁빼	-11.0287
겔	-11.0292
▁human	-11.0292
▁seoul	-11.0292
▁troop	-11.0292
▁구호물품	-11.0292
▁끊임없	-11.0292
▁뉴욕타임스	-11.0292
▁땅에	-11.0292
▁마케팅	-11.0292
▁뮌헨	-11.0292
▁비즈니스	-11.0292
▁썼다	-11.0292
▁애니메이션	-11.0292
▁유니세프	-11.0292
▁테러지원국	-11.0292
▁펭귄	-11.0292
▁항생제	-11.0292
▁헬리콥터	-11.0292
▁흰색	-11.0292
캄	-11.0292
▁다운로드	-11.0292
▁되돌아	-11.0292
▁크로커	-11.0292
▁트로피	-11.0292
▁첩보	-11.0292
▁브루스	-11.0292
▁유적지	-11.0292
▁모로코	-11.0292
▁혈액	-11.0292
▁무소속	-11.0292
▁양키스	-11.0293
▁슈퍼볼	-11.0293
▁대략	-11.0293
▁운반	-11.0293
▁기획	-11.0293
▁1988	-11.0294
▁레이저	-11.0294
▁하얀	-11.0295
▁타협	-11.0295
▁자동차업계	-11.0295
▁조짐	-11.0295
▁저택	-11.0295
명인	-11.0295
▁현지경찰	-11.0296
▁어두운	-11.0296
▁풍선	-11.0296
▁아이돌	-11.0299
▁장거리	-11.0299
▁개최되	-11.03
▁분실	-11.03
▁거둔	-11.0301
▁볼튼	-11.0301
▁대령	-11.0301
▁평소	-11.0302
▁엘바	-11.0303
▁닷	-11.0306
▁투표할	-11.0307
▁영원	-11.0308
▁파문	-11.0308
▁조속	-11.0308
▁받아들였다	-11.0309
▁지구에서	-11.031
▁알려주	-11.0311
레나	-11.0312
▁클라	-11.0312
▁부유	-11.0312
▁타이어	-11.0314
▁예선전	-11.0314
▁참가하	-11.0316
▁모르겠다	-11.0316
▁묘지	-11.0316
ang	-11.0319
▁버전	-11.0319
▁마을에	-11.0321
▁가자지구에서	-11.0323
▁해방	-11.0323
▁기권	-11.0323
▁앞선	-11.0324
▁미치지	-11.0325
▁채권	-11.0328
▁장기간	-11.0329
▁전염	-11.033
▁효율적	-11.0331
▁사용하기	-11.0332
▁기리	-11.0333
▁미술	-11.0334
▁못하다	-11.0335
▁si	-11.0336
점에	-11.0336
▁중령	-11.0337
▁적자	-11.0338
▁실어	-11.0338
78	-11.0339
▁개최된	-11.0341
▁폭격기	-11.0341
▁구간	-11.0342
▁트레	-11.0347
▁재판에	-11.0347
▁98	-11.035
▁기자들이	-11.0351
▁개발에	-11.0355
24	-11.0355
▁보도한	-11.0356
▁재판이	-11.036
min	-11.0361
▁자랑	-11.0361
보드	-11.0365
▁인도주의적	-11.0365
▁지낸	-11.0368
▁건수	-11.0372
▁행사에서	-11.0373
▁작용	-11.0374
▁비만	-11.0374
▁적극	-11.0375
▁사랑하는	-11.0383
▁회수	-11.039
▁안전에	-11.0395
나갈	-11.0402
▁착용하	-11.0404
얀	-11.0408
▁말하면서	-11.0408
사령관	-11.0413
돼있다	-11.0414
시즌	-11.0417
▁통신사	-11.0418
▁가기	-11.0419
이기도	-11.0423
▁파파라치	-11.0431
▁유지하기	-11.0432
▁장착	-11.0433
▁추구	-11.0436
▁생산하는	-11.0444
▁과장	-11.0452
▁제조업	-11.0455
우드	-11.0456
▁부문에서	-11.0461
▁아시	-11.0462
시까지	-11.0465
▁관광지	-11.0467
만으로	-11.0471
47	-11.0476
베스	-11.0476
▁사용한다	-11.0476
▁있거	-11.0479
▁흥미	-11.048
▁우주인	-11.0481
do	-11.0482
▁지방의	-11.0485
▁여사와	-11.0493
▁지연되	-11.0497
명에서	-11.0501
▁추락했다	-11.0503
▁납	-11.0507
▁나타난	-11.051
▁쏟아	-11.0513
▁요청할	-11.0514
▁전체에	-11.0518
느냐	-11.0519
▁바닥	-11.0525
장과	-11.0528
▁이해할	-11.0529
▁동맹국들	-11.0534
▁시일	-11.0538
▁렌	-11.0544
▁차가	-11.0548
워드	-11.0553
▁가족에게	-11.0556
▁클레	-11.0556
▁사회에	-11.0561
85	-11.0561
념	-11.0562
한국	-11.0568
▁93	-11.057
69	-11.0572
▁대통령으로	-11.0575
va	-11.0576
▁미시간	-11.0577
▁사진들	-11.058
구의	-11.0581
ot	-11.0581
▁없애	-11.0583
▁아바	-11.0584
널	-11.0589
▁프랑스와	-11.0589
어진	-11.0591
▁뉴욕에	-11.0591
▁소방	-11.0591
받아	-11.0592
▁참석해	-11.0593
▁보호하는	-11.0595
▁오클라호마	-11.0595
촌	-11.0597
▁표결	-11.0598
▁피닉스	-11.0598
▁자행	-11.0598
▁참여하는	-11.06
왈	-11.06
▁가자지구에	-11.06
two	-11.0601
▁남자들	-11.0602
▁득표	-11.0603
▁아랍에미리트	-11.0604
▁물러	-11.0604
딜	-11.0604
눌	-11.0604
밍	-11.0604
▁visit	-11.0604
▁york	-11.0604
▁걷는	-11.0604
▁느꼈다	-11.0604
▁동유럽	-11.0604
▁로스앤젤레스	-11.0604
▁베이루트	-11.0604
▁불렀다	-11.0604
▁스튜어트	-11.0604
▁오케스트라	-11.0604
▁일으켜	-11.0604
▁좋게	-11.0604
▁클루니	-11.0604
▁포괄적	-11.0604
렁	-11.0604
▁유조선	-11.0604
▁마라도나	-11.0604
▁맥케인	-11.0604
▁니케이	-11.0604
▁셰이크	-11.0604
▁again	-11.0604
▁모바일	-11.0604
▁잔혹	-11.0604
▁취득	-11.0604
▁덕분에	-11.0605
▁진흙	-11.0605
▁여자아이	-11.0605
▁정해지지	-11.0605
▁칭찬	-11.0605
▁출범	-11.0605
▁바꿔	-11.0605
▁세인트	-11.0605
▁생존자들	-11.0605
▁요새	-11.0605
▁호킹	-11.0605
▁닉슨	-11.0605
▁몸값	-11.0606
▁고릴라	-11.0606
▁개념	-11.0606
▁명칭	-11.0607
▁워너	-11.0607
▁wto	-11.0607
▁버튼	-11.0607
▁불황	-11.0608
리오	-11.0608
▁대표들	-11.0609
▁죽이	-11.0609
▁근교	-11.0609
▁줄이는	-11.0609
▁추출	-11.061
▁nk	-11.061
▁타결	-11.061
▁기습	-11.0612
성에	-11.0612
▁선장	-11.0614
▁상반기	-11.0614
▁뚫	-11.0614
▁머리에	-11.0615
▁정교	-11.0616
▁모래	-11.0616
▁전대통령	-11.0616
▁소방관	-11.0617
▁제일	-11.0617
▁에스	-11.0617
▁신병	-11.0619
▁제약	-11.0624
▁제프리	-11.0626
▁가축	-11.0626
▁격리	-11.0626
▁파이	-11.0629
▁참여하지	-11.063
▁적십자사	-11.0633
시켜야	-11.0633
▁비유	-11.0637
39	-11.0637
▁장악하	-11.0639
▁권위	-11.064
▁상관없	-11.064
요원	-11.064
▁고무	-11.0642
▁여단	-11.0643
▁이룩	-11.0649
▁주장했지만	-11.0649
▁나체	-11.065
▁불화	-11.0651
▁시달리고	-11.0652
군의	-11.0654
▁반미	-11.0655
22	-11.0656
▁자크	-11.0656
▁거주지	-11.066
▁실력	-11.0671
▁성지	-11.0678
▁서명했다	-11.068
▁과시	-11.0681
▁보내기	-11.0681
▁비가	-11.0687
▁모스	-11.0687
▁바다로	-11.0687
▁나아가	-11.0692
▁증인	-11.0693
▁인기가	-11.0696
▁기적	-11.0698
▁서울에	-11.0699
▁수용할	-11.0702
▁이어질	-11.0702
▁전범	-11.0708
▁닐	-11.0713
▁명시	-11.0714
▁단계에	-11.0715
▁주교	-11.0715
버릴	-11.0716
안전	-11.0718
투어	-11.0719
생활	-11.0728
▁당의	-11.0729
킹	-11.0729
▁보낸다	-11.0733
▁배가	-11.0733
▁정신과	-11.0733
▁심사	-11.0734
54	-11.0735
▁파손되	-11.0739
▁제트	-11.0741
▁특이	-11.0743
▁몽	-11.0744
개혁	-11.0745
▁펼쳐	-11.0745
생산	-11.0747
▁설치된	-11.0752
▁열정	-11.0752
▁의원들에게	-11.0752
스카	-11.0753
▁적당	-11.0765
▁일기	-11.0771
ns	-11.0779
▁hav	-11.0779
▁정보국	-11.0781
▁번지	-11.0783
▁중심부	-11.0783
작업	-11.0787
부가	-11.079
지구	-11.0793
▁지역이	-11.0798
ne	-11.0799
업체들	-11.0799
아나	-11.0805
▁상의	-11.0809
▁혼란에	-11.081
▁억제	-11.0814
▁당원	-11.0815
▁부르는	-11.0816
▁중단하고	-11.0816
tor	-11.0818
▁인명	-11.0818
▁학생들과	-11.0819
mb	-11.0822
부분	-11.0825
▁라인	-11.0827
▁어머니와	-11.0832
리어	-11.0833
학회	-11.0834
버린	-11.0837
▁자신에	-11.0838
▁중계	-11.0839
보고	-11.0841
게임	-11.0843
▁국민이	-11.0843
▁지지도	-11.0848
▁끝나는	-11.0851
▁일으키는	-11.0851
회의에서	-11.0852
번에	-11.0857
▁지니	-11.0863
▁노스	-11.0866
▁높아	-11.0866
▁파일	-11.0867
▁본국	-11.0868
▁이뤄	-11.0877
▁부통령이	-11.0877
▁남편과	-11.0879
▁패한	-11.088
▁헤어	-11.0887
▁나타났	-11.0888
을때	-11.0893
▁제안한	-11.0896
▁사육	-11.09
여부	-11.0902
▁실업	-11.0906
▁때로	-11.0907
▁돈이	-11.0908
받고	-11.0911
tu	-11.0913
▁확고	-11.0915
▁루이지애나	-11.0915
▁벌어졌	-11.0919
▁전략적	-11.0921
▁종합	-11.0925
▁꾸	-11.0926
팩	-11.0927
▁afp	-11.0927
▁wfp	-11.0927
▁광우병	-11.0927
▁뉴캐슬	-11.0927
▁당나귀	-11.0927
▁매머드	-11.0927
▁무너져	-11.0927
▁싶은	-11.0927
▁야스쿠니	-11.0927
▁카자흐스탄	-11.0927
▁티셔츠	-11.0927
▁황우석	-11.0927
잎	-11.0927
▁대주교	-11.0927
▁몸무게	-11.0927
마누엘	-11.0927
▁되풀이	-11.0927
▁무너진	-11.0927
▁세비야	-11.0927
▁린제이	-11.0927
▁효력	-11.0927
▁페이스북	-11.0927
▁흐름	-11.0927
▁dis	-11.0927
▁국방위원장	-11.0927
▁맞붙	-11.0927
▁학위	-11.0928
▁아마존	-11.0928
▁왕복선	-11.0928
▁살아가	-11.0928
▁농담	-11.0928
▁녹색	-11.0928
▁공군기지	-11.0928
▁스카이	-11.0929
▁선데이	-11.0929
▁패리스	-11.0929
▁할아버지	-11.0929
▁같습니다	-11.093
▁평화협상	-11.093
▁폭등	-11.093
▁지르	-11.093
▁밤새	-11.093
▁출국	-11.0931
▁식물	-11.0932
▁모터	-11.0933
▁종양	-11.0933
▁소유권	-11.0934
▁감량	-11.0935
▁서약	-11.0935
▁천문학자들	-11.0935
▁예배	-11.0935
▁기름	-11.0935
▁회부	-11.0935
▁폐기물	-11.0936
▁극단주의자들	-11.0936
▁전설	-11.0937
▁현행	-11.0938
▁코너	-11.0938
▁사법부	-11.0938
▁책정	-11.0938
라인	-11.0939
▁유행	-11.0939
▁부른	-11.094
▁입학	-11.0941
▁소란	-11.0941
▁지속될	-11.0942
▁버진	-11.0945
원들이	-11.0945
▁줄이고	-11.0945
▁쏘	-11.0945
▁도와주	-11.0946
▁sk	-11.0947
▁성경	-11.0947
▁페르	-11.0948
▁동전	-11.0948
▁뒤집	-11.0948
▁기후변화	-11.0949
▁1200	-11.095
▁프레	-11.0951
▁news	-11.0951
▁신도	-11.0952
▁있었는지	-11.0953
▁주류	-11.0954
▁결의안에	-11.0954
▁방치	-11.0955
▁정오	-11.0957
▁예상보다	-11.0958
▁유용	-11.096
▁여야	-11.0961
▁검토하	-11.0961
▁포위	-11.0964
▁광대	-11.0964
▁우리베	-11.0965
▁나란	-11.0966
▁전송	-11.0967
▁아이티	-11.0971
▁위협했다	-11.0971
▁넣어	-11.0974
기위해	-11.0976
▁한쪽	-11.0979
▁면적	-11.0979
▁비행기에	-11.098
▁양성	-11.098
▁기소했다	-11.098
▁지키기	-11.0982
▁조사하기	-11.0986
후보	-11.0989
▁부장	-11.0993
▁시작되었다	-11.0997
200	-11.1001
▁관리자	-11.1004
▁들어가는	-11.1004
▁해명	-11.1005
려진	-11.1006
▁구상	-11.1007
▁발리	-11.1012
▁사제	-11.1018
죄로	-11.1019
▁교육부	-11.1021
ba	-11.1027
▁하도록	-11.1029
▁해외에서	-11.103
▁확실하지	-11.1031
▁벌어들	-11.1034
▁up	-11.1034
▁확보했다	-11.1036
▁빙	-11.1037
▁프레드	-11.1038
▁선정됐다	-11.104
살이	-11.104
▁하트	-11.1041
▁걸었다	-11.1045
▁생성	-11.1047
▁96	-11.1049
▁그라운드	-11.105
나라	-11.1053
▁무장대원들	-11.1054
▁시위자	-11.1057
▁연기했다	-11.1058
▁끄	-11.1058
▁모스크바에서	-11.1061
떼	-11.1068
▁공격수	-11.107
협정	-11.1077
점에서	-11.1078
▁승자	-11.108
스에서	-11.1086
▁환경에	-11.1087
▁청소	-11.1088
▁기록했	-11.109
▁문자	-11.1091
어졌다	-11.1098
▁당국과	-11.1104
▁되었습니다	-11.1106
▁출전한	-11.111
▁떼	-11.111
16	-11.1113
듯이	-11.1117
미국	-11.1122
▁아내와	-11.1123
▁오픈에서	-11.1123
▁탈출했다	-11.1123
▁시스템이	-11.1128
직에서	-11.1129
▁가서	-11.1134
land	-11.1135
▁선언한	-11.1136
▁힐튼이	-11.1142
▁총선에	-11.1151
▁금지하고	-11.1151
레오	-11.1154
▁참가했다	-11.1161
바로	-11.1164
▁등급	-11.1166
▁미만	-11.1166
체제	-11.1168
▁수십억	-11.1173
▁참석하기	-11.1175
▁요청했	-11.1176
▁관리인	-11.1178
▁주인이	-11.1179
▁안드레	-11.118
▁모술	-11.1181
사단	-11.1182
선거	-11.1186
▁안되	-11.1186
▁주가가	-11.1187
만명에	-11.1188
첼	-11.1189
▁인도에서	-11.119
커스	-11.1195
▁독일에서	-11.1196
▁판결했다	-11.12
▁꺼	-11.12
▁뉴델리	-11.1201
▁처음에	-11.1201
▁측에서	-11.1203
럼	-11.1205
▁선고받	-11.1209
▁산책	-11.1212
▁엄	-11.122
▁유대	-11.1231
ish	-11.1232
▁승객들이	-11.1234
▁위스콘신	-11.124
▁동영상에	-11.1246
학년	-11.1247
퀴	-11.1249
데르	-11.125
▁플래	-11.1251
▁메릴랜드	-11.1253
▁state	-11.1253
꾼	-11.1253
▁사업가	-11.1253
▁설문	-11.1256
▁상원의원에	-11.1258
▁nfl	-11.126
▁골든글로브	-11.126
▁이르렀다	-11.126
▁잃지	-11.126
▁그루지아	-11.126
▁상파울루	-11.126
▁우주정거장	-11.126
▁제니퍼	-11.126
▁안락사	-11.126
▁예언자	-11.126
▁부작용	-11.126
▁피아노	-11.126
▁국가주석	-11.126
▁영부인	-11.126
▁닥터	-11.126
▁지중해	-11.126
▁호르몬	-11.126
▁lpga	-11.126
▁쇼핑몰	-11.1261
▁침투	-11.1261
▁높아졌다	-11.1261
▁bank	-11.1261
▁조셉	-11.1262
▁취약	-11.1262
▁레논	-11.1262
▁허블	-11.1262
▁연극	-11.1262
▁몰래	-11.1263
▁유혈	-11.1263
▁침수	-11.1264
▁연방법원	-11.1264
▁인디아나	-11.1264
▁불평	-11.1264
▁국가안보	-11.1265
▁토양	-11.1265
▁언제든	-11.1265
▁수비수	-11.1266
문화	-11.1266
▁정보기관	-11.1267
▁토론토	-11.1268
▁팜	-11.127
▁이례적	-11.1271
▁차림	-11.1272
▁제패	-11.1273
▁난동	-11.1273
▁취급	-11.1273
▁by	-11.1274
바리	-11.1275
▁닭	-11.1277
▁교량	-11.1277
▁문신	-11.1277
▁감원	-11.1279
▁군복	-11.1279
▁강연	-11.128
▁구경	-11.128
▁범죄에	-11.128
▁에디	-11.1281
▁재발	-11.1281
▁호화	-11.1284
▁요트	-11.1284
▁인체	-11.1286
▁인계	-11.1286
▁지하드	-11.1286
▁세관	-11.1286
▁지속되	-11.1286
▁91	-11.1288
▁입구	-11.1288
▁호위	-11.1289
▁시판	-11.1291
▁가결	-11.1293
▁염려	-11.1294
▁전례	-11.1303
roh	-11.1306
▁채우	-11.1306
▁그럼	-11.1309
▁줄여	-11.1311
▁단기	-11.1312
▁감시단	-11.1312
제품	-11.1313
▁페리	-11.1313
▁산소	-11.1315
▁원자력	-11.1315
죄	-11.1316
▁연방수사국	-11.1316
▁미소	-11.1316
▁성공회	-11.1317
▁피살	-11.1318
▁라이프	-11.1321
▁영국은	-11.1322
▁상위	-11.1324
▁점이	-11.1325
▁공부	-11.1325
46	-11.1327
▁상승했	-11.1333
▁도시로	-11.1334
주기	-11.1335
램	-11.1335
▁리서치	-11.1336
▁350	-11.1337
▁사회주의	-11.134
▁우드	-11.1342
스탄	-11.1348
▁가정에	-11.1349
▁숨기	-11.135
▁비교해	-11.1351
▁취임한	-11.1354
▁아이들과	-11.1356
세스	-11.1356
롤	-11.136
▁돌리	-11.1364
▁알았다	-11.1367
▁거론	-11.1368
▁엠	-11.1369
mer	-11.1369
▁벌어지고	-11.137
▁기반으로	-11.1377
▁we	-11.138
▁수행하	-11.1391
▁친환경	-11.1393
▁국회의원들	-11.1393
▁군부대	-11.1397
▁과학적	-11.1398
▁향했다	-11.1401
fa	-11.1404
웬	-11.1407
▁노력에	-11.141
솔	-11.141
▁컵	-11.1412
▁발견되	-11.1413
페이지	-11.1416
힘	-11.1416
▁표현했다	-11.1417
▁포함된다	-11.142
▁요구에	-11.1428
▁광부들	-11.143
▁신문에	-11.1432
▁의장이	-11.1438
▁청소년들	-11.1439
▁총격으로	-11.1444
▁포기했다	-11.1446
동물	-11.1448
▁카라	-11.1448
62	-11.1449
머리	-11.145
▁올리고	-11.1451
▁국무장관이	-11.1455
▁재무	-11.1464
해져	-11.1467
두고	-11.1469
천명	-11.1471
▁얻는	-11.1472
▁싸우	-11.1475
▁공학	-11.1479
▁만들었	-11.1479
▁사이트에	-11.1482
자료	-11.1482
▁기다려	-11.1482
▁내장	-11.1488
▁북부지역	-11.149
▁구하기	-11.1492
ah	-11.1493
▁가져	-11.1499
▁확인해	-11.1503
ther	-11.1506
▁런던에	-11.1506
레이크	-11.151
께	-11.1513
▁시작되는	-11.152
▁이동하	-11.1521
달라	-11.1522
▁수요일에	-11.1527
부의	-11.1532
▁나가는	-11.1539
▁벽에	-11.1539
직원	-11.1539
▁공판	-11.154
▁아이들에게	-11.1543
▁보호할	-11.1549
▁균	-11.1556
▁제공한다	-11.1557
▁반대한다	-11.1562
법안	-11.1565
▁경영자	-11.1567
▁기간에	-11.1567
▁산악	-11.157
렌스	-11.1572
▁오해	-11.1574
▁났다	-11.1577
▁지냈	-11.1579
스틴	-11.1583
▁유입	-11.1583
▁언	-11.1588
▁war	-11.1591
▁통일	-11.1593
대에서	-11.1593
▁미치	-11.1595
▁시도하	-11.1595
융	-11.1603
튜	-11.1603
▁치솟	-11.1604
▁모니터	-11.1604
▁고수	-11.1605
▁court	-11.1605
▁국회의사당	-11.1605
▁냄새	-11.1605
▁마흐무드	-11.1605
▁매코맥	-11.1605
▁맥코맥	-11.1605
▁메사추세츠	-11.1605
▁미드필더	-11.1605
▁박테리아	-11.1605
▁뱅크	-11.1605
▁벤자민	-11.1605
▁스피처	-11.1605
▁악영향	-11.1605
▁알자와히리	-11.1605
▁오징어	-11.1605
▁이스탄불	-11.1605
▁캠벨	-11.1605
▁커뮤니티	-11.1605
▁트라볼타	-11.1605
▁프로듀서	-11.1605
▁그루지야	-11.1605
▁친선경기	-11.1605
bush	-11.1605
▁1981	-11.1605
▁바쿠바	-11.1605
▁아스널	-11.1605
▁중산층	-11.1605
▁도덕적	-11.1605
▁중서부	-11.1605
▁8226	-11.1605
▁김선일	-11.1605
▁착취	-11.1605
▁속옷	-11.1605
▁종신형	-11.1605
▁계곡	-11.1606
▁불쾌	-11.1606
▁둘째	-11.1606
▁타이완	-11.1606
▁연휴	-11.1606
▁탔다	-11.1606
▁열렬	-11.1606
▁양육권	-11.1606
▁면밀	-11.1606
▁태양열	-11.1606
부문	-11.1607
▁가속화	-11.1607
▁대피령	-11.1607
▁환경보호	-11.1607
▁아닐	-11.1607
▁요격	-11.1607
▁사원에서	-11.1607
▁쿠르드족	-11.1607
▁해킹	-11.1609
▁아담	-11.1609
▁만찬	-11.1609
▁787	-11.1609
▁몸집	-11.161
▁불안감	-11.161
▁아끼	-11.161
▁조종	-11.161
▁홈페이지에	-11.161
▁총알	-11.161
▁품질	-11.161
▁화석	-11.1611
▁유예	-11.1611
▁소령	-11.1611
▁도망	-11.1611
▁외교관계	-11.1611
▁공백	-11.1612
▁퇴장	-11.1612
▁지닌	-11.1612
▁존드로	-11.1612
▁임박	-11.1612
▁병역	-11.1612
▁피닉스호	-11.1613
▁곡물	-11.1613
▁원격	-11.1613
▁지침	-11.1613
▁성행위	-11.1615
▁참전	-11.1615
▁우연	-11.1616
▁배제하지	-11.1616
▁du	-11.1616
▁용서	-11.1617
▁약혼	-11.1618
▁같았다	-11.1619
▁정통	-11.1619
▁정체	-11.162
▁필리스	-11.1621
▁시장과	-11.1621
▁구단주	-11.1621
▁가고	-11.1623
▁아카데미상	-11.1624
몬드	-11.1624
▁일축했다	-11.1624
잡	-11.1624
단이	-11.1629
▁구형	-11.163
▁진행됐다	-11.1631
▁가르치	-11.1631
▁감면	-11.1633
▁중에서	-11.1634
▁정부에서	-11.1634
▁디스	-11.1635
▁수만명	-11.1638
▁크리스티나	-11.1639
▁정상회의	-11.164
ut	-11.1642
▁붐	-11.1642
▁운하	-11.1643
▁것들	-11.1644
▁확실하다	-11.1645
said	-11.1645
▁비방	-11.1647
▁확인하는	-11.1652
▁들리	-11.1653
▁드는	-11.1655
▁가난	-11.1655
▁시위대와	-11.1656
▁자선	-11.1657
▁생겼다	-11.1668
▁관중	-11.1669
▁장악한	-11.1671
▁일고	-11.1674
▁모의	-11.1675
▁mi	-11.1676
▁문제점	-11.168
▁92	-11.1683
▁팬들에게	-11.1684
▁부진	-11.1684
지오	-11.1684
ds	-11.1688
▁제공해	-11.1689
만여	-11.169
▁춤	-11.169
▁감옥에	-11.169
험	-11.1691
▁까	-11.1695
▁all	-11.17
▁돌보	-11.1703
▁끈	-11.1705
▁강조하고	-11.1705
아누	-11.171
▁고려해	-11.1712
▁부장관	-11.1719
▁이베이	-11.1721
일째	-11.1725
▁추진하고	-11.1726
▁주장이	-11.1726
▁반군과	-11.1731
city	-11.1731
▁시작해	-11.1734
▁부상당	-11.1735
▁액	-11.1736
▁밝혀내	-11.1738
▁환영했다	-11.174
▁말했지만	-11.174
았던	-11.174
▁미친	-11.1741
▁반대했다	-11.1743
▁조사단	-11.1748
▁중국인	-11.175
비오	-11.1753
▁금지하는	-11.1755
▁시점에서	-11.1759
답	-11.1762
▁만료	-11.1766
굴	-11.1766
찌	-11.1767
▁윤리	-11.1767
핀	-11.1769
빛	-11.1769
▁급진	-11.177
▁공원에서	-11.1783
▁증진	-11.1783
▁헤이	-11.1784
▁물리치	-11.1787
tion	-11.1792
▁이브	-11.1794
▁목격한	-11.1797
▁후보에게	-11.1803
▁사용하	-11.1806
▁로라	-11.1812
▁강사	-11.1814
ft	-11.1819
▁수비	-11.182
45	-11.1823
유지	-11.1826
▁경찰서에	-11.1828
▁제품에	-11.184
▁새해	-11.1841
▁미군측	-11.1841
▁장소로	-11.1842
전선	-11.1843
tt	-11.1843
▁그레	-11.1844
▁주자	-11.1849
▁내년에	-11.1853
▁면에서	-11.1854
man	-11.1857
▁취소됐다	-11.1858
ni	-11.1859
▁국회의	-11.1861
▁란	-11.1862
▁기한	-11.1864
▁일상적	-11.1869
▁주거	-11.1871
▁국왕이	-11.1871
▁감옥	-11.1875
▁부근에	-11.1876
▁광장에	-11.1877
▁선거전	-11.1878
18	-11.188
천억	-11.1882
▁달아	-11.1883
▁비난한	-11.1887
▁동일	-11.1891
▁비극적	-11.1896
▁폰	-11.1896
▁사무실에서	-11.1897
▁기숙사	-11.1903
▁법정에	-11.1905
▁건물에서	-11.1905
▁그때	-11.1928
▁짜	-11.1929
▁불가피	-11.1929
▁측면	-11.1934
▁배급	-11.1938
▁콩	-11.194
▁펜실베니아	-11.194
▁아프가니스탄에	-11.1943
▁켄터키	-11.1945
▁막고	-11.1947
▁협상단	-11.1948
▁스탠	-11.1951
▁매사추세츠	-11.1953
섭	-11.1959
▁신의	-11.1959
▁전했	-11.1959
틱	-11.1962
27	-11.1962
▁bmw	-11.1962
▁research	-11.1962
▁구스마오	-11.1962
▁도널드	-11.1962
▁브리티시	-11.1962
▁블룸버그	-11.1962
▁사형집행	-11.1962
▁세계보건기구	-11.1962
▁슈워제네거	-11.1962
▁승용차	-11.1962
▁자메이카	-11.1962
▁촛불	-11.1962
▁캥거루	-11.1962
▁케르비엘	-11.1962
▁크누트	-11.1962
▁클리블랜드	-11.1962
▁탈라바니	-11.1962
▁펼칠	-11.1962
▁피추시킨	-11.1962
▁뉴멕시코	-11.1962
▁애틀란타	-11.1962
▁캠퍼스	-11.1962
▁깃발	-11.1962
▁흥행	-11.1962
▁캐롤	-11.1962
▁자서전	-11.1962
▁빈민가	-11.1962
▁퍼트레이어스	-11.1962
▁인정한	-11.1962
▁무하메드	-11.1962
▁침범	-11.1962
▁러셀	-11.1963
▁여배우	-11.1963
▁노왁	-11.1963
▁염두	-11.1963
▁두뇌	-11.1963
▁메뉴	-11.1963
▁생겨	-11.1964
▁펠리	-11.1964
▁무엇인지	-11.1964
▁평범	-11.1964
▁완공	-11.1964
▁1953	-11.1965
▁건립	-11.1965
▁멈	-11.1965
▁사마라	-11.1965
▁페리노	-11.1965
▁밀림	-11.1965
▁뜨거	-11.1965
▁감추	-11.1965
▁eta	-11.1965
▁곤	-11.1966
▁제이미	-11.1966
▁탄약	-11.1966
▁교황청	-11.1966
▁국영방송	-11.1966
▁주치의	-11.1966
▁2011	-11.1966
▁다짐	-11.1967
▁세균	-11.1967
▁재벌	-11.1967
▁머피	-11.1968
▁피셔	-11.1968
▁제라드	-11.1969
▁안겨	-11.1969
▁적대적	-11.1969
세에서	-11.1969
▁타입	-11.1969
▁일방적	-11.197
▁you	-11.197
▁항복	-11.1971
▁구타	-11.1971
▁계열사	-11.1973
▁왔습니다	-11.1974
▁중단하라	-11.1974
▁신고했다	-11.1974
▁북서쪽	-11.1976
놨다	-11.1976
▁시범	-11.1976
▁종파	-11.1977
▁비준	-11.1978
▁대피소	-11.1979
일정	-11.198
▁브라	-11.1981
▁유포	-11.1981
▁활기	-11.1985
▁산악지역	-11.1985
▁제트기	-11.1985
▁안심	-11.1987
▁미국에서는	-11.1987
▁것이냐	-11.1987
▁최상	-11.1987
▁필립스	-11.1989
▁750	-11.199
▁공개되지	-11.1994
▁시에	-11.1994
▁순찰대	-11.1994
▁납치범들	-11.1996
▁지표	-11.1997
▁남았다	-11.1998
▁기내	-11.2
▁빵	-11.2001
▁솔	-11.2001
▁지속된	-11.2003
▁내정자	-11.2004
▁혼다	-11.2005
▁지문	-11.2008
▁제인	-11.201
▁맹	-11.201
▁자리잡고	-11.2013
▁속한	-11.2016
▁단서	-11.2016
▁발부	-11.202
▁갖는다	-11.2021
관계자	-11.2021
▁메달	-11.2022
▁전달한	-11.2029
▁듀	-11.2031
▁상아	-11.2033
▁연관된	-11.2038
▁흐르	-11.2039
▁양상	-11.204
ach	-11.2042
▁아버지와	-11.2043
▁포기하지	-11.2047
▁캐리	-11.2048
▁도시에	-11.2048
▁환영한다	-11.2054
▁1800	-11.2055
▁he	-11.2056
▁미하	-11.2058
▁칩	-11.2065
회에서	-11.2065
▁카페인	-11.2069
▁임원	-11.207
▁링	-11.2079
▁보여주기	-11.2081
▁시작되	-11.2082
▁관계자들과	-11.2083
▁중국인들	-11.2085
율이	-11.2089
▁당장	-11.209
▁범죄자들	-11.209
▁지수가	-11.2095
자들에	-11.2109
▁백악관에	-11.211
▁떨어지는	-11.2111
▁조치에	-11.2113
▁얼음이	-11.2124
▁관료	-11.2128
▁지났	-11.2128
▁저가	-11.2129
77	-11.2129
▁페이스	-11.2135
▁보수적	-11.2135
way	-11.2137
멘	-11.2138
▁피해지역	-11.2138
▁들어있는	-11.2139
셰	-11.2139
▁one	-11.2142
▁개최지	-11.2143
시키지	-11.2143
조정	-11.2144
▁다음과	-11.2149
▁영국에	-11.215
est	-11.2153
58	-11.2156
▁기어	-11.2157
사람	-11.2157
▁핀	-11.2158
▁이라크전에	-11.2162
▁강진	-11.2164
▁po	-11.2165
세에	-11.2165
▁경제와	-11.2167
▁시도한	-11.2171
▁87	-11.2171
우주	-11.2172
▁국민에게	-11.2176
▁공정	-11.2179
▁거치	-11.218
하자는	-11.2184
▁경기도	-11.2184
다소	-11.2188
▁명에	-11.219
▁pro	-11.2194
▁ban	-11.2196
▁후보들이	-11.2198
▁프린스	-11.2204
병력	-11.2205
▁흔적	-11.2208
ight	-11.2213
▁손님	-11.2217
▁8000	-11.2232
▁진행할	-11.2236
▁국가들과	-11.224
시기	-11.2247
▁노동부	-11.2248
만여명	-11.2249
▁연이	-11.2261
▁제작자들	-11.2262
▁sc	-11.2266
▁사업에	-11.2271
55	-11.2287
▁주지사와	-11.2288
▁시리아와	-11.229
잡이	-11.2296
▁봤	-11.2297
자회담에서	-11.2303
▁풍경	-11.2303
76	-11.2309
▁케이	-11.2316
티스	-11.2318
▁당연	-11.2322
tive	-11.2325
픈	-11.2327
▁덧붙	-11.2327
▁올리는	-11.2329
▁갑작스	-11.233
▁내셔널	-11.2332
▁화염	-11.2332
▁washington	-11.2332
▁댈러스	-11.2332
▁돕고	-11.2332
▁만장일치	-11.2332
▁모하마드	-11.2332
▁색깔	-11.2332
▁세실리아	-11.2332
▁에탄올	-11.2332
▁저작권	-11.2332
▁흡수	-11.2332
긋	-11.2332
▁꿈이	-11.2333
▁따돌리	-11.2333
▁브로드웨이	-11.2333
▁오키나와	-11.2333
▁웨스트버지니아	-11.2333
▁재확인	-11.2333
▁집무실	-11.2333
▁김계관	-11.2333
▁비영리	-11.2333
▁글래스고	-11.2333
▁이벤트	-11.2333
▁도메인	-11.2333
▁교과서	-11.2333
▁셔츠	-11.2333
▁하리리	-11.2333
▁습관	-11.2333
▁다뤄	-11.2333
▁앙겔	-11.2333
▁침착	-11.2333
▁방사능	-11.2333
▁겁니다	-11.2333
▁수하물	-11.2333
▁빨간색	-11.2333
▁유혹	-11.2333
▁공략	-11.2333
▁유효	-11.2334
▁구조조정	-11.2334
▁전염병	-11.2334
▁확인한	-11.2334
▁영입	-11.2335
▁간섭	-11.2335
▁외교정책	-11.2335
▁악재	-11.2336
▁글렌	-11.2336
▁제재조치	-11.2336
▁복권	-11.2336
▁자치구	-11.2337
▁영역	-11.2337
▁행방	-11.2338
▁벌금형	-11.2339
▁비평가들	-11.2339
▁발목	-11.234
▁교토	-11.234
▁분출	-11.234
▁북동쪽	-11.234
▁이루어	-11.2341
▁pf	-11.2343
▁악성	-11.2344
▁폭풍우	-11.2344
▁일할	-11.2345
ny	-11.2345
▁독점	-11.2345
▁담겨있다	-11.2346
▁자회사	-11.2346
▁개발도상국	-11.2347
층에	-11.2348
▁소감	-11.2348
▁얼리	-11.2349
어지고	-11.2349
▁호흡기	-11.2349
▁지질	-11.235
차이	-11.2353
▁결장	-11.2353
▁오락	-11.2353
▁실내	-11.2354
▁늘어났다	-11.2355
▁리더	-11.2356
▁위법	-11.2356
▁게이	-11.2358
▁터미널	-11.2358
▁댄	-11.2364
디어	-11.2364
▁도왔다	-11.2365
▁구제안	-11.2365
▁만나기	-11.2366
▁개조	-11.2368
▁스위	-11.2368
▁업	-11.2372
▁장착된	-11.2376
▁리타	-11.2376
▁오를	-11.2378
▁대도시	-11.238
이상	-11.2381
▁박수	-11.2381
▁시설에	-11.2382
▁시간에	-11.2383
▁무엇이	-11.2384
▁유아	-11.2384
자들과	-11.2386
▁만든다	-11.2388
▁time	-11.2388
▁운동가	-11.239
▁부자	-11.239
▁정비	-11.2392
▁장려	-11.2394
▁방사	-11.2394
▁민주당과	-11.2394
▁보았다	-11.2394
리노	-11.2395
▁안건	-11.2402
▁230	-11.2403
▁차량은	-11.2405
오르	-11.2406
▁방문이	-11.2409
▁잃어버	-11.2411
▁지미	-11.2413
북한	-11.2414
▁시도했다	-11.2414
▁부인과	-11.2414
▁같	-11.2418
▁측에	-11.2421
▁암살된	-11.2422
▁반도	-11.2424
▁수잔	-11.2424
▁차고	-11.2426
▁지목했다	-11.2426
▁정당이	-11.2428
공항	-11.2428
▁무장괴한	-11.2431
▁정한	-11.2431
져야	-11.2435
▁집안	-11.2436
▁감독상	-11.2437
▁영국으로	-11.244
▁통로	-11.2442
▁용인	-11.2446
해진다	-11.2446
▁일정이	-11.2449
▁릭	-11.2449
▁전당	-11.2449
rs	-11.2451
ance	-11.2454
종일	-11.2459
▁하나이다	-11.2461
▁든다	-11.2473
▁중유	-11.2478
▁웹사이트에서	-11.2479
▁거래가	-11.2479
▁부상했	-11.2479
▁여진이	-11.2481
▁포착	-11.2481
공장	-11.2482
▁많지	-11.2484
▁톱	-11.2484
▁내리기	-11.2485
▁발생했던	-11.2486
▁퇴	-11.2489
▁맡아	-11.2495
▁임명된	-11.2497
▁인적	-11.2497
▁공세	-11.2497
▁판사들	-11.25
tro	-11.2502
▁air	-11.2503
▁고고학자들	-11.2503
퇴	-11.2505
최	-11.2517
▁기자들과	-11.2517
▁대변	-11.2517
▁이탈	-11.2519
▁미트	-11.2521
▁모르고	-11.2527
▁블로그	-11.2531
등급	-11.2534
스럽	-11.2535
▁주민이	-11.2537
선에	-11.2544
▁걸려있	-11.2546
▁납치했다	-11.2557
▁정보가	-11.256
▁임신한	-11.2562
▁다음으로	-11.2563
▁괜찮	-11.2564
▁의혹에	-11.2565
▁일로	-11.2568
▁목소리로	-11.2571
시스	-11.2577
▁물리	-11.2579
국민	-11.2582
bi	-11.2583
ors	-11.2589
▁침팬지	-11.2595
전략	-11.2597
▁워터	-11.2599
▁su	-11.2602
건이	-11.2606
지도자	-11.2609
▁공개할	-11.2613
▁덕	-11.2618
▁편집자	-11.2619
과정에서	-11.2622
▁소유자	-11.2628
▁오지	-11.2629
▁usa	-11.2637
▁녹아	-11.2637
자회담에	-11.2642
▁줄기	-11.2646
▁조사했다	-11.265
▁고려할	-11.2654
▁흉	-11.2654
ner	-11.2655
▁일으켰	-11.2655
65	-11.2656
▁없기	-11.2658
룩	-11.2662
▁부탁	-11.267
하르	-11.2671
▁가격에	-11.2672
▁말로	-11.2676
▁미화	-11.2683
▁조사는	-11.2684
▁펼쳤	-11.2684
▁국정원	-11.2685
프리	-11.2687
▁될지	-11.2687
▁박탈	-11.2688
시키는데	-11.2689
▁대원	-11.2691
▁일상	-11.2691
▁통신과	-11.2695
▁나라에서	-11.2698
▁or	-11.2705
▁암호	-11.2705
▁데뷔	-11.2706
▁전미	-11.2708
▁하는데	-11.2708
▁델타	-11.271
▁밀수	-11.271
쁜	-11.2713
쾌	-11.2713
▁도쿄에서	-11.2714
쇠	-11.2715
▁머무	-11.2717
first	-11.2717
믹	-11.2717
▁people	-11.2717
▁securit	-11.2717
▁과테말라	-11.2717
▁넘어섰다	-11.2717
▁높였다	-11.2717
▁리얼리티	-11.2717
▁무책임	-11.2717
▁보건복지부	-11.2717
▁싱가폴	-11.2717
▁암스트롱	-11.2717
▁엔터테인먼트	-11.2717
▁여동생	-11.2717
▁조코비치	-11.2717
▁초등학교	-11.2717
▁토마토	-11.2717
▁퍼레이드	-11.2717
겹	-11.2717
book	-11.2717
▁수하르토	-11.2717
무장혁명군	-11.2717
▁동계올림픽	-11.2717
▁제네바	-11.2717
▁좌익	-11.2717
▁콜레라	-11.2717
▁수족관	-11.2717
▁뉴욕증시	-11.2717
▁두개골	-11.2717
▁신용위기	-11.2717
▁초래할	-11.2717
▁링컨	-11.2717
▁가볍	-11.2717
▁월드시리즈	-11.2717
▁낙관적	-11.2717
▁월마트	-11.2717
▁미망인	-11.2718
▁결렬	-11.2718
▁투데이	-11.2718
▁힌두교	-11.2718
▁검출	-11.2718
▁zan	-11.2718
▁티켓	-11.2718
▁kim	-11.2718
▁혼합	-11.2718
▁압승	-11.2718
▁개헌	-11.2718
▁빠질	-11.2718
▁배럭	-11.2719
▁지뢰	-11.2719
▁열쇠	-11.2719
▁more	-11.2719
▁영예	-11.2719
▁부회장	-11.2719
▁코스피	-11.2719
▁냉동	-11.2719
▁에이미	-11.2719
▁격추	-11.2719
▁보석금	-11.2719
▁블록	-11.2719
▁워커	-11.272
▁정책이	-11.272
▁노리에가	-11.272
▁삼림	-11.272
▁검진	-11.272
▁보상금	-11.2721
▁110	-11.2721
▁광경	-11.2721
▁이른바	-11.2721
▁이정인	-11.2721
▁방북	-11.2721
▁태양계	-11.2722
▁당분간	-11.2722
▁포스터	-11.2722
▁맹세	-11.2723
▁1984	-11.2723
▁응원	-11.2723
▁데니스	-11.2724
▁피플	-11.2725
▁보수파	-11.2725
▁후퇴	-11.2726
▁여성에게	-11.273
▁시사회	-11.273
▁체인	-11.273
▁공통	-11.273
▁외출	-11.273
men	-11.2731
건물	-11.2731
▁입원한	-11.2732
▁교회에서	-11.2733
▁hd	-11.2733
▁맡게	-11.2735
▁돌아갔다	-11.2735
▁더이상	-11.2736
▁공방	-11.2737
▁걸프	-11.2738
▁발견돼	-11.2741
▁전인	-11.2742
▁기초	-11.2742
▁올릴	-11.2742
▁190	-11.2743
▁노동력	-11.2743
▁단백질	-11.2744
▁인플루엔자	-11.2744
▁week	-11.2744
▁내로	-11.2747
ive	-11.2748
▁정상적으로	-11.2749
▁논의하고	-11.275
중이다	-11.275
▁착	-11.2753
▁상원의원직	-11.2753
▁상정	-11.2754
▁애쓰고	-11.2754
▁판매되	-11.2755
▁놓았다	-11.2755
▁제프	-11.2755
▁조카	-11.2756
▁톤	-11.2757
까요	-11.2758
▁house	-11.2759
▁폐쇄했다	-11.2759
천억원	-11.276
▁우파	-11.2762
▁대학살	-11.2762
▁작곡가	-11.2764
▁살해하겠다	-11.2766
▁달에	-11.277
▁각료	-11.2774
▁life	-11.2775
▁파르	-11.2776
ore	-11.2777
▁결승에서	-11.278
▁파악하	-11.2786
세요	-11.2787
트릭	-11.2788
▁후임자	-11.2788
▁정치범	-11.2788
21	-11.2789
▁잡혀있	-11.2789
▁하마스와	-11.2792
▁계층	-11.2794
os	-11.2794
▁딜러	-11.2797
▁지도자로	-11.2798
ga	-11.2799
▁폭발했다	-11.2799
mo	-11.2799
▁성전	-11.28
▁봐	-11.28
▁초과	-11.2802
former	-11.2802
▁바퀴	-11.2805
▁방문객	-11.2806
▁비평	-11.2815
▁관해서	-11.2817
▁경위	-11.2818
▁친구들과	-11.282
▁매트	-11.2821
▁부수	-11.2825
▁북한에서	-11.283
▁우주에서	-11.2832
▁마련했다	-11.2832
▁진행하는	-11.2833
▁리사	-11.2839
▁그날	-11.2839
졌습니다	-11.284
▁길에	-11.2844
▁코커스에서	-11.2847
▁팔려	-11.2848
▁돌입했다	-11.2849
▁묘	-11.285
▁구조대원	-11.2853
개국이	-11.2855
▁나르	-11.2858
▁계획한	-11.2859
▁람	-11.286
26	-11.2863
▁제기한	-11.2864
▁감자	-11.2864
▁여러분들	-11.2867
▁그쳤다	-11.2868
▁움직임에	-11.2871
▁식으로	-11.2874
56	-11.2876
▁수의사	-11.2878
cc	-11.2881
▁사무소	-11.2883
▁살아있는	-11.2887
▁수반과	-11.2889
▁둔화	-11.2892
▁여자들	-11.2893
▁가두	-11.2895
▁나갔다	-11.2899
조건	-11.29
▁정치에	-11.2901
▁펼치고	-11.2902
▁알리기	-11.2903
수사	-11.291
월드	-11.291
▁공격하는	-11.2913
▁전설적	-11.2914
응	-11.2914
▁실직	-11.2921
되게	-11.2923
▁제조사	-11.2923
피크	-11.2927
떨어진	-11.2928
▁주사	-11.2928
▁나라들	-11.2932
▁파키스탄이	-11.2934
하우스	-11.2936
▁앤더슨	-11.2944
일이라고	-11.2947
▁불확실	-11.2948
전문	-11.2948
▁예상되는	-11.295
▁유지하는	-11.2955
▁의견에	-11.2961
▁말하지	-11.2961
▁개헌안	-11.2967
▁모욕	-11.2968
▁미사	-11.297
▁요한	-11.2977
▁상징적	-11.2977
hi	-11.298
▁동원해	-11.298
채가	-11.2987
수준	-11.299
▁갇혀	-11.3009
▁끝내	-11.3014
코스	-11.3022
▁윤리적	-11.3024
▁루스	-11.303
▁와서	-11.303
▁주문했다	-11.303
▁내주	-11.3036
발전	-11.3037
▁위반한	-11.3039
방법	-11.3041
▁최대한	-11.3042
▁125	-11.3042
▁공장에서	-11.3042
푸르	-11.3043
▁개막식	-11.3044
▁선보	-11.3045
모어	-11.3045
순위	-11.3049
▁인정하	-11.3049
▁양곤	-11.3051
▁마련하기	-11.3056
▁직면한	-11.3057
▁버렸다	-11.3058
▁상업적	-11.3059
▁가할	-11.306
라니	-11.3065
▁합의했	-11.3076
▁ka	-11.3077
▁했을	-11.3079
▁세라	-11.308
▁도움으로	-11.3083
▁올렸	-11.3085
▁연령	-11.3087
▁바탕	-11.3087
▁악의	-11.3091
티드	-11.3091
▁마일	-11.3093
▁사진에	-11.3096
분기에	-11.3101
곳에	-11.3102
▁취하	-11.3103
▁소방관들	-11.3104
▁신비	-11.3107
롬	-11.3107
▁중동평화	-11.3112
줘	-11.3112
▁어려워	-11.3114
삭	-11.3116
▁끌려	-11.3117
덩	-11.3117
▁bbk	-11.3117
▁military	-11.3117
▁united	-11.3117
▁농작물	-11.3117
▁닌텐도	-11.3117
▁로맨틱	-11.3117
▁루마니아	-11.3117
▁마호메트	-11.3117
▁베테랑	-11.3117
▁부딪혀	-11.3117
▁실업수당	-11.3117
▁아웅산수지	-11.3117
▁얀코비치	-11.3117
▁엔데버호	-11.3117
▁짝짓기	-11.3117
▁치렀	-11.3117
▁카톨릭	-11.3117
▁타블로이드	-11.3117
▁페널티킥	-11.3117
▁횟수	-11.3117
▁ftse	-11.3117
▁갤럭시	-11.3117
▁곤돌라	-11.3117
▁내비쳤다	-11.3117
▁대중교통	-11.3117
▁라왈핀디	-11.3117
▁로페즈	-11.3117
▁마닐라	-11.3117
▁의구심	-11.3117
▁재정경제부	-11.3117
▁카라카스	-11.3117
▁카리스마	-11.3117
▁검찰총장	-11.3117
▁최우수	-11.3117
▁페르난도	-11.3117
▁테이블	-11.3117
▁뮤직	-11.3117
▁유태인	-11.3117
▁say	-11.3117
▁대통합민주신당	-11.3117
▁보스니아	-11.3117
▁대지진	-11.3117
▁소수민족	-11.3117
▁올바른	-11.3118
▁소아과	-11.3118
▁동점골	-11.3118
▁범람	-11.3118
▁꾸준	-11.3118
▁결승골	-11.3118
▁나중에	-11.3118
▁삼엄	-11.3118
▁패널	-11.3118
▁홀랜드	-11.3118
▁하는지	-11.3119
▁디스커버리호	-11.3119
▁울머	-11.3119
▁유연	-11.3119
▁규명	-11.3119
▁신념	-11.3119
▁호주오픈	-11.312
▁평결	-11.312
▁연합뉴스	-11.312
▁inter	-11.312
▁설교	-11.312
▁표적이	-11.312
▁과잉	-11.312
▁세레나	-11.3121
▁평생	-11.3121
▁오스틴	-11.3121
▁초대형	-11.3122
▁깜	-11.3122
▁결별	-11.3123
▁동남	-11.3123
▁관행	-11.3123
▁극심	-11.3124
▁지폐	-11.3125
▁번영	-11.3125
▁심장병	-11.3125
▁격려	-11.3126
▁911	-11.3126
▁바이오	-11.3126
▁페퍼	-11.3126
▁히트	-11.3127
▁바스크	-11.3127
▁매사추세츠주	-11.3127
▁동행	-11.3127
▁발생하기	-11.3128
▁책임감	-11.3128
▁dc	-11.3128
▁자매	-11.3129
▁권유	-11.3129
▁순회	-11.3129
▁섞	-11.3129
▁재생	-11.313
▁줄어	-11.313
▁비자금	-11.3131
▁보류	-11.3131
▁남겼다	-11.3132
▁하겠다	-11.3132
▁대담	-11.3133
느라	-11.3133
▁온천	-11.3134
▁우방	-11.3135
▁버크	-11.3136
줘야	-11.3136
▁사우스	-11.3136
▁삼았다	-11.3137
혐의로	-11.3138
▁호우	-11.3139
bama	-11.3139
▁빨간	-11.3139
▁위기로	-11.314
준다	-11.3141
▁국정	-11.3143
강에	-11.3147
▁국민당	-11.3147
▁투표권	-11.3148
▁동성	-11.3148
▁도로에	-11.315
▁이끈	-11.315
▁행운	-11.3152
▁자유당	-11.3153
▁서있	-11.3155
▁입장권	-11.3157
▁투수	-11.3158
▁영구	-11.3159
▁누드	-11.316
과학	-11.3161
▁관세	-11.3162
▁1600	-11.3164
▁많았다	-11.3166
▁살리	-11.3167
▁참가자	-11.3168
▁샘	-11.3169
군과	-11.3172
▁필수	-11.3175
▁사이즈	-11.3175
▁제안에	-11.3178
ster	-11.3183
▁의뢰인	-11.3188
▁하려	-11.3189
▁상태였다	-11.3189
▁en	-11.319
플레	-11.3191
▁심정	-11.3194
▁지명자	-11.3195
▁여행객들	-11.3196
▁모닝	-11.3198
▁국무	-11.3198
▁별로	-11.3201
▁용의	-11.3201
▁대처하기	-11.3201
▁넘어서	-11.3202
▁감행했다	-11.3205
▁걸스	-11.3206
강전	-11.3208
▁이란에서	-11.3208
▁무혐의	-11.3208
▁러시아에서	-11.3209
▁행동으로	-11.3212
▁끌어들	-11.3215
▁맞이하	-11.3219
디는	-11.322
▁납치됐다	-11.322
이면	-11.3221
▁공격할	-11.3222
▁흔들리	-11.3223
▁대리	-11.3233
여개	-11.3234
▁감기	-11.3239
로프	-11.3241
▁보아	-11.3243
▁지사	-11.3243
▁허위	-11.3247
노프	-11.3256
하려면	-11.3257
▁문화적	-11.3259
헤드	-11.3261
▁베를린에서	-11.3263
살인	-11.3267
▁거라고	-11.3272
▁참모	-11.3275
▁지구로	-11.3275
▁옥	-11.3276
▁전선	-11.3277
▁관광객이	-11.3278
▁퇴원	-11.3279
층에서	-11.3287
론자들	-11.3289
51	-11.3297
▁분명한	-11.3297
게이트	-11.3297
▁가한	-11.3298
▁죽을	-11.3303
▁석방했다	-11.3303
▁탑	-11.3303
41	-11.3305
▁정직	-11.3306
▁첸	-11.3306
▁재판소	-11.3306
▁구입한	-11.3309
▁미수	-11.331
▁움직	-11.331
▁발생한다	-11.3312
▁위치에	-11.3316
▁ag	-11.3318
▁발표하지	-11.3319
▁차원	-11.3328
라이트	-11.3329
▁파괴됐다	-11.333
펜	-11.3332
▁결승	-11.3334
▁선보였	-11.3334
▁기념하기	-11.3336
컴	-11.3337
첸	-11.3338
휴	-11.3338
▁후안	-11.334
탑	-11.3341
▁심화	-11.3342
돈	-11.3344
▁기념일	-11.3349
▁ps	-11.3353
보고서	-11.3355
▁피신	-11.3363
▁도와	-11.3364
▁남지	-11.3364
▁사태로	-11.3365
▁통상	-11.3367
스텐	-11.3371
ure	-11.3372
▁시작하는	-11.3373
▁군의	-11.3373
▁가려	-11.3376
▁치고	-11.3381
▁이어진	-11.3383
▁상원의	-11.3384
▁방송과	-11.3385
빌리	-11.339
▁직면해	-11.3394
▁정부로부터	-11.3398
▁당원들	-11.3399
회전	-11.34
▁겐	-11.34
▁가하고	-11.3408
▁가담	-11.3419
29	-11.342
▁다쳤	-11.3422
▁제어	-11.3422
▁등장하	-11.3422
처리	-11.3426
▁시작하기	-11.3427
28	-11.3438
▁조달	-11.3441
▁통근	-11.3443
▁br	-11.3445
위안	-11.3447
▁지배하	-11.3448
▁클리	-11.3448
▁단체에	-11.3449
▁루이	-11.345
▁강화했다	-11.3453
▁독자	-11.3453
▁획득했다	-11.3454
▁복용한	-11.3459
uk	-11.3461
▁야당의	-11.3472
▁물질이	-11.3474
▁재미	-11.3475
▁인도와	-11.3477
▁고속	-11.3481
▁보여준	-11.3483
▁후보자들	-11.3483
▁맞았	-11.3485
▁뒤에서	-11.349
▁발사했다	-11.3492
모토	-11.3494
▁공습이	-11.3494
▁국세청	-11.3498
▁이상으로	-11.3501
전문가	-11.3502
67	-11.3505
▁감염자	-11.3506
▁이동했다	-11.3509
93	-11.3516
님	-11.3519
▁pe	-11.352
▁로이	-11.352
▁선택한	-11.3522
받을	-11.3522
여금	-11.3523
48	-11.3524
▁경제성장	-11.3527
▁홈페이지	-11.3528
틸	-11.353
▁오고	-11.353
▁발사된	-11.3531
▁control	-11.3534
▁service	-11.3534
▁가톨릭	-11.3534
▁놀랐다	-11.3534
▁동남아시아	-11.3534
▁레젭	-11.3534
▁몬타나	-11.3534
▁무크타다	-11.3534
▁사카쉬빌리	-11.3534
▁임산부	-11.3534
▁정동영	-11.3534
▁집행유예	-11.3534
▁추수감사절	-11.3534
▁컨퍼런스	-11.3534
▁폴라로이드	-11.3534
룽	-11.3534
윗	-11.3534
쿤	-11.3534
▁휴양지	-11.3534
▁힉스	-11.3534
▁태어나	-11.3534
▁하반기	-11.3534
▁기번스	-11.3534
▁뒤덮	-11.3534
▁주니어	-11.3534
▁이소연	-11.3534
▁억압	-11.3534
▁벨몬트	-11.3534
▁크리켓	-11.3534
▁아지즈	-11.3534
▁페인트	-11.3534
▁fire	-11.3534
▁부정선거	-11.3535
▁와중에	-11.3535
▁소요사태	-11.3535
▁번호판	-11.3535
▁밀접	-11.3535
▁여객선	-11.3535
▁호르타	-11.3535
프레	-11.3535
▁참패	-11.3536
▁관광산업	-11.3536
▁비공개	-11.3536
▁평론가들	-11.3536
▁싸울	-11.3537
▁총격사건	-11.3537
▁홈런	-11.3538
▁기둥	-11.3538
▁사찰	-11.3538
▁연습	-11.3538
▁내기	-11.3538
장소	-11.3539
▁피델	-11.3539
▁suv	-11.3539
▁was	-11.3539
▁정글	-11.354
▁단절	-11.354
▁지칭	-11.3541
▁발사한	-11.3541
▁경제성장률	-11.3541
▁열린다	-11.3541
▁면허	-11.3541
▁테러공격	-11.3542
▁야심	-11.3543
디오	-11.3543
▁면제	-11.3543
▁agenc	-11.3543
▁숨지게	-11.3543
gb	-11.3543
▁감동	-11.3543
▁본래	-11.3543
▁테네시주	-11.3543
▁저지르	-11.3544
▁101	-11.3544
▁완수	-11.3544
▁레저	-11.3545
▁급파	-11.3546
▁울프	-11.3546
▁스탠리	-11.3547
▁반격	-11.3548
▁발작	-11.3548
▁격분	-11.3548
▁테마	-11.3549
▁액수	-11.355
▁독일과	-11.355
헤르	-11.355
▁무너졌다	-11.3551
▁시술	-11.3551
▁여정	-11.3551
▁뉴저지주	-11.3552
▁드문	-11.3552
▁터진	-11.3552
▁과실	-11.3552
▁질식	-11.3553
▁민주당원들	-11.3553
▁데이트	-11.3554
▁ak	-11.3555
▁범죄자	-11.3556
간다	-11.3556
▁앙리	-11.3558
▁비율이	-11.3558
▁장난	-11.3558
▁악화될	-11.3558
▁스노	-11.3559
▁국면	-11.3559
ub	-11.3561
▁mar	-11.3562
▁분명하다	-11.3562
▁외모	-11.3563
▁휩싸였다	-11.3564
▁번식	-11.3565
▁두목	-11.3568
▁iss	-11.3569
▁취해야	-11.357
▁이라크로	-11.3571
▁불가피하다	-11.3573
▁작용할	-11.3574
▁허리	-11.3574
▁성사	-11.3576
▁후보작	-11.3577
▁인파	-11.3581
▁미쳤다	-11.3581
▁핵문제	-11.3583
▁영화로	-11.3584
▁앤드	-11.3584
▁어선	-11.3587
▁배아	-11.3587
▁경선이	-11.3588
▁열리기	-11.3588
▁선박에	-11.3594
▁노동자들이	-11.3596
▁명으로	-11.3597
▁되면서	-11.3597
▁여객기에	-11.3598
▁흉기	-11.36
▁빗	-11.36
▁당선된	-11.3601
코트	-11.3602
ii	-11.3603
▁플	-11.3603
▁450	-11.3603
▁명인	-11.3606
▁후임으로	-11.3606
레즈	-11.3607
▁경찰청장	-11.3607
▁심각하다	-11.3611
▁살해됐다	-11.3613
▁워싱턴에	-11.3614
▁점에서	-11.3614
▁이룬	-11.3617
▁지정된	-11.362
▁개혁안	-11.3621
▁쉐	-11.3621
▁페이	-11.3622
▁구분	-11.3623
▁찬사	-11.3625
베키	-11.3625
▁거물	-11.3626
▁하원에서	-11.3628
▁끝내고	-11.3629
▁켄	-11.3632
편이	-11.3633
작업을	-11.3634
▁맺었다	-11.3635
▁방콕에서	-11.3638
파인	-11.3638
▁포기할	-11.364
▁차지할	-11.364
▁이끌었다	-11.3642
▁만족한다	-11.3642
▁불과했다	-11.3643
워진	-11.3644
▁어디에	-11.365
▁안다	-11.3657
▁전통적으로	-11.3657
▁줄어들었다	-11.366
▁파고	-11.3661
▁97	-11.3665
▁저널	-11.3666
▁피로	-11.3666
▁시대에	-11.3667
어져	-11.3671
아웃	-11.3672
▁바스라에서	-11.3675
▁op	-11.3675
시간이	-11.3675
팀이	-11.3676
▁충고	-11.3676
▁이견	-11.3682
▁전임	-11.3687
▁열리고	-11.3687
▁행한	-11.3693
▁로한이	-11.3697
▁중단했	-11.3702
▁홀에서	-11.3703
▁맡기	-11.3703
▁수퍼대의원	-11.3706
▁플로	-11.3707
▁천명	-11.3709
▁협정에	-11.3711
▁해치	-11.3712
▁공격하기	-11.3712
▁법무	-11.3714
▁앤더슨은	-11.3718
▁국경지역에	-11.3726
▁퍼지	-11.3727
ng	-11.3733
▁수감됐다	-11.3733
기종	-11.3736
▁통과한	-11.3736
▁방한	-11.3739
▁반군에	-11.374
▁고백	-11.3741
▁안개	-11.3742
▁합의안	-11.3748
▁마르코	-11.375
▁연구조사	-11.3751
▁지지율로	-11.3762
▁고집	-11.3764
▁험	-11.3764
마른	-11.3766
▁칠	-11.3769
촉	-11.3772
뜨	-11.3772
몽	-11.3774
컨	-11.3775
묘	-11.3775
▁붙이	-11.3776
▁시스템에	-11.3778
즐	-11.3778
오픈	-11.3779
▁세번째	-11.3781
사실	-11.3782
환경	-11.3782
fc	-11.3782
협력	-11.3783
▁명명	-11.3783
▁특파원이	-11.3783
▁이목	-11.3785
▁차에	-11.3785
나마	-11.3789
주택	-11.3794
79	-11.3795
증권	-11.3795
문서	-11.3797
▁압도	-11.3804
노동	-11.3805
더미	-11.3809
35	-11.3809
▁경제학	-11.381
▁난자	-11.381
▁협상에서	-11.3821
▁자연적	-11.3824
▁내용이다	-11.3825
▁도착했을	-11.3826
교회	-11.383
▁입원했	-11.3835
▁지점에	-11.3835
▁제기되	-11.3837
킨스	-11.3848
▁car	-11.385
▁내야	-11.3852
학자인	-11.3852
▁미국내	-11.3856
▁극적	-11.3856
▁고전	-11.3856
자루	-11.3861
▁정상에	-11.3863
▁게임에서	-11.3865
▁만이	-11.3868
▁인정하고	-11.3869
ant	-11.387
중국	-11.3871
▁치르는	-11.3871
머스	-11.3872
▁관심사	-11.3875
▁충돌했다	-11.3877
▁철수시키	-11.3881
없	-11.3882
득	-11.3886
것을	-11.3892
▁공직	-11.3894
해졌	-11.3897
▁덴버	-11.39
▁승리하는	-11.39
▁관여하	-11.3901
▁킬로미터	-11.3901
▁비전	-11.3906
▁토로	-11.3909
▁무기한	-11.3911
▁들어갔	-11.3915
▁나갔	-11.3918
▁죄수	-11.3919
▁pi	-11.3929
▁분기	-11.3932
▁간다	-11.3932
▁전문의	-11.3936
▁일요일에	-11.3942
▁호흡	-11.3949
▁섬에	-11.3949
코르	-11.395
▁정찰	-11.395
▁복합	-11.3953
▁6000	-11.3955
▁ab	-11.3955
▁버몬트	-11.3957
만톤	-11.3958
▁테네시	-11.3958
럭	-11.396
▁나눠	-11.3961
▁사정	-11.3963
대사관	-11.3964
▁콜린	-11.3965
▁풀려	-11.3967
▁물리적	-11.3967
▁페트로	-11.3968
▁group	-11.3969
▁oecd	-11.3969
▁ufo	-11.3969
▁wwf	-11.3969
▁국가보안법	-11.3969
▁그린스펀	-11.3969
▁농산물	-11.3969
▁대량살상무기	-11.3969
▁디얄라	-11.3969
▁라우터바흐	-11.3969
▁로널드	-11.3969
▁롱고리아	-11.3969
▁버시바우	-11.3969
▁브뤼셀	-11.3969
▁선거캠페인	-11.3969
▁앨라배마	-11.3969
▁엉덩이	-11.3969
▁오차범위	-11.3969
▁이데올로기	-11.3969
▁조선중앙통신	-11.3969
▁쫓겨	-11.3969
▁카메론	-11.3969
▁콘크리트	-11.3969
▁콜레스테롤	-11.3969
▁테헤란	-11.3969
▁프리메라리가	-11.3969
▁합참의장	-11.3969
▁괴롭	-11.3969
▁금융제재	-11.3969
▁오마바	-11.3969
▁횡단	-11.3969
▁올랜도	-11.3969
▁유시프	-11.3969
▁저녁식사	-11.3969
▁팔루자	-11.3969
▁클레이코트	-11.3969
▁정부청사	-11.3969
▁살모넬라균	-11.3969
▁쟁점	-11.3969
▁졸릭	-11.3969
▁사냥꾼	-11.3969
▁농촌	-11.3969
▁검열	-11.3969
▁의료보험	-11.3969
▁자살폭탄	-11.3969
▁가자시티	-11.3969
▁싱글	-11.3969
▁타운	-11.3969
▁근접	-11.397
▁호킨스	-11.397
▁코미디언	-11.397
▁무엇인가	-11.397
▁불쾌감	-11.397
▁안젤리	-11.397
▁동맹관계	-11.397
▁토끼	-11.397
▁반도체	-11.3971
▁그린랜드	-11.3971
▁엄중	-11.3971
▁통계청	-11.3971
▁최후	-11.3971
▁회색	-11.3971
▁친밀	-11.3972
▁연애	-11.3972
▁난폭	-11.3972
▁결백	-11.3972
▁평등	-11.3973
▁기념품	-11.3973
▁아바타	-11.3973
▁증산	-11.3973
▁교역	-11.3973
▁활력	-11.3973
▁제조회사	-11.3974
▁자유로운	-11.3974
▁증오	-11.3974
▁친절	-11.3974
▁내다봤	-11.3975
스테이트	-11.3975
▁포격	-11.3975
▁금지령	-11.3975
▁전제	-11.3975
▁주머니	-11.3975
▁팔렸다	-11.3975
▁jp	-11.3976
▁서열	-11.3976
able	-11.3976
가량	-11.3977
▁황제	-11.3977
▁선거자금	-11.3977
돌프	-11.3978
▁변동	-11.3978
▁한국전쟁	-11.3978
▁지나친	-11.3978
▁베스트	-11.3979
▁즐거	-11.398
▁외각	-11.398
▁라틴	-11.3981
▁지난밤	-11.3981
▁있겠지	-11.3982
36	-11.3982
▁베이비	-11.3982
▁교차	-11.3983
▁감안	-11.3983
▁미시간주	-11.3983
▁없음	-11.3984
▁만행	-11.3984
▁조업	-11.3985
▁건조	-11.3985
▁온실	-11.3986
▁노벨상	-11.3986
▁스파이스	-11.3987
벨리	-11.3987
▁태어났다	-11.3988
▁태아	-11.3989
▁들어보	-11.3989
니에	-11.399
▁단호	-11.399
살짜리	-11.399
▁대승	-11.3991
▁생선	-11.3991
것이	-11.3991
▁풍자	-11.3992
▁지도력	-11.3993
▁일조	-11.3994
▁탈당	-11.3994
▁유타	-11.3995
▁조그	-11.3995
▁파업이	-11.3995
▁야간	-11.3999
▁피터슨	-11.4001
시로	-11.4002
▁본즈	-11.4002
▁금지된	-11.4002
▁어미	-11.4003
▁여인	-11.4004
센터에서	-11.4005
▁발표에	-11.4005
▁반감	-11.4006
▁도박	-11.4006
▁양호	-11.4006
▁한국정부	-11.4007
▁가즈니주	-11.4007
▁ne	-11.4008
▁받았습니다	-11.4008
▁진상	-11.4008
▁문학	-11.4011
▁유명인사	-11.4011
▁모였다	-11.4012
▁ta	-11.4012
▁여기서	-11.4012
▁주정부	-11.4014
▁보호소	-11.4015
▁피우	-11.4015
▁은행이	-11.4015
▁허용하는	-11.4016
▁질서	-11.4016
▁못하면	-11.4016
▁경상	-11.4016
치기	-11.4017
▁비행선	-11.4018
법에	-11.4018
▁작품상	-11.402
▁돌아가는	-11.402
▁린다	-11.402
▁설립자	-11.4021
▁양당	-11.4022
▁연예	-11.4023
▁억류된	-11.4024
▁경유	-11.4024
▁놀이	-11.4024
▁접근할	-11.4026
▁사고에	-11.4026
▁졸	-11.4026
▁만들어내	-11.4027
▁작전에	-11.4027
▁말라위	-11.4029
년째	-11.4032
▁살상	-11.4033
▁높이고	-11.4033
▁주둔군	-11.4034
▁이용자들	-11.4035
▁헨	-11.4036
▁토로했다	-11.4038
▁꼬	-11.4039
▁학자들	-11.4041
▁외계인	-11.4041
▁일종	-11.4042
▁기대된다	-11.4042
▁가사	-11.4045
라트	-11.4046
▁서쪽으로	-11.4049
▁103	-11.4049
있으며	-11.405
▁밝혀지	-11.405
▁의미하는	-11.4051
▁240	-11.4052
▁해결하는	-11.4053
▁하에서	-11.4053
▁내리지	-11.4054
▁큐	-11.4056
▁샤프	-11.406
▁덩어리	-11.406
31	-11.4061
▁전술	-11.4063
▁대신해	-11.4064
42	-11.4065
▁효과적인	-11.4065
ary	-11.4066
▁불거	-11.4069
▁무서	-11.4072
▁의원과	-11.4073
▁되어야	-11.4073
▁당하	-11.4075
▁아랍어	-11.4075
▁서부지역	-11.4081
▁경쟁에서	-11.4085
▁요구해	-11.4086
▁들어서	-11.4086
▁근거지	-11.4089
▁시선	-11.4089
▁red	-11.4089
▁수백만명	-11.4092
▁말했었다	-11.4092
▁교도	-11.4097
퍼스	-11.4097
▁해준다	-11.4099
▁외곽에서	-11.4103
▁생각된다	-11.4105
▁지불할	-11.4106
바니	-11.4107
▁활	-11.4108
▁항해	-11.4108
▁표기	-11.411
▁대학생들	-11.411
▁잡기	-11.4114
▁선호	-11.4117
ew	-11.4121
▁수습	-11.4124
라기	-11.4133
▁증거로	-11.4134
시간에	-11.4135
마저	-11.414
위권	-11.4143
23	-11.4147
▁일반인들	-11.4147
▁증가시키	-11.4149
▁이라크인들	-11.4151
▁검찰에	-11.4154
59	-11.4154
▁수행한	-11.4155
▁태국에서	-11.4156
마드	-11.4156
▁식당에서	-11.4158
▁실시됐다	-11.4159
▁수행했다	-11.4159
▁시작한다	-11.4159
▁공급받	-11.416
났	-11.4165
▁행위로	-11.417
air	-11.4174
▁해변에서	-11.4177
년대에	-11.418
▁아나	-11.418
▁과일	-11.4181
▁84	-11.4185
▁한가지	-11.4187
▁경제학자	-11.4188
▁투자가	-11.419
▁우주비행사들	-11.419
▁마이크로	-11.4191
재단	-11.4192
▁지원한	-11.4196
▁들어가기	-11.4197
▁마련된	-11.4201
▁멘	-11.4201
▁장소에	-11.4202
사이드	-11.4204
▁브레	-11.4205
▁전경	-11.4207
▁파괴된	-11.4212
글리	-11.4213
▁증가했	-11.4216
▁관료들	-11.422
▁램	-11.4221
▁작고	-11.4223
▁오르는	-11.4231
팬	-11.4232
▁중재자	-11.4233
▁박물관에	-11.4235
금융	-11.4235
▁아파트에서	-11.4237
▁주도하고	-11.4238
▁다스	-11.4239
▁클럽에서	-11.4242
르트	-11.4242
▁실려	-11.4244
▁나아	-11.4246
▁추문	-11.425
▁세르	-11.4251
▁배달	-11.4252
▁의원들과	-11.4259
▁판매하는	-11.4259
▁파기	-11.4262
49	-11.4263
▁요인이	-11.4263
▁위반했다	-11.4264
▁바그다드에	-11.4265
▁수성	-11.4268
▁오만	-11.4275
구간	-11.4276
▁일이었다	-11.4279
▁효과적	-11.4281
▁총살	-11.4281
▁man	-11.4286
▁성공할	-11.4291
▁몬	-11.4295
범죄	-11.4301
화물	-11.4302
▁정말로	-11.4307
68	-11.431
▁도달했다	-11.4324
▁이외	-11.4326
▁구조됐다	-11.4328
▁대조	-11.433
▁나비	-11.4334
▁선포한	-11.4334
별로	-11.4334
95	-11.4335
▁중단된	-11.4335
여년	-11.4335
▁해협	-11.4337
▁통과하	-11.4339
▁영화화	-11.4339
ze	-11.434
▁카라치	-11.4342
▁끌어들이	-11.4343
▁교착상태	-11.4344
▁의뢰	-11.4344
▁승려	-11.4345
▁후송	-11.4348
▁막는	-11.4349
▁현안	-11.4351
▁파견했다	-11.4352
▁울리	-11.4353
▁모여들	-11.4354
개월이	-11.4355
▁놓여	-11.4357
▁쇼에	-11.4359
▁악명	-11.4359
▁매케인과	-11.436
▁떠났	-11.4364
▁산업이	-11.4366
▁부상당했다	-11.4366
▁매케인에	-11.4368
▁랜드	-11.437
▁세웠	-11.4375
▁올림픽에	-11.4378
▁겪었	-11.4382
iz	-11.4383
▁총리로	-11.4383
▁지어	-11.4384
▁동부에	-11.4384
▁낙찰	-11.439
▁포도	-11.4402
▁주장해	-11.4402
클리	-11.4402
▁공항으로	-11.4407
교수	-11.4409
차원	-11.441
▁쓰이	-11.4411
▁중태라	-11.4412
▁america	-11.4412
▁하스	-11.4412
▁빚어	-11.4414
▁휩싸	-11.4415
▁다국적	-11.4416
▁잔인	-11.4416
▁신자	-11.4419
롯	-11.4419
므	-11.4421
탔	-11.4422
▁프로그램과	-11.4422
셜	-11.4423
헴	-11.4423
▁consu	-11.4423
▁england	-11.4423
▁nymex	-11.4423
▁국제사면위원회	-11.4423
▁낙하산	-11.4423
▁돈세탁	-11.4423
▁땅콩	-11.4423
▁몰디브	-11.4423
▁베스트셀러	-11.4423
▁부정부패	-11.4423
▁손해배상	-11.4423
▁애널리스트	-11.4423
▁언색호	-11.4423
▁우비넨	-11.4423
▁자이언트	-11.4423
▁지구온난화	-11.4423
▁콘텐트	-11.4423
▁페르난데스	-11.4423
▁푸에르토리코	-11.4423
넥	-11.4423
덱	-11.4423
밭	-11.4423
▁무중력	-11.4423
▁백화점	-11.4423
▁자부심	-11.4423
▁전화통화	-11.4423
▁갱신	-11.4423
▁마스터스	-11.4423
▁자이툰	-11.4423
▁발레리	-11.4423
▁폭넓	-11.4423
▁획기적	-11.4423
▁프리킥	-11.4423
▁진원지	-11.4423
▁후쿠다	-11.4423
▁wild	-11.4423
▁원내대표	-11.4423
▁놀랍	-11.4423
▁플레이오프	-11.4423
▁남서쪽	-11.4423
▁라시드	-11.4423
▁브라더스	-11.4423
▁프레슬리	-11.4423
▁황교수	-11.4423
▁딜리	-11.4423
▁리더십	-11.4423
▁공동성명	-11.4424
▁brit	-11.4424
▁선제골	-11.4424
▁gps	-11.4424
▁아이팟	-11.4424
▁푸켓	-11.4424
▁후계자	-11.4424
▁왕궁	-11.4424
▁다툼	-11.4424
▁포옹	-11.4424
▁검시관	-11.4424
▁침실	-11.4424
▁퇴역	-11.4425
▁결의	-11.4425
▁인디언	-11.4425
▁메이저	-11.4425
▁줄어든	-11.4425
▁평창	-11.4425
▁간첩	-11.4426
▁투항	-11.4426
▁기부금	-11.4426
▁프라임	-11.4426
▁물러난	-11.4426
▁기차역	-11.4426
▁보도자료	-11.4426
▁미술관	-11.4426
▁보건당국	-11.4426
▁지저스	-11.4427
▁이루어질	-11.4427
▁웃음	-11.4427
▁우익	-11.4427
▁않으려	-11.4427
▁냉전	-11.4428
▁우편	-11.4428
▁터너	-11.4428
▁발송	-11.4428
▁해산물	-11.4428
▁다룰	-11.4428
▁헌터	-11.4428
▁재능	-11.4428
▁감각	-11.4428
▁늘어난	-11.4429
▁데이브	-11.443
▁정교회	-11.443
▁1975	-11.4431
▁잔디	-11.4431
▁대기권	-11.4432
▁북경	-11.4432
▁퇴치	-11.4432
▁2014	-11.4432
▁천연	-11.4432
▁출간	-11.4433
▁디에고	-11.4433
▁복부	-11.4433
▁프로디	-11.4433
▁변형	-11.4434
▁사이먼	-11.4434
▁시몬	-11.4434
롭게	-11.4434
▁추모식	-11.4434
시께	-11.4434
▁누설	-11.4434
▁나이키	-11.4435
리언	-11.4436
▁일삼	-11.4436
세르	-11.4436
▁콜린스	-11.4437
▁철거	-11.4438
▁조각상	-11.4438
▁피고인들	-11.4439
▁공표	-11.4439
▁서버	-11.444
▁호박	-11.444
▁사절	-11.4441
▁연정	-11.4442
▁나온다	-11.4443
▁파워	-11.4443
▁보리스	-11.4443
▁린치	-11.4444
▁섬유	-11.4444
▁신설	-11.4445
▁비정부	-11.4446
▁참수	-11.4447
▁정유	-11.4447
런스	-11.4448
▁빈번	-11.4448
▁줄었다	-11.4448
▁상표	-11.4448
▁감독과	-11.4449
▁근본주의	-11.445
▁결성	-11.4451
▁배정	-11.4452
▁좋았다	-11.4453
▁루디	-11.4454
▁실바	-11.4455
▁의류	-11.4455
▁폐허	-11.4455
▁상실	-11.4456
▁주립	-11.4457
▁너	-11.4457
▁투자가들	-11.4457
ell	-11.4458
▁1400	-11.4459
▁툴	-11.446
▁직위	-11.4461
▁현직	-11.4462
지수가	-11.4462
▁장관급	-11.4462
▁제작진	-11.4463
▁왕위	-11.4463
▁움직이는	-11.4464
▁연예인	-11.4466
▁주식시장이	-11.4466
▁sg	-11.4466
▁주입	-11.4466
▁국토안보부	-11.4466
▁주차장에서	-11.4468
▁정부기관	-11.4469
▁싶어하	-11.4471
▁불경기	-11.4471
▁간호사	-11.4472
슬러	-11.4473
단체인	-11.4475
▁인터넷에서	-11.4476
▁연어	-11.4477
▁esta	-11.4479
블리	-11.4481
▁중국정부	-11.4482
▁게시	-11.4483
▁돌아간	-11.4484
▁목표물	-11.4486
▁보험사	-11.4487
▁통과할	-11.4487
▁비중	-11.4488
▁kt	-11.4488
링턴	-11.4488
▁맞지	-11.4489
차관	-11.449
▁이민법	-11.4491
ite	-11.4493
▁일본인들	-11.4494
▁역임	-11.4495
물질	-11.4496
▁자란	-11.4496
▁신성	-11.4497
▁순간에	-11.4498
▁겁	-11.45
▁템	-11.4507
▁성능	-11.4507
▁랜	-11.4509
▁쓰지	-11.451
▁발표하면서	-11.451
ern	-11.4511
▁판명	-11.4511
▁남부지역에서	-11.4511
ber	-11.4513
▁미군에	-11.4514
▁소행	-11.4515
▁기르	-11.4516
▁실종됐다고	-11.4517
허가	-11.4518
▁이유에	-11.452
▁닉	-11.4522
▁아크	-11.4524
▁석상	-11.4524
ian	-11.4527
▁팔레스타인과	-11.4527
11	-11.453
▁피의자	-11.4532
▁이건	-11.4535
979	-11.4536
▁사건에서	-11.4537
▁법에	-11.4539
▁이스트	-11.4541
▁알려졌	-11.4541
▁동해	-11.4543
▁타이거	-11.4543
▁기여	-11.4544
▁관여한	-11.4545
▁희생자들이	-11.4546
▁하퍼	-11.4547
▁갇혀있	-11.4548
▁노력했다	-11.4549
▁생각할	-11.4555
▁사항이	-11.4556
▁연인	-11.4558
해줬다	-11.4577
▁로즈	-11.4578
▁정국	-11.4579
▁숨지	-11.458
▁작년에	-11.458
▁젠	-11.4581
▁시민이	-11.4583
▁알바	-11.4585
▁교통부	-11.4585
▁참가국들	-11.4585
▁치료제	-11.4586
▁바람에	-11.4588
▁방위	-11.4593
▁계속됐다	-11.4598
▁프로젝트에	-11.4602
▁결정된	-11.4603
▁결승전에	-11.4604
▁결정한	-11.4607
into	-11.4609
▁토론회에서	-11.461
▁경의	-11.4617
▁해결에	-11.4619
ps	-11.462
▁방송이	-11.4627
▁하사	-11.4633
리코	-11.4633
리터	-11.4633
▁드리	-11.4639
▁지원했다	-11.464
▁압수했다	-11.4644
▁팔리	-11.4656
▁고리	-11.466
▁소방대원	-11.4662
▁베이징에	-11.4662
▁위안	-11.4663
▁고정	-11.4667
▁lea	-11.467
▁이용자	-11.467
인당	-11.4673
▁십대	-11.4683
▁아프리카에서	-11.4683
▁수행하는	-11.4684
▁가정에서	-11.4689
43	-11.469
옥	-11.4691
활	-11.4696
물리학	-11.4701
▁확산되	-11.4702
ue	-11.4704
▁유럽에	-11.4704
딕	-11.4704
풀	-11.4705
톱	-11.4705
끄	-11.4706
▁저명	-11.4706
사무소	-11.4707
책임자	-11.4709
▁da	-11.471
경기에	-11.471
rate	-11.4711
▁돼있다	-11.4717
▁적지	-11.4721
요금	-11.4723
▁비리	-11.4725
ef	-11.4727
연구원	-11.4728
▁방문하고	-11.473
▁일부분	-11.4733
정권	-11.4735
대책	-11.4738
여행	-11.474
▁지아	-11.474
배로	-11.474
ong	-11.4742
▁수년간	-11.4743
▁게임에	-11.4745
▁고고학자	-11.4755
▁여진	-11.4755
▁비난했	-11.4758
▁앉아있	-11.4761
번호	-11.4761
▁내부에	-11.4763
▁강화하기	-11.4764
▁홍콩에서	-11.4765
▁회전	-11.4767
▁캘리포니아에서	-11.477
실적	-11.4772
▁장례식에	-11.4774
▁진정시키	-11.4774
▁부분에	-11.4779
예프	-11.4783
▁집회에서	-11.4784
주재	-11.4786
마라	-11.4787
▁엔지니어	-11.4787
▁블리	-11.4789
▁시점에	-11.479
▁결함이	-11.4793
▁시민단체	-11.4794
▁일본군	-11.4796
▁항의했다	-11.4801
▁참가국	-11.4806
▁한반도에서	-11.4806
▁연기됐다	-11.4807
▁미얀마에서	-11.4808
▁도착해	-11.4808
▁실험에	-11.4811
▁최근까지	-11.482
▁노출되	-11.4828
io	-11.4839
▁열려	-11.4839
▁실종됐다	-11.4847
▁찾았	-11.4848
▁우려하는	-11.4848
▁치열	-11.4849
▁경호원들	-11.4854
▁창고	-11.4854
▁중력	-11.4858
▁납치범	-11.4861
하기위해	-11.4864
바인	-11.4864
야당	-11.4865
케르	-11.4866
리트	-11.4869
▁되려	-11.487
▁불행	-11.4872
▁전반에	-11.4876
▁지원에	-11.4878
▁쌍	-11.4881
▁우주비행	-11.4883
▁집이	-11.4888
끔	-11.4891
▁미주리	-11.4891
티아	-11.4894
흥	-11.4895
▁소식통들	-11.4895
▁94	-11.4897
셋	-11.4898
건에	-11.4898
34	-11.4898
▁친구와	-11.4899
▁총기난사	-11.4899
▁117	-11.4899
▁얼룩	-11.4899
벡	-11.4899
▁baghdad	-11.4899
▁pakistan	-11.4899
▁peace	-11.4899
▁science	-11.4899
▁society	-11.4899
▁가라앉	-11.4899
▁가로질러	-11.4899
▁그랜드슬램	-11.4899
▁라스무센	-11.4899
▁레드삭스	-11.4899
▁매릴랜드	-11.4899
▁믿음	-11.4899
▁믿지	-11.4899
▁생태계	-11.4899
▁소렌스탐	-11.4899
▁슈나이더	-11.4899
▁스콜세지	-11.4899
▁스탤론	-11.4899
▁식이요법	-11.4899
▁신용경색	-11.4899
▁아이슬란드	-11.4899
▁유네스코	-11.4899
▁잃게	-11.4899
▁주미대사	-11.4899
▁질렀다	-11.4899
▁찍었다	-11.4899
▁코네티컷	-11.4899
▁투탕카멘	-11.4899
▁펌프	-11.4899
▁포틀랜드	-11.4899
▁해리왕자	-11.4899
덟	-11.4899
▁가금류	-11.4899
▁아메드	-11.4899
▁알자지라	-11.4899
▁와지리스탄	-11.4899
▁황박사	-11.4899
▁가석방	-11.4899
▁고마움	-11.4899
길에	-11.4899
▁남동쪽	-11.4899
▁밀리밴드	-11.4899
▁administration	-11.4899
▁본거지	-11.4899
▁핑크	-11.4899
▁agree	-11.4899
▁파이프라인	-11.4899
▁이뤄져야	-11.49
▁외딴	-11.49
▁강아지	-11.49
▁익사	-11.49
▁블레이크	-11.49
▁떠오르	-11.49
▁투옥	-11.49
▁거세지	-11.49
▁삭스	-11.49
▁버클리	-11.49
▁화폐	-11.49
▁back	-11.49
▁불러일으키	-11.49
▁삼성그룹	-11.49
▁이틀째	-11.4901
▁face	-11.4901
▁탑재	-11.4901
▁석탄	-11.4901
▁완승	-11.4901
▁재처리	-11.4901
▁차세대	-11.4901
▁자본주의	-11.4902
▁음란물	-11.4902
▁우호적	-11.4902
▁점유율	-11.4902
▁청색	-11.4902
▁faa	-11.4902
▁로얄	-11.4903
▁나이로비	-11.4903
▁단축	-11.4904
▁증권거래소	-11.4904
▁사절단	-11.4904
▁정확하게	-11.4904
▁맞춘	-11.4904
▁rights	-11.4904
평가	-11.4905
▁사촌	-11.4905
▁교실	-11.4906
▁그래함	-11.4906
▁은폐	-11.4906
▁wti	-11.4906
▁버려진	-11.4906
▁절단	-11.4906
▁예외	-11.4907
▁선진국	-11.4907
▁첫째	-11.4907
▁계단	-11.4907
▁붙였다	-11.4907
▁유머	-11.4907
▁동등	-11.4907
▁교정	-11.4908
▁괴한들	-11.4908
▁무패	-11.4908
▁방위군	-11.4909
▁있느냐	-11.4909
용품	-11.4909
▁화물선	-11.4909
▁진심	-11.4909
▁긴장감	-11.491
▁선언문	-11.491
▁감행한	-11.491
▁노엘	-11.4911
▁외교관들	-11.4913
▁육상	-11.4913
▁파타당	-11.4914
▁엔화	-11.4914
▁마샤	-11.4916
▁대통령궁	-11.4917
▁사격	-11.4917
▁골든	-11.4918
▁판결문	-11.4918
▁시청률	-11.492
▁영아	-11.492
▁달렸다	-11.492
▁시합	-11.4921
▁단일	-11.4921
▁육성	-11.4921
▁선동	-11.4923
▁펴	-11.4923
▁자체적으로	-11.4924
▁줄리아	-11.4924
▁쿠즈	-11.4925
▁치우	-11.4925
▁설문조사	-11.4926
▁che	-11.4926
▁신종	-11.4927
▁콜로라도주	-11.4928
ls	-11.4928
▁탈세	-11.4928
▁투하	-11.493
▁종전	-11.4931
▁반란	-11.4933
▁인천	-11.4933
▁높았다	-11.4934
▁연맹	-11.4941
▁치아	-11.4941
▁팔아	-11.4942
▁270	-11.4945
▁풀어주	-11.4948
▁근본	-11.4949
▁금연법	-11.4949
▁내려오	-11.4949
▁접어들	-11.495
▁들소	-11.4952
▁동상	-11.4952
▁들어왔다	-11.4952
▁가이드	-11.4954
▁크라우	-11.496
▁남부지역	-11.4963
▁의사당	-11.4964
▁아카	-11.4965
▁내달	-11.4967
▁영해	-11.497
▁다루는	-11.497
▁샬	-11.4971
▁수영장	-11.4972
▁국제법	-11.4975
▁문어	-11.4976
▁투표소	-11.4976
▁목에	-11.4981
▁배상	-11.4982
▁양곤에서	-11.4984
▁의존하고	-11.4985
▁우주로	-11.499
▁비티	-11.4992
▁주심	-11.4992
▁주목할	-11.4993
▁측면에서	-11.4994
▁라파	-11.4995
▁후속	-11.4995
성과	-11.4998
▁전용기	-11.4998
▁확인하지	-11.4999
▁낮게	-11.5001
▁조직원들	-11.5003
▁그럴	-11.5005
▁실질적으로	-11.5006
▁적군	-11.5006
▁우주센터	-11.5006
▁줬	-11.5009
▁움	-11.5011
▁결혼했다	-11.5011
▁음와	-11.5011
▁영화관	-11.5016
▁생물학적	-11.5018
▁작전이	-11.5023
▁박스	-11.5028
▁국가와	-11.5033
▁대면	-11.5035
▁운전자들	-11.5035
▁분리주의자들	-11.504
▁토레	-11.5045
▁손님들	-11.5052
▁자식	-11.5054
▁이끌어내	-11.5054
▁카불에서	-11.5056
▁평방	-11.5056
▁등정	-11.5062
▁헌신	-11.5068
▁기업체	-11.5069
nc	-11.5069
건설	-11.5072
▁궤도에	-11.5072
▁국내에서	-11.5074
▁대응할	-11.5076
▁적게	-11.5076
됐기	-11.5078
내려	-11.5078
▁이사장	-11.5083
▁star	-11.5085
▁착용한	-11.5087
ical	-11.509
▁단계적	-11.509
▁경찰관이	-11.5092
▁서명한	-11.5092
▁그곳	-11.5096
▁간부들	-11.5098
▁결정하기	-11.51
▁완화하기	-11.5104
척이	-11.5108
▁다치	-11.5113
▁호스	-11.5114
▁담겨	-11.5115
▁컨	-11.5116
▁공해	-11.5116
▁발효	-11.5119
▁도시들	-11.5127
▁fc	-11.5128
▁선정했다	-11.5129
▁설립한	-11.513
▁수용소에	-11.5131
▁모델로	-11.5132
▁파키스탄과	-11.5134
▁san	-11.5136
▁다운	-11.5136
▁중단시키	-11.5138
▁바비	-11.5139
▁결심했다	-11.514
985	-11.5143
▁본부장	-11.5146
973	-11.5146
▁벨리	-11.5149
▁tri	-11.5163
▁유전적	-11.5163
▁레인	-11.5164
▁시행되	-11.5164
▁여성으로	-11.5166
▁연결하	-11.5166
▁입히	-11.5167
▁강화된	-11.5168
▁폭락했다	-11.5169
▁파괴되	-11.5176
▁신체적	-11.5177
▁prim	-11.5179
▁한국측	-11.5183
켜	-11.5184
▁기관들	-11.5186
▁국제적으로	-11.5186
▁처했다	-11.5187
▁회복하고	-11.5187
십만	-11.5188
▁중단됐	-11.5189
▁우려해	-11.5193
▁십년	-11.5196
▁전사들	-11.5197
어드	-11.5201
▁보도된	-11.5203
▁얀	-11.5204
▁퇴원했다	-11.5205
▁전비	-11.5205
털	-11.5207
▁팀에	-11.5207
▁타지	-11.5208
핵	-11.5209
보좌관	-11.5209
밴드	-11.521
투쟁	-11.521
▁확보에	-11.5213
▁제방	-11.5213
음악	-11.5213
민족	-11.5215
분쟁	-11.5216
▁자신만	-11.522
▁과다	-11.5221
▁제시할	-11.5224
▁올림픽에서	-11.5226
모양	-11.5226
▁글로	-11.5227
노스	-11.5229
▁뒤지	-11.5229
부족	-11.5232
이라크	-11.5233
체계	-11.5236
▁충족	-11.5237
▁이행하	-11.5245
▁can	-11.5246
적이지	-11.5246
통제	-11.5246
▁민영	-11.5246
▁있을까	-11.5254
ie	-11.5255
▁직원과	-11.5264
▁gu	-11.5269
▁레바논에서	-11.5272
▁pre	-11.5274
▁마련해	-11.5275
▁공로	-11.5275
▁심리학	-11.5276
▁격돌한	-11.5278
▁진출에	-11.5279
공원	-11.5279
▁배우자	-11.528
▁이용했다	-11.5281
첨	-11.5283
▁들어있	-11.5287
hip	-11.529
▁합법적	-11.5291
▁집중적	-11.53
▁촉구하고	-11.5303
▁소행이라	-11.5304
▁혐의와	-11.5304
감시	-11.531
nt	-11.5311
▁잡혀	-11.5314
▁가야	-11.5316
▁트럭이	-11.532
▁여행자	-11.5322
▁교회에	-11.5325
▁한명	-11.5329
▁스티	-11.5337
▁몰리	-11.534
▁돌아왔	-11.5342
▁이뤄졌	-11.5343
▁외계	-11.5345
▁만지	-11.5349
▁관리들과	-11.535
▁젊은이들이	-11.5351
▁기록됐다	-11.5353
▁느껴	-11.5353
▁나이로	-11.5354
투자	-11.5359
▁수단으로	-11.5359
▁발명	-11.536
▁나타냈	-11.5361
▁정규	-11.5361
려면	-11.5362
▁바다에	-11.5362
컷	-11.5363
▁미끄러	-11.5367
▁공산	-11.5367
보트	-11.5369
▁교황이	-11.537
▁연구자들	-11.5373
▁중장	-11.5373
▁기간이	-11.5374
▁통과된	-11.5376
▁태어났	-11.5377
▁해역	-11.5379
▁시달	-11.5383
ai	-11.5384
▁밀집	-11.5384
능력	-11.5385
▁매력적	-11.5385
▁미네소타	-11.5387
▁월터	-11.5388
▁노인들	-11.5389
▁주도하	-11.5389
▁능력이	-11.5389
만대	-11.539
▁조세	-11.539
▁일정에	-11.5391
▁하와	-11.5393
획	-11.5393
▁중앙정보	-11.5394
첩	-11.5396
칙	-11.5396
▁더미	-11.5396
▁요구했	-11.5397
▁도착했	-11.5397
▁대표와	-11.5397
ress	-11.5398
랙	-11.5399
돔	-11.5399
엽	-11.5399
펀	-11.5399
▁앵커	-11.5399
랫	-11.5399
▁ecb	-11.5399
▁rctv	-11.5399
▁갖췄다	-11.5399
▁갤러리	-11.5399
▁급상승	-11.5399
▁김경준	-11.5399
▁끊어	-11.5399
▁나이트클럽	-11.5399
▁네그로폰테	-11.5399
▁뉴욕상업거래소	-11.5399
▁뚜렷	-11.5399
▁만델라	-11.5399
▁매카트니	-11.5399
▁비아그라	-11.5399
▁빈라덴	-11.5399
▁싫어하	-11.5399
▁쓰러져	-11.5399
▁아흐마디네자드	-11.5399
▁영유권	-11.5399
▁와이오밍	-11.5399
▁제너럴	-11.5399
▁즈보나레바	-11.5399
▁초콜릿	-11.5399
▁푸에르타	-11.5399
▁해안경비대	-11.5399
▁햇볕	-11.5399
윙	-11.5399
팍	-11.5399
푼	-11.5399
▁신생아	-11.5399
▁자민당	-11.5399
▁로드맵	-11.5399
▁마리화나	-11.5399
▁갱단	-11.5399
▁로날드	-11.5399
▁아폴로	-11.5399
▁홈구장	-11.5399
▁딜런	-11.5399
▁가이트너	-11.5399
▁헝가리	-11.5399
▁피해여성	-11.5399
▁텔레콤	-11.5399
▁몰아넣	-11.5399
▁무자비	-11.5399
▁프리츨	-11.5399
▁해들리	-11.5399
▁함부르크	-11.5399
▁발자국	-11.5399
▁아이다호	-11.54
▁휴이트	-11.54
▁마스리	-11.54
▁게놈	-11.54
▁독특	-11.54
▁룰라	-11.54
▁연못	-11.54
▁봉착	-11.54
▁흘리	-11.54
▁에어웨이	-11.54
▁police	-11.54
▁가르시아	-11.54
▁눈보라	-11.54
▁몬테	-11.54
▁오스만	-11.54
▁혜성	-11.54
▁척추	-11.5401
▁참의원	-11.5401
▁창업자	-11.5401
▁도미니카	-11.5401
▁지방선거	-11.5401
▁잡혔다	-11.5401
▁순결	-11.5401
▁잠비아	-11.5401
▁매도프	-11.5402
▁크로스	-11.5402
카트	-11.5402
▁제이슨	-11.5402
▁라싸	-11.5402
▁막으려	-11.5402
▁약속했	-11.5402
▁지방법원	-11.5402
▁보험금	-11.5402
▁돌풍	-11.5403
▁거슬러	-11.5403
▁내놓았다	-11.5403
▁위안화	-11.5403
▁that	-11.5403
▁선고받았다	-11.5404
▁사나	-11.5404
▁바랍	-11.5404
▁파이프	-11.5404
▁정황	-11.5404
▁러브	-11.5404
▁진열	-11.5404
▁union	-11.5405
▁봅	-11.5405
▁철강	-11.5405
▁기원전	-11.5405
▁함정	-11.5405
▁훔쳐	-11.5405
▁스텔	-11.5406
▁떨어졌습니다	-11.5406
▁잠재력	-11.5406
▁메모리	-11.5406
ney	-11.5407
▁투병	-11.5407
▁부착	-11.5407
▁분양	-11.5408
▁샤론	-11.5408
▁재앙	-11.5408
▁예금	-11.5408
▁해리슨	-11.5408
▁독립국가	-11.5408
▁사라질	-11.5408
▁악마	-11.5409
▁인텔	-11.5409
▁초드리	-11.5409
▁유언	-11.5409
▁공범	-11.5409
▁승진	-11.5409
▁사탕	-11.541
▁조립	-11.5411
▁통역	-11.5411
▁복사	-11.5412
▁선박들	-11.5413
▁인준	-11.5413
▁앞서있다	-11.5414
▁카이로	-11.5414
▁언론인	-11.5415
▁투여	-11.5416
▁남긴	-11.5416
▁순수	-11.5416
▁만연	-11.5417
클라	-11.5417
▁대열	-11.5417
▁배역	-11.5418
▁혈	-11.542
▁애정	-11.5422
▁정당화	-11.5423
▁다행	-11.5423
▁안고	-11.5424
▁점심	-11.5425
▁솜	-11.5425
▁360	-11.5425
▁공공장소에서	-11.5425
bs	-11.5426
▁힐러리경	-11.5427
▁가져왔다	-11.5428
▁채무	-11.5428
▁장애물	-11.5428
▁예보	-11.5429
▁역전	-11.543
파크	-11.5431
▁루즈	-11.5431
▁아이오와주	-11.5432
tory	-11.5433
▁전념	-11.5433
▁테러범이	-11.5433
▁캐나다에서	-11.5433
▁취업	-11.5433
▁만회	-11.5434
▁임상	-11.5434
▁정박	-11.5434
▁따내	-11.5434
▁딴	-11.5435
▁그래픽	-11.5435
▁목성	-11.5436
▁치료법	-11.5436
▁제한하	-11.5438
▁감수	-11.5438
▁상임	-11.544
▁버드	-11.5441
▁도피	-11.5442
▁합법적으로	-11.5444
▁레이드	-11.5444
비드	-11.5445
▁박차	-11.5446
▁사람으로	-11.5447
▁포즈	-11.5448
▁지지했다	-11.5449
▁마시는	-11.5449
▁리우	-11.545
▁포크	-11.5452
▁토드	-11.5454
▁죽였다	-11.5454
▁마루	-11.5454
▁자파	-11.5454
▁128	-11.5455
▁번개	-11.5458
▁위크	-11.546
▁친척들	-11.546
▁본인	-11.5462
▁작가들	-11.5463
▁신선	-11.5463
▁펜실베이니아주	-11.5464
▁합법적인	-11.5464
▁몰린	-11.5468
▁서구	-11.5469
▁바라보	-11.5473
▁기용	-11.5474
▁공격해	-11.5475
월말	-11.5475
▁따라잡	-11.5475
▁담당하	-11.5475
▁개정된	-11.5476
▁조화	-11.5478
▁관광객들에게	-11.5478
▁사우	-11.5479
▁없었고	-11.548
▁예상치	-11.5484
리드	-11.5485
▁교착상태에	-11.5488
▁시사했다	-11.5491
▁올드	-11.5492
▁편집장	-11.5492
▁발표되지	-11.5493
▁기각했다	-11.5493
▁왕국	-11.5493
▁ump	-11.5494
▁출판사	-11.5494
▁빨라	-11.5494
71	-11.5495
▁힘들었	-11.5495
▁북해	-11.5497
▁날에	-11.5498
▁설치한	-11.5498
▁경찰관들	-11.5499
▁북한군	-11.5501
▁추락해	-11.5502
▁장점	-11.5503
▁재료	-11.5504
▁중태	-11.5505
▁무거	-11.5507
▁적도	-11.5508
▁발견해	-11.551
▁이제까지	-11.5511
▁버스에	-11.5514
▁잡았	-11.5522
낸다	-11.5526
▁견디	-11.5529
▁정해진	-11.553
▁연행됐다	-11.553
74	-11.5531
▁220	-11.5533
▁부분에서	-11.5533
▁본회의	-11.5536
▁이슬라마바드에서	-11.5537
▁길게	-11.5537
판매	-11.5538
▁비공식	-11.5539
▁여행사	-11.5539
▁해안가	-11.554
▁났	-11.5541
명씩	-11.5542
▁지나간	-11.5543
▁숨어	-11.5551
▁신뢰할	-11.5551
▁나타난다	-11.5554
스프링스	-11.5556
▁호주군	-11.5557
▁조사팀	-11.5562
▁손상된	-11.5564
살된	-11.5566
▁가나	-11.5567
▁인종차별	-11.5569
▁두번째로	-11.557
▁이집트에서	-11.5571
▁운영되	-11.5572
▁빌라	-11.5573
ark	-11.5576
▁랩	-11.5577
▁주석이	-11.5577
▁션	-11.5578
비안	-11.5578
▁마주	-11.558
▁쓰인	-11.5585
▁임명했다	-11.5589
▁오르기	-11.5591
▁work	-11.5593
▁노린	-11.5593
다르	-11.5596
▁설립된	-11.5596
tri	-11.5602
▁광장에서	-11.5602
▁차이나	-11.5605
▁가져가	-11.5612
he	-11.562
▁대상자	-11.5621
▁칼로	-11.5624
▁등록된	-11.5627
머니	-11.563
▁맞을	-11.5631
▁지명에	-11.5633
▁일반인	-11.5634
▁지켜보고	-11.5637
란다	-11.564
▁붕괴되	-11.5643
데릭	-11.5645
▁주전	-11.5646
상태에	-11.5651
▁납치됐	-11.5653
▁무대에	-11.5654
▁결의안이	-11.5657
des	-11.5658
▁하우스	-11.5659
▁경기장에서	-11.5659
▁보내지	-11.566
▁조차	-11.5665
▁농부들	-11.5667
▁목록에	-11.5667
▁프로그램에서	-11.5668
▁농부	-11.5668
▁280	-11.5673
봤다	-11.5674
▁일시	-11.5674
▁한반도에	-11.5679
▁체포했	-11.5681
지스	-11.5682
대상	-11.5685
줬	-11.5686
▁외곽에	-11.5687
▁아서	-11.5688
▁팔레스타인인	-11.569
▁진도	-11.569
적이었다	-11.5693
73	-11.5695
▁확보해	-11.5704
대통령	-11.5705
ease	-11.5707
▁그루	-11.5708
▁잡을	-11.571
▁구속됐다	-11.571
▁조사하는	-11.5712
▁고민	-11.5716
▁아파	-11.5718
▁시청자	-11.5722
특	-11.5723
휘	-11.5726
▁생산된	-11.5726
▁팔레스타인인들	-11.5727
▁운항이	-11.5728
▁공화당원들	-11.5729
▁이혼했다	-11.573
▁샌프란시스코에서	-11.5731
▁검	-11.5731
▁정신병	-11.5731
재판소	-11.5732
▁tr	-11.5732
탐	-11.5735
시리즈	-11.5736
▁동의한다	-11.5736
뒤	-11.5736
▁폭발물이	-11.5737
▁고등	-11.5744
▁엑스	-11.5747
관광	-11.5748
▁하기로	-11.575
에너지	-11.5754
▁사고기	-11.5756
연방	-11.5756
할때	-11.5758
▁대장	-11.5758
방안	-11.576
메스	-11.5782
▁지방에	-11.5785
벨라	-11.5786
▁요청하	-11.5788
상품	-11.5792
호프	-11.5795
▁무장세력과	-11.5795
▁않았다면	-11.5796
▁제품들	-11.5799
▁걸리는	-11.58
▁하드	-11.5803
▁밀리	-11.5806
▁아사	-11.5808
▁실종됐	-11.5808
▁ev	-11.5808
▁역할에	-11.5809
▁발언이	-11.581
▁벌여왔	-11.581
▁요구한다	-11.5814
스트라	-11.5816
▁나간	-11.5816
▁만나고	-11.5821
▁근본적	-11.5825
▁해법	-11.5825
▁앗아	-11.5825
▁승리했	-11.5827
aw	-11.5831
▁서기	-11.5833
▁의문이	-11.5836
전화	-11.5837
▁효율	-11.5845
ast	-11.5853
▁설립했다	-11.5853
▁유대인들	-11.5856
▁졌다	-11.5857
▁금요일에	-11.5858
▁흐	-11.5859
▁210	-11.5862
▁방안에	-11.5867
▁일했다	-11.5868
▁방에서	-11.5873
▁가혹	-11.5874
▁들어왔	-11.5876
▁개들	-11.5881
▁연구하는	-11.5884
▁침	-11.5885
▁생활에	-11.5889
▁정치가	-11.589
▁째	-11.5893
모리	-11.5896
▁아비	-11.59
▁bl	-11.5902
▁취했	-11.5906
▁해왔	-11.5906
▁구성원	-11.591
▁반응이	-11.5913
▁기준에	-11.5914
▁자바	-11.5917
포스	-11.5921
▁뒤따	-11.5923
셉	-11.5923
듬	-11.5923
▁했는지	-11.5924
깃	-11.5924
▁첨단	-11.5925
뮤	-11.5926
▁hsbc	-11.5926
▁journal	-11.5926
▁market	-11.5926
▁uae	-11.5926
▁www	-11.5926
▁가깝게	-11.5926
▁가솔린	-11.5926
▁꿀벌	-11.5926
▁끌었	-11.5926
▁낳았다	-11.5926
▁디스플레이	-11.5926
▁르완다	-11.5926
▁리트비넨코	-11.5926
▁메르세데스	-11.5926
▁미항공우주국	-11.5926
▁박정희	-11.5926
▁방코델타아시아	-11.5926
▁버틀러	-11.5926
▁베를루스코니	-11.5926
▁북대서양	-11.5926
▁불매운동	-11.5926
▁불필요	-11.5926
▁성매매	-11.5926
▁쌓인	-11.5926
▁아라파트	-11.5926
▁앙카라	-11.5926
▁애틀랜티스호	-11.5926
▁얼어붙	-11.5926
▁요하네스버그	-11.5926
▁정권인수팀	-11.5926
▁좋겠다	-11.5926
▁키드먼	-11.5926
▁토튼햄	-11.5926
▁핸드폰	-11.5926
▁현수막	-11.5926
▁흑자	-11.5926
늬	-11.5926
콥	-11.5926
▁usgs	-11.5926
▁노워크	-11.5926
▁순이익	-11.5926
▁스즈키	-11.5926
▁영사관	-11.5926
▁인공위성	-11.5926
▁잠수함	-11.5926
▁재규어	-11.5926
▁밀라노	-11.5926
▁나뉘어	-11.5926
▁오페라	-11.5926
▁원자재	-11.5926
▁비너스	-11.5926
▁사직서	-11.5926
▁카펠로	-11.5926
▁home	-11.5926
▁선거유세	-11.5926
▁대운하	-11.5926
▁괴물	-11.5926
▁election	-11.5926
▁관절염	-11.5926
▁사형선고	-11.5926
▁price	-11.5926
▁블랙워터	-11.5926
▁아로요	-11.5926
▁심장질환	-11.5926
▁강원도	-11.5926
▁반짝이	-11.5926
▁프라이스	-11.5926
▁즐거움	-11.5926
▁하이킹	-11.5926
▁issue	-11.5926
카니	-11.5926
▁번화가	-11.5926
제작	-11.5926
▁몸싸움	-11.5926
▁그리핀	-11.5926
▁액션	-11.5926
▁파란색	-11.5926
▁드라이브	-11.5926
▁체첸	-11.5926
▁office	-11.5927
▁웰스	-11.5927
▁출항	-11.5927
▁휘말	-11.5927
▁빠져나가	-11.5927
▁제약회사	-11.5927
▁그린존	-11.5927
▁바오로	-11.5927
▁크리스틴	-11.5927
▁정회장	-11.5928
▁통과했다	-11.5928
▁무하마	-11.5928
▁동북아	-11.5928
▁신분증	-11.5928
▁휴먼	-11.5928
▁파라오	-11.5929
▁어디서	-11.5929
▁1983	-11.5929
▁측근들	-11.5929
▁오닐	-11.5929
▁가정집	-11.5929
▁sun	-11.5929
시킴	-11.5929
▁꾸미	-11.593
▁생물체	-11.593
▁환급	-11.593
▁묻혀	-11.5931
▁표범	-11.5931
▁아흐메드	-11.5931
▁인질극	-11.5931
▁난항	-11.5931
▁연합통신	-11.5931
▁같아	-11.5931
▁단언	-11.5932
▁마스크	-11.5932
▁소방차	-11.5932
▁라이더	-11.5932
▁이송됐으	-11.5932
▁리틀	-11.5932
▁푸미	-11.5934
▁샤리아	-11.5934
▁슈퍼대의원	-11.5934
▁가져오	-11.5934
▁도착하자	-11.5934
▁법령	-11.5934
▁드러나	-11.5935
▁카누	-11.5935
▁저격	-11.5935
▁기다렸다	-11.5935
▁미주리주	-11.5935
▁그레이스	-11.5936
▁막았다	-11.5936
▁조사결과	-11.5936
▁사귀	-11.5936
▁걸음	-11.5937
▁개체	-11.5937
▁미시건주	-11.5937
▁비참	-11.5938
▁속출	-11.5938
▁휘트	-11.5938
▁인수위원회	-11.5938
▁국토	-11.5938
▁조율	-11.5939
▁사과문	-11.5939
▁꼬리	-11.5939
▁corp	-11.594
스러워	-11.5941
▁분배	-11.5942
▁수준에	-11.5943
▁만들어졌다	-11.5944
▁각료회의	-11.5945
▁테디	-11.5945
▁루이지애나주	-11.5945
▁표정	-11.5946
▁며칠간	-11.5946
▁생길	-11.5947
▁그런데	-11.5948
▁유타주	-11.5948
▁우주복	-11.5948
▁구두	-11.5948
뒀다	-11.595
▁애리조나주	-11.595
▁넘겼다	-11.595
▁케이스	-11.595
▁매설	-11.5951
▁형량	-11.5953
▁히스	-11.5954
▁금융계	-11.5957
▁치타	-11.5958
▁국가들에	-11.596
바드	-11.5961
▁의약	-11.5962
▁전인대	-11.5963
▁않았기	-11.5963
▁류	-11.5964
▁들어있다	-11.5965
▁들렸다	-11.5965
▁확정된	-11.5966
▁거행	-11.5966
▁친분	-11.5966
▁질병에	-11.5967
▁플로리다에	-11.5967
▁예산안	-11.597
▁날려	-11.5971
▁추종자들	-11.5973
▁반경	-11.5973
▁연관성	-11.5973
▁112	-11.5973
▁입원해	-11.5974
▁통신원	-11.5975
▁회복세	-11.5976
▁손길	-11.5976
▁미얀마에	-11.5977
▁동거	-11.5979
▁이빨	-11.5979
▁책상	-11.598
▁미션	-11.598
▁카카	-11.5981
▁쉴	-11.5982
▁일어	-11.5982
▁동력	-11.5983
▁찔	-11.5984
▁예상한	-11.5985
▁은신	-11.5986
▁루트	-11.5986
▁쉽다	-11.5988
▁수송기	-11.5988
▁금주	-11.599
▁불행한	-11.599
▁카디	-11.5991
▁보잉사	-11.5992
▁태세	-11.5994
▁자랑하	-11.5994
▁퓨	-11.5995
▁띠	-11.5995
▁일년	-11.5996
▁존재하	-11.5997
▁중립	-11.5999
▁나포	-11.5999
▁가담한	-11.6
▁천국	-11.6
▁mon	-11.6001
▁하루만	-11.6001
▁여왕이	-11.6003
▁권했다	-11.6007
▁민족주의	-11.6008
▁끌어내	-11.6009
▁끝나기	-11.6012
▁구속력	-11.6014
▁산책로	-11.6015
▁복도	-11.6016
pt	-11.6017
▁벌인다	-11.6018
▁나노	-11.602
▁대통령으로서	-11.6021
89	-11.6022
▁컬	-11.6028
어지는	-11.603
▁이행할	-11.6035
▁들어주	-11.6037
▁서울시장	-11.6041
▁서울대	-11.6044
▁정서	-11.6045
▁당선됐다	-11.6047
▁국경지역에서	-11.6048
▁제의	-11.6053
▁기념하	-11.6055
▁상징으로	-11.6055
▁버린	-11.6056
▁조심	-11.6058
▁이겼다	-11.6061
▁다닐	-11.6061
하느냐	-11.6063
▁조장	-11.6065
▁지시한	-11.6073
▁확인했	-11.6074
▁혼인	-11.6076
▁시위대에	-11.6076
▁가계	-11.6078
ring	-11.6079
브레	-11.608
▁달했다	-11.6082
▁떠나지	-11.6093
▁법규	-11.6094
▁호전	-11.6094
▁청문회에서	-11.6096
▁얼굴에	-11.6097
▁주시하	-11.6097
▁진압하기	-11.61
▁하위	-11.61
ick	-11.61
▁매춘부	-11.6107
▁남쪽에	-11.6108
▁변수	-11.6109
▁정보원	-11.611
▁고독	-11.6116
▁클레이	-11.6124
▁결혼한	-11.6124
▁이겨	-11.6125
요원들	-11.6127
▁기독교인	-11.6131
시민	-11.6131
▁행복한	-11.6133
▁지지해	-11.6137
부장	-11.6137
▁결정하지	-11.6138
▁느끼지	-11.6138
▁위협받	-11.614
▁충돌해	-11.6142
▁good	-11.6143
▁과거사	-11.6143
▁참여하고	-11.6144
▁위원회에	-11.6145
▁320	-11.6147
▁구속했다	-11.6157
문제에	-11.6157
▁조심스럽	-11.6161
▁거부할	-11.6165
▁번호	-11.617
▁보스	-11.617
루드	-11.6171
▁메가	-11.6175
▁북한측	-11.6176
▁생각했	-11.6177
가렛	-11.6178
즘	-11.6179
▁중위	-11.619
▁목적지	-11.6193
▁시드니에서	-11.6197
▁건물들	-11.6199
▁져야	-11.6203
▁크루	-11.6204
▁증상이	-11.6204
▁살아있	-11.6207
▁월스트리트에서	-11.6208
▁콜로	-11.621
▁주어진	-11.6211
94	-11.6213
▁동물원에서	-11.6215
▁심리적	-11.6219
▁비난해	-11.622
▁때보다	-11.622
▁mu	-11.622
▁원주민들	-11.6222
▁위원회에서	-11.6223
▁들려	-11.6224
▁에바	-11.6227
▁센터에서	-11.6232
▁동원됐다	-11.6235
빨	-11.6235
▁제품이	-11.6239
▁포기한	-11.6247
▁거래되	-11.6251
닐	-11.6257
88	-11.6266
▁사람들에	-11.6266
▁정상회담에	-11.6268
▁부각	-11.627
▁미안	-11.6273
▁회사에서	-11.6277
▁만들어지	-11.6278
head	-11.6286
앞	-11.6286
랩	-11.6287
▁세상에	-11.6289
붙	-11.6289
턱	-11.629
▁후보였	-11.6296
▁관람객	-11.6298
▁보장하	-11.6299
▁자원봉사자들	-11.6302
▁미미	-11.6302
진압	-11.6303
▁권장	-11.6307
배우	-11.6319
군데	-11.6319
▁따르지	-11.632
▁설명하지	-11.6321
▁나이에	-11.6324
▁나사	-11.6328
▁차량과	-11.6328
▁철학	-11.6333
▁마티	-11.6337
▁임무에	-11.6339
▁병장	-11.6341
▁롱	-11.6342
▁소녀들	-11.6343
▁어기	-11.6345
▁제작했다	-11.6345
win	-11.6347
방식	-11.6351
▁업무에	-11.6354
▁아프간군	-11.6356
▁악화된	-11.6357
▁사용된다	-11.6358
▁고속도로에서	-11.6361
아주	-11.6365
▁손실이	-11.637
▁mp	-11.6371
▁cas	-11.6375
▁죽고	-11.6381
▁생겼	-11.6383
▁허용했다	-11.6383
▁촉진시키	-11.6387
▁마드리드에서	-11.6388
▁제국	-11.639
▁모가디슈	-11.6404
▁과정이	-11.6407
려져	-11.6409
바락	-11.6411
▁벌이다	-11.6416
▁위험하다	-11.6421
지역으로	-11.6424
▁다리에	-11.6426
표한다	-11.6427
▁사진기자	-11.6441
▁좋았	-11.6444
▁135	-11.6445
관리국	-11.6445
마트	-11.6446
▁소방서	-11.645
▁조사관	-11.6451
▁훔	-11.6454
텍	-11.6454
▁건의	-11.6454
심리	-11.6455
▁놓인	-11.6461
▁터뜨	-11.6462
▁덧붙였	-11.6464
▁극단주의	-11.6464
uni	-11.6468
▁126	-11.6471
▁바람직	-11.6471
렬	-11.6475
▁롭	-11.6476
▁되자	-11.6477
븐	-11.6478
▁무효	-11.648
▁혐오	-11.648
▁퇴직	-11.648
수단	-11.648
▁해외로	-11.6481
▁살모넬라	-11.6481
▁007	-11.6481
▁black	-11.6481
▁epl	-11.6481
▁nhc	-11.6481
▁report	-11.6481
▁국제올림픽위원회	-11.6481
▁긱스	-11.6481
▁늦추	-11.6481
▁니스텔로이	-11.6481
▁독극물	-11.6481
▁동성결혼	-11.6481
▁라크시미	-11.6481
▁맞교환	-11.6481
▁샌안토니오	-11.6481
▁선거기부금	-11.6481
▁세골렌	-11.6481
▁신천옹	-11.6481
▁아제르바이잔	-11.6481
▁아프카니스탄	-11.6481
▁악천후	-11.6481
▁애슐리	-11.6481
▁옮겼다	-11.6481
▁유엔사무총장	-11.6481
▁이바노비치	-11.6481
▁자르카위	-11.6481
▁제퍼슨	-11.6481
▁지켰다	-11.6481
▁컸다	-11.6481
▁쿠즈넷소바	-11.6481
▁팽팽	-11.6481
▁하드웨어	-11.6481
▁히스패닉	-11.6481
옌	-11.6481
캇	-11.6481
펙	-11.6481
▁russia	-11.6481
▁뉴잉글랜드	-11.6481
▁니제르	-11.6481
▁새크라멘토	-11.6481
▁엑스파일	-11.6481
▁합법화	-11.6481
쯔	-11.6481
▁깁슨	-11.6481
▁나타날	-11.6481
▁불공정	-11.6481
▁추기경	-11.6481
▁깁스	-11.6481
▁루카스	-11.6481
▁센트럴	-11.6481
▁희귀	-11.6481
▁다둘라	-11.6481
▁부드러	-11.6481
▁스프레이	-11.6481
▁승부차기	-11.6481
▁개구리	-11.6481
▁오사카	-11.6481
▁포츠머스	-11.6481
▁about	-11.6481
▁chief	-11.6481
▁욕구	-11.6481
▁징조	-11.6481
▁어쩔	-11.6481
▁즐겁	-11.6481
▁셰퍼드	-11.6481
▁페라로	-11.6482
▁진상조사	-11.6482
▁참혹	-11.6482
▁묵념	-11.6482
▁free	-11.6482
▁교도통신	-11.6482
▁어렸을	-11.6482
ious	-11.6482
▁적혀있	-11.6482
▁게이머	-11.6482
▁down	-11.6482
▁와일드	-11.6482
▁즐겨	-11.6482
▁부모님	-11.6482
▁항구도시	-11.6482
▁make	-11.6482
▁궁금	-11.6482
▁인내심	-11.6482
▁재건축	-11.6483
▁밀매	-11.6483
▁쿠마르	-11.6483
▁군복무	-11.6483
▁핵연료	-11.6483
▁uci	-11.6483
▁쿠폰	-11.6483
▁관례	-11.6483
▁오래전부터	-11.6484
▁형벌	-11.6484
▁곤경에	-11.6484
▁혼잡	-11.6484
▁부유층	-11.6484
▁잠겨	-11.6484
▁액체	-11.6484
▁내보냈	-11.6484
▁관계자와	-11.6485
▁불빛	-11.6485
▁컬럼비아호	-11.6485
▁디젤	-11.6485
▁벌어질	-11.6485
▁빙산	-11.6485
▁찰리	-11.6485
▁실망감	-11.6485
▁그만두	-11.6485
▁오디오	-11.6486
▁루머	-11.6486
▁연봉	-11.6486
▁야외	-11.6488
▁부국장	-11.6488
혁명	-11.6488
▁1945	-11.6488
▁요구사항	-11.6488
▁독자적	-11.6488
▁카타르	-11.6488
▁에밀리	-11.6489
▁지하실	-11.6489
▁무척	-11.6489
▁숨져	-11.6489
▁중동평화회의	-11.6489
▁수익금	-11.649
▁접종	-11.649
▁강철	-11.649
▁의논	-11.649
▁충성	-11.6491
▁경색	-11.6491
▁변호인단	-11.6491
▁꺼내	-11.6491
▁빅토	-11.6492
▁참여했	-11.6492
▁이뤘	-11.6492
▁티모	-11.6492
▁야채	-11.6493
▁모여들었다	-11.6494
▁난처	-11.6494
▁프린	-11.6494
▁자국민	-11.6495
▁기대감	-11.6495
▁변호사와	-11.6496
▁경감	-11.6496
▁진동	-11.6496
▁어류	-11.6496
▁제왕	-11.6496
▁지었다	-11.6497
▁않을까	-11.6498
▁굽	-11.6498
▁아담스	-11.6499
▁표결에	-11.6499
▁카렌	-11.65
▁자동차회사	-11.6501
▁과속	-11.6501
▁로렌스	-11.6501
▁드물	-11.6502
▁상태였	-11.6502
▁가져야	-11.6502
▁과감	-11.6503
▁비스타	-11.6504
▁정복	-11.6504
▁부양	-11.6505
▁기사에	-11.6507
▁양심	-11.6507
▁진척	-11.6508
▁토티	-11.6508
▁로렌	-11.6508
▁살리기	-11.6508
▁감당	-11.6508
▁안았다	-11.6509
▁점유	-11.6509
▁갓	-11.6509
▁참석하는	-11.651
▁망치	-11.6511
▁부의장	-11.6513
▁청와대에서	-11.6513
▁로열	-11.6514
▁자재	-11.6515
▁주관	-11.6516
세대	-11.6517
▁사료	-11.6518
▁알아야	-11.6518
▁4500	-11.6519
ful	-11.652
▁여러차례	-11.652
▁멍	-11.6521
▁부재	-11.6521
▁항공편	-11.6522
프랑	-11.6522
▁준결승전에서	-11.6523
▁사무국장	-11.6524
▁북극해	-11.6525
▁거울	-11.6527
▁구직	-11.653
▁되는데	-11.6531
▁주장했었다	-11.6531
▁사임한	-11.6532
▁돌진	-11.6534
▁옮겨졌다	-11.6535
▁1300	-11.6536
▁운동화	-11.6537
▁인내	-11.6537
▁수사팀	-11.6537
▁분리된	-11.6537
▁이탈리아에서	-11.6539
▁불만이	-11.654
▁변하지	-11.6541
▁그녀에게	-11.6543
▁자질	-11.6543
▁리마	-11.6543
▁확정됐다	-11.6548
▁지냈다	-11.6548
▁레비	-11.6549
▁새우	-11.655
▁군용	-11.6552
▁소원	-11.6553
▁최다	-11.6554
▁석방에	-11.6556
▁티나	-11.6556
▁계획이었다	-11.6559
밀리에	-11.6564
▁우수	-11.6564
▁대위	-11.6564
할지도	-11.6565
▁주말까지	-11.6568
ill	-11.657
▁놓치	-11.6571
▁플로리다에서	-11.6573
호선	-11.6574
▁지질학	-11.6574
▁스트리트	-11.6577
▁클라인	-11.6578
▁트럭에	-11.6581
▁집어	-11.6583
▁공개될	-11.6584
▁한창	-11.6587
▁카라치에서	-11.6589
▁중심부에서	-11.659
▁주행	-11.6591
▁모색하고	-11.6593
▁저하	-11.6593
▁공작	-11.6596
자산	-11.6596
▁음식점	-11.6596
▁삼바	-11.6597
▁축하하기	-11.66
▁육지	-11.6601
▁공약으로	-11.6602
▁나빠	-11.6603
▁충격적	-11.6604
타카	-11.6617
rd	-11.6617
▁조사관들	-11.6621
▁교사들	-11.6625
▁인사들과	-11.6632
▁ko	-11.664
▁생사	-11.6642
▁조상	-11.6645
▁추방된	-11.6651
▁가루	-11.6653
▁센터에	-11.6654
▁인종적	-11.6654
▁통과시키	-11.6658
▁존재하지	-11.666
▁잘라	-11.6661
▁농장에서	-11.6662
코브	-11.6664
▁사라져	-11.6667
원장	-11.6669
▁허가했다	-11.6672
▁다양성	-11.6672
▁생명에	-11.6672
▁주식시장에서	-11.6678
▁신뢰도	-11.668
▁주어지	-11.6682
명이었다	-11.6687
▁생산성	-11.6691
▁도발적	-11.6697
▁몰아내	-11.6697
▁여당이	-11.6698
▁희생됐다	-11.67
▁취하기	-11.6701
▁다녀	-11.6703
▁행정부에	-11.671
▁환경에서	-11.6716
▁성대	-11.6723
▁산업에	-11.6725
▁의거	-11.6726
1974	-11.6727
▁부위에	-11.673
▁뜨	-11.6732
▁수십만	-11.6738
▁베니스	-11.674
▁방문한다	-11.6744
▁구사	-11.6744
▁높이기	-11.6746
▁컴	-11.6748
상자	-11.6752
▁라운드	-11.6753
회장	-11.6753
▁혁신적	-11.6755
▁합류했다	-11.6756
▁전차	-11.6759
▁회사측	-11.6763
▁자백	-11.6765
서야	-11.6772
▁사무실에	-11.6782
▁주최한	-11.6783
cy	-11.6785
▁제공되	-11.6789
주일간	-11.6791
▁실직자	-11.6792
▁통신에	-11.6797
▁191	-11.6799
▁기술자들	-11.6803
▁보니	-11.6806
▁이어져	-11.6806
▁때에	-11.6812
▁흔적이	-11.6813
▁가시	-11.6821
▁파티에	-11.6823
보면	-11.6825
▁죽음이	-11.6825
▁냈	-11.6828
자키	-11.6828
▁북쪽에	-11.6828
▁여론이	-11.6833
▁물자	-11.6834
▁채워	-11.6837
▁환자에게	-11.6841
▁국무장관과	-11.6843
▁사회에서	-11.6846
혁	-11.6848
▁그외	-11.6848
화씨	-11.6849
▁흥분한	-11.685
▁이재민들	-11.6851
▁전화기	-11.6854
▁사원에	-11.6856
밤	-11.686
▁집권한	-11.6862
▁시작된다	-11.6863
53	-11.6864
▁텐	-11.6866
단지	-11.6866
▁결정하는	-11.6868
타스	-11.6868
▁일부에서	-11.6869
▁해결되	-11.687
▁의대	-11.687
엠	-11.6877
▁다할	-11.6878
랭킹	-11.688
검찰	-11.6881
▁별개	-11.6884
▁작동되	-11.6886
업무	-11.6888
▁발견되었	-11.6893
집단	-11.6894
▁학자	-11.6894
신청	-11.6903
▁납부	-11.6903
바오	-11.6906
▁잃어	-11.6912
▁화면에	-11.6913
▁다해	-11.6917
▁발사됐다	-11.6918
▁보라	-11.6919
▁거점	-11.692
▁여명	-11.6921
하드	-11.6921
▁내부에서	-11.6922
시간만	-11.6926
중단	-11.6934
내기	-11.6937
▁다나	-11.694
시절	-11.6942
▁franc	-11.6949
신원	-11.6958
▁많았	-11.6962
▁해변에	-11.6967
▁sw	-11.6969
▁거래에서	-11.6974
▁노출된	-11.6976
▁이슬람교도	-11.6978
▁죽었	-11.6979
▁대항하는	-11.6982
lee	-11.6982
운영	-11.6984
철도	-11.6986
▁임원들	-11.6992
▁상점들	-11.6994
▁변호사들	-11.6995
마크	-11.6997
▁별장	-11.7002
▁기지에	-11.7006
▁금지했다	-11.7007
▁나토군이	-11.7008
▁적었다	-11.7009
▁발표되	-11.7013
▁차량에서	-11.7014
▁절반이	-11.7014
▁분리주의	-11.7017
▁per	-11.7021
▁현대적	-11.7025
que	-11.703
▁다르지	-11.7032
▁소실	-11.7036
▁메디컬	-11.7039
▁패했다	-11.704
보관소	-11.7042
▁시달리	-11.7042
프레드	-11.7044
▁브랜	-11.7058
▁역설	-11.7059
▁year	-11.7062
▁기지에서	-11.7063
day	-11.7064
▁주차장	-11.7064
옹	-11.7066
둬	-11.7066
륜	-11.7067
cent	-11.7069
놔	-11.7069
▁beijing	-11.7069
▁constitution	-11.7069
▁democra	-11.7069
▁eads	-11.7069
▁express	-11.7069
▁isaf	-11.7069
▁iwc	-11.7069
▁london	-11.7069
▁school	-11.7069
▁개성공단	-11.7069
▁경기후퇴	-11.7069
▁고르바초프	-11.7069
▁공상과학	-11.7069
▁구소련	-11.7069
▁금강산	-11.7069
▁남우주연상	-11.7069
▁더글라스	-11.7069
▁듣게	-11.7069
▁멋지	-11.7069
▁메릴린치	-11.7069
▁몰랐다	-11.7069
▁백과사전	-11.7069
▁빈민층	-11.7069
▁샀다	-11.7069
▁상임이사국	-11.7069
▁서둘러	-11.7069
▁스필버그	-11.7069
▁아디다스	-11.7069
▁암스테르담	-11.7069
▁예방접종	-11.7069
▁위태롭게	-11.7069
▁인신매매	-11.7069
▁자페타	-11.7069
▁조류독감	-11.7069
▁좁혀	-11.7069
▁준이치로	-11.7069
▁찍힌	-11.7069
▁칠면조	-11.7069
▁키티호크	-11.7069
▁통합민주당	-11.7069
▁트러스트	-11.7069
▁트리폴리	-11.7069
▁포유류	-11.7069
▁햇빛	-11.7069
▁흩어져	-11.7069
텀	-11.7069
퐁	-11.7069
▁health	-11.7069
▁리우데자네이루	-11.7069
▁볼티모어	-11.7069
▁석유수출	-11.7069
▁식품의약국	-11.7069
▁언젠가	-11.7069
▁영업이익	-11.7069
▁유동성	-11.7069
▁정보통신부	-11.7069
▁정찰위성	-11.7069
▁헤드폰	-11.7069
샨	-11.7069
▁다이어트	-11.7069
▁회교도	-11.7069
▁irna	-11.7069
▁국가정보원	-11.7069
▁에스트라다	-11.7069
▁조선일보	-11.7069
▁타디치	-11.7069
▁산체스	-11.7069
▁노던록	-11.7069
▁하니야	-11.7069
▁흥정	-11.7069
▁스틸러스	-11.7069
▁카펫	-11.707
▁핀란드	-11.707
▁막바지	-11.707
▁놀이공원	-11.707
▁사진작가	-11.707
▁버크헤드	-11.707
▁바시르	-11.707
▁패트로스	-11.707
▁캐롤라인	-11.707
▁경수로	-11.707
▁검정색	-11.707
▁낭독	-11.707
▁북아일랜드	-11.707
▁작가조합	-11.707
▁트랙	-11.707
▁poll	-11.707
▁국영언론	-11.707
▁당뇨병	-11.707
▁도망쳤다	-11.707
▁tax	-11.707
▁고아원	-11.707
▁글로리아	-11.707
▁휴전협정	-11.707
▁클릭	-11.707
▁six	-11.707
▁역전승	-11.707
▁mtv	-11.707
▁kbs	-11.707
▁체험	-11.707
▁기념행사	-11.7071
▁헬렌	-11.7071
▁부활절	-11.7071
▁항의시위	-11.7071
▁잠자리	-11.7071
▁아르빌	-11.7071
▁리옹	-11.7071
▁신흥	-11.7072
▁출처	-11.7072
▁post	-11.7072
▁십자가	-11.7072
▁쏟아져	-11.7072
▁축복	-11.7072
▁737	-11.7072
▁다저스	-11.7072
▁호황	-11.7073
▁어워드	-11.7073
▁조세프	-11.7073
▁크랜	-11.7073
▁tsa	-11.7073
▁무효화	-11.7073
▁들어올	-11.7073
▁쇼에서	-11.7073
▁어윈	-11.7073
▁살인사건	-11.7074
▁chin	-11.7074
▁무장조직	-11.7074
▁forces	-11.7074
▁용감	-11.7074
▁올라왔다	-11.7075
▁연립	-11.7075
▁aids	-11.7075
▁프레이	-11.7075
▁제휴	-11.7076
▁엔론	-11.7076
▁1967	-11.7076
▁머무르	-11.7076
▁이어갔다	-11.7076
▁로리언	-11.7076
▁기네스	-11.7076
▁내륙	-11.7077
▁종목	-11.7077
▁may	-11.7077
▁오리건주	-11.7077
▁피켓	-11.7078
▁바이든	-11.7078
96	-11.7078
▁켄트	-11.7078
▁소년병	-11.7078
학술	-11.7078
▁환경단체	-11.7079
▁최장	-11.7079
▁초래하	-11.7079
▁표본	-11.708
▁통신망	-11.708
▁근방	-11.7081
▁오델	-11.7081
▁2015	-11.7081
▁최적	-11.7082
▁폭도들	-11.7082
▁반란군	-11.7082
uri	-11.7082
▁폴락	-11.7083
▁밝혀질	-11.7083
▁비틀	-11.7083
▁말레이시아에서	-11.7083
▁할렘	-11.7083
▁현저	-11.7084
▁죽어	-11.7084
▁탈선	-11.7084
▁황소	-11.7085
▁작위	-11.7085
▁귀중	-11.7086
▁명절	-11.7086
▁궁극적으로	-11.7087
▁국무회의	-11.7087
▁다름	-11.7087
▁구제금융안	-11.7088
▁지켜봤다	-11.7089
▁관제	-11.7089
▁정해	-11.709
▁소유즈	-11.709
▁악수	-11.7091
▁사립	-11.7091
▁통제권	-11.7093
▁타워	-11.7093
▁휴전선	-11.7094
▁배출량	-11.7094
▁돌파구	-11.7095
▁코란	-11.7095
▁밀크	-11.7096
▁1930	-11.7096
▁벤치	-11.7097
▁반세기	-11.7098
▁참석했	-11.7098
드미	-11.7099
▁인터내셔널	-11.7099
여건	-11.71
▁친미	-11.71
▁소포	-11.71
▁난관	-11.71
▁진술서	-11.7103
▁결선	-11.7103
▁정문	-11.7104
▁물건들	-11.7104
▁재계	-11.7105
▁펜실베니아주	-11.7107
▁되도록	-11.7109
▁신자들	-11.711
▁관용	-11.7111
▁성실	-11.7111
▁문화원	-11.7112
▁당사자	-11.7112
받았	-11.7112
▁보내졌다	-11.7112
▁세울	-11.7112
▁원석	-11.7113
▁자동차업체	-11.7113
▁원형	-11.7113
▁부친	-11.7114
▁어조	-11.7115
▁실업자	-11.7116
▁단계로	-11.7117
▁블루스	-11.7117
▁기자실	-11.7117
▁총력	-11.7118
▁선제	-11.7119
ted	-11.7119
▁찾아야	-11.712
▁live	-11.712
▁화성에	-11.7121
▁소비자들에게	-11.7123
▁거주자	-11.7123
▁봤을	-11.7123
됐음	-11.7126
▁아마드	-11.7126
▁벗어나기	-11.7126
담당자	-11.7126
▁고객들에게	-11.7128
▁내외	-11.7128
▁스티븐스	-11.7129
▁넘쳐	-11.7129
▁불량	-11.7129
행해진	-11.713
▁캐시	-11.7131
▁구조물	-11.7131
▁눈으로	-11.7132
▁leader	-11.7133
▁시급	-11.7133
▁개제	-11.7134
▁마신	-11.7134
▁분개	-11.7135
▁바탕으로	-11.7135
▁노동조합	-11.7136
▁생물학자	-11.7139
▁건물들이	-11.714
▁공동체	-11.7141
▁차이점	-11.7141
▁체스	-11.7142
▁분주	-11.7143
투성이	-11.7144
▁숨어있	-11.7148
▁부탁했다	-11.7148
▁소치	-11.715
▁도보	-11.7152
▁양식	-11.7154
ton	-11.7155
▁에너지부	-11.7155
▁계약서	-11.7157
▁대미	-11.7158
▁107	-11.7161
▁장군이	-11.7166
▁집계됐다	-11.7166
▁전해진	-11.7166
▁반대해	-11.7166
▁330	-11.7167
▁손잡	-11.7168
때로	-11.7169
▁놈	-11.7171
▁급락했다	-11.7171
라프	-11.7173
▁무장세력들	-11.7174
▁건스	-11.7174
사르	-11.7175
▁뒷받침	-11.7175
▁스토	-11.7175
▁내역	-11.7175
▁조니	-11.7176
▁당선이	-11.7176
▁선서	-11.7177
▁태워	-11.7177
▁영화계	-11.7184
▁위력	-11.7185
▁오프	-11.7187
▁미렌	-11.7188
▁맞이했다	-11.7193
▁셈	-11.7195
▁한국계	-11.7201
▁국가적	-11.7201
그램	-11.7202
▁끝이	-11.7206
▁사령부	-11.7207
▁선교	-11.7208
▁수염	-11.7208
▁115	-11.7208
▁자카르타에서	-11.7208
▁갖지	-11.7209
▁승리해야	-11.7211
▁총리실	-11.7216
▁홀리	-11.7218
롤라	-11.722
▁수신	-11.7221
▁통제하는	-11.7224
son	-11.7229
▁보석으로	-11.723
▁해안지역	-11.7231
▁이슬람교도들	-11.7232
▁떠나기	-11.7235
▁공정하	-11.7237
탈루	-11.7239
▁비슷하다	-11.724
▁철회할	-11.7242
▁뷰	-11.7244
▁바꾸기	-11.725
▁이민자	-11.7254
▁흥미로	-11.7258
▁정했다	-11.7258
▁묵인	-11.7259
시안	-11.7262
▁한동안	-11.7262
▁지역구	-11.7266
our	-11.7267
객들	-11.7278
▁깨어	-11.728
▁목장	-11.7285
▁교장	-11.7285
▁중심부에	-11.7287
urge	-11.7287
저스	-11.729
▁정부측	-11.7293
변화	-11.7294
▁않았었다	-11.7295
▁기기	-11.7297
▁도드	-11.7299
▁fr	-11.7302
▁장군과	-11.7307
▁지도부와	-11.7308
ition	-11.7312
▁타계했다	-11.7312
▁장애인	-11.7315
베르트	-11.7319
▁라만	-11.732
▁분쟁에	-11.7321
▁농구	-11.7323
▁파장	-11.7323
▁참석자들	-11.733
▁장착한	-11.7339
나단	-11.7339
▁일으키고	-11.7341
▁예루살렘에서	-11.7342
▁모아이	-11.7342
▁잠들	-11.7342
▁없다면	-11.7343
▁패배한	-11.7344
▁요가	-11.7345
▁하늘에서	-11.7364
▁bp	-11.7365
▁살아있다	-11.7366
▁수니파와	-11.7366
▁누구에게	-11.7366
▁선호하	-11.7368
▁올라와	-11.7372
▁이르다	-11.7376
17	-11.7387
▁주도했다	-11.7387
▁보자	-11.7387
셨	-11.739
▁사라졌	-11.7391
▁당선되	-11.7392
▁웬	-11.7392
▁루시	-11.7393
▁확산되는	-11.7395
▁우주국	-11.7397
▁보이기	-11.7397
▁경매에서	-11.7397
▁통상적	-11.7399
▁초기에	-11.7399
▁제압	-11.74
▁자백했다	-11.7401
▁os	-11.7406
노동자당	-11.7407
▁여러분이	-11.7408
▁취하는	-11.7414
▁임명됐다	-11.7415
▁협력해	-11.7417
금치	-11.7419
▁출연할	-11.7425
▁마련하고	-11.7426
▁인용했다	-11.7426
▁arm	-11.7432
▁브라질에서	-11.7434
늘	-11.7439
▁지원자들	-11.744
▁chi	-11.7441
▁사르	-11.7448
▁여론조사에	-11.7453
일쯤	-11.7454
▁바커	-11.7455
백만명	-11.7463
▁영하	-11.7465
브리지	-11.7465
▁이해하는	-11.7466
▁제한된	-11.7466
정치	-11.7471
▁베니	-11.7471
나갔다	-11.7472
대학교	-11.7475
정지	-11.7475
▁타계	-11.7478
▁실적이	-11.7478
▁부문에	-11.748
▁단계에서	-11.7482
▁감소하고	-11.7485
▁살기	-11.7485
데라	-11.7492
바라크	-11.7495
▁토론회에	-11.7496
꾸	-11.7496
space	-11.7498
눈	-11.75
ism	-11.7502
q	-11.7503
저널	-11.7503
공화국	-11.7504
해냈다	-11.7504
▁유튜브에	-11.7505
잘	-11.7505
평방	-11.7506
득점	-11.7516
965	-11.7517
▁넘었다	-11.7519
▁선보이	-11.752
▁강타했다	-11.7523
조각	-11.7527
▁주최하	-11.7531
▁기여한	-11.7533
자녀	-11.755
아래	-11.7557
▁지불했다	-11.7569
▁inc	-11.7571
▁유가족들	-11.7579
▁정당한	-11.7588
▁관중들	-11.7588
국적	-11.7589
▁알았	-11.7591
32	-11.7591
▁반사	-11.7591
하든	-11.7592
▁케냐에서	-11.7595
▁타마	-11.7595
연금	-11.7598
▁상반	-11.7601
▁추적하	-11.7604
▁않겠	-11.7611
▁변했다	-11.7616
▁팬이	-11.7617
▁아니었	-11.7619
▁결정적	-11.7621
▁태우	-11.7623
▁보았	-11.7626
gue	-11.7626
▁cl	-11.7626
륙	-11.7627
▁생중계	-11.7629
▁유명인사들	-11.7634
▁스타디움	-11.7635
▁라벨	-11.7637
▁급증했다	-11.7638
▁연구실	-11.7639
▁종업원	-11.7642
▁신청했다	-11.7643
효	-11.7645
▁wi	-11.7646
▁우려했다	-11.7648
▁당사자들	-11.765
▁바라지	-11.7655
▁극복하	-11.766
▁거뒀	-11.766
▁실망했다	-11.7663
▁같지	-11.7666
▁빠졌	-11.767
vs	-11.7673
▁조각들	-11.7676
▁계열	-11.7677
▁살해되	-11.7679
ler	-11.768
브리	-11.7684
▁준결승	-11.7684
▁라마	-11.7686
▁면역	-11.7687
▁검문	-11.7688
▁심슨이	-11.7689
▁유학	-11.7692
왓	-11.7693
▁힌두	-11.7694
▁모국	-11.7694
▁수마트라	-11.7694
톡	-11.7694
툰	-11.7694
▁academy	-11.7694
▁defense	-11.7694
▁economic	-11.7694
▁green	-11.7694
▁public	-11.7694
▁support	-11.7694
▁system	-11.7694
▁unhcr	-11.7694
▁건강검진	-11.7694
▁걷기	-11.7694
▁국가평의회	-11.7694
▁기울여야	-11.7694
▁깨달았다	-11.7694
▁뇌졸중	-11.7694
▁리투아니아	-11.7694
▁모레스모	-11.7694
▁미확인	-11.7694
▁민주노동당	-11.7694
▁바나프샤	-11.7694
▁바랐다	-11.7694
▁밸리	-11.7694
▁부총재	-11.7694
▁불균형	-11.7694
▁불러일으켰다	-11.7694
▁블록버스터	-11.7694
▁사이언톨로지	-11.7694
▁시에라리온	-11.7694
▁여중생	-11.7694
▁옥수수	-11.7694
▁옥스포드	-11.7694
▁옵션	-11.7694
▁재결합	-11.7694
▁찍어	-11.7694
▁췌장암	-11.7694
▁츠방기라이	-11.7694
▁타이타닉	-11.7694
▁파키스탄인민당	-11.7694
▁플레이스테이션	-11.7694
▁헐리우드	-11.7694
▁혹등고래	-11.7694
▁홍석현	-11.7694
▁휠체어	-11.7694
뚜	-11.7694
랏	-11.7694
쑤	-11.7694
윅	-11.7694
팡	-11.7694
▁heart	-11.7694
▁power	-11.7694
▁마스터즈	-11.7694
▁매몰된	-11.7694
▁멜버른	-11.7694
▁멤피스	-11.7694
▁볼리비아	-11.7694
▁존엄성	-11.7694
▁카르발라	-11.7694
▁쿼터백	-11.7694
▁퀘벡	-11.7694
▁항공모함	-11.7694
▁glob	-11.7694
▁구속영장	-11.7694
▁대법관	-11.7694
▁배트맨	-11.7694
▁사이언스	-11.7694
▁인수제안	-11.7694
▁트레일러	-11.7694
▁헬만드	-11.7694
▁메이도프	-11.7694
▁전자메일	-11.7694
▁리브니	-11.7694
▁비무장지대	-11.7694
▁사로잡	-11.7694
▁스콜스	-11.7694
▁change	-11.7694
▁냉장고	-11.7694
▁레코드	-11.7694
▁사무차장	-11.7694
▁서두르	-11.7694
▁섭씨	-11.7694
▁원동력	-11.7694
▁중질유	-11.7694
▁대성당	-11.7694
▁버나드	-11.7694
▁장례	-11.7695
▁white	-11.7695
▁따돌렸	-11.7695
▁산악지대	-11.7695
▁불가사의	-11.7695
▁산시성	-11.7695
▁희미	-11.7695
▁엘리엇	-11.7695
▁화학물질	-11.7695
▁슬픈	-11.7695
▁정착촌	-11.7695
▁탈퇴	-11.7695
▁rock	-11.7695
▁압델	-11.7695
▁씨앗	-11.7695
▁출혈	-11.7695
▁벗겨	-11.7695
▁납북	-11.7695
▁철폐	-11.7695
▁watch	-11.7695
▁블랙홀	-11.7695
▁바레인	-11.7695
▁교훈	-11.7696
▁레빈슨	-11.7696
▁주변국들	-11.7696
▁국가안보회의	-11.7696
▁식별	-11.7696
▁sex	-11.7696
▁검역	-11.7696
▁극도로	-11.7696
▁출현	-11.7696
▁볼드윈	-11.7696
▁봉투	-11.7696
▁도서관	-11.7696
▁abn	-11.7696
▁마피아	-11.7697
▁슬림	-11.7697
▁도둑	-11.7697
▁park	-11.7697
▁이루어졌	-11.7697
▁유대교	-11.7697
▁게시물	-11.7697
▁멜론	-11.7697
▁그레그	-11.7697
▁우주여행	-11.7697
water	-11.7697
▁스튜	-11.7697
▁축구선수	-11.7697
▁키팅	-11.7697
▁대리모	-11.7698
▁생애	-11.7698
▁예상됩니다	-11.7698
▁양육	-11.7698
▁계승	-11.7698
▁몰락	-11.7698
▁탄원서	-11.7698
▁평화협정	-11.7698
▁want	-11.7698
▁xp	-11.7699
uck	-11.7699
▁집값	-11.7699
▁나눈	-11.7699
▁케이프	-11.7699
▁공헌	-11.77
▁유독	-11.77
▁장관들	-11.77
▁조롱	-11.77
▁로빈슨	-11.7701
▁범죄행위	-11.7701
▁오웬	-11.7701
▁직무	-11.7701
▁태생	-11.7701
ube	-11.7701
▁프로스트	-11.7701
▁특혜	-11.7701
▁누구인지	-11.7701
▁프린트	-11.7701
▁운용	-11.7701
▁국제축구연맹	-11.7701
▁팻	-11.7702
▁최신작	-11.7702
▁홀더	-11.7702
▁로게	-11.7702
▁관통	-11.7703
▁베일	-11.7703
▁야망	-11.7703
▁지방정부	-11.7703
▁언니	-11.7703
▁코웰	-11.7703
▁레빈	-11.7704
▁이맘	-11.7704
▁법무상	-11.7704
▁지명되기	-11.7704
▁알라위	-11.7704
▁돌렸다	-11.7704
▁상환	-11.7704
▁단편	-11.7704
그너	-11.7705
▁절정	-11.7705
로프트	-11.7705
▁넘긴	-11.7706
▁집결	-11.7706
▁물리학자	-11.7706
▁바꾼	-11.7706
▁누출	-11.7706
▁아델	-11.7706
▁출산율	-11.7708
▁군사정부	-11.7708
▁신랑	-11.7708
▁종사하	-11.7708
▁물러났다	-11.7708
▁전해드	-11.7709
▁강탈	-11.771
▁포탄	-11.771
▁팬더	-11.771
▁주연상	-11.771
▁메인주	-11.771
▁bet	-11.7711
▁놓여있다	-11.7713
▁오찬	-11.7713
▁ces	-11.7713
▁건축물	-11.7714
▁배아줄기세포	-11.7714
▁찾아온	-11.7714
▁비축	-11.7715
▁루터	-11.7715
▁마술	-11.7715
▁동의안	-11.7715
▁king	-11.7715
▁즉석	-11.7717
▁평양에	-11.7718
▁증대	-11.7719
▁경찰국장	-11.7719
▁중단시켰다	-11.772
▁바다위	-11.772
▁유로화	-11.7721
▁던졌	-11.7721
▁개통	-11.7721
▁팀장	-11.7723
▁격전	-11.7723
▁주의보	-11.7725
▁부분적으로	-11.7725
▁경미	-11.7725
▁테크	-11.7726
펠드	-11.7726
▁파란	-11.7726
▁도출	-11.7726
▁유실	-11.7727
▁남북간	-11.7727
▁정찰기	-11.7728
▁우정	-11.7729
▁경찰서로	-11.7731
▁상속	-11.7731
▁해골	-11.7731
▁중단되	-11.7732
▁모방	-11.7732
▁정치인들이	-11.7733
▁궁지에	-11.7733
▁찾아냈다	-11.7733
▁5500	-11.7735
▁리츠	-11.7735
▁파이낸셜	-11.7739
▁킴	-11.7739
dy	-11.774
▁소매업	-11.7741
▁궁전	-11.7741
▁살레	-11.7741
▁기자와	-11.7741
▁청년들	-11.7741
▁시도했으	-11.7742
▁희생된	-11.7743
▁체력	-11.7743
▁있냐	-11.7744
▁위함	-11.7745
▁주범	-11.7745
▁벗기	-11.7745
▁당파	-11.7746
키마	-11.7746
▁유니버	-11.7746
▁자리잡	-11.7747
▁처사	-11.7748
▁말해주	-11.7749
97	-11.7749
▁부패혐의	-11.775
▁주립대학	-11.7751
▁뻔	-11.7752
▁깨진	-11.7752
▁등장한다	-11.7753
▁하나였다	-11.7756
▁순교자	-11.7757
▁국회의장	-11.7758
▁빛나	-11.7758
▁맺어	-11.7761
▁한국어	-11.7762
▁요리사	-11.7762
▁페어	-11.7763
▁돌아보	-11.7763
▁가혹한	-11.7764
▁art	-11.7767
▁지휘자	-11.7768
▁불법적으로	-11.7768
▁합쳐	-11.777
▁키트	-11.7773
▁마카	-11.7773
▁재개했다	-11.7776
▁emi	-11.7776
▁어스	-11.7776
▁연상	-11.7776
▁있었는데	-11.7777
▁섬에서	-11.7779
▁신차	-11.7779
▁설명할	-11.7785
교사	-11.779
▁딱	-11.779
▁캘	-11.779
▁밝혀져	-11.779
▁우리들	-11.7794
▁랜디	-11.7795
▁반대파	-11.7795
▁financ	-11.7795
▁제출된	-11.7797
▁애인	-11.7797
▁유지될	-11.7801
▁말하자	-11.7801
np	-11.7802
▁대구	-11.7804
▁크라	-11.7807
▁사망할	-11.7812
▁타개	-11.7815
▁비판하는	-11.7816
▁가속	-11.7819
▁관점	-11.7819
▁펼쳐지	-11.782
▁늘었다	-11.7823
▁개막식에	-11.7823
▁죽어가	-11.7829
▁코드	-11.783
▁sup	-11.7831
▁놓았	-11.7831
▁테러리스트들이	-11.7831
▁정면	-11.7836
▁지구와	-11.7837
▁향상시키	-11.7839
▁매도	-11.7842
▁흙	-11.7842
ties	-11.7843
천여	-11.7844
받지	-11.785
▁직원들에게	-11.7852
▁애플사	-11.7853
▁의사회	-11.7857
▁감정적	-11.7858
▁사유	-11.7859
be	-11.7863
▁천장	-11.7864
▁라드	-11.7869
▁결승에	-11.7872
▁gra	-11.7876
▁목록에서	-11.7876
▁축구팬	-11.7878
▁초고속	-11.7881
▁덴	-11.7882
mg	-11.7882
▁거래소	-11.7883
▁수출국	-11.7885
▁크리	-11.7886
▁대응하기	-11.7888
브론	-11.7888
▁사망률	-11.7889
▁안면	-11.7897
▁유사하다	-11.79
▁블로거	-11.7901
▁중단해야	-11.7906
▁관람객들	-11.7906
시피	-11.7907
▁노르	-11.7908
had	-11.7908
▁전락	-11.7914
▁남동부에서	-11.7915
▁인부	-11.7917
▁축출된	-11.7919
▁투표했다	-11.7926
▁결정했	-11.7927
▁par	-11.7938
▁올라갔	-11.794
▁정보통	-11.7943
▁후회	-11.7945
▁켜	-11.7946
▁제압하	-11.7946
▁파견한	-11.7947
▁쓰여	-11.7947
▁유지해	-11.7949
▁시작되었	-11.7951
▁왔었다	-11.7951
▁에드로	-11.7957
▁초까지	-11.796
976	-11.7966
▁다량	-11.7969
버렸	-11.7969
▁파라	-11.797
▁특성	-11.7977
▁탐험가	-11.7981
▁전후	-11.7985
▁터지	-11.7988
▁tru	-11.7992
▁적어	-11.8003
▁제시했	-11.8011
▁케인	-11.8012
▁소방대원들	-11.8018
▁회복할	-11.8018
▁추측이	-11.8019
▁베티	-11.8021
키야	-11.8023
▁동요	-11.8026
버거	-11.8035
리프	-11.8036
▁확산됐다	-11.8038
▁아들에게	-11.8039
▁들지	-11.805
▁참석한다	-11.8051
▁아타	-11.806
ain	-11.8066
▁나간다	-11.8068
▁실시하고	-11.8068
▁압박했다	-11.8069
▁대개	-11.8071
키스	-11.8076
▁빛이	-11.8078
▁폐쇄됐다	-11.808
▁어디	-11.8083
▁law	-11.8086
▁엑	-11.8087
▁열정적	-11.8089
▁월드컵에서	-11.8091
▁알려왔	-11.8105
부장관	-11.811
끈	-11.8113
▁안된	-11.8118
▁존재한다	-11.8122
티브	-11.8123
▁회의적	-11.8126
자본	-11.8129
▁삼아	-11.8129
▁반기	-11.8131
▁폐쇄하기	-11.8153
▁관계없	-11.8154
있게	-11.8158
▁지나면	-11.8162
뷰	-11.8166
페이스	-11.8168
프로그램	-11.8168
▁전신	-11.8169
칩	-11.8169
▁만화가	-11.8169
축구	-11.8169
쥐	-11.817
잠	-11.8171
▁대중들	-11.8172
반응	-11.8174
테니스	-11.8174
38	-11.8177
▁주었	-11.8177
퍼트	-11.8179
▁공적	-11.8182
▁딸에게	-11.8188
공연	-11.8189
▁개별	-11.8191
트너	-11.8196
▁회원국이	-11.8198
▁남성에게	-11.8198
재정	-11.8206
▁슬로	-11.8209
레이즈	-11.821
략	-11.8212
▁인도주의	-11.8228
ations	-11.8229
▁관리하는	-11.8242
보라	-11.8256
▁강화하	-11.8256
▁165	-11.8265
▁베드	-11.8266
▁경쟁자들	-11.8271
▁외국인들이	-11.8272
arly	-11.8272
▁카바	-11.8287
▁수감돼	-11.8289
▁저질렀	-11.8291
▁달링	-11.8296
ham	-11.8306
▁공원에	-11.8312
949	-11.8316
▁베트남전	-11.8317
▁걸렸	-11.8317
▁무시했다	-11.832
▁국민과	-11.8322
▁아스	-11.8326
▁104	-11.8327
▁싶었	-11.8328
▁창립	-11.8338
▁마쳤	-11.834
▁알렉산드	-11.8344
▁미시건	-11.8346
랍	-11.8349
▁표하고	-11.8349
▁출동했다	-11.835
아갈	-11.8352
▁김영	-11.8352
▁일축	-11.8352
▁메인	-11.8353
▁시신들	-11.8354
얄	-11.8355
홉	-11.8357
▁마텔	-11.8359
▁콜롬	-11.8359
▁도미니	-11.8359
▁불러일으	-11.836
돋	-11.836
own	-11.8361
궈	-11.8361
▁california	-11.8361
▁claim	-11.8361
▁death	-11.8361
▁food	-11.8361
▁general	-11.8361
▁institute	-11.8361
▁iucn	-11.8361
▁protest	-11.8361
▁travel	-11.8361
▁걸림돌	-11.8361
▁국제영화제	-11.8361
▁군사행동	-11.8361
▁끊겼	-11.8361
▁나미비아	-11.8361
▁나폴리타노	-11.8361
▁남동생	-11.8361
▁남태평양	-11.8361
▁다비덴코	-11.8361
▁댓글	-11.8361
▁디카프리오	-11.8361
▁떠올랐다	-11.8361
▁만토바니	-11.8361
▁무기징역	-11.8361
▁발렌시아	-11.8361
▁블래터	-11.8361
▁비정상적	-11.8361
▁슈퍼마켓	-11.8361
▁신시내티	-11.8361
▁신행정수도	-11.8361
▁아르메니아	-11.8361
▁알츠하이머	-11.8361
▁애틀랜틱	-11.8361
▁어소시에이션	-11.8361
▁유투브	-11.8361
▁잉그리드	-11.8361
▁찾으려	-11.8361
▁출퇴근	-11.8361
▁칼데론	-11.8361
▁키프로스	-11.8361
▁티크리트	-11.8361
▁프랑크푸르트	-11.8361
▁하르툼	-11.8361
▁해밀턴	-11.8361
▁흡입	-11.8361
눕	-11.8361
▁just	-11.8361
▁서유럽	-11.8361
▁스타워즈	-11.8361
▁파딜라	-11.8361
▁패터슨	-11.8361
▁확립	-11.8361
▁1972	-11.8361
▁earth	-11.8361
▁대배심	-11.8361
▁상무부	-11.8361
▁어리석	-11.8361
▁여기저기	-11.8361
▁즐긴다	-11.8361
▁핵폐기	-11.8361
▁fund	-11.8361
▁아메바	-11.8361
▁은하계	-11.8361
▁secretary	-11.8361
▁보너스	-11.8361
▁제레미	-11.8361
▁바이에른	-11.8361
▁dai	-11.8361
▁thre	-11.8361
▁부녀자	-11.8361
▁미생물	-11.8361
▁로드아일랜드	-11.8361
▁좌우	-11.8361
▁강대국	-11.8361
▁무언가	-11.8361
▁국가안보보좌관	-11.8361
▁아스카리	-11.8361
▁수수료	-11.8361
▁전비법안	-11.8361
▁세르게이	-11.8361
▁뛰어넘	-11.8361
▁어쩌	-11.8361
▁말리부	-11.8361
▁자위대	-11.8361
▁알라스카	-11.8361
▁진짜	-11.8362
▁peta	-11.8362
▁이스마일	-11.8362
▁소비에트	-11.8362
▁질병통제	-11.8362
도날드	-11.8362
▁dax	-11.8362
▁마지드	-11.8362
▁얼룩말	-11.8362
▁용도로	-11.8362
▁commission	-11.8362
▁베이징올림픽	-11.8362
▁bill	-11.8362
▁작별	-11.8362
쿼터	-11.8362
▁수감생활	-11.8362
▁낫다	-11.8362
▁under	-11.8362
▁소방당국	-11.8362
▁겨누	-11.8362
▁move	-11.8363
▁차량폭탄	-11.8363
▁슈렉	-11.8363
▁포털	-11.8363
▁십먼	-11.8363
▁북극광	-11.8363
▁숙박	-11.8363
▁스마트	-11.8363
▁부대변인	-11.8363
▁디즈니랜드	-11.8363
▁약물검사	-11.8363
▁날카로	-11.8363
▁총파업	-11.8363
ough	-11.8363
방위	-11.8364
▁놀라움	-11.8364
▁입후보	-11.8364
▁불륜	-11.8364
▁홈경기	-11.8364
▁콜롬보	-11.8364
▁비밀요원	-11.8364
▁머독	-11.8364
▁부정행위	-11.8364
▁플루	-11.8364
▁푸른	-11.8364
▁보험회사	-11.8364
▁필름	-11.8365
▁그래미	-11.8365
▁봉급	-11.8365
▁페드로	-11.8365
▁싸워	-11.8365
▁편견	-11.8365
▁축구스타	-11.8365
▁절망	-11.8365
▁cac	-11.8366
▁교각	-11.8366
▁윈터	-11.8366
▁기관총	-11.8366
▁애견	-11.8366
▁사망원인	-11.8366
▁암살사건	-11.8366
▁합작	-11.8366
▁루시디	-11.8366
층짜리	-11.8366
▁근절	-11.8366
▁청원서	-11.8366
▁보건장관	-11.8367
▁만평	-11.8367
▁벤처	-11.8367
▁해산시키기	-11.8367
▁신기록	-11.8367
▁월급	-11.8367
▁계급	-11.8367
▁출입국	-11.8367
▁폭발사고	-11.8368
▁에베레스트산	-11.8368
▁종말	-11.8368
▁듀크	-11.8368
▁아프리카연합	-11.8368
▁우편물	-11.8368
▁애완용	-11.8368
▁증파	-11.8369
▁헝	-11.8369
▁흠	-11.8369
▁경합	-11.8369
▁하렐	-11.8369
▁빈센트	-11.8369
▁가디언	-11.8369
▁생생	-11.8369
▁1977	-11.8369
▁요한슨	-11.8369
▁절실	-11.8369
▁피난민	-11.8369
▁소도시	-11.837
▁불법행위	-11.837
▁주택시장	-11.837
▁안타깝게	-11.8371
▁착륙했다	-11.8371
▁대피시켰다	-11.8371
▁연합정부	-11.8371
▁설전	-11.8371
▁부시대통령	-11.8371
▁2018	-11.8372
▁청산	-11.8372
▁let	-11.8372
▁투자은행	-11.8372
▁보스톤	-11.8372
▁골절	-11.8373
▁발머	-11.8373
▁org	-11.8373
▁반테러	-11.8374
▁오르지	-11.8374
▁aft	-11.8375
▁설비	-11.8375
▁허브	-11.8376
▁번복	-11.8376
▁480	-11.8376
▁들어설	-11.8377
▁생체	-11.8377
▁생계	-11.8377
▁심리학자	-11.8377
▁결단	-11.8378
▁놀란	-11.8378
▁왕관	-11.8378
ext	-11.8378
해준다	-11.8378
▁버몬트주	-11.8379
▁브라이언트	-11.838
▁왕조	-11.838
▁입건	-11.838
▁음료수	-11.838
▁천체	-11.838
▁메모	-11.8381
▁플래시	-11.8381
▁용납하지	-11.8382
▁커뮤니케이션	-11.8382
▁우표	-11.8382
▁유영	-11.8382
▁매료	-11.8383
▁분노한	-11.8383
▁가장자리	-11.8383
▁공금	-11.8383
▁종교단체	-11.8383
▁속력	-11.8384
▁분단	-11.8385
▁담요	-11.8386
▁시립	-11.8387
▁호스트	-11.8387
▁난방	-11.8387
▁형편	-11.8388
▁거액	-11.8389
▁근본주의자들	-11.8389
▁대사와	-11.8389
였음	-11.839
▁요크	-11.8391
▁로빈	-11.8391
cus	-11.8391
▁부주의	-11.8391
사미	-11.8391
▁토레스	-11.8393
▁왕비	-11.8393
▁토미	-11.8393
▁군사위원회	-11.8393
▁불확실성	-11.8393
▁싶었다	-11.8394
▁용량	-11.8394
▁감사원	-11.8396
▁공석	-11.8397
▁거주민	-11.8397
▁there	-11.8398
▁입안	-11.8398
▁인권문제	-11.8399
09	-11.84
▁지상군	-11.84
스쿨	-11.8401
▁펼쳐진	-11.8401
▁대금	-11.8402
▁신씨	-11.8403
▁스타인	-11.8403
▁실명	-11.8404
▁정치국	-11.8405
먼트	-11.8406
▁2200	-11.8408
만파운드	-11.8408
▁연구소에서	-11.8408
▁소모	-11.8408
▁매직	-11.8408
▁로마에서	-11.8409
▁심각성	-11.8409
▁과오	-11.8409
▁페니	-11.841
▁동부지역	-11.8411
▁당내	-11.8411
▁나오기	-11.8414
블라	-11.8414
▁등장했다	-11.8415
ness	-11.8415
▁보물	-11.8416
▁구매자	-11.8416
▁메르	-11.8417
▁끝내기	-11.8418
▁꺼리	-11.8419
▁거머쥐었	-11.8419
▁박탈당	-11.842
▁골드만	-11.842
▁친부	-11.842
▁설사	-11.842
▁225	-11.8421
▁1100	-11.8422
▁간주되	-11.8422
▁로케	-11.8422
▁엄청나	-11.8423
▁뉴햄프셔주	-11.8424
정규직	-11.8426
▁기울이지	-11.8427
▁서점	-11.8428
▁나누어	-11.8428
▁일기장	-11.8429
▁성범죄자	-11.843
▁간직	-11.8431
▁생각되는	-11.8431
봐야	-11.8431
▁동점	-11.8432
▁소실됐다	-11.8433
▁호건	-11.8434
▁1700	-11.8435
▁요구했었다	-11.8435
분별	-11.8438
▁해역에서	-11.844
▁사업체	-11.8441
▁잠재	-11.8443
▁전반전	-11.8444
▁기미	-11.8444
▁웨스	-11.8447
▁bar	-11.8452
▁장르	-11.8455
▁알바로	-11.8456
▁편리	-11.8456
▁유발할	-11.8457
▁헌법상	-11.8457
ling	-11.8457
▁피랍됐	-11.8458
ama	-11.8461
▁거기에	-11.8462
▁지형	-11.8462
▁제출해야	-11.8464
▁직원인	-11.8465
▁과학기술	-11.8465
▁밝혀졌	-11.8467
az	-11.8471
▁기숙사에서	-11.8473
▁좋아지	-11.8484
▁키니	-11.8486
▁봉인	-11.8491
▁환경적	-11.8495
▁구성원들	-11.8496
▁자진	-11.8497
▁맛봤	-11.8497
▁경시	-11.8498
▁수혈	-11.8498
▁주마	-11.85
공학	-11.85
▁자살했다	-11.8503
▁자비	-11.8503
▁인류학	-11.8504
▁다크	-11.8506
▁출발했다	-11.8507
▁등반	-11.8509
▁나쁘	-11.851
▁장갑	-11.8514
▁받아들이기	-11.8515
▁입소	-11.8516
▁교류	-11.8524
렉스	-11.8524
▁볼트	-11.8524
▁boa	-11.8524
▁명상	-11.8525
▁뒤진	-11.8525
▁버렸	-11.8528
▁크레인	-11.8529
▁가문	-11.8532
투스	-11.8534
▁해당한다	-11.8537
▁우위	-11.8537
대비	-11.8538
▁저서	-11.8538
▁cut	-11.8544
▁고심하	-11.8546
▁pd	-11.8547
▁영국으로부터	-11.8557
▁친구들이	-11.8558
▁선수들에게	-11.8564
환자	-11.8566
▁해결하고	-11.8569
▁신청자	-11.8576
▁조직위	-11.858
▁적용할	-11.8581
▁정세	-11.8584
▁초소	-11.8584
▁건강상	-11.8584
▁145	-11.8584
▁사이트에서	-11.8584
▁싶어하지	-11.8589
▁구리	-11.8596
▁생산되	-11.8602
▁head	-11.8602
▁영국인들	-11.8605
▁활동가들	-11.8606
셰르	-11.8608
▁헤리	-11.8617
▁선출됐다	-11.8619
▁wh	-11.862
con	-11.8623
▁유나이티드와	-11.8624
▁모욕적	-11.8625
▁상대적	-11.8625
▁납세자들	-11.8628
▁대행	-11.8629
▁ira	-11.8633
▁레스토랑에서	-11.8633
▁접어	-11.8645
▁피해자들이	-11.8647
▁지장	-11.8653
light	-11.8656
▁상인들	-11.866
▁촉	-11.8663
▁추산되	-11.8667
▁위헌	-11.867
▁군데	-11.8678
▁act	-11.8682
타그	-11.8689
▁죽인	-11.869
▁언론사	-11.8691
▁end	-11.8693
▁묘사한	-11.8699
명중	-11.8699
▁이때	-11.87
▁이하로	-11.87
▁팔린	-11.871
▁경쟁사	-11.8713
▁빠	-11.8721
net	-11.8722
란드	-11.8723
▁실패로	-11.8727
▁주위에	-11.8727
▁비서	-11.8728
▁way	-11.8729
▁날아가	-11.8729
▁장악했다	-11.873
▁대비하고	-11.8731
▁찌	-11.8743
▁안전성	-11.8743
▁ph	-11.8748
der	-11.875
봤	-11.8751
▁제조업체들	-11.8753
▁550	-11.8755
▁제소	-11.8756
▁발견하고	-11.8758
▁메카	-11.876
▁점령한	-11.8763
▁관장	-11.8765
그리	-11.8767
▁휴대폰으로	-11.8769
▁발전기	-11.877
▁우려된다	-11.8773
물라	-11.8778
부총리	-11.8783
▁끝나면	-11.8784
▁제시하지	-11.8786
무차관	-11.8789
▁치료하는	-11.8793
해주기	-11.8794
▁비난한다	-11.8794
▁표지	-11.8796
▁보리	-11.8797
▁인정한다	-11.8804
▁패트	-11.8804
86	-11.8816
▁시도할	-11.8819
▁사육사들	-11.8823
ki	-11.8833
▁연주자	-11.8834
▁쉽	-11.8835
매장	-11.8836
stra	-11.8842
▁매장에서	-11.8852
▁worker	-11.8852
uit	-11.8862
잡지	-11.8864
▁요인들	-11.8867
혹	-11.8868
▁축구팬들	-11.8869
죽	-11.8873
▁연결된	-11.8874
큐	-11.8875
▁가방에	-11.8875
▁스캔들에	-11.8878
엑	-11.888
폭탄	-11.8883
보험	-11.8884
월드컵	-11.8885
잇	-11.8885
▁막지	-11.8886
▁추진해	-11.8888
▁생물학	-11.8889
▁개최국	-11.8889
▁한국전	-11.889
모델	-11.8894
▁거론되	-11.8895
▁yout	-11.89
▁그러면	-11.8901
▁인도적	-11.8901
소니	-11.8906
ift	-11.8909
워터	-11.8911
쿠르	-11.8915
▁노력해야	-11.8916
ung	-11.8917
▁구사하	-11.8921
▁모기	-11.8933
대결	-11.8937
▁자행한	-11.8951
▁구매자들	-11.8955
eep	-11.8962
행진	-11.8963
▁문명	-11.8965
ray	-11.8965
▁전장에	-11.8969
▁전사자	-11.8969
nsc	-11.8969
▁성교	-11.897
▁나타낸	-11.8977
form	-11.898
▁조장하	-11.898
▁방영되	-11.898
러진	-11.8986
▁top	-11.8987
▁벗어나지	-11.8988
▁미성년	-11.8992
▁경신	-11.8996
▁대피하	-11.9005
▁강조하는	-11.9008
968	-11.9012
▁제출했	-11.9013
▁영구적	-11.9019
▁침대에	-11.9021
▁순례	-11.9022
▁높았	-11.9022
쿨	-11.9025
모건	-11.9026
▁come	-11.9028
ino	-11.9031
자격	-11.9039
▁비싸	-11.904
▁출연했	-11.9047
▁석방되	-11.9052
▁입찰	-11.9052
▁천문학	-11.9058
여채	-11.9058
▁참모총장	-11.9063
▁안타깝	-11.9065
▁터무니	-11.9067
▁중국어	-11.9068
▁right	-11.9069
▁민주당원	-11.907
둑	-11.907
▁cur	-11.9071
▁디스커버리	-11.9072
슐	-11.9072
▁프란시스	-11.9073
슬라브	-11.9073
콕	-11.9074
▁meet	-11.9074
▁오피니언	-11.9075
▁솔로몬	-11.9075
▁christ	-11.9075
▁committee	-11.9075
▁microsoft	-11.9075
▁summit	-11.9075
▁부끄러	-11.9075
긍	-11.9075
륭	-11.9075
팽	-11.9075
▁australia	-11.9075
▁country	-11.9075
▁gdp	-11.9075
▁kkk	-11.9075
▁million	-11.9075
▁program	-11.9075
▁sncf	-11.9075
▁strike	-11.9075
▁고혈압	-11.9075
▁나스랄라	-11.9075
▁뉴욕타임즈	-11.9075
▁다녔다	-11.9075
▁대검찰청	-11.9075
▁대기오염	-11.9075
▁대선예비후보	-11.9075
▁델라웨어	-11.9075
▁독립선언	-11.9075
▁뒷좌석	-11.9075
▁드림라이너	-11.9075
▁래드클리프	-11.9075
▁루고보이	-11.9075
▁루프트한	-11.9075
▁머물렀다	-11.9075
▁먹었다	-11.9075
▁메탄가스	-11.9075
▁모토로라	-11.9075
▁미식축구	-11.9075
▁믿어지	-11.9075
▁바예스테로스	-11.9075
▁발렌타인	-11.9075
▁분리독립	-11.9075
▁비디오테이프	-11.9075
▁사우스다코타	-11.9075
▁세컨드라이프	-11.9075
▁스머프	-11.9075
▁스프린트	-11.9075
▁시니오라	-11.9075
▁시베리아	-11.9075
▁아름답	-11.9075
▁아리조나	-11.9075
▁아쿠아리움	-11.9075
▁알카티리	-11.9075
▁애국전선	-11.9075
▁에메랄드	-11.9075
▁오마이뉴스	-11.9075
▁와코비아	-11.9075
▁울프위츠	-11.9075
▁워싱턴포스트	-11.9075
▁조기총선	-11.9075
▁카메룬	-11.9075
▁카스파로프	-11.9075
▁컨소시엄	-11.9075
▁클랩튼	-11.9075
▁펠릭스	-11.9075
▁폴란스키	-11.9075
▁프랑수아	-11.9075
▁홀로코스트	-11.9075
▁히말라야	-11.9075
프로농구	-11.9075
▁다빈치	-11.9075
▁라말라	-11.9075
▁부동층	-11.9075
▁스릴러	-11.9075
▁스테로이드	-11.9075
▁시트콤	-11.9075
▁에버튼	-11.9075
▁재경부	-11.9075
▁크라이튼	-11.9075
어느때보다	-11.9075
▁공청회	-11.9075
▁카제미	-11.9075
▁크로포드	-11.9075
▁demand	-11.9075
▁omx	-11.9075
▁trans	-11.9075
▁목걸이	-11.9075
▁현기증	-11.9075
▁산티아고	-11.9075
▁엘비스	-11.9075
▁우체국	-11.9075
▁허덕이	-11.9075
▁big	-11.9075
▁알메이다	-11.9075
▁임상실험	-11.9075
▁세비르	-11.9075
▁아세안	-11.9075
▁돌려보내	-11.9075
▁메케인	-11.9075
▁민주변화	-11.9075
▁etc	-11.9075
▁삼성전자	-11.9075
▁떠다니	-11.9075
▁불도저	-11.9075
▁할로윈	-11.9075
▁아침식사	-11.9075
▁공동기자회견에	-11.9076
▁금리인하	-11.9076
▁리프트	-11.9076
▁music	-11.9076
▁디아즈	-11.9076
▁월경작전	-11.9076
▁트레이시	-11.9076
▁듀프레	-11.9076
▁추도식	-11.9076
▁고등학생	-11.9076
▁call	-11.9076
▁니가타	-11.9076
▁메세지	-11.9076
▁cru	-11.9076
▁버핏	-11.9076
▁민주변화운동	-11.9076
▁올림피	-11.9076
▁클리닉	-11.9076
▁탐지기	-11.9076
▁갑작스럽	-11.9076
▁쓰러진	-11.9076
▁가오리	-11.9076
▁엔터프라이즈	-11.9076
▁종합병원	-11.9076
▁paris	-11.9076
▁히잡	-11.9076
▁재가동	-11.9076
▁틸리	-11.9076
▁결론지었다	-11.9076
▁슬램	-11.9076
▁탈옥	-11.9076
▁불상사	-11.9076
▁헐값	-11.9076
▁빠져나갔다	-11.9076
▁김일성	-11.9076
▁some	-11.9076
▁학계	-11.9076
▁출몰	-11.9076
▁다이앤	-11.9076
▁벗어났다	-11.9076
▁천수이	-11.9076
▁rbs	-11.9076
▁어둠	-11.9076
▁홍보담당자	-11.9076
▁트레이드	-11.9076
▁골드버그	-11.9076
▁구급차	-11.9076
▁블랙베리	-11.9076
▁killed	-11.9076
▁쥐스틴	-11.9076
▁바꿨	-11.9077
▁아름다움	-11.9077
▁강제진압	-11.9077
1191	-11.9077
▁용암	-11.9077
▁평의회	-11.9077
▁올라간다	-11.9077
▁건강보험	-11.9077
▁감기약	-11.9077
▁퇴근	-11.9077
▁현명한	-11.9077
▁겸손	-11.9077
▁놀이기구	-11.9077
▁완패	-11.9077
▁미뤄	-11.9077
▁베풀	-11.9077
▁마샬	-11.9077
▁목욕	-11.9077
▁스페이스	-11.9077
▁냉각	-11.9077
▁패션쇼	-11.9077
▁출근	-11.9078
▁별칭	-11.9078
▁비겁	-11.9078
▁유니티	-11.9078
▁갈망하	-11.9078
▁폭염	-11.9078
▁테러리즘	-11.9078
▁피난처	-11.9078
▁분화구	-11.9078
▁우발적	-11.9078
▁남아시아	-11.9078
▁육류	-11.9079
▁달려있다	-11.9079
▁드럼	-11.9079
▁강렬	-11.9079
▁정몽	-11.9079
▁검은색	-11.9079
▁업종	-11.9079
▁사형제도	-11.9079
▁가져온	-11.9079
▁상무위원	-11.908
▁노골적	-11.908
▁완강	-11.908
▁스노우	-11.908
▁숙박비	-11.908
기동대	-11.908
▁입혔다	-11.908
▁베이커	-11.908
▁필사적	-11.908
▁회생	-11.908
▁뉴먼	-11.9081
▁응급실	-11.9081
▁대국민	-11.9081
▁자치권	-11.9081
▁채굴	-11.9081
하듯	-11.9081
▁제국주의	-11.9081
▁유명해졌다	-11.9082
▁잠입	-11.9082
▁성폭행범	-11.9082
▁석권	-11.9082
▁선례	-11.9083
▁tam	-11.9083
▁임시정부	-11.9083
▁터졌다	-11.9083
▁아이콘	-11.9083
▁완구	-11.9084
디언	-11.9084
▁단결	-11.9084
▁화산재	-11.9085
▁wta	-11.9085
▁무례	-11.9085
▁난입	-11.9086
▁상향	-11.9086
▁위독	-11.9086
▁자동차산업	-11.9086
▁스토리	-11.9087
▁자폭	-11.9087
▁교신	-11.9087
▁정치활동	-11.9087
▁매리	-11.9087
▁어두	-11.9088
▁에릭슨	-11.9088
▁변함없	-11.9088
▁로지스	-11.9088
▁열광	-11.9088
▁하향	-11.9088
▁떼어	-11.9088
▁독려	-11.9089
▁보고됐다	-11.909
▁표출	-11.909
▁담았다	-11.909
▁usb	-11.909
▁성취	-11.909
▁청원	-11.909
▁평온	-11.909
▁양빈	-11.909
▁조엘	-11.909
▁주거지	-11.9091
▁감소했	-11.9091
▁변종	-11.9092
▁무레이	-11.9092
▁차장	-11.9092
▁야유	-11.9093
▁감형	-11.9093
▁무력화	-11.9094
토프	-11.9094
▁의향	-11.9094
▁거칠	-11.9094
▁친교	-11.9094
▁벌어	-11.9095
▁상업용	-11.9095
▁간격	-11.9095
식품	-11.9095
▁혼자서	-11.9095
▁응용	-11.9096
▁칼리드	-11.9096
▁견제	-11.9096
▁친지들	-11.9097
▁부합	-11.9098
▁벵	-11.9098
▁은둔	-11.9098
▁아예	-11.9098
▁파탄	-11.9098
▁풀려나	-11.9099
▁역설했다	-11.9099
▁칭하며	-11.9099
▁극단적인	-11.9099
▁월터스	-11.91
▁과연	-11.9101
▁보수주의자들	-11.9101
▁경고문	-11.9101
ncy	-11.9102
ile	-11.9102
▁없어질	-11.9102
▁남자들이	-11.9102
▁매복	-11.9103
▁당부	-11.9103
▁단단	-11.9103
▁증명서	-11.9104
▁상류	-11.9105
▁형법	-11.9105
▁실천	-11.9106
▁재연	-11.9106
▁발판	-11.9107
▁인도양	-11.9107
▁분산	-11.9108
▁실체	-11.9108
▁억지	-11.9109
▁인출	-11.911
▁아쉬	-11.9111
▁달아나	-11.9111
gle	-11.9112
▁맘	-11.9113
▁아래서	-11.9113
▁꾸며	-11.9113
▁모친	-11.9114
툴라	-11.9114
▁오메	-11.9114
▁시에나	-11.9114
▁것인데	-11.9115
▁시작하자	-11.9115
▁산업지수	-11.9116
▁레노	-11.9116
▁환경부	-11.9116
▁만들어낸	-11.9116
▁배신	-11.9117
▁유형	-11.9117
▁2030	-11.9117
▁영국항공	-11.9118
▁공단	-11.9118
▁3200	-11.9118
▁prosecutor	-11.9118
▁위스콘신주	-11.9119
▁계절	-11.912
▁거품	-11.912
▁피력	-11.9122
▁폰다	-11.9123
▁개종	-11.9123
▁타임즈와	-11.9123
▁원정경기에서	-11.9123
▁이윤	-11.9124
▁사본	-11.9124
▁올림픽위원회	-11.9125
▁경계선	-11.9125
▁병원측	-11.9127
▁쥬	-11.9127
▁동화	-11.9127
▁유출된	-11.913
▁푸드	-11.9132
▁도와준	-11.9132
▁추억	-11.9133
▁중학교	-11.9134
▁의장직	-11.9134
▁여론조사에따르면	-11.9135
요리	-11.9135
ction	-11.9137
▁설치했다	-11.9137
▁bur	-11.9137
퍼드	-11.9137
▁국세청장	-11.9138
▁저조	-11.9139
▁제안했	-11.914
▁공급하기	-11.9141
▁속편	-11.9142
리포트	-11.9143
▁3500	-11.9145
광장	-11.9145
▁녹스	-11.9146
▁원내	-11.9146
▁장시간	-11.9146
▁기자단	-11.9148
▁low	-11.9149
▁투표자	-11.9149
mas	-11.915
▁보내야	-11.9154
▁피랍됐다	-11.9155
우트	-11.9155
▁생산업체	-11.9156
▁그렇지만	-11.9158
▁외화	-11.9159
▁분파	-11.916
▁받아들여지	-11.916
▁260	-11.9164
▁최소화	-11.9164
▁속해	-11.9167
▁교리	-11.9167
▁무시한	-11.9169
▁대권	-11.917
▁소비량	-11.9171
▁국가대표팀	-11.9173
▁마우	-11.9174
▁오노	-11.9174
▁106	-11.9174
▁불타	-11.9174
▁정하지	-11.9175
▁모가디슈에서	-11.9176
▁맞서기	-11.9177
술라	-11.9179
▁마시지	-11.9179
▁통과시킨	-11.9179
▁불안해	-11.9182
▁저지대	-11.9183
▁로키	-11.9185
▁들어간다	-11.9186
▁만족할	-11.9189
ana	-11.9192
▁제거하는	-11.9195
▁이루어지지	-11.9195
▁이루기	-11.9196
▁채용	-11.9199
▁거주지역	-11.9201
▁오바	-11.9201
▁확보하기	-11.9202
▁중단하겠다	-11.9203
▁발표되었다	-11.9204
ound	-11.9206
▁두려워하	-11.9208
▁충분하다	-11.9209
▁실시간	-11.9209
▁야스	-11.9214
▁무성	-11.9215
▁프라하	-11.9217
플랜	-11.9224
▁멜로	-11.9224
▁취지	-11.9231
▁세워졌	-11.9232
▁반군들	-11.9234
▁옐로	-11.9235
▁살았다	-11.9235
▁안정성	-11.9236
▁휴회	-11.9236
▁용지	-11.9238
▁안정화	-11.9239
▁낭	-11.9239
▁조언했다	-11.9239
린첨	-11.9243
▁발견하게	-11.9245
▁도하	-11.9246
▁케네	-11.9249
플리	-11.9253
▁유니	-11.9254
우먼	-11.9254
▁신고서	-11.9257
▁기뻐	-11.9259
▁입게	-11.9259
▁주간지	-11.9263
▁모술에서	-11.9266
▁사랑한다	-11.9266
슈아	-11.927
▁페러	-11.9271
▁mid	-11.9273
▁지원국	-11.9276
▁샤리	-11.9276
▁도서	-11.9284
▁일보	-11.9288
▁시차	-11.9289
▁힘들어	-11.9289
▁차트	-11.9293
▁봐야	-11.9295
▁유서	-11.9296
▁작성했다	-11.93
▁공직자	-11.9301
long	-11.9304
▁space	-11.9306
▁스키장	-11.9307
▁전달하는	-11.9307
▁분자	-11.9308
▁보안국	-11.9314
끌어냈다	-11.9321
▁상하이에서	-11.9322
▁sur	-11.9327
▁청장	-11.9332
▁일당	-11.9332
▁철로	-11.9335
▁워싱턴주	-11.9339
웃	-11.934
▁사퇴했다	-11.934
▁프로그램들	-11.9341
▁평화롭	-11.9352
▁개헌안에	-11.9359
▁여자친구와	-11.936
▁연안에서	-11.9361
▁계획안	-11.9366
▁호프	-11.9371
▁알레	-11.9371
▁인권단체들	-11.9373
▁필리	-11.9374
▁표현할	-11.938
▁가파	-11.9381
▁부패와	-11.9383
▁물려	-11.9387
▁추위	-11.9387
▁대표단과	-11.9394
▁재정비	-11.9404
no	-11.9406
▁벤와	-11.9412
▁변기	-11.9413
▁배치되어	-11.9418
젤리	-11.9426
▁fin	-11.9433
▁도슨	-11.9435
▁돌아가기	-11.944
▁적기	-11.9448
▁수세기	-11.9454
▁지상에서	-11.946
▁디지	-11.9461
▁버려	-11.9463
▁부정했다	-11.9482
ago	-11.9483
late	-11.949
83	-11.9494
▁포착했다	-11.9495
uss	-11.9501
▁수행하기	-11.9501
▁봉쇄했다	-11.9506
▁공격했	-11.9506
▁경영자들	-11.9507
했어야	-11.9509
▁노스캐롤라이나에서	-11.9511
보르	-11.9517
제조	-11.953
▁위주	-11.9545
▁환호하	-11.9551
▁쥐들	-11.9561
▁상징인	-11.9565
▁맺었	-11.9566
▁연행했다	-11.9576
▁구입했다	-11.9579
▁약화시키	-11.9588
▁기소장	-11.959
▁체포되	-11.9594
▁무능	-11.96
▁참여하기	-11.9614
▁도발	-11.9618
▁제작됐다	-11.9624
▁전해왔	-11.9625
▁추측되	-11.9631
▁비공식적	-11.9631
었기	-11.964
▁포로로	-11.9642
싸	-11.9645
▁붕괴됐다	-11.9645
▁부족해	-11.9645
▁나와있	-11.9645
▁둔화되	-11.9647
쌍	-11.9649
켄	-11.9651
춤	-11.9651
졸	-11.9651
듀	-11.9652
낙	-11.9653
▁인기있	-11.9653
기상청	-11.9654
빅	-11.9655
▁어부들	-11.9656
미사일	-11.9656
▁제거했다	-11.9662
소득	-11.9666
▁통과되	-11.9669
소송	-11.967
▁당혹	-11.967
▁안전하다	-11.9673
▁배치된	-11.9673
조합	-11.9674
보낼	-11.9674
계약	-11.9674
▁알리지	-11.9675
▁마련하는	-11.9676
▁나쁘지	-11.9676
▁구성했다	-11.9681
다닐	-11.9682
▁전달하기	-11.9685
테오	-11.9686
▁범인들	-11.9686
▁알프레	-11.9696
▁확보하고	-11.9701
▁부과했다	-11.9703
▁게르	-11.9708
수익	-11.9709
불안	-11.971
▁배치했다	-11.9715
랜스	-11.9717
▁사자	-11.9717
▁각료들	-11.9721
집회	-11.9723
orn	-11.9724
▁재기	-11.9733
▁변호사들이	-11.9744
▁서적	-11.9746
▁디나	-11.975
세워	-11.9757
▁후보간	-11.9762
드윈	-11.9768
▁이외에	-11.9771
▁원정	-11.9773
▁청구했다	-11.9783
▁남았	-11.9791
▁준결승전	-11.9798
▁구조했다	-11.9801
▁사무국	-11.9811
gy	-11.9817
▁빠뜨	-11.9818
▁출구	-11.9819
▁드러냈	-11.982
▁떨어뜨	-11.9821
▁타오	-11.9823
▁무차별	-11.9826
▁방해하	-11.9829
▁슈퍼대의원들	-11.9832
ries	-11.9833
▁실시됐	-11.9835
▁곤란	-11.9835
공간	-11.9836
dom	-11.9837
▁원만	-11.9842
▁트래	-11.9844
벳	-11.9844
껴	-11.9844
궐	-11.9844
▁georg	-11.9845
▁alliance	-11.9845
▁business	-11.9845
▁capital	-11.9845
▁church	-11.9845
▁council	-11.9845
▁industr	-11.9845
▁nhk	-11.9845
▁official	-11.9845
▁problem	-11.9845
▁second	-11.9845
▁ucla	-11.9845
▁가깝다	-11.9845
▁나뭇가지	-11.9845
▁네브라스카	-11.9845
▁댕기열	-11.9845
▁데이터베이스	-11.9845
▁레오나르도	-11.9845
▁롤러코스터	-11.9845
▁박스오피스	-11.9845
▁백만장자	-11.9845
▁불공평	-11.9845
▁브래들리	-11.9845
▁사파테로	-11.9845
▁선글라스	-11.9845
▁선덜랜드	-11.9845
▁스펙터	-11.9845
▁스폰서	-11.9845
▁아틀레티코	-11.9845
▁애국심	-11.9845
▁에두아르	-11.9845
▁연방준비은행	-11.9845
▁인수합병	-11.9845
▁족자카르타	-11.9845
▁주일미군	-11.9845
▁차이나데일리	-11.9845
▁천안문	-11.9845
▁최연소	-11.9845
▁츠요시	-11.9845
▁캄푸쉬	-11.9845
▁캐시미르	-11.9845
▁코뿔소	-11.9845
▁콴타스	-11.9845
▁통합러시아당	-11.9845
▁파라마운트	-11.9845
▁파르베즈	-11.9845
▁휘두르	-11.9845
만배럴	-11.9845
퀘	-11.9845
▁return	-11.9845
▁snl	-11.9845
▁광저우	-11.9845
▁노란색	-11.9845
▁무사콸라	-11.9845
▁밀워키	-11.9845
▁보궐선거	-11.9845
▁서포터	-11.9845
▁성폭력	-11.9845
▁심사숙고	-11.9845
▁의사소통	-11.9845
▁인공심장	-11.9845
▁자와히리	-11.9845
▁코펜하겐	-11.9845
▁클래식	-11.9845
▁클리브랜드	-11.9845
▁해수욕장	-11.9845
텔레그래프	-11.9845
▁레예스	-11.9845
▁조연상	-11.9845
간담회에서	-11.9845
▁복부비만	-11.9845
▁클래스	-11.9845
▁트레이너	-11.9845
▁sars	-11.9845
▁나르기스	-11.9845
▁짐바브웨아프리카민족	-11.9845
▁카우치	-11.9845
▁현충일	-11.9845
▁만수르	-11.9845
▁쓰러지	-11.9845
▁안테나	-11.9845
▁끼치지	-11.9845
▁의정서	-11.9845
▁헬멧	-11.9845
▁왓슨	-11.9845
▁욕실	-11.9845
▁친인척	-11.9845
treet	-11.9845
▁오피스	-11.9845
▁구덩이	-11.9845
▁에볼라	-11.9845
▁치뤄	-11.9845
▁그랜트	-11.9845
▁스트립	-11.9845
▁무작위	-11.9845
▁학습	-11.9845
▁붐비는	-11.9845
▁africa	-11.9845
▁서부텍사스산	-11.9845
▁이스트우드	-11.9845
참전용사	-11.9845
▁장래에	-11.9845
▁클라우디	-11.9845
▁구제금융법안	-11.9845
▁발리우드	-11.9845
▁물고문	-11.9845
phone	-11.9845
▁스코어	-11.9845
▁에어컨	-11.9845
▁혈압	-11.9845
▁내보내	-11.9845
▁히트곡	-11.9845
▁선두주자	-11.9845
▁종지부	-11.9845
▁슬럼	-11.9845
▁현존하	-11.9845
▁징수	-11.9845
▁폭죽	-11.9845
▁악몽	-11.9845
▁휘둘	-11.9845
▁깨뜨	-11.9845
▁냉소적	-11.9845
point	-11.9846
▁다이빙	-11.9846
▁곤봉	-11.9846
▁114	-11.9846
▁로하스	-11.9846
▁압축	-11.9846
▁mls	-11.9846
▁open	-11.9846
▁사기꾼	-11.9846
▁적임자	-11.9846
▁soldiers	-11.9846
▁당첨	-11.9846
▁착각	-11.9846
▁혈통	-11.9846
▁세계무역센터	-11.9847
▁차량폭탄테러	-11.9847
▁퇴출	-11.9847
▁심기	-11.9847
▁과격단체	-11.9847
▁권좌	-11.9847
▁동북	-11.9847
▁청취	-11.9847
▁니켈	-11.9847
▁압류	-11.9847
▁night	-11.9847
▁비서관	-11.9847
▁east	-11.9847
▁타깃	-11.9847
▁추락사고	-11.9847
▁바이올	-11.9847
▁음란	-11.9848
▁라마디	-11.9848
▁출품	-11.9848
▁금전적	-11.9848
▁대슐	-11.9848
▁브랜슨	-11.9848
▁ser	-11.9848
▁클로버	-11.9848
▁행해지	-11.9848
▁심각해지	-11.9848
▁girls	-11.9849
▁치욕	-11.9849
▁주모자	-11.9849
▁스몰	-11.9849
▁충실	-11.9849
▁왕립	-11.9849
▁부흥	-11.9849
▁보호구역	-11.9849
▁상여금	-11.9849
첸코	-11.9849
▁관습	-11.9849
▁갑작스러	-11.985
▁신탁	-11.985
▁움직여	-11.985
▁유로스타	-11.985
▁붉은색	-11.985
▁자금지원	-11.985
▁케이티	-11.985
▁환경운동	-11.985
▁특별검사	-11.985
▁결말	-11.985
▁실용적	-11.985
▁관절	-11.9851
▁올리버	-11.9851
▁투명성	-11.9851
▁알래스카주	-11.9851
▁축구협회	-11.9851
▁sola	-11.9851
▁휩쓸려	-11.9851
▁평화회담	-11.9851
▁자궁	-11.9851
▁계란	-11.9852
▁올라있다	-11.9852
▁떠올리	-11.9853
▁hit	-11.9853
▁알렉	-11.9853
▁낙타	-11.9853
▁처방전	-11.9853
▁대선결과	-11.9853
▁피해규모	-11.9854
▁늘려	-11.9854
▁삼판	-11.9854
▁쏘아	-11.9855
▁열악	-11.9855
▁담합	-11.9855
▁솔라나	-11.9855
▁종족	-11.9855
▁채팅	-11.9855
▁영공	-11.9855
▁선거결과	-11.9855
▁jon	-11.9855
▁목재	-11.9856
▁centr	-11.9856
▁검시	-11.9856
▁신랄	-11.9856
▁구슬	-11.9856
▁테너	-11.9856
▁사흘	-11.9856
▁잠복	-11.9857
▁모스크	-11.9857
▁도망치	-11.9857
▁양봉	-11.9858
▁수상작	-11.9858
▁갈색	-11.9858
▁소변	-11.9858
▁과열	-11.9859
▁드물게	-11.9859
▁신변	-11.9859
▁태형	-11.986
▁세르비아계	-11.986
▁오존	-11.9861
▁times	-11.9861
▁공개되	-11.9861
▁od	-11.9862
▁파열	-11.9862
▁온건	-11.9862
프로축구	-11.9862
▁다수당	-11.9863
▁소탕하기	-11.9863
▁쇼핑센터	-11.9863
▁외교위원회	-11.9863
▁적합하지	-11.9863
▁축적	-11.9863
▁진학	-11.9863
▁행보	-11.9864
▁모빌	-11.9864
▁열망	-11.9864
▁코메	-11.9864
▁구입하는	-11.9864
▁집행위원회	-11.9865
▁흉내	-11.9865
▁실험실	-11.9865
▁만두	-11.9867
▁앉아서	-11.9867
▁댄스	-11.9868
▁치유	-11.9868
▁테러사건	-11.9869
▁셸	-11.9869
▁회복되	-11.987
▁도매	-11.987
▁군당국	-11.9871
▁내몰	-11.9871
▁청구서	-11.9871
▁클린트	-11.9871
▁바람직하다	-11.9872
▁합성	-11.9873
▁nations	-11.9873
▁돌발	-11.9874
▁아샤	-11.9875
▁웬디	-11.9875
▁get	-11.9875
▁여신	-11.9875
노브	-11.9875
▁철수시킬	-11.9877
▁지낼	-11.9877
▁원작	-11.9879
▁마리오	-11.988
▁모터스	-11.988
▁검찰청	-11.988
▁실형	-11.9881
▁국교	-11.9881
▁총탄	-11.9881
▁시설물	-11.9881
▁헤비	-11.9882
▁동조	-11.9882
▁그라이브	-11.9882
▁추측된다	-11.9883
▁석방하라	-11.9883
▁건전	-11.9883
▁뒷받침할	-11.9884
▁싸운	-11.9884
▁off	-11.9885
▁명확하지	-11.9885
▁쓰러졌다	-11.9886
▁atp	-11.9887
▁소득세	-11.9888
▁실시하는	-11.9891
▁되어있다	-11.9892
▁피랍자	-11.9893
▁논리	-11.9893
▁소중	-11.9894
▁중단한다	-11.9895
▁미끄러지	-11.9895
▁카라다	-11.9897
▁특권	-11.9897
▁모리스	-11.9898
추어	-11.9899
▁탄력	-11.99
▁메모리얼	-11.9901
▁원더	-11.9902
▁농성	-11.9903
▁가르쳐	-11.9904
▁안경	-11.9905
▁로이드	-11.9906
큐리	-11.9906
▁우선시	-11.9907
▁예일대	-11.9907
▁소방서장	-11.9908
▁화학적	-11.9908
▁기뻐했다	-11.9909
▁훔쳤	-11.991
▁있으면	-11.9911
▁인신	-11.9911
▁호르	-11.9911
▁연비	-11.9912
▁이민국	-11.9913
▁여행객들이	-11.9914
▁2400	-11.9915
▁일생	-11.9917
▁밝혀내지	-11.9917
▁오버	-11.9918
▁함자	-11.992
▁촬영하	-11.992
▁게재했다	-11.9921
▁전망된다	-11.9921
▁찬스	-11.9921
▁기법	-11.9922
▁추측했다	-11.9923
▁강행할	-11.9923
학자들	-11.9925
▁동부지역에서	-11.9929
▁보장받	-11.993
▁우유	-11.9931
증세	-11.9932
▁감독관	-11.9932
▁370	-11.9932
▁기조	-11.9932
만부	-11.9937
ball	-11.9938
▁예측하기	-11.9943
▁부호	-11.9944
▁중부지역	-11.9945
시마	-11.9946
▁후송됐다	-11.9946
▁기본스	-11.9946
▁기여했다	-11.9947
▁주장하면서	-11.9949
▁나타낸다	-11.9952
발사	-11.9952
▁정당성	-11.9953
▁묘사하고	-11.9956
▁풀기	-11.9957
드리스	-11.9957
▁650	-11.9957
▁경신했다	-11.9959
▁거미	-11.9966
▁마디	-11.9966
▁기자였	-11.9968
첼로	-11.997
▁솔로	-11.997
▁잡히	-11.9972
clu	-11.9973
▁저항하	-11.9974
▁방법이라고	-11.9974
▁다투	-11.9975
▁현재로서	-11.9976
▁방대	-11.9976
▁수감됐	-11.9977
▁맥스	-11.9979
▁회기	-11.998
소식	-11.9982
▁일체	-11.9983
극적으로	-11.9986
▁말하면	-11.9988
▁팔기	-11.999
▁제외됐다	-11.999
▁발사해	-11.9991
▁보고타	-11.9992
▁코스타	-11.9992
▁사바	-11.9997
▁스파	-11.9997
▁안치	-11.9998
▁고려해야	-11.9998
▁살펴보	-12.0001
▁넘치	-12.0003
ord	-12.0003
dition	-12.0003
▁뉴욕시장	-12.0012
▁선사	-12.0013
▁연구센터	-12.0016
▁발생했었다	-12.0017
▁확실시되	-12.0019
▁부모에게	-12.0022
▁설명하는	-12.0024
▁공판에서	-12.0026
▁가설	-12.0026
▁이둘	-12.0031
▁통근자들	-12.0032
스트리	-12.0032
▁조야	-12.0036
▁검문소에서	-12.0038
▁성당에서	-12.0038
▁가담했다	-12.004
▁오래전	-12.0041
▁오크	-12.0045
▁가든	-12.0047
▁지불해야	-12.0047
▁마이어	-12.0048
▁지지하지	-12.0052
▁잠정적	-12.0052
▁개별적	-12.0054
▁막사	-12.0054
느린	-12.0055
▁낮다	-12.0056
▁현명하	-12.0056
▁싸우고	-12.0059
▁생산국	-12.0061
▁교대	-12.0061
테드	-12.0062
▁경제학자인	-12.0067
▁보여주었다	-12.0071
▁선생님	-12.0072
▁중독자	-12.0074
▁딸들	-12.0075
▁육박	-12.0075
▁고소했다	-12.0078
▁피살됐다	-12.0078
▁바보	-12.008
▁사죄	-12.0085
포르	-12.0088
▁만들려	-12.0088
▁사람이었다	-12.009
▁경제팀	-12.0097
▁메이어	-12.0099
러드	-12.0099
▁치르기	-12.0099
▁외신	-12.01
스버그	-12.011
▁기관사	-12.012
▁경찰서에서	-12.0122
▁드러	-12.0124
▁이슬람인들	-12.0125
ank	-12.013
tan	-12.013
▁변명	-12.0135
▁사망하기	-12.0139
▁직면하	-12.0141
▁오염된	-12.0143
▁내린다	-12.0143
▁매치	-12.0147
▁연결되	-12.0151
ko	-12.0155
▁파스	-12.0164
▁별명	-12.0171
▁추문에	-12.0173
▁훈련시키	-12.0173
▁후원자	-12.0177
▁허락했다	-12.0181
▁강화해	-12.0182
▁가린	-12.0183
▁마니	-12.0191
▁행성들	-12.0197
통계국	-12.0197
치오	-12.0198
▁학교측	-12.0204
▁인하했다	-12.0205
▁동의하지	-12.0207
804	-12.0217
▁배심원들	-12.022
▁대항해	-12.0224
▁jo	-12.0225
lan	-12.0232
06	-12.0233
▁용이하	-12.0235
▁올리기	-12.0238
▁로비스트	-12.024
▁것일까	-12.0243
▁제방이	-12.0255
▁지정했다	-12.0257
재산권	-12.026
▁도착하기	-12.0263
▁유명해	-12.0271
▁혁신	-12.0275
yo	-12.0276
전문가들	-12.0282
▁탈북자들	-12.0288
▁발효된	-12.03
▁돌려받	-12.0309
라이츠	-12.0312
▁순례객	-12.033
▁인물들	-12.0333
▁일본측	-12.0334
▁set	-12.0339
▁살라	-12.034
▁절대적	-12.0345
▁증명했다	-12.0347
▁베라	-12.0352
▁start	-12.0357
▁돌봐	-12.036
▁자랑스럽	-12.0363
사전	-12.0365
놓는다	-12.0366
무대	-12.0368
ka	-12.0374
▁개발자들	-12.0375
▁순찰차	-12.0376
▁납치하려	-12.0387
▁취하겠다	-12.0387
▁석유회사	-12.0388
▁확정했다	-12.039
▁복귀했다	-12.0398
▁sea	-12.0401
▁이용되	-12.0401
▁연결시키	-12.0406
▁천정	-12.0411
윤	-12.0423
▁답했	-12.0451
▁무장괴한들	-12.0455
▁sl	-12.0466
쉽	-12.0469
르모	-12.0469
▁조합원들	-12.0474
▁기장	-12.0475
봐	-12.0479
낭	-12.048
▁잠정	-12.0482
흙	-12.0482
▁스캔	-12.0482
아버지	-12.0483
따	-12.0483
사령부	-12.0483
캔	-12.0484
헬	-12.0486
덜	-12.0486
딸	-12.0487
끝	-12.0488
오바마	-12.0489
리서치	-12.0491
해발	-12.0492
▁장갑차	-12.0497
쉽게	-12.0499
교류	-12.05
나이트	-12.0501
▁sen	-12.0501
등록	-12.0501
▁옐	-12.0502
평화	-12.0503
장애	-12.0505
▁도착한다	-12.0506
예산	-12.0506
성향	-12.051
▁발사했	-12.0517
파업	-12.0518
출신	-12.0519
방문	-12.0528
▁옹호하	-12.0529
대변인	-12.0538
효과	-12.0543
▁수행한다	-12.0544
▁del	-12.0545
▁트랜	-12.0546
▁보행	-12.0547
▁청중들	-12.0547
하락	-12.0553
▁안토니	-12.0554
기남	-12.0564
den	-12.0564
▁물었	-12.0564
워졌다	-12.0565
▁277	-12.0566
ning	-12.0569
스토어	-12.0578
▁진행됐	-12.0583
▁간호사들	-12.0587
▁상징하	-12.0592
▁반대자들	-12.0597
▁필수적	-12.0601
▁장려하	-12.0602
▁옮겨졌	-12.0604
▁끝났	-12.0611
명령	-12.0613
▁결정됐다	-12.0618
었었다	-12.0619
▁대부	-12.0625
▁129	-12.0627
▁추종	-12.0629
쳐야	-12.0635
카노	-12.064
▁윌리암	-12.0641
▁어려웠	-12.0644
▁기쁘	-12.0645
▁개발도상국들	-12.0645
▁질문들	-12.0648
▁성공하지	-12.065
▁취급하	-12.0651
▁악화시키	-12.0664
오브	-12.0665
클라라	-12.0667
gen	-12.0668
▁동의하	-12.0671
봇	-12.0673
▁뭉	-12.0673
▁노렸	-12.0674
▁붙어	-12.0675
▁증권거래	-12.0675
신형	-12.0675
늄	-12.0676
뇨	-12.0676
뜯	-12.0677
섹	-12.0677
▁동물보호	-12.0678
▁비무장	-12.0678
엉	-12.0678
wood	-12.0678
▁뇌종양	-12.0678
▁대북제재	-12.0678
▁보디가드	-12.0678
▁뿌려	-12.0678
▁쌓아	-12.0678
▁앓았	-12.0678
▁콜럼버스	-12.0678
▁콜럼비아	-12.0678
츄	-12.0678
▁drm	-12.0678
▁foundation	-12.0678
▁kcna	-12.0678
[...]
